<unk>	0
<s>	0
</s>	0
in	-0
▁t	-1
▁a	-2
on	-3
ti	-4
er	-5
es	-6
en	-7
▁th	-8
al	-9
▁s	-10
or	-11
▁p	-12
▁c	-13
nd	-14
▁o	-15
ro	-16
tion	-17
▁the	-18
at	-19
ing	-20
re	-21
▁m	-22
is	-23
▁f	-24
ic	-25
an	-26
▁in	-27
ar	-28
ed	-29
▁and	-30
▁w	-31
▁of	-32
▁d	-33
ec	-34
▁b	-35
el	-36
it	-37
▁to	-38
ation	-39
ent	-40
il	-41
ol	-42
om	-43
st	-44
et	-45
▁pro	-46
▁e	-47
im	-48
le	-49
ac	-50
as	-51
▁h	-52
ur	-53
▁n	-54
ul	-55
ect	-56
▁T	-57
▁g	-58
tic	-59
▁re	-60
▁u	-61
▁for	-62
od	-63
em	-64
▁l	-65
▁st	-66
id	-67
uc	-68
ill	-69
ig	-70
ve	-71
ly	-72
res	-73
ter	-74
ra	-75
os	-76
▁Th	-77
▁will	-78
▁is	-79
ab	-80
▁con	-81
ut	-82
ow	-83
ver	-84
op	-85
▁be	-86
▁ex	-87
ot	-88
ch	-89
ce	-90
ith	-91
qu	-92
ate	-93
ity	-94
▁com	-95
am	-96
pl	-97
og	-98
us	-99
▁on	-100
▁de	-101
if	-102
ir	-103
ical	-104
▁with	-105
per	-106
▁(	-107
vel	-108
▁as	-109
ge	-110
▁an	-111
ri	-112
ant	-113
▁en	-114
▁S	-115
ell	-116
▁A	-117
um	-118
▁res	-119
▁The	-120
th	-121
▁ch	-122
▁v	-123
ject	-124
ion	-125
ial	-126
un	-127
ations	-128
and	-129
▁are	-130
ess	-131
▁I	-132
ure	-133
▁project	-134
ment	-135
▁that	-136
▁mod	-137
▁im	-138
ud	-139
▁sp	-140
ys	-141
▁M	-142
▁ne	-143
▁al	-144
▁us	-145
▁C	-146
ear	-147
iz	-148
▁comp	-149
▁wh	-150
▁by	-151
igh	-152
▁met	-153
olog	-154
ran	-155
tive	-156
tions	-157
ies	-158
yst	-159
ff	-160
oc	-161
ag	-162
ech	-163
rom	-164
ens	-165
ain	-166
ater	-167
ap	-168
▁this	-169
ad	-170
▁P	-171
uct	-172
▁ap	-173
te	-174
▁k	-175
for	-176
ist	-177
▁ph	-178
▁at	-179
▁we	-180
velop	-181
▁gen	-182
yn	-183
▁inter	-184
nder	-185
▁ad	-186
ine	-187
ystem	-188
▁ac	-189
ics	-190
▁develop	-191
ated	-192
able	-193
▁E	-194
pro	-195
▁or	-196
ph	-197
ning	-198
ers	-199
ts	-200
▁str	-201
▁W	-202
▁under	-203
▁D	-204
▁su	-205
und	-206
▁model	-207
▁H	-208
enti	-209
▁bi	-210
▁el	-211
ign	-212
form	-213
all	-214
rans	-215
▁from	-216
▁stud	-217
por	-218
▁pl	-219
ence	-220
ms	-221
est	-222
aterial	-223
cess	-224
▁qu	-225
tical	-226
ore	-227
▁F	-228
di	-229
fer	-230
ties	-231
ere	-232
▁par	-233
pos	-234
▁le	-235
▁can	-236
▁cl	-237
ous	-238
ach	-239
▁In	-240
duc	-241
▁cont	-242
ular	-243
ance	-244
▁meth	-245
ution	-246
▁B	-247
▁eff	-248
▁system	-249
ay	-250
▁trans	-251
act	-252
ory	-253
ak	-254
▁method	-255
▁av	-256
▁un	-257
▁This	-258
▁N	-259
ich	-260
ble	-261
ide	-262
▁new	-263
ese	-264
ents	-265
▁material	-266
ave	-267
▁ev	-268
ork	-269
▁high	-270
ron	-271
▁pre	-272
earch	-273
tiv	-274
tim	-275
port	-276
▁co	-277
▁dat	-278
ary	-279
ug	-280
▁R	-281
stand	-282
▁sc	-283
▁int	-284
ased	-285
vers	-286
ors	-287
▁it	-288
ility	-289
▁dis	-290
ass	-291
ress	-292
▁se	-293
ry	-294
▁L	-295
plic	-296
olution	-297
ör	-298
unc	-299
erg	-300
▁aim	-301
▁O	-302
▁inc	-303
uch	-304
▁We	-305
echn	-306
etw	-307
▁struct	-308
ific	-309
▁which	-310
▁process	-311
▁research	-312
▁elect	-313
ology	-314
icro	-315
ynam	-316
▁data	-317
sc	-318
echan	-319
ves	-320
▁understand	-321
▁G	-322
▁dif	-323
▁op	-324
erm	-325
ase	-326
ost	-327
▁anal	-328
▁cell	-329
▁di	-330
▁have	-331
▁techn	-332
▁des	-333
▁sh	-334
▁ro	-335
▁r	-336
ating	-337
▁their	-338
▁these	-339
ast	-340
ati	-341
low	-342
our	-343
etic	-344
tional	-345
▁exper	-346
ari	-347
ental	-348
ace	-349
iqu	-350
▁how	-351
enc	-352
▁mechan	-353
agn	-354
ath	-355
ization	-356
▁no	-357
ures	-358
ds	-359
▁such	-360
▁micro	-361
▁func	-362
anc	-363
▁och	-364
▁spec	-365
str	-366
▁methods	-367
yp	-368
ugh	-369
▁det	-370
▁för	-371
ering	-372
▁rec	-373
ik	-374
ric	-375
▁materials	-376
ative	-377
▁per	-378
ep	-379
ym	-380
ential	-381
▁gener	-382
lo	-383
acter	-384
oth	-385
rib	-386
▁fi	-387
ust	-388
▁models	-389
av	-390
ip	-391
tein	-392
▁applic	-393
▁using	-394
now	-395
ulti	-396
ong	-397
▁reg	-398
▁study	-399
lex	-400
▁gro	-401
▁U	-402
▁appro	-403
ond	-404
▁use	-405
▁differ	-406
tig	-407
olec	-408
▁chan	-409
ved	-410
ural	-411
ack	-412
ome	-413
ates	-414
▁sol	-415
▁dynam	-416
▁ob	-417
▁form	-418
▁proper	-419
ability	-420
ological	-421
se	-422
gan	-423
▁prov	-424
▁systems	-425
▁sim	-426
▁our	-427
ue	-428
▁has	-429
rol	-430
▁em	-431
iron	-432
▁i	-433
of	-434
▁understanding	-435
age	-436
▁ab	-437
ici	-438
ergy	-439
end	-440
▁ass	-441
▁propos	-442
▁experim	-443
▁analys	-444
▁ext	-445
▁ra	-446
so	-447
▁y	-448
▁rel	-449
▁man	-450
▁tim	-451
emical	-452
▁properties	-453
ult	-454
▁pol	-455
up	-456
ational	-457
▁imp	-458
ulation	-459
ind	-460
viron	-461
vironment	-462
atter	-463
isk	-464
ual	-465
▁interac	-466
▁mechanis	-467
ek	-468
▁approach	-469
ound	-470
ther	-471
Th	-472
▁comb	-473
▁novel	-474
▁also	-475
lu	-476
ew	-477
ale	-478
ight	-479
▁protein	-480
vestig	-481
▁phys	-482
rough	-483
ive	-484
▁vari	-485
antum	-486
ects	-487
les	-488
▁sign	-489
▁multi	-490
are	-491
arge	-492
led	-493
▁design	-494
▁sur	-495
sk	-496
entif	-497
imate	-498
ia	-499
ib	-500
ions	-501
▁environment	-502
▁car	-503
▁molec	-504
▁theory	-505
iv	-506
gen	-507
iss	-508
▁know	-509
ram	-510
▁development	-511
▁col	-512
▁investig	-513
▁expl	-514
mun	-515
▁partic	-516
een	-517
▁ar	-518
ition	-519
etween	-520
▁2	-521
tics	-522
ges	-523
▁between	-524
▁adv	-525
rain	-526
▁nan	-527
ities	-528
ely	-529
ish	-530
▁me	-531
pt	-532
▁into	-533
▁energy	-534
ting	-535
ize	-536
ail	-537
▁lear	-538
▁fiel	-539
ied	-540
dic	-541
▁evolution	-542
uring	-543
▁complex	-544
▁import	-545
▁ec	-546
ite	-547
▁different	-548
▁pot	-549
▁time	-550
▁control	-551
▁cons	-552
ection	-553
ree	-554
▁inf	-555
ogen	-556
ov	-557
lud	-558
▁sub	-559
arg	-560
rec	-561
▁used	-562
▁non	-563
▁syn	-564
til	-565
oss	-566
ever	-567
urr	-568
▁organ	-569
▁exp	-570
▁processes	-571
▁learning	-572
▁over	-573
ulations	-574
▁but	-575
teg	-576
omet	-577
▁quantum	-578
▁med	-579
NA	-580
raph	-581
▁ins	-582
▁well	-583
▁magn	-584
ized	-585
▁proble	-586
▁hy	-587
▁go	-588
ard	-589
▁potential	-590
tain	-591
▁analysis	-592
▁climate	-593
▁includ	-594
als	-595
▁acc	-596
uman	-597
▁aims	-598
▁structure	-599
ons	-600
▁not	-601
based	-602
aracter	-603
ature	-604
ling	-605
ven	-606
▁combin	-607
▁dynamics	-608
formation	-609
tivity	-610
▁comput	-611
▁produc	-612
▁techniqu	-613
).	-614
▁out	-615
▁effici	-616
esis	-617
▁he	-618
▁applications	-619
▁through	-620
▁St	-621
The	-622
out	-623
ently	-624
▁dec	-625
▁more	-626
▁id	-627
▁work	-628
allen	-629
▁impro	-630
her	-631
▁provide	-632
atal	-633
scop	-634
▁character	-635
▁pr	-636
▁How	-637
very	-638
▁been	-639
▁cr	-640
tegr	-641
▁tool	-642
▁challen	-643
▁based	-644
▁tw	-645
▁perform	-646
▁am	-647
▁fund	-648
▁resp	-649
xt	-650
▁mechanisms	-651
▁identif	-652
▁electron	-653
▁molecular	-654
etwork	-655
ases	-656
tif	-657
▁its	-658
▁ge	-659
▁1	-660
▁predic	-661
▁3	-662
ected	-663
ie	-664
ets	-665
ple	-666
▁optim	-667
ults	-668
ective	-669
▁human	-670
ey	-671
amental	-672
▁beh	-673
ild	-674
erv	-675
ros	-676
▁year	-677
ire	-678
▁large	-679
cer	-680
▁both	-681
▁coll	-682
ants	-683
▁K	-684
▁phot	-685
▁important	-686
rop	-687
face	-688
▁sens	-689
ement	-690
atic	-691
▁spect	-692
är	-693
▁sel	-694
ark	-695
▁field	-696
▁add	-697
),	-698
ible	-699
ally	-700
▁fundamental	-701
och	-702
ocus	-703
emb	-704
ise	-705
ten	-706
▁two	-707
▁results	-708
de	-709
ledge	-710
bi	-711
▁num	-712
co	-713
▁where	-714
▁studies	-715
▁real	-716
▁condi	-717
▁incre	-718
reat	-719
▁dist	-720
▁inv	-721
▁integr	-722
▁focus	-723
▁meas	-724
ade	-725
▁cor	-726
ivers	-727
br	-728
avi	-729
ateg	-730
▁techniques	-731
▁cap	-732
ency	-733
par	-734
▁knowledge	-735
der	-736
▁chemical	-737
▁interactions	-738
▁network	-739
irst	-740
aging	-741
▁other	-742
imit	-743
resent	-744
bon	-745
▁sam	-746
▁However	-747
▁V	-748
▁main	-749
▁curr	-750
▁Ph	-751
▁ag	-752
▁advanc	-753
▁dev	-754
▁effects	-755
▁there	-756
▁tra	-757
▁́	-758
ood	-759
ose	-760
yc	-761
ox	-762
▁adap	-763
ake	-764
omp	-765
▁species	-766
uld	-767
osph	-768
oci	-769
ically	-770
▁functional	-771
▁conditions	-772
▁limit	-773
▁rem	-774
▁synth	-775
▁address	-776
ower	-777
▁path	-778
yl	-779
▁modell	-780
▁electro	-781
art	-782
ile	-783
aus	-784
sp	-785
▁-	-786
▁commun	-787
▁experimental	-788
▁need	-789
ice	-790
▁tem	-791
▁key	-792
ator	-793
▁one	-794
▁investigate	-795
eter	-796
int	-797
▁years	-798
▁behavi	-799
▁cells	-800
abor	-801
▁information	-802
▁long	-803
▁plas	-804
▁tr	-805
▁change	-806
▁An	-807
achine	-808
▁during	-809
ci	-810
▁typ	-811
▁water	-812
scopy	-813
ub	-814
ful	-815
▁To	-816
arm	-817
▁first	-818
▁grow	-819
▁ox	-820
lement	-821
ision	-822
▁plan	-823
▁rep	-824
▁signific	-825
dro	-826
▁physics	-827
▁reac	-828
▁so	-829
▁lead	-830
▁sci	-831
▁role	-832
ribut	-833
ral	-834
▁att	-835
ids	-836
ks	-837
lob	-838
▁up	-839
▁most	-840
▁fram	-841
▁flow	-842
▁tools	-843
lin	-844
emist	-845
alu	-846
aces	-847
ving	-848
▁dise	-849
ene	-850
▁group	-851
uk	-852
▁test	-853
ob	-854
▁allow	-855
osystem	-856
ments	-857
omic	-858
ber	-859
▁measure	-860
imens	-861
▁prog	-862
▁super	-863
▁sm	-864
▁impact	-865
ucle	-866
emistry	-867
uture	-868
▁all	-869
lish	-870
cept	-871
▁requ	-872
▁state	-873
ices	-874
ality	-875
▁flu	-876
scale	-877
▁obs	-878
▁aff	-879
▁function	-880
▁fe	-881
ays	-882
ross	-883
ism	-884
ication	-885
▁phen	-886
rect	-887
▁class	-888
▁formation	-889
▁geomet	-890
ption	-891
elect	-892
▁Our	-893
▁including	-894
urb	-895
▁significant	-896
▁light	-897
ang	-898
▁sup	-899
gor	-900
▁structures	-901
ord	-902
struct	-903
its	-904
ides	-905
▁biom	-906
▁many	-907
▁developed	-908
ray	-909
▁determ	-910
▁future	-911
▁loc	-912
ian	-913
▁equ	-914
▁changes	-915
▁they	-916
▁surface	-917
▁carbon	-918
▁targ	-919
▁poss	-920
rel	-921
▁Sp	-922
▁quan	-923
▁glob	-924
▁ques	-925
▁oper	-926
▁strateg	-927
one	-928
▁Pro	-929
▁reduc	-930
▁lin	-931
▁therm	-932
▁identify	-933
▁pop	-934
ences	-935
ework	-936
▁bu	-937
oretical	-938
ification	-939
iska	-940
▁problems	-941
▁aut	-942
orph	-943
ablish	-944
▁es	-945
▁modelling	-946
abol	-947
duct	-948
istic	-949
▁within	-950
utions	-951
▁do	-952
▁sever	-953
▁general	-954
ators	-955
▁sing	-956
▁genetic	-957
▁pur	-958
ages	-959
gine	-960
ier	-961
ax	-962
▁En	-963
▁po	-964
aser	-965
▁experiments	-966
abil	-967
▁proposed	-968
▁rele	-969
atical	-970
▁goal	-971
▁level	-972
▁AI	-973
▁proteins	-974
▁catal	-975
▁framework	-976
▁rob	-977
▁enh	-978
▁low	-979
reen	-980
gorith	-981
establish	-982
▁Q	-983
ings	-984
omes	-985
▁Ar	-986
▁fact	-987
▁temper	-988
▁sust	-989
atory	-990
ike	-991
met	-992
▁These	-993
▁efficient	-994
00	-995
▁sustain	-996
▁environmental	-997
▁cre	-998
ns	-999
▁due	-1000
tit	-1001
imension	-1002
▁interaction	-1003
ans	-1004
▁theoretical	-1005
▁dem	-1006
▁magnetic	-1007
ife	-1008
▁fl	-1009
ape	-1010
mon	-1011
▁ind	-1012
▁plant	-1013
▁particular	-1014
tisk	-1015
▁exist	-1016
▁def	-1017
▁structural	-1018
▁hydro	-1019
oph	-1020
▁machine	-1021
athem	-1022
ces	-1023
omics	-1024
▁ecosystem	-1025
ness	-1026
▁performance	-1027
▁dri	-1028
▁prom	-1029
▁imaging	-1030
▁computational	-1031
▁simulations	-1032
chie	-1033
▁algorith	-1034
▁compos	-1035
▁current	-1036
cri	-1037
▁mo	-1038
▁specific	-1039
▁establish	-1040
ont	-1041
rac	-1042
▁invol	-1043
▁global	-1044
▁divers	-1045
▁only	-1046
iti	-1047
▁achie	-1048
ologies	-1049
▁ran	-1050
▁j	-1051
ging	-1052
▁about	-1053
▁production	-1054
▁analy	-1055
rem	-1056
iversity	-1057
alth	-1058
▁Un	-1059
▁vir	-1060
ld	-1061
▁set	-1062
rin	-1063
els	-1064
▁may	-1065
onstr	-1066
▁X	-1067
▁mass	-1068
▁power	-1069
▁assess	-1070
▁sec	-1071
▁uniqu	-1072
▁than	-1073
ort	-1074
▁technology	-1075
oft	-1076
▁prec	-1077
ety	-1078
▁transport	-1079
▁Al	-1080
ules	-1081
▁diff	-1082
vant	-1083
aking	-1084
ether	-1085
▁adapt	-1086
▁sequ	-1087
otic	-1088
ains	-1089
vely	-1090
▁It	-1091
the	-1092
ious	-1093
ma	-1094
▁nucle	-1095
▁growth	-1096
▁phase	-1097
▁synthesis	-1098
▁very	-1099
▁ion	-1100
ples	-1101
▁sour	-1102
▁devices	-1103
▁problem	-1104
▁prev	-1105
atural	-1106
ritical	-1107
▁́s	-1108
▁engine	-1109
vid	-1110
pose	-1111
▁Mod	-1112
▁mathem	-1113
▁For	-1114
▁val	-1115
ights	-1116
▁improve	-1117
ider	-1118
ty	-1119
zym	-1120
▁three	-1121
ites	-1122
▁show	-1123
ium	-1124
inary	-1125
▁scal	-1126
▁spati	-1127
izing	-1128
ograph	-1129
▁dr	-1130
ex	-1131
▁bec	-1132
astic	-1133
▁dom	-1134
▁top	-1135
ware	-1136
ission	-1137
▁bacter	-1138
oring	-1139
▁;	-1140
ements	-1141
tt	-1142
▁space	-1143
▁–	-1144
▁when	-1145
▁single	-1146
▁critical	-1147
ars	-1148
▁By	-1149
raf	-1150
upl	-1151
▁mi	-1152
▁param	-1153
▁advanced	-1154
irc	-1155
▁polym	-1156
▁metabol	-1157
▁app	-1158
urther	-1159
▁unique	-1160
▁accur	-1161
▁contribut	-1162
▁Ch	-1163
▁several	-1164
▁metal	-1165
▁min	-1166
▁deep	-1167
▁dep	-1168
▁ear	-1169
▁across	-1170
▁explore	-1171
▁util	-1172
▁health	-1173
▁prot	-1174
▁evalu	-1175
▁represent	-1176
ne	-1177
ital	-1178
omen	-1179
ould	-1180
faces	-1181
▁four	-1182
▁collabor	-1183
▁Ex	-1184
atis	-1185
eng	-1186
ising	-1187
▁radi	-1188
jor	-1189
▁mon	-1190
▁inn	-1191
▁Bi	-1192
▁challenges	-1193
▁bl	-1194
atures	-1195
▁alge	-1196
▁life	-1197
▁treat	-1198
▁them	-1199
▁disco	-1200
▁small	-1201
ern	-1202
▁observ	-1203
▁bet	-1204
ensive	-1205
ok	-1206
▁enable	-1207
gra	-1208
▁cal	-1209
▁organic	-1210
otyp	-1211
▁caus	-1212
▁find	-1213
embran	-1214
volution	-1215
▁natural	-1216
▁De	-1217
▁gene	-1218
af	-1219
▁target	-1220
▁networks	-1221
ajor	-1222
▁Sw	-1223
▁support	-1224
till	-1225
▁anti	-1226
▁local	-1227
▁spectro	-1228
▁propose	-1229
▁stress	-1230
▁disease	-1231
ekt	-1232
mosph	-1233
fore	-1234
▁require	-1235
▁insights	-1236
ung	-1237
▁CO	-1238
▁4	-1239
▁indi	-1240
▁hyp	-1241
▁developing	-1242
eric	-1243
tern	-1244
usion	-1245
ån	-1246
▁på	-1247
lying	-1248
▁exam	-1249
plo	-1250
▁ful	-1251
▁direct	-1252
ditional	-1253
rial	-1254
▁build	-1255
orld	-1256
▁cent	-1257
ards	-1258
▁transfer	-1259
ored	-1260
▁neu	-1261
▁highly	-1262
onse	-1263
▁major	-1264
eous	-1265
▁proposal	-1266
▁Swed	-1267
▁approaches	-1268
▁fil	-1269
ories	-1270
eration	-1271
itive	-1272
▁spin	-1273
▁algorithms	-1274
old	-1275
▁numer	-1276
▁sustainable	-1277
ande	-1278
▁questions	-1279
esc	-1280
▁Wh	-1281
duced	-1282
ration	-1283
▁fac	-1284
▁soft	-1285
▁modeling	-1286
ength	-1287
▁further	-1288
▁phenomen	-1289
▁chemistry	-1290
▁cyc	-1291
▁associ	-1292
▁ver	-1293
▁till	-1294
▁graph	-1295
▁strong	-1296
▁bio	-1297
▁number	-1298
▁tiss	-1299
▁known	-1300
▁implement	-1301
▁regul	-1302
ression	-1303
▁purpose	-1304
itu	-1305
▁Re	-1306
imensional	-1307
round	-1308
▁extrem	-1309
ffici	-1310
▁neut	-1311
ensity	-1312
▁various	-1313
▁part	-1314
▁range	-1315
▁drug	-1316
▁influ	-1317
▁temperature	-1318
▁enzym	-1319
▁order	-1320
cc	-1321
ysis	-1322
▁way	-1323
▁prob	-1324
▁physical	-1325
▁del	-1326
▁fr	-1327
▁mat	-1328
fl	-1329
inc	-1330
ucial	-1331
▁enab	-1332
▁functions	-1333
riven	-1334
vidual	-1335
▁gl	-1336
▁gra	-1337
ribution	-1338
▁conn	-1339
ock	-1340
▁avail	-1341
▁behavior	-1342
▁strategies	-1343
to	-1344
▁DNA	-1345
▁der	-1346
icial	-1347
▁recent	-1348
▁result	-1349
▁Ad	-1350
▁Qu	-1351
time	-1352
▁indust	-1353
▁found	-1354
ze	-1355
ll	-1356
▁contin	-1357
▁immun	-1358
▁related	-1359
▁pers	-1360
▁Ne	-1361
▁via	-1362
▁crucial	-1363
agnos	-1364
▁individual	-1365
▁te	-1366
bial	-1367
requ	-1368
▁bas	-1369
▁atmosph	-1370
ruct	-1371
▁ult	-1372
asing	-1373
▁hypoth	-1374
▁ter	-1375
▁stability	-1376
sequ	-1377
gg	-1378
▁fin	-1379
▁some	-1380
▁exc	-1381
uccess	-1382
▁coupl	-1383
▁effect	-1384
ues	-1385
▁lay	-1386
orm	-1387
ctic	-1388
▁generation	-1389
pre	-1390
▁circ	-1391
▁while	-1392
ted	-1393
▁possible	-1394
▁if	-1395
▁solar	-1396
fact	-1397
con	-1398
▁cancer	-1399
ii	-1400
▁membran	-1401
pid	-1402
▁gap	-1403
▁vis	-1404
▁estim	-1405
▁geometry	-1406
▁bre	-1407
▁end	-1408
tives	-1409
▁brain	-1410
ily	-1411
ounds	-1412
▁cryst	-1413
▁evolutionary	-1414
▁efficiency	-1415
ode	-1416
ands	-1417
idate	-1418
▁engineering	-1419
ination	-1420
▁compon	-1421
ring	-1422
lig	-1423
oun	-1424
▁optical	-1425
put	-1426
ploy	-1427
▁scale	-1428
▁better	-1429
▁host	-1430
▁respons	-1431
▁application	-1432
▁technologies	-1433
onic	-1434
▁conc	-1435
▁make	-1436
▁spatial	-1437
bra	-1438
▁20	-1439
▁sk	-1440
▁resist	-1441
driven	-1442
▁processing	-1443
ick	-1444
▁bro	-1445
▁clin	-1446
▁activ	-1447
▁As	-1448
isation	-1449
In	-1450
▁quantif	-1451
▁determine	-1452
▁fields	-1453
▁obtain	-1454
yt	-1455
ping	-1456
ections	-1457
▁success	-1458
▁PhD	-1459
acy	-1460
▁often	-1461
▁biology	-1462
▁still	-1463
des	-1464
ately	-1465
▁interest	-1466
▁response	-1467
▁ess	-1468
▁mathematical	-1469
▁what	-1470
▁biological	-1471
▁ther	-1472
▁detail	-1473
▁spectroscopy	-1474
ined	-1475
roph	-1476
linear	-1477
ellig	-1478
▁hist	-1479
uter	-1480
▁heter	-1481
▁measurements	-1482
▁plat	-1483
▁tow	-1484
▁stor	-1485
▁signal	-1486
▁program	-1487
ots	-1488
▁pos	-1489
olved	-1490
▁open	-1491
▁pati	-1492
▁states	-1493
plet	-1494
▁Met	-1495
▁fol	-1496
▁activity	-1497
We	-1498
▁El	-1499
▁transition	-1500
iel	-1501
ins	-1502
▁emerg	-1503
▁size	-1504
tificial	-1505
▁student	-1506
▁essential	-1507
▁solutions	-1508
▁sem	-1509
omb	-1510
▁quality	-1511
▁particle	-1512
▁previous	-1513
onduct	-1514
▁multiple	-1515
▁particles	-1516
.,	-1517
▁like	-1518
▁diagnos	-1519
ough	-1520
▁science	-1521
lim	-1522
iding	-1523
▁anim	-1524
▁calc	-1525
▁carri	-1526
▁could	-1527
▁initi	-1528
air	-1529
▁matter	-1530
▁relevant	-1531
▁electronic	-1532
▁tissue	-1533
onom	-1534
▁land	-1535
▁const	-1536
▁existing	-1537
This	-1538
▁sym	-1539
▁Comp	-1540
▁factors	-1541
onal	-1542
▁gas	-1543
▁arch	-1544
▁world	-1545
amm	-1546
▁lack	-1547
year	-1548
▁numerical	-1549
ared	-1550
▁cost	-1551
▁pathw	-1552
▁statis	-1553
▁treatment	-1554
▁inst	-1555
▁type	-1556
grad	-1557
isms	-1558
▁appl	-1559
▁early	-1560
▁larg	-1561
▁patter	-1562
▁optimization	-1563
▁prim	-1564
▁paramet	-1565
ae	-1566
ogn	-1567
opl	-1568
▁innov	-1569
▁behaviour	-1570
▁contribute	-1571
dis	-1572
▁lo	-1573
ines	-1574
▁population	-1575
dimensional	-1576
▁detect	-1577
ytic	-1578
▁occ	-1579
ography	-1580
▁affect	-1581
RI	-1582
term	-1583
tiska	-1584
asc	-1585
sor	-1586
ture	-1587
▁ice	-1588
▁conf	-1589
▁molecules	-1590
▁variation	-1591
AS	-1592
▁autom	-1593
▁consider	-1594
▁environments	-1595
▁map	-1596
▁resour	-1597
▁relations	-1598
▁combination	-1599
EM	-1600
▁addi	-1601
▁associated	-1602
▁underlying	-1603
ince	-1604
▁turb	-1605
▁plasma	-1606
▁challenge	-1607
▁link	-1608
crib	-1609
read	-1610
▁present	-1611
ified	-1612
attering	-1613
▁detection	-1614
▁orig	-1615
▁risk	-1616
▁available	-1617
ochemical	-1618
▁gu	-1619
▁hel	-1620
▁obj	-1621
artic	-1622
ole	-1623
▁Ear	-1624
▁increasing	-1625
eck	-1626
▁(2	-1627
ered	-1628
▁Des	-1629
▁genes	-1630
▁predict	-1631
▁mechanical	-1632
▁dynamic	-1633
▁et	-1634
▁ser	-1635
odiversity	-1636
▁microscopy	-1637
ody	-1638
organ	-1639
▁thus	-1640
▁Multi	-1641
▁frequ	-1642
▁enhanc	-1643
▁follow	-1644
▁limited	-1645
▁demonstr	-1646
ulate	-1647
▁neural	-1648
ify	-1649
▁advance	-1650
▁“	-1651
▁facil	-1652
▁solid	-1653
entific	-1654
red	-1655
reg	-1656
▁achieve	-1657
▁conduct	-1658
alled	-1659
▁recently	-1660
▁outc	-1661
▁extend	-1662
ised	-1663
▁algebra	-1664
▁diversity	-1665
▁importance	-1666
▁higher	-1667
ask	-1668
iod	-1669
▁mechanism	-1670
▁asp	-1671
▁vol	-1672
endent	-1673
aves	-1674
veal	-1675
▁RNA	-1676
▁Im	-1677
cipl	-1678
ler	-1679
▁pres	-1680
▁phenomena	-1681
itet	-1682
▁correl	-1683
▁platform	-1684
▁composition	-1685
ygen	-1686
by	-1687
ived	-1688
yond	-1689
▁food	-1690
▁rapid	-1691
chemical	-1692
▁studied	-1693
▁expected	-1694
spec	-1695
▁common	-1696
▁plants	-1697
position	-1698
▁clinical	-1699
▁reactions	-1700
▁beyond	-1701
▁then	-1702
ibility	-1703
▁ent	-1704
▁There	-1705
kt	-1706
RNA	-1707
ience	-1708
fficient	-1709
▁towards	-1710
▁simulation	-1711
cell	-1712
▁bound	-1713
akes	-1714
ultim	-1715
▁applied	-1716
▁describ	-1717
eti	-1718
▁batter	-1719
▁Elect	-1720
▁broad	-1721
▁increase	-1722
▁Gen	-1723
standing	-1724
itro	-1725
verk	-1726
▁separ	-1727
▁scientific	-1728
▁communication	-1729
med	-1730
electric	-1731
▁hydrogen	-1732
know	-1733
▁warm	-1734
version	-1735
▁intern	-1736
hib	-1737
▁active	-1738
▁robust	-1739
▁Pl	-1740
▁atom	-1741
▁would	-1742
▁Arctic	-1743
hip	-1744
acts	-1745
▁resistance	-1746
certain	-1747
▁nature	-1748
▁density	-1749
▁transcri	-1750
angu	-1751
inal	-1752
▁step	-1753
andard	-1754
▁gr	-1755
▁mar	-1756
▁groups	-1757
▁second	-1758
▁sources	-1759
▁storage	-1760
uction	-1761
ests	-1762
▁tox	-1763
▁types	-1764
pec	-1765
tur	-1766
▁At	-1767
itect	-1768
▁prac	-1769
aterials	-1770
▁enhance	-1771
▁computing	-1772
▁selection	-1773
ference	-1774
▁modern	-1775
▁hard	-1776
▁expos	-1777
▁reveal	-1778
▁adaptation	-1779
▁soil	-1780
▁nanop	-1781
▁improved	-1782
he	-1783
ann	-1784
▁liqu	-1785
▁areas	-1786
▁include	-1787
▁resolution	-1788
▁Cl	-1789
▁br	-1790
▁ground	-1791
▁Quantum	-1792
ynth	-1793
ifically	-1794
▁ep	-1795
▁equations	-1796
▁reli	-1797
▁monit	-1798
▁employ	-1799
▁concept	-1800
▁influence	-1801
ances	-1802
▁underst	-1803
▁situ	-1804
▁wind	-1805
▁reaction	-1806
ient	-1807
▁feed	-1808
▁intro	-1809
▁ability	-1810
mod	-1811
cean	-1812
otop	-1813
▁loss	-1814
agnetic	-1815
▁continu	-1816
brid	-1817
▁Earth	-1818
issions	-1819
▁Sweden	-1820
era	-1821
▁components	-1822
▁populations	-1823
▁conte	-1824
▁virus	-1825
idation	-1826
▁parameters	-1827
▁vi	-1828
▁post	-1829
▁diseases	-1830
ream	-1831
ventional	-1832
ited	-1833
▁thermal	-1834
ndom	-1835
▁consequ	-1836
▁product	-1837
▁saf	-1838
▁star	-1839
ningar	-1840
▁distribution	-1841
verg	-1842
iting	-1843
discipl	-1844
▁discover	-1845
▁software	-1846
ield	-1847
▁scattering	-1848
▁biodiversity	-1849
ired	-1850
known	-1851
poral	-1852
▁prof	-1853
produc	-1854
▁laser	-1855
▁generate	-1856
▁ecosystems	-1857
▁significantly	-1858
▁fast	-1859
lt	-1860
▁Rec	-1861
▁self	-1862
▁constrain	-1863
▁my	-1864
▁Res	-1865
▁random	-1866
Ps	-1867
oid	-1868
eros	-1869
▁Con	-1870
encing	-1871
▁great	-1872
tically	-1873
▁turbul	-1874
▁cellular	-1875
na	-1876
▁cer	-1877
▁lip	-1878
▁bacteria	-1879
▁microbial	-1880
disciplinary	-1881
cep	-1882
eed	-1883
itt	-1884
▁act	-1885
▁understood	-1886
▁ast	-1887
▁hos	-1888
▁tog	-1889
abric	-1890
erved	-1891
▁Inter	-1892
▁uncertain	-1893
igg	-1894
fter	-1895
▁help	-1896
▁hom	-1897
ially	-1898
ining	-1899
nings	-1900
▁intellig	-1901
▁compounds	-1902
▁together	-1903
▁ecological	-1904
ella	-1905
utri	-1906
▁With	-1907
▁neuro	-1908
AR	-1909
▁J	-1910
iven	-1911
lear	-1912
▁much	-1913
▁access	-1914
▁create	-1915
atics	-1916
▁leading	-1917
▁ens	-1918
▁combined	-1919
pite	-1920
▁membrane	-1921
▁quantify	-1922
1)	-1923
ibr	-1924
▁soci	-1925
idence	-1926
raction	-1927
▁combining	-1928
▁collaboration	-1929
val	-1930
sing	-1931
ysics	-1932
ogenic	-1933
itation	-1934
orous	-1935
▁prin	-1936
igital	-1937
ned	-1938
ires	-1939
▁heat	-1940
back	-1941
▁mut	-1942
▁apply	-1943
▁genome	-1944
▁search	-1945
▁able	-1946
▁even	-1947
▁elements	-1948
olds	-1949
▁High	-1950
▁charge	-1951
▁complet	-1952
▁remains	-1953
▁community	-1954
▁transform	-1955
ery	-1956
epti	-1957
▁prote	-1958
än	-1959
▁next	-1960
▁train	-1961
▁observations	-1962
▁bene	-1963
▁nuclear	-1964
▁regulation	-1965
▁disc	-1966
scopic	-1967
▁making	-1968
▁plastic	-1969
▁polymer	-1970
aw	-1971
lood	-1972
▁deli	-1973
▁play	-1974
▁poll	-1975
▁remain	-1976
▁z	-1977
▁allo	-1978
▁bind	-1979
itions	-1980
▁concer	-1981
abilities	-1982
▁tun	-1983
▁past	-1984
▁press	-1985
olecular	-1986
▁computer	-1987
▁promising	-1988
för	-1989
▁poor	-1990
▁scales	-1991
▁facilit	-1992
änd	-1993
▁same	-1994
▁region	-1995
▁consist	-1996
▁accurate	-1997
ära	-1998
tial	-1999
▁needed	-2000
▁solution	-2001
ters	-2002
▁architect	-2003
be	-2004
day	-2005
▁central	-2006
▁providing	-2007
hy	-2008
▁hand	-2009
▁benef	-2010
igen	-2011
reh	-2012
▁ut	-2013
less	-2014
▁langu	-2015
DE	-2016
rix	-2017
ikro	-2018
ries	-2019
▁catalyst	-2020
▁artificial	-2021
▁Trans	-2022
▁diffic	-2023
structure	-2024
▁surfaces	-2025
▁Model	-2026
▁without	-2027
▁som	-2028
ontrol	-2029
▁point	-2030
ilic	-2031
over	-2032
▁responses	-2033
▁statistical	-2034
▁yet	-2035
▁analyses	-2036
▁relationship	-2037
▁Fin	-2038
▁mac	-2039
econd	-2040
▁wave	-2041
ynamics	-2042
▁recept	-2043
▁enabling	-2044
▁pathways	-2045
▁Nan	-2046
ually	-2047
▁fluid	-2048
▁levels	-2049
▁source	-2050
▁transm	-2051
▁interact	-2052
▁vä	-2053
▁air	-2054
▁far	-2055
tively	-2056
▁marine	-2057
▁sensing	-2058
▁adaptive	-2059
plications	-2060
ense	-2061
func	-2062
▁since	-2063
▁atomic	-2064
▁effective	-2065
▁methodology	-2066
▁Co	-2067
▁any	-2068
rical	-2069
ract	-2070
▁events	-2071
▁combine	-2072
▁neutron	-2073
▁patterns	-2074
▁Here	-2075
electron	-2076
▁building	-2077
ka	-2078
elf	-2079
▁nec	-2080
other	-2081
ätt	-2082
▁ve	-2083
ount	-2084
therm	-2085
▁shif	-2086
▁morph	-2087
▁offer	-2088
erative	-2089
▁challenging	-2090
oint	-2091
▁each	-2092
▁full	-2093
iter	-2094
▁bel	-2095
▁ide	-2096
ute	-2097
▁Car	-2098
▁green	-2099
▁oxygen	-2100
-2	-2101
▁gain	-2102
▁phenotyp	-2103
▁complexity	-2104
▁innovative	-2105
▁Op	-2106
like	-2107
ufact	-2108
ulose	-2109
▁wide	-2110
ner	-2111
ause	-2112
▁Micro	-2113
▁concent	-2114
bed	-2115
itr	-2116
▁physi	-2117
▁impacts	-2118
▁electric	-2119
äm	-2120
tor	-2121
▁ions	-2122
▁nutri	-2123
▁period	-2124
ependent	-2125
▁radiation	-2126
▁currently	-2127
oll	-2128
▁lab	-2129
▁back	-2130
ostruct	-2131
▁emissions	-2132
▁area	-2133
▁interpre	-2134
▁thin	-2135
ulated	-2136
▁short	-2137
▁domain	-2138
▁optimal	-2139
▁integrated	-2140
den	-2141
play	-2142
rees	-2143
▁sch	-2144
verse	-2145
ysical	-2146
▁stable	-2147
▁history	-2148
▁warming	-2149
▁bacterial	-2150
▁nonlinear	-2151
▁successful	-2152
unk	-2153
ange	-2154
▁origin	-2155
▁unknown	-2156
▁consequences	-2157
com	-2158
▁degrad	-2159
▁necess	-2160
▁compreh	-2161
▁quantit	-2162
▁pri	-2163
aneous	-2164
▁polar	-2165
▁assemb	-2166
▁become	-2167
▁features	-2168
▁increased	-2169
ule	-2170
ason	-2171
eral	-2172
▁fib	-2173
jects	-2174
▁capac	-2175
▁reson	-2176
▁explain	-2177
ata	-2178
ilar	-2179
▁team	-2180
specific	-2181
▁context	-2182
äk	-2183
pers	-2184
▁dam	-2185
▁free	-2186
▁minim	-2187
induced	-2188
ochastic	-2189
▁theories	-2190
▁was	-2191
icity	-2192
▁samples	-2193
▁Sc	-2194
tise	-2195
▁iss	-2196
▁reproduc	-2197
▁difficult	-2198
ossil	-2199
▁explo	-2200
▁compar	-2201
▁microbi	-2202
▁produce	-2203
▁question	-2204
bar	-2205
▁Or	-2206
atically	-2207
▁whether	-2208
▁expression	-2209
apeu	-2210
line	-2211
▁eluc	-2212
▁subst	-2213
▁hybrid	-2214
edim	-2215
ellar	-2216
▁Under	-2217
▁being	-2218
agement	-2219
▁fabric	-2220
▁aspects	-2221
▁involved	-2222
bras	-2223
etry	-2224
olar	-2225
ather	-2226
iation	-2227
▁rates	-2228
▁shown	-2229
aboratory	-2230
ER	-2231
own	-2232
ouse	-2233
▁consum	-2234
▁carried	-2235
▁detailed	-2236
▁technique	-2237
SC	-2238
ead	-2239
▁rate	-2240
▁incor	-2241
▁reduce	-2242
▁expertise	-2243
asks	-2244
ching	-2245
water	-2246
▁Spec	-2247
▁från	-2248
▁last	-2249
▁immune	-2250
▁regions	-2251
▁evaluate	-2252
▁electroly	-2253
▁"	-2254
not	-2255
▁fu	-2256
▁pack	-2257
sm	-2258
mer	-2259
▁now	-2260
▁nano	-2261
escence	-2262
▁depend	-2263
▁magnet	-2264
▁visual	-2265
▁manufact	-2266
▁predictions	-2267
tes	-2268
▁flex	-2269
▁tail	-2270
▁device	-2271
▁biomass	-2272
▁element	-2273
go	-2274
osc	-2275
▁202	-2276
▁diss	-2277
itable	-2278
▁reach	-2279
ributions	-2280
▁construct	-2281
▁therefore	-2282
▁University	-2283
alax	-2284
▁Anal	-2285
▁kine	-2286
▁traditional	-2287
OC	-2288
tik	-2289
ends	-2290
▁pul	-2291
▁Lear	-2292
▁discovery	-2293
tice	-2294
▁lat	-2295
▁mix	-2296
▁mot	-2297
▁flux	-2298
▁again	-2299
▁mechanistic	-2300
▁conventional	-2301
dom	-2302
xim	-2303
▁ed	-2304
▁altern	-2305
▁directly	-2306
▁atmospheric	-2307
ivo	-2308
▁enc	-2309
▁fam	-2310
▁acid	-2311
▁among	-2312
ributed	-2313
▁liquid	-2314
MR	-2315
lic	-2316
▁One	-2317
▁near	-2318
ols	-2319
▁Using	-2320
iconduct	-2321
▁prediction	-2322
▁frequency	-2323
▁hypothesis	-2324
ya	-2325
ores	-2326
ynamic	-2327
▁example	-2328
row	-2329
medi	-2330
prec	-2331
▁red	-2332
▁soc	-2333
▁Learning	-2334
▁experiment	-2335
ote	-2336
▁tum	-2337
▁made	-2338
▁fluor	-2339
▁pe	-2340
▁Non	-2341
▁few	-2342
▁fung	-2343
▁animal	-2344
▁screen	-2345
▁genomic	-2346
▁targets	-2347
▁particularly	-2348
ES	-2349
rot	-2350
eler	-2351
ggest	-2352
▁More	-2353
▁term	-2354
▁occur	-2355
▁around	-2356
▁suggest	-2357
▁designed	-2358
▁required	-2359
▁nanopartic	-2360
3)	-2361
sw	-2362
umin	-2363
▁lever	-2364
▁certain	-2365
▁findings	-2366
▁patients	-2367
▁identified	-2368
AI	-2369
▁1)	-2370
oding	-2371
ciples	-2372
▁terms	-2373
▁monitoring	-2374
▁calculations	-2375
ime	-2376
rag	-2377
▁off	-2378
▁run	-2379
▁clust	-2380
ellular	-2381
▁transl	-2382
▁incorpor	-2383
▁researchers	-2384
▁topological	-2385
apy	-2386
▁fer	-2387
allel	-2388
▁given	-2389
▁strength	-2390
▁differential	-2391
orphic	-2392
▁allows	-2393
▁isotop	-2394
▁against	-2395
▁addition	-2396
▁requires	-2397
▁bar	-2398
▁case	-2399
▁forest	-2400
▁extreme	-2401
▁complement	-2402
▁sal	-2403
▁waves	-2404
▁antibi	-2405
▁should	-2406
▁overall	-2407
land	-2408
▁mill	-2409
▁testing	-2410
▁studying	-2411
▁heterogen	-2412
ät	-2413
ably	-2414
▁coun	-2415
▁called	-2416
▁applicant	-2417
▁communities	-2418
veck	-2419
▁absor	-2420
▁datas	-2421
▁photo	-2422
▁tasks	-2423
▁today	-2424
▁System	-2425
▁humans	-2426
▁coupled	-2427
▁interpret	-2428
▁organisms	-2429
▁conversion	-2430
▁2)	-2431
▁er	-2432
luid	-2433
order	-2434
pecially	-2435
▁genom	-2436
▁introduc	-2437
pr	-2438
▁mus	-2439
uktur	-2440
▁hyper	-2441
▁Climate	-2442
▁capture	-2443
equ	-2444
▁Hy	-2445
tioner	-2446
▁blood	-2447
▁ocean	-2448
▁sequencing	-2449
MS	-2450
▁&	-2451
▁break	-2452
▁formal	-2453
▁traits	-2454
▁compared	-2455
▁potentially	-2456
get	-2457
lyc	-2458
oud	-2459
pir	-2460
rast	-2461
▁pepti	-2462
▁Develop	-2463
▁especially	-2464
▁interfaces	-2465
▁established	-2466
ented	-2467
itivity	-2468
▁products	-2469
▁industrial	-2470
▁mem	-2471
▁pub	-2472
change	-2473
▁basis	-2474
▁sedim	-2475
▁Machine	-2476
▁however	-2477
▁emission	-2478
▁performed	-2479
AT	-2480
ekan	-2481
igur	-2482
uper	-2483
▁chrom	-2484
▁cloud	-2485
▁motion	-2486
▁coupling	-2487
▁standard	-2488
orts	-2489
urop	-2490
▁(2)	-2491
▁cycle	-2492
▁stars	-2493
▁fossil	-2494
▁matrix	-2495
▁ecology	-2496
▁electrochemical	-2497
äl	-2498
iral	-2499
wave	-2500
level	-2501
pling	-2502
▁While	-2503
▁parad	-2504
through	-2505
▁strain	-2506
▁because	-2507
▁enzymes	-2508
kal	-2509
greg	-2510
ocks	-2511
erade	-2512
hibit	-2513
inter	-2514
▁core	-2515
▁give	-2516
▁feedback	-2517
▁investigated	-2518
▁den	-2519
▁tel	-2520
▁after	-2521
▁macro	-2522
▁controlled	-2523
loid	-2524
▁load	-2525
istics	-2526
▁recogn	-2527
▁Finally	-2528
▁special	-2529
▁decision	-2530
ival	-2531
tiva	-2532
▁(1)	-2533
▁aqu	-2534
▁bur	-2535
▁fish	-2536
▁similar	-2537
▁observed	-2538
▁provides	-2539
▁management	-2540
▁sw	-2541
iving	-2542
▁advant	-2543
ynthesis	-2544
▁primary	-2545
▁setting	-2546
▁accuracy	-2547
▁progress	-2548
▁classical	-2549
▁x	-2550
ång	-2551
ovsk	-2552
▁har	-2553
▁take	-2554
▁resil	-2555
▁comprehensive	-2556
ta	-2557
▁PI	-2558
active	-2559
▁fully	-2560
▁symmet	-2561
▁digital	-2562
▁medical	-2563
▁resources	-2564
▁laboratory	-2565
▁New	-2566
▁image	-2567
▁indic	-2568
▁Despite	-2569
▁semiconduct	-2570
▁om	-2571
itud	-2572
oder	-2573
baser	-2574
▁impl	-2575
resolution	-2576
aste	-2577
atur	-2578
odes	-2579
▁body	-2580
▁films	-2581
▁infra	-2582
▁generated	-2583
▁integration	-2584
rins	-2585
portun	-2586
▁those	-2587
▁hypothes	-2588
▁resulting	-2589
▁atmosphere	-2590
ury	-2591
▁mov	-2592
ither	-2593
ready	-2594
▁neur	-2595
urtherm	-2596
▁univers	-2597
▁opportun	-2598
▁strategy	-2599
urthermore	-2600
▁isol	-2601
▁manip	-2602
▁ultim	-2603
▁spaces	-2604
▁outcomes	-2605
▁stochastic	-2606
▁characterize	-2607
▁quantitative	-2608
ev	-2609
▁mitig	-2610
▁language	-2611
▁pressure	-2612
ior	-2613
olve	-2614
rete	-2615
ening	-2616
▁lign	-2617
▁prop	-2618
▁landsc	-2619
free	-2620
▁perm	-2621
▁aeros	-2622
▁alloys	-2623
▁Swedish	-2624
ög	-2625
resp	-2626
▁hal	-2627
▁ref	-2628
▁less	-2629
▁analyze	-2630
▁capacity	-2631
▁suitable	-2632
▁catalytic	-2633
IC	-2634
lär	-2635
ocal	-2636
▁sex	-2637
isions	-2638
▁Europ	-2639
▁ultra	-2640
▁binding	-2641
▁spectrom	-2642
ced	-2643
ope	-2644
ras	-2645
stå	-2646
▁Com	-2647
▁age	-2648
scill	-2649
herent	-2650
▁lipid	-2651
ulating	-2652
▁therapeu	-2653
ided	-2654
rest	-2655
▁galax	-2656
▁medic	-2657
atively	-2658
efficient	-2659
▁evidence	-2660
▁integrating	-2661
▁Y	-2662
amin	-2663
dens	-2664
ming	-2665
acial	-2666
▁shape	-2667
▁expand	-2668
▁metabolism	-2669
wide	-2670
▁cand	-2671
▁wild	-2672
▁along	-2673
▁cross	-2674
▁powerful	-2675
hes	-2676
▁valu	-2677
▁elekt	-2678
▁thereby	-2679
▁separation	-2680
ET	-2681
osis	-2682
▁sea	-2683
▁must	-2684
▁poly	-2685
▁categ	-2686
▁means	-2687
▁stream	-2688
▁dynamical	-2689
▁previously	-2690
▁degradation	-2691
▁representations	-2692
Hz	-2693
▁mark	-2694
▁sample	-2695
ductivity	-2696
▁necessary	-2697
▁continuous	-2698
▁5	-2699
ane	-2700
hic	-2701
osm	-2702
tem	-2703
olek	-2704
▁beam	-2705
▁vary	-2706
▁glass	-2707
▁reason	-2708
▁already	-2709
oelectric	-2710
ultaneous	-2711
▁synthetic	-2712
▁implications	-2713
FT	-2714
HC	-2715
▁Int	-2716
▁enti	-2717
▁line	-2718
▁vivo	-2719
olekyl	-2720
ylogen	-2721
▁goals	-2722
▁oxide	-2723
▁descri	-2724
▁metall	-2725
▁phases	-2726
▁Protein	-2727
▁training	-2728
pp	-2729
otics	-2730
trans	-2731
▁damage	-2732
PC	-2733
cl	-2734
cover	-2735
ogens	-2736
▁view	-2737
▁alter	-2738
ectives	-2739
ervation	-2740
veckling	-2741
▁largely	-2742
▁paradig	-2743
evolution	-2744
▁spectral	-2745
▁metabolic	-2746
▁sensitivity	-2747
ck	-2748
ded	-2749
▁gover	-2750
▁Struct	-2751
▁elucidate	-2752
▁reduction	-2753
To	-2754
▁buil	-2755
▁grav	-2756
▁wall	-2757
▁layer	-2758
▁finite	-2759
▁constit	-2760
▁patient	-2761
▁advances	-2762
▁emerging	-2763
As	-2764
II	-2765
▁rad	-2766
oration	-2767
▁planet	-2768
▁diverse	-2769
▁intelligence	-2770
▁manufacturing	-2771
anal	-2772
onomous	-2773
▁driven	-2774
ectivity	-2775
▁contact	-2776
▁precision	-2777
tebr	-2778
▁cry	-2779
ector	-2780
enari	-2781
▁answ	-2782
▁linear	-2783
▁society	-2784
rup	-2785
▁abund	-2786
isering	-2787
▁poorly	-2788
▁algebras	-2789
▁exposure	-2790
▁industry	-2791
);	-2792
ats	-2793
▁Nor	-2794
▁mel	-2795
▁ren	-2796
▁surv	-2797
▁social	-2798
▁acceler	-2799
▁contain	-2800
▁principles	-2801
etal	-2802
▁mob	-2803
▁Phot	-2804
▁schem	-2805
ascular	-2806
▁Comput	-2807
▁Europe	-2808
▁regard	-2809
ectively	-2810
▁domains	-2811
▁boundary	-2812
▁parallel	-2813
▁temporal	-2814
▁electrical	-2815
▁capabilities	-2816
▁transmission	-2817
-1	-2818
lar	-2819
▁clos	-2820
▁down	-2821
▁parts	-2822
▁metals	-2823
▁classes	-2824
▁obtained	-2825
▁architecture	-2826
urg	-2827
▁gam	-2828
▁fail	-2829
▁rest	-2830
▁identification	-2831
▁cases	-2832
▁recon	-2833
▁fusion	-2834
▁objective	-2835
▁facilitate	-2836
AM	-2837
OS	-2838
▁nor	-2839
ymmet	-2840
▁here	-2841
▁scenari	-2842
▁includes	-2843
▁interface	-2844
▁Furthermore	-2845
jär	-2846
ump	-2847
▁cut	-2848
itting	-2849
rophic	-2850
▁ionic	-2851
▁photon	-2852
▁superc	-2853
▁efforts	-2854
▁international	-2855
EC	-2856
vä	-2857
äns	-2858
ises	-2859
▁hol	-2860
state	-2861
▁noise	-2862
▁valid	-2863
▁inform	-2864
▁safety	-2865
▁polymers	-2866
▁electronics	-2867
▁tur	-2868
▁biof	-2869
osphere	-2870
▁substr	-2871
▁contrast	-2872
▁crystall	-2873
generation	-2874
▁deposition	-2875
▁objectives	-2876
▁plasticity	-2877
▁uncertainty	-2878
▁Z	-2879
ala	-2880
osens	-2881
▁done	-2882
▁trees	-2883
▁resource	-2884
▁catalysts	-2885
▁complexes	-2886
▁diffusion	-2887
▁activation	-2888
▁temperatures	-2889
ibri	-2890
▁bal	-2891
▁mes	-2892
ravel	-2893
▁flows	-2894
organic	-2895
▁factor	-2896
▁specifically	-2897
ror	-2898
▁Such	-2899
▁Thus	-2900
▁band	-2901
▁layers	-2902
▁animals	-2903
▁conducted	-2904
▁characteristics	-2905
▁Se	-2906
abit	-2907
perim	-2908
▁circu	-2909
▁silic	-2910
▁behind	-2911
▁algebraic	-2912
▁ö	-2913
ero	-2914
ove	-2915
▁Ut	-2916
ward	-2917
▁cur	-2918
▁objects	-2919
▁practical	-2920
▁simultaneous	-2921
IS	-2922
ott	-2923
rolog	-2924
ukary	-2925
▁does	-2926
▁direc	-2927
▁precise	-2928
▁presence	-2929
▁extensive	-2930
▁geometric	-2931
turb	-2932
anced	-2933
aries	-2934
inity	-2935
▁synch	-2936
related	-2937
▁length	-2938
▁mainly	-2939
▁catalysis	-2940
▁foundation	-2941
▁regulatory	-2942
▁variability	-2943
▁Understanding	-2944
NN	-2945
ured	-2946
▁refl	-2947
▁tree	-2948
action	-2949
ocatal	-2950
though	-2951
▁batteries	-2952
tis	-2953
esian	-2954
urity	-2955
▁biomark	-2956
▁insight	-2957
▁approxim	-2958
▁cellulose	-2959
▁limitations	-2960
▁Expl	-2961
▁stim	-2962
▁track	-2963
▁induced	-2964
▁enhanced	-2965
ostructures	-2966
▁individuals	-2967
▁nanoparticles	-2968
resh	-2969
▁Data	-2970
▁chann	-2971
▁energ	-2972
▁record	-2973
▁analytical	-2974
man	-2975
ades	-2976
erad	-2977
▁Ult	-2978
ables	-2979
going	-2980
limat	-2981
▁barri	-2982
ilities	-2983
▁achieved	-2984
▁turbulent	-2985
cent	-2986
ynom	-2987
▁mul	-2988
elling	-2989
igning	-2990
▁instr	-2991
▁oscill	-2992
▁exchange	-2993
▁produced	-2994
▁implementation	-2995
oge	-2996
▁3)	-2997
omal	-2998
▁were	-2999
▁Organ	-3000
▁gradi	-3001
▁solve	-3002
lärning	-3003
unktion	-3004
▁aggreg	-3005
▁memory	-3006
▁profil	-3007
▁sensor	-3008
▁signals	-3009
▁reliable	-3010
▁Evolution	-3011
▁improving	-3012
▁technological	-3013
iph	-3014
olym	-3015
▁För	-3016
▁bul	-3017
▁lik	-3018
▁seek	-3019
ationer	-3020
tention	-3021
ste	-3022
▁Ge	-3023
atom	-3024
rich	-3025
oplan	-3026
ronic	-3027
▁brid	-3028
ayesian	-3029
▁enzyme	-3030
▁invari	-3031
▁limits	-3032
▁describe	-3033
▁reconstr	-3034
▁Molecular	-3035
Ms	-3036
SP	-3037
asis	-3038
king	-3039
▁vid	-3040
▁heav	-3041
▁basic	-3042
▁forms	-3043
▁manif	-3044
▁crystal	-3045
▁considered	-3046
doc	-3047
uge	-3048
ints	-3049
▁her	-3050
aving	-3051
▁input	-3052
▁constr	-3053
resolved	-3054
▁screening	-3055
▁sensitive	-3056
ED	-3057
000	-3058
▁bir	-3059
eness	-3060
ometry	-3061
▁condens	-3062
▁maintain	-3063
▁mechanics	-3064
▁mathematics	-3065
bs	-3066
ittle	-3067
▁They	-3068
▁acqu	-3069
▁glyc	-3070
▁mikro	-3071
▁proof	-3072
▁entire	-3073
▁formed	-3074
▁series	-3075
ographic	-3076
▁sensors	-3077
▁substan	-3078
▁utilize	-3079
▁variety	-3080
▁focusing	-3081
romagnetic	-3082
▁constraints	-3083
zed	-3084
ones	-3085
uctu	-3086
ontin	-3087
ecting	-3088
▁parameter	-3089
▁discovered	-3090
da	-3091
off	-3092
ori	-3093
situ	-3094
▁mig	-3095
▁vers	-3096
tering	-3097
itrogen	-3098
▁activities	-3099
▁physiological	-3100
dr	-3101
rics	-3102
house	-3103
▁unex	-3104
▁robots	-3105
▁unprec	-3106
▁Bayesian	-3107
▁sequence	-3108
▁differenti	-3109
▁relationships	-3110
AC	-3111
gl	-3112
rum	-3113
▁rig	-3114
▁Deep	-3115
▁Green	-3116
▁habit	-3117
▁Moreover	-3118
▁unpreced	-3119
▁assessment	-3120
▁spectrometry	-3121
0%	-3122
lay	-3123
▁No	-3124
infor	-3125
ormal	-3126
▁code	-3127
▁serv	-3128
▁vision	-3129
echanical	-3130
▁changing	-3131
▁interplay	-3132
▁distributed	-3133
mark	-3134
ewable	-3135
▁cover	-3136
▁magneti	-3137
▁genomics	-3138
▁paradigm	-3139
▁algorithm	-3140
▁following	-3141
▁transcript	-3142
bild	-3143
ropy	-3144
akter	-3145
eding	-3146
itoch	-3147
▁wood	-3148
rinsic	-3149
▁cause	-3150
▁close	-3151
▁drugs	-3152
▁embed	-3153
▁lower	-3154
▁battery	-3155
dependent	-3156
▁allowing	-3157
▁predictive	-3158
▁alternative	-3159
▁transitions	-3160
▁experimentally	-3161
sh	-3162
ön	-3163
att	-3164
▁best	-3165
encies	-3166
▁Large	-3167
▁black	-3168
▁eukary	-3169
▁simple	-3170
▁useful	-3171
itochond	-3172
▁derived	-3173
▁delivery	-3174
▁selective	-3175
▁resilience	-3176
▁diagnostics	-3177
mut	-3178
atch	-3179
▁bone	-3180
▁repl	-3181
▁pharm	-3182
restrial	-3183
▁infection	-3184
ives	-3185
▁Man	-3186
▁ett	-3187
▁solv	-3188
▁persp	-3189
protein	-3190
▁capable	-3191
▁unprecedented	-3192
ologi	-3193
oreal	-3194
▁carb	-3195
ilibri	-3196
ternal	-3197
ulture	-3198
▁expect	-3199
▁lignin	-3200
▁stabil	-3201
▁coating	-3202
▁focuses	-3203
▁outcome	-3204
▁release	-3205
▁infections	-3206
ix	-3207
ös	-3208
odal	-3209
▁(3)	-3210
▁trop	-3211
▁times	-3212
▁Theory	-3213
▁complete	-3214
▁graphene	-3215
▁medicine	-3216
▁phylogen	-3217
▁inference	-3218
▁landscape	-3219
OM	-3220
ales	-3221
aling	-3222
ektiv	-3223
oscale	-3224
vergence	-3225
▁polynom	-3226
▁concentr	-3227
▁scalable	-3228
ochemistry	-3229
▁therapeutic	-3230
▁investigation	-3231
NS	-3232
yr	-3233
▁fill	-3234
▁regen	-3235
▁Network	-3236
▁instrum	-3237
▁perovsk	-3238
▁thermod	-3239
▁addresses	-3240
▁oxidation	-3241
hod	-3242
▁lig	-3243
yloid	-3244
▁fuel	-3245
▁rare	-3246
▁correct	-3247
▁enables	-3248
▁involves	-3249
▁evaluation	-3250
asi	-3251
sis	-3252
ulf	-3253
▁CH	-3254
▁roles	-3255
▁possib	-3256
▁pathogens	-3257
▁signaling	-3258
▁AT	-3259
▁Fe	-3260
ists	-3261
▁deg	-3262
▁eas	-3263
energy	-3264
▁makes	-3265
▁probe	-3266
▁either	-3267
▁creating	-3268
bre	-3269
ryst	-3270
zing	-3271
▁ang	-3272
▁ways	-3273
onding	-3274
urface	-3275
▁induc	-3276
▁cannot	-3277
▁fluctu	-3278
▁threat	-3279
▁cutting	-3280
▁reduced	-3281
▁strongly	-3282
▁targeted	-3283
▁scenarios	-3284
02	-3285
rang	-3286
ellan	-3287
ground	-3288
▁demand	-3289
▁linked	-3290
▁propag	-3291
▁Electro	-3292
▁growing	-3293
▁Therefore	-3294
▁conservation	-3295
▁investigations	-3296
▁Eff	-3297
thern	-3298
▁care	-3299
▁upon	-3300
zation	-3301
▁react	-3302
▁sites	-3303
igenetic	-3304
▁viruses	-3305
▁demonstrate	-3306
aceu	-3307
flow	-3308
▁text	-3309
omplex	-3310
rotron	-3311
▁coord	-3312
▁speed	-3313
▁viral	-3314
▁corresp	-3315
▁chemicals	-3316
▁regarding	-3317
▁identifying	-3318
åll	-3319
▁ir	-3320
▁Aut	-3321
atives	-3322
inated	-3323
inform	-3324
▁trigg	-3325
ogenesis	-3326
▁forests	-3327
▁uncover	-3328
▁combines	-3329
▁external	-3330
erc	-3331
typ	-3332
▁Ga	-3333
▁Sh	-3334
emic	-3335
izes	-3336
omer	-3337
▁dop	-3338
arily	-3339
atile	-3340
oxide	-3341
▁hear	-3342
▁pair	-3343
ustion	-3344
▁smart	-3345
▁extens	-3346
aktioner	-3347
▁examine	-3348
▁controlling	-3349
▁AM	-3350
▁ML	-3351
erge	-3352
irus	-3353
▁fit	-3354
▁ampl	-3355
▁bioge	-3356
▁needs	-3357
▁vitro	-3358
▁waste	-3359
▁ensure	-3360
▁driving	-3361
▁realistic	-3362
▁autonomous	-3363
▁methodologies	-3364
sol	-3365
arch	-3366
oton	-3367
▁Mon	-3368
▁ret	-3369
onomy	-3370
▁task	-3371
▁want	-3372
process	-3373
▁before	-3374
▁mellan	-3375
▁affected	-3376
▁extremely	-3377
▁targeting	-3378
FAS	-3379
ysik	-3380
▁Bal	-3381
▁Dec	-3382
▁tri	-3383
enska	-3384
▁whole	-3385
▁fluxes	-3386
▁dispers	-3387
▁synthes	-3388
acc	-3389
juk	-3390
▁cy	-3391
utes	-3392
▁musc	-3393
▁vehic	-3394
electro	-3395
▁defects	-3396
▁neutrin	-3397
▁nutrient	-3398
▁Specifically	-3399
▁characterized	-3400
▁investigating	-3401
AL	-3402
öd	-3403
▁Ap	-3404
body	-3405
rams	-3406
oustic	-3407
▁Optim	-3408
▁event	-3409
▁volum	-3410
▁Design	-3411
▁appear	-3412
▁internal	-3413
▁sampling	-3414
▁combinator	-3415
aps	-3416
▁oxid	-3417
▁turn	-3418
rafast	-3419
▁datab	-3420
echnology	-3421
▁assembly	-3422
▁extended	-3423
▁receptor	-3424
AD	-3425
äll	-3426
▁weak	-3427
modell	-3428
▁accum	-3429
▁Experim	-3430
▁operators	-3431
▁polynomial	-3432
ef	-3433
▁ze	-3434
▁Att	-3435
▁led	-3436
▁cogn	-3437
▁mamm	-3438
▁supp	-3439
onomic	-3440
urrent	-3441
▁larger	-3442
ilibrium	-3443
▁advantage	-3444
▁involving	-3445
▁demonstrated	-3446
kv	-3447
iff	-3448
tud	-3449
▁Det	-3450
▁gut	-3451
fluid	-3452
▁stem	-3453
▁atoms	-3454
▁shift	-3455
acterial	-3456
▁relation	-3457
▁verification	-3458
ativ	-3459
inct	-3460
▁Pre	-3461
isted	-3462
ptake	-3463
▁Func	-3464
▁wear	-3465
▁Spect	-3466
ekanism	-3467
▁graphs	-3468
▁porous	-3469
formance	-3470
▁conject	-3471
▁extract	-3472
▁planned	-3473
▁equation	-3474
▁tailored	-3475
▁receptors	-3476
▁renewable	-3477
Fs	-3478
OR	-3479
▁NMR	-3480
asive	-3481
▁empir	-3482
▁toler	-3483
▁Energy	-3484
▁issues	-3485
▁spread	-3486
▁deliver	-3487
▁estimation	-3488
▁morphology	-3489
▁revolution	-3490
EL	-3491
Vs	-3492
uli	-3493
axim	-3494
ione	-3495
orem	-3496
raft	-3497
▁Per	-3498
otype	-3499
▁gaps	-3500
▁mean	-3501
olving	-3502
▁nanoc	-3503
▁klimat	-3504
▁express	-3505
ditionally	-3506
osynthesis	-3507
▁addressing	-3508
▁biochemical	-3509
▁description	-3510
▁representation	-3511
▁sustainability	-3512
▁she	-3513
ecast	-3514
▁mach	-3515
▁prior	-3516
▁redox	-3517
▁intend	-3518
▁aerosol	-3519
▁affects	-3520
▁integrate	-3521
▁operation	-3522
▁pollution	-3523
iC	-3524
bol	-3525
emi	-3526
kel	-3527
cient	-3528
light	-3529
tegra	-3530
▁dark	-3531
▁cardi	-3532
▁clear	-3533
▁family	-3534
▁little	-3535
▁mapping	-3536
inlärning	-3537
▁absorption	-3538
come	-3539
uble	-3540
▁Ext	-3541
▁hög	-3542
▁mic	-3543
▁frag	-3544
▁shap	-3545
▁conver	-3546
▁uptake	-3547
▁postdoc	-3548
▁measures	-3549
▁nitrogen	-3550
▁survival	-3551
▁construction	-3552
ML	-3553
▁6	-3554
ilj	-3555
ying	-3556
ively	-3557
▁bioph	-3558
▁metam	-3559
▁analog	-3560
▁prelim	-3561
▁proced	-3562
perature	-3563
▁drivers	-3564
▁ongoing	-3565
▁therapy	-3566
aceutical	-3567
▁reducing	-3568
▁singular	-3569
▁consumption	-3570
2,	-3571
jäl	-3572
urs	-3573
▁Am	-3574
▁Di	-3575
▁Hg	-3576
▁My	-3577
east	-3578
most	-3579
▁ben	-3580
▁read	-3581
esting	-3582
rought	-3583
▁initial	-3584
▁Analysis	-3585
▁optimize	-3586
▁phenotypic	-3587
▁interesting	-3588
gu	-3589
▁cyt	-3590
▁What	-3591
plicit	-3592
▁neurom	-3593
▁rapidly	-3594
▁disorder	-3595
▁perspective	-3596
rim	-3597
▁Ri	-3598
▁fa	-3599
kton	-3600
opro	-3601
▁tom	-3602
catal	-3603
▁Cell	-3604
▁tack	-3605
▁public	-3606
racellular	-3607
▁attention	-3608
▁electrode	-3609
▁Development	-3610
▁preliminary	-3611
IR	-3612
rok	-3613
▁4-	-3614
▁mom	-3615
askin	-3616
▁Coll	-3617
▁dust	-3618
▁boreal	-3619
getation	-3620
▁galaxies	-3621
▁hardware	-3622
▁optimized	-3623
wn	-3624
▁Sm	-3625
▁ol	-3626
prin	-3627
▁Adv	-3628
cepts	-3629
elekt	-3630
ompos	-3631
throp	-3632
vision	-3633
▁simpl	-3634
ainable	-3635
▁causes	-3636
▁extent	-3637
bildning	-3638
icrobial	-3639
▁solving	-3640
ultimodal	-3641
lä	-3642
▁He	-3643
▁cho	-3644
▁rely	-3645
▁exact	-3646
▁final	-3647
▁Integr	-3648
▁Systems	-3649
▁genomes	-3650
▁partial	-3651
▁perturb	-3652
chemistry	-3653
mentation	-3654
▁turbulence	-3655
▁measurement	-3656
CO	-3657
we	-3658
aff	-3659
ska	-3660
▁Ac	-3661
▁cosm	-3662
▁crop	-3663
assemb	-3664
▁yield	-3665
ireless	-3666
▁reactive	-3667
▁Artificial	-3668
▁microbiome	-3669
▁fabrication	-3670
▁superconduct	-3671
edic	-3672
▁mixt	-3673
▁virt	-3674
anning	-3675
▁above	-3676
▁decre	-3677
▁fract	-3678
▁amount	-3679
▁inside	-3680
▁protoc	-3681
▁account	-3682
▁aquatic	-3683
▁explored	-3684
▁packages	-3685
▁position	-3686
▁sediment	-3687
▁nanoscale	-3688
ota	-3689
care	-3690
ople	-3691
antic	-3692
atten	-3693
enced	-3694
inate	-3695
tices	-3696
▁good	-3697
▁puls	-3698
▁safe	-3699
▁agric	-3700
▁heavy	-3701
▁tests	-3702
▁Baltic	-3703
▁restric	-3704
▁validate	-3705
▁mitochond	-3706
▁variations	-3707
eff	-3708
ino	-3709
riv	-3710
ton	-3711
▁hyd	-3712
▁sum	-3713
▁harm	-3714
▁rich	-3715
▁biofil	-3716
▁improv	-3717
▁pathway	-3718
▁concepts	-3719
▁intrinsic	-3720
▁implemented	-3721
▁terrestrial	-3722
MC	-3723
vi	-3724
▁dur	-3725
inant	-3726
▁iron	-3727
▁rise	-3728
system	-3729
▁carry	-3730
▁value	-3731
osecond	-3732
ylation	-3733
▁answer	-3734
plication	-3735
▁component	-3736
▁typically	-3737
▁exploration	-3738
▁increasingly	-3739
ämp	-3740
▁sl	-3741
▁Dis	-3742
▁Par	-3743
▁cle	-3744
▁wid	-3745
osomes	-3746
▁Super	-3747
▁joint	-3748
▁entang	-3749
▁vertebr	-3750
▁Standard	-3751
▁dimension	-3752
▁differences	-3753
zo	-3754
ål	-3755
ök	-3756
ink	-3757
band	-3758
liga	-3759
▁Sea	-3760
▁Sim	-3761
▁art	-3762
ekter	-3763
field	-3764
▁bott	-3765
▁lung	-3766
▁nitr	-3767
uktion	-3768
▁pione	-3769
▁robot	-3770
acteria	-3771
▁blocks	-3772
▁images	-3773
▁points	-3774
▁focused	-3775
▁instead	-3776
▁Although	-3777
▁concerns	-3778
▁interven	-3779
▁utilizing	-3780
▁systematic	-3781
▁distributions	-3782
me	-3783
def	-3784
▁WP	-3785
ompon	-3786
▁bulk	-3787
▁clim	-3788
▁maxim	-3789
▁tested	-3790
▁Univers	-3791
▁balance	-3792
▁varying	-3793
▁flexible	-3794
▁operator	-3795
▁overcome	-3796
▁fluorescence	-3797
▁reconstruction	-3798
ils	-3799
let	-3800
▁fem	-3801
▁belie	-3802
▁Second	-3803
▁occurr	-3804
▁rather	-3805
▁ancient	-3806
▁decades	-3807
▁involve	-3808
▁schemes	-3809
▁theorem	-3810
▁distinct	-3811
▁toxicity	-3812
AX	-3813
▁‘	-3814
▁Em	-3815
edge	-3816
▁etc	-3817
▁hot	-3818
atell	-3819
world	-3820
▁fron	-3821
▁depth	-3822
duction	-3823
▁optics	-3824
▁oxides	-3825
▁pollut	-3826
function	-3827
▁stellar	-3828
▁forecast	-3829
▁particip	-3830
▁security	-3831
ru	-3832
ifi	-3833
iggs	-3834
▁why	-3835
▁sets	-3836
▁swit	-3837
▁toxic	-3838
▁expans	-3839
▁people	-3840
▁content	-3841
▁configur	-3842
▁programs	-3843
▁connected	-3844
▁membranes	-3845
▁interacting	-3846
inv	-3847
▁ord	-3848
▁Form	-3849
bility	-3850
▁coast	-3851
▁guide	-3852
▁mixed	-3853
▁radio	-3854
▁offers	-3855
▁phosph	-3856
▁datasets	-3857
functional	-3858
▁mutations	-3859
▁recognition	-3860
lor	-3861
nov	-3862
tal	-3863
use	-3864
avig	-3865
iver	-3866
skop	-3867
▁Stud	-3868
▁cool	-3869
▁film	-3870
▁shed	-3871
ifying	-3872
ontinu	-3873
ception	-3874
▁working	-3875
▁genetics	-3876
▁kinetics	-3877
▁personal	-3878
▁valuable	-3879
▁designing	-3880
▁empirical	-3881
timicrobial	-3882
▁possibility	-3883
Our	-3884
jug	-3885
oot	-3886
idel	-3887
▁nya	-3888
▁spr	-3889
▁pale	-3890
gative	-3891
▁issue	-3892
▁leads	-3893
▁might	-3894
▁yeast	-3895
▁agents	-3896
▁likely	-3897
▁prevent	-3898
▁Dynamics	-3899
▁relative	-3900
omposition	-3901
▁electrons	-3902
▁applicable	-3903
▁epigenetic	-3904
▁synchrotron	-3905
▁contribution	-3906
▁transcription	-3907
åg	-3908
ged	-3909
▁ny	-3910
bara	-3911
oper	-3912
▁PFAS	-3913
▁uses	-3914
▁sound	-3915
▁tumor	-3916
▁output	-3917
▁conform	-3918
▁lattice	-3919
▁molekyl	-3920
▁subsequ	-3921
▁automated	-3922
▁enhancing	-3923
▁combustion	-3924
▁efficiently	-3925
▁Computational	-3926
amp	-3927
app	-3928
bes	-3929
▁THz	-3930
emann	-3931
▁adop	-3932
▁emit	-3933
▁feas	-3934
▁medi	-3935
▁recyc	-3936
quality	-3937
▁disrup	-3938
enskaper	-3939
▁fitness	-3940
▁antibiotic	-3941
▁programming	-3942
▁semiconductor	-3943
▁systematically	-3944
MO	-3945
gr	-3946
ina	-3947
var	-3948
▁ga	-3949
bers	-3950
bätt	-3951
else	-3952
▁lif	-3953
iffer	-3954
incip	-3955
lands	-3956
osome	-3957
called	-3958
▁Models	-3959
▁Recent	-3960
▁pollin	-3961
▁princip	-3962
▁strains	-3963
imensions	-3964
▁Intellig	-3965
▁advancing	-3966
▁evaluated	-3967
▁reliability	-3968
▁concentration	-3969
▁simultaneously	-3970
▁transformation	-3971
CT	-3972
IN	-3973
io	-3974
år	-3975
bal	-3976
gue	-3977
vis	-3978
eper	-3979
side	-3980
▁mim	-3981
▁tens	-3982
alling	-3983
drogen	-3984
verkan	-3985
▁First	-3986
▁every	-3987
▁interf	-3988
▁amyloid	-3989
▁benefit	-3990
▁homogen	-3991
▁deformation	-3992
DEs	-3993
arb	-3994
oids	-3995
onds	-3996
pass	-3997
▁Rob	-3998
acing	-3999
▁From	-4000
▁surg	-4001
▁fungi	-4002
▁nanof	-4003
ierarch	-4004
▁recomb	-4005
baserade	-4006
▁counter	-4007
▁acoustic	-4008
▁exploring	-4009
▁microwave	-4010
▁completely	-4011
▁electrodes	-4012
▁experience	-4013
▁AL	-4014
▁On	-4015
RNAs	-4016
imer	-4017
▁cop	-4018
plored	-4019
▁Human	-4020
▁Novel	-4021
▁drive	-4022
▁steps	-4023
▁compare	-4024
▁kinetic	-4025
▁starting	-4026
▁functionality	-4027
DNA	-4028
▁Ind	-4029
▁Neu	-4030
▁ick	-4031
▁log	-4032
odies	-4033
ynamik	-4034
forming	-4035
▁caused	-4036
▁Riemann	-4037
▁cycling	-4038
abilistic	-4039
▁circuits	-4040
▁embedded	-4041
▁estimate	-4042
▁connection	-4043
▁generative	-4044
▁computation	-4045
▁Additionally	-4046
▁contributions	-4047
WP	-4048
can	-4049
inf	-4050
erve	-4051
▁slow	-4052
▁multic	-4053
ications	-4054
mutative	-4055
▁reasoning	-4056
▁biomarkers	-4057
▁availability	-4058
▁developments	-4059
▁19	-4060
rand	-4061
▁inj	-4062
itude	-4063
▁inom	-4064
▁vast	-4065
▁infer	-4066
▁deeper	-4067
omponent	-4068
genskaper	-4069
▁movement	-4070
▁existence	-4071
▁diagnostic	-4072
▁dimensions	-4073
▁responsible	-4074
2-	-4075
SS	-4076
TH	-4077
tz	-4078
ilk	-4079
oti	-4080
▁If	-4081
▁kol	-4082
ocene	-4083
▁Adap	-4084
▁cryo	-4085
▁lines	-4086
▁nanom	-4087
▁newly	-4088
ulering	-4089
▁shifts	-4090
▁Organic	-4091
▁neurons	-4092
▁reinfor	-4093
▁crystals	-4094
▁discrete	-4095
▁selected	-4096
▁collected	-4097
▁transient	-4098
▁signatures	-4099
▁validation	-4100
biv	-4101
het	-4102
aper	-4103
järn	-4104
oplas	-4105
▁Mars	-4106
▁miss	-4107
orders	-4108
▁drought	-4109
▁unravel	-4110
▁planning	-4111
▁services	-4112
▁tropical	-4113
▁candidate	-4114
▁cognitive	-4115
▁hypotheses	-4116
2)	-4117
bry	-4118
ird	-4119
ysi	-4120
▁AD	-4121
▁bo	-4122
ounts	-4123
▁chem	-4124
▁Graph	-4125
▁acids	-4126
▁death	-4127
▁kvant	-4128
elastic	-4129
▁Mechan	-4130
▁forces	-4131
▁stages	-4132
▁planets	-4133
▁tissues	-4134
▁projects	-4135
▁rational	-4136
▁surround	-4137
▁resonance	-4138
▁additional	-4139
▁vegetation	-4140
hal	-4141
tun	-4142
ush	-4143
oxic	-4144
▁Nya	-4145
▁cav	-4146
▁kin	-4147
gener	-4148
tious	-4149
edical	-4150
▁decay	-4151
▁media	-4152
▁Method	-4153
▁hydrog	-4154
▁severe	-4155
▁dataset	-4156
▁northern	-4157
▁supported	-4158
performance	-4159
az	-4160
wh	-4161
type	-4162
ysts	-4163
▁Pol	-4164
▁ves	-4165
▁Over	-4166
▁idea	-4167
▁lies	-4168
rained	-4169
▁Higgs	-4170
▁antib	-4171
▁bring	-4172
▁inner	-4173
▁place	-4174
▁attack	-4175
▁exploit	-4176
▁measured	-4177
ifications	-4178
▁multiscale	-4179
▁phenomenon	-4180
▁electrolytes	-4181
▁electromagnetic	-4182
Ls	-4183
gt	-4184
lock	-4185
rays	-4186
▁Sol	-4187
▁Str	-4188
▁doc	-4189
▁pip	-4190
ancer	-4191
etric	-4192
▁Biom	-4193
▁Comb	-4194
▁Soft	-4195
▁user	-4196
atorer	-4197
ectors	-4198
▁costs	-4199
▁fiber	-4200
▁lakes	-4201
▁motiv	-4202
▁vital	-4203
ändring	-4204
▁derive	-4205
▁Physics	-4206
▁Through	-4207
structures	-4208
▁dimensional	-4209
▁regeneration	-4210
bit	-4211
iii	-4212
van	-4213
braf	-4214
vance	-4215
ancing	-4216
▁crack	-4217
▁action	-4218
▁satell	-4219
▁widely	-4220
ynthetic	-4221
▁inhibit	-4222
▁Electron	-4223
▁consists	-4224
▁spectrum	-4225
▁symmetry	-4226
▁ultimate	-4227
▁predicting	-4228
▁functioning	-4229
▁fluctuations	-4230
▁heterogeneous	-4231
▁opportunities	-4232
▁possibilities	-4233
SA	-4234
agen	-4235
char	-4236
otes	-4237
▁Bio	-4238
▁rib	-4239
▁rot	-4240
▁fibr	-4241
olding	-4242
olymer	-4243
▁Solar	-4244
▁excit	-4245
▁later	-4246
▁muscle	-4247
▁exhibit	-4248
▁inverse	-4249
▁methane	-4250
▁resolve	-4251
▁coherent	-4252
▁photonic	-4253
▁dependent	-4254
▁disorders	-4255
▁Functional	-4256
▁categories	-4257
▁treatments	-4258
▁concentrations	-4259
Ts	-4260
ret	-4261
▁Tw	-4262
▁ek	-4263
apor	-4264
▁sus	-4265
bolic	-4266
▁Magn	-4267
▁Sing	-4268
▁subs	-4269
▁adsor	-4270
▁block	-4271
▁learn	-4272
▁total	-4273
▁though	-4274
▁experts	-4275
▁implant	-4276
▁massive	-4277
▁employed	-4278
▁wireless	-4279
▁migration	-4280
▁speciation	-4281
▁differentiation	-4282
dd	-4283
ando	-4284
▁infl	-4285
▁meet	-4286
▁repe	-4287
▁site	-4288
▁error	-4289
▁trade	-4290
ultural	-4291
▁Neural	-4292
▁timing	-4293
izations	-4294
itational	-4295
oplankton	-4296
▁European	-4297
▁intermedi	-4298
▁conjecture	-4299
▁healthcare	-4300
▁interfacial	-4301
▁propagation	-4302
▁breakthrough	-4303
▁10	-4304
▁ri	-4305
ords	-4306
▁get	-4307
▁harv	-4308
inning	-4309
tially	-4310
▁anten	-4311
▁Carbon	-4312
▁define	-4313
▁förstå	-4314
▁ultras	-4315
▁isotope	-4316
▁persist	-4317
ekanismer	-4318
▁Research	-4319
▁followed	-4320
▁topology	-4321
▁Materials	-4322
▁ultimately	-4323
▁connections	-4324
▁contributing	-4325
enn	-4326
apac	-4327
ende	-4328
ingu	-4329
point	-4330
▁Time	-4331
▁olig	-4332
▁gases	-4333
▁surve	-4334
andling	-4335
▁biolog	-4336
▁deploy	-4337
▁metast	-4338
▁integra	-4339
▁mineral	-4340
▁integral	-4341
▁relevance	-4342
▁sequences	-4343
commutative	-4344
▁requirements	-4345
▁decomposition	-4346
oms	-4347
ora	-4348
gram	-4349
▁Ins	-4350
▁eng	-4351
▁fat	-4352
▁sug	-4353
▁unc	-4354
figur	-4355
▁Mass	-4356
▁cyan	-4357
▁hind	-4358
▁aging	-4359
▁prove	-4360
▁excell	-4361
▁barrier	-4362
▁coastal	-4363
▁created	-4364
▁metoder	-4365
gineering	-4366
▁funktion	-4367
▁estimates	-4368
▁technical	-4369
▁background	-4370
▁structured	-4371
▁opportunity	-4372
▁prep	-4373
▁proj	-4374
cement	-4375
effici	-4376
▁Water	-4377
omestic	-4378
ometric	-4379
physics	-4380
▁evolved	-4381
▁finding	-4382
▁regular	-4383
ceptional	-4384
▁clusters	-4385
▁decisions	-4386
▁substantial	-4387
▁correlations	-4388
▁reproductive	-4389
ID	-4390
NNs	-4391
nad	-4392
way	-4393
eity	-4394
iskt	-4395
ympt	-4396
▁alg	-4397
▁bud	-4398
▁ste	-4399
arbon	-4400
otrop	-4401
ource	-4402
spect	-4403
▁root	-4404
▁sulf	-4405
▁recru	-4406
▁risks	-4407
▁seeks	-4408
▁assays	-4409
▁bridge	-4410
▁forward	-4411
rological	-4412
▁Chemical	-4413
▁mixtures	-4414
▁pathogen	-4415
▁peptides	-4416
▁diagnosis	-4417
▁excellent	-4418
▁secondary	-4419
▁validated	-4420
▁greenhouse	-4421
▁correlation	-4422
▁conductivity	-4423
Ga	-4424
Rs	-4425
TE	-4426
hol	-4427
iga	-4428
sts	-4429
▁Be	-4430
mers	-4431
▁own	-4432
phase	-4433
riend	-4434
▁just	-4435
▁seen	-4436
▁side	-4437
▁över	-4438
▁built	-4439
▁equip	-4440
▁vesic	-4441
alities	-4442
▁clouds	-4443
▁adapted	-4444
▁struktur	-4445
▁expansion	-4446
▁primarily	-4447
▁variables	-4448
▁manipulation	-4449
MA	-4450
PE	-4451
ame	-4452
jup	-4453
▁ey	-4454
ding	-4455
radi	-4456
▁100	-4457
▁who	-4458
inger	-4459
▁orth	-4460
associ	-4461
atitud	-4462
▁fresh	-4463
▁insul	-4464
▁liter	-4465
▁users	-4466
▁effort	-4467
▁living	-4468
▁mixing	-4469
▁moment	-4470
▁remote	-4471
▁benefits	-4472
▁coatings	-4473
▁neutrino	-4474
▁positive	-4475
▁composite	-4476
▁generating	-4477
▁statistics	-4478
▁tomography	-4479
▁determining	-4480
▁classification	-4481
PS	-4482
LAS	-4483
hydr	-4484
merc	-4485
▁gre	-4486
▁tax	-4487
power	-4488
usive	-4489
▁roll	-4490
▁suff	-4491
▁Monte	-4492
▁adhes	-4493
▁avoid	-4494
▁navig	-4495
▁thick	-4496
▁builds	-4497
▁compet	-4498
▁medium	-4499
▁tackle	-4500
plicated	-4501
▁dioxide	-4502
▁feature	-4503
▁liquids	-4504
▁constitu	-4505
▁platforms	-4506
▁ultrafast	-4507
▁unexplored	-4508
▁infrastructure	-4509
▁pharmaceutical	-4510
omy	-4511
▁Cor	-4512
▁law	-4513
local	-4514
skopi	-4515
thers	-4516
▁motor	-4517
brafish	-4518
inction	-4519
▁analyse	-4520
▁Networks	-4521
▁circular	-4522
▁vehicles	-4523
▁direction	-4524
▁worldwide	-4525
▁antimicrobial	-4526
▁approximation	-4527
eth	-4528
itax	-4529
ovol	-4530
tile	-4531
idden	-4532
ields	-4533
layer	-4534
omers	-4535
▁ambi	-4536
▁fine	-4537
▁Ocean	-4538
▁explan	-4539
▁insect	-4540
▁exposed	-4541
▁respond	-4542
▁Recently	-4543
▁Universe	-4544
▁offering	-4545
▁protocols	-4546
▁boundaries	-4547
▁multimodal	-4548
▁relatively	-4549
▁comparative	-4550
▁significance	-4551
-4	-4552
EE	-4553
pol	-4554
▁Me	-4555
iljö	-4556
▁Ant	-4557
▁Gal	-4558
actic	-4559
▁Plas	-4560
▁Sust	-4561
▁pass	-4562
bättra	-4563
▁Carlo	-4564
▁antic	-4565
▁plasm	-4566
▁traff	-4567
inating	-4568
▁consid	-4569
▁histor	-4570
▁manner	-4571
▁competi	-4572
▁million	-4573
▁applying	-4574
▁channels	-4575
▁fracture	-4576
▁property	-4577
▁sediments	-4578
▁tolerance	-4579
▁leveraging	-4580
▁physiology	-4581
▁neuromorphic	-4582
▁architectures	-4583
fär	-4584
uls	-4585
▁Sk	-4586
atin	-4587
enes	-4588
▁pic	-4589
▁van	-4590
alian	-4591
eline	-4592
idity	-4593
▁Arch	-4594
▁Neut	-4595
▁bran	-4596
▁dual	-4597
▁icke	-4598
▁Hence	-4599
▁deriv	-4600
▁plays	-4601
▁soils	-4602
actions	-4603
▁aiming	-4604
▁fungal	-4605
▁cluster	-4606
▁neurode	-4607
▁ranging	-4608
ovascular	-4609
▁hierarch	-4610
generative	-4611
temperature	-4612
▁frameworks	-4613
▁photocatal	-4614
▁antibiotics	-4615
▁diffraction	-4616
▁intelligent	-4617
▁macroscopic	-4618
▁microscopic	-4619
▁organization	-4620
▁spectroscopic	-4621
ss	-4622
nan	-4623
vär	-4624
ancy	-4625
avel	-4626
uild	-4627
ulos	-4628
▁LHC	-4629
▁adj	-4630
eling	-4631
graph	-4632
▁lith	-4633
▁rece	-4634
dentif	-4635
stream	-4636
▁Plant	-4637
▁Since	-4638
▁shear	-4639
▁start	-4640
riendly	-4641
▁herbiv	-4642
▁normal	-4643
▁others	-4644
▁amounts	-4645
▁defined	-4646
▁missing	-4647
▁additive	-4648
▁leverage	-4649
▁limiting	-4650
▁printing	-4651
▁rigorous	-4652
▁variants	-4653
▁accurately	-4654
evolutionary	-4655
▁exceptional	-4656
▁modellering	-4657
▁Experimental	-4658
▁advancements	-4659
▁computations	-4660
askininlärning	-4661
50	-4662
SI	-4663
hom	-4664
▁PC	-4665
aged	-4666
life	-4667
loud	-4668
lägg	-4669
▁sen	-4670
apies	-4671
ophil	-4672
osity	-4673
▁mRNA	-4674
▁maps	-4675
▁prox	-4676
idates	-4677
making	-4678
▁Therm	-4679
▁attem	-4680
▁hence	-4681
▁polic	-4682
baserad	-4683
inement	-4684
▁accept	-4685
▁cycles	-4686
material	-4687
▁closely	-4688
▁metrics	-4689
▁gradient	-4690
▁settings	-4691
conductivity	-4692
▁utilization	-4693
▁modification	-4694
LC	-4695
bor	-4696
▁Li	-4697
▁MRI	-4698
▁put	-4699
print	-4700
▁casc	-4701
▁edge	-4702
▁gran	-4703
▁home	-4704
ovolta	-4705
▁charg	-4706
ractive	-4707
▁Partic	-4708
▁fluids	-4709
▁longer	-4710
▁regime	-4711
assembly	-4712
requency	-4713
▁Control	-4714
▁cooling	-4715
▁neutral	-4716
▁pattern	-4717
▁molecule	-4718
▁provided	-4719
▁described	-4720
▁substrate	-4721
▁perception	-4722
▁substrates	-4723
▁aggregation	-4724
▁collaborators	-4725
▁complementary	-4726
Co	-4727
öm	-4728
box	-4729
rig	-4730
zhe	-4731
estr	-4732
▁Rad	-4733
▁Syn	-4734
▁ill	-4735
▁väx	-4736
atigue	-4737
chmark	-4738
▁ideal	-4739
▁precip	-4740
mediated	-4741
▁healthy	-4742
▁inflamm	-4743
▁peptide	-4744
▁virtual	-4745
▁abundant	-4746
▁condition	-4747
▁inorganic	-4748
▁candidates	-4749
▁literature	-4750
▁pollutants	-4751
▁signalling	-4752
▁metabolites	-4753
▁polarization	-4754
ST	-4755
cal	-4756
▁ii	-4757
alge	-4758
ooth	-4759
valu	-4760
▁Acc	-4761
▁Tra	-4762
▁fix	-4763
arant	-4764
eries	-4765
▁Many	-4766
▁vibr	-4767
jukdom	-4768
▁earth	-4769
▁inher	-4770
ocation	-4771
odegrad	-4772
uctions	-4773
▁synerg	-4774
▁despite	-4775
▁entropy	-4776
▁gravity	-4777
▁insects	-4778
▁modular	-4779
▁societal	-4780
▁mitigation	-4781
▁developmental	-4782
▁uncertainties	-4783
▁quantification	-4784
▁transformations	-4785
RO	-4786
aken	-4787
▁Reg	-4788
▁Sch	-4789
▁mid	-4790
▁spl	-4791
times	-4792
▁cold	-4793
▁priv	-4794
arctic	-4795
design	-4796
erande	-4797
rosion	-4798
▁align	-4799
▁string	-4800
▁vector	-4801
▁promote	-4802
▁weather	-4803
ämpningar	-4804
▁detected	-4805
▁simulate	-4806
▁magnetism	-4807
▁flexibility	-4808
▁polynomials	-4809
nik	-4810
▁SC	-4811
arse	-4812
jälp	-4813
luor	-4814
kvens	-4815
▁semi	-4816
analys	-4817
partic	-4818
▁array	-4819
▁compr	-4820
▁serve	-4821
▁stage	-4822
▁trace	-4823
▁aspect	-4824
▁overlo	-4825
entation	-4826
ibration	-4827
▁Process	-4828
▁astroph	-4829
▁details	-4830
▁modified	-4831
▁organism	-4832
▁addressed	-4833
▁emergence	-4834
▁correlated	-4835
▁probability	-4836
SM	-4837
la	-4838
len	-4839
▁Mar	-4840
▁Yet	-4841
▁bed	-4842
▁urg	-4843
uling	-4844
vised	-4845
▁cere	-4846
parent	-4847
usions	-4848
▁Spati	-4849
▁hjälp	-4850
▁trait	-4851
uilding	-4852
▁nuclei	-4853
▁forming	-4854
▁database	-4855
▁instance	-4856
▁affecting	-4857
▁electrolyte	-4858
▁accumulation	-4859
▁probabilistic	-4860
▁microstructure	-4861
2.	-4862
ift	-4863
tag	-4864
▁Ab	-4865
▁Ec	-4866
▁Le	-4867
ulus	-4868
▁KTH	-4869
angle	-4870
▁base	-4871
▁earl	-4872
▁epid	-4873
ätverk	-4874
▁assum	-4875
▁effic	-4876
▁heart	-4877
▁ageing	-4878
▁occurs	-4879
▁display	-4880
▁promise	-4881
▁subject	-4882
▁creation	-4883
▁currents	-4884
▁solvents	-4885
▁producing	-4886
▁introduced	-4887
▁invariants	-4888
▁subsequent	-4889
▁selectivity	-4890
▁translation	-4891
▁entanglement	-4892
▁phylogenetic	-4893
▁gravitational	-4894
▁observational	-4895
▁diversification	-4896
▁7	-4897
▁Gr	-4898
sens	-4899
vänd	-4900
▁All	-4901
▁too	-4902
istor	-4903
riska	-4904
▁diet	-4905
▁lake	-4906
▁look	-4907
▁seas	-4908
ercury	-4909
▁Alzhe	-4910
▁depos	-4911
herence	-4912
▁During	-4913
▁astron	-4914
▁experi	-4915
▁fibers	-4916
▁having	-4917
▁pulses	-4918
▁compact	-4919
▁lacking	-4920
▁photons	-4921
▁streams	-4922
▁breeding	-4923
▁regulate	-4924
▁benchmark	-4925
▁satellite	-4926
▁geometries	-4927
▁microfluid	-4928
▁independent	-4929
▁heterogeneity	-4930
▁semiconductors	-4931
St	-4932
raw	-4933
▁Dr	-4934
▁Is	-4935
rost	-4936
ytes	-4937
▁ago	-4938
▁web	-4939
plant	-4940
veloc	-4941
▁ones	-4942
▁Nucle	-4943
ductive	-4944
▁deform	-4945
▁desired	-4946
organisms	-4947
▁regional	-4948
▁continuum	-4949
▁operating	-4950
▁Structural	-4951
▁determined	-4952
▁proteomics	-4953
▁corresponding	-4954
▁modifications	-4955
▁thermodynamic	-4956
▁nanostructures	-4957
CH	-4958
mat	-4959
ops	-4960
rob	-4961
sök	-4962
▁Af	-4963
▁Mo	-4964
anti	-4965
▁Ass	-4966
▁sor	-4967
▁tid	-4968
ophag	-4969
rices	-4970
▁When	-4971
▁opto	-4972
▁pore	-4973
▁pred	-4974
coding	-4975
▁colon	-4976
▁fuels	-4977
▁modes	-4978
▁scaff	-4979
ostasis	-4980
▁almost	-4981
▁microc	-4982
▁online	-4983
▁taking	-4984
▁Complex	-4985
▁Identif	-4986
▁commerc	-4987
▁disturb	-4988
▁komplex	-4989
▁magnets	-4990
ändringar	-4991
▁climatic	-4992
▁detector	-4993
▁elektron	-4994
▁mobility	-4995
▁achieving	-4996
▁analyzing	-4997
▁governing	-4998
▁increases	-4999
▁composites	-5000
▁facilities	-5001
▁procedures	-5002
▁environmentally	-5003
dep	-5004
ito	-5005
▁Ag	-5006
▁Ice	-5007
▁pie	-5008
▁tre	-5009
▁vul	-5010
itors	-5011
▁live	-5012
▁melt	-5013
▁pave	-5014
▁seed	-5015
istors	-5016
▁Metal	-5017
roscopy	-5018
▁epitax	-5019
▁prepar	-5020
▁volume	-5021
ymmetric	-5022
▁another	-5023
▁carrier	-5024
▁elastic	-5025
▁greatly	-5026
▁unclear	-5027
avelength	-5028
▁analytic	-5029
▁examples	-5030
▁metallic	-5031
▁languages	-5032
▁profiling	-5033
▁therapies	-5034
▁hypothesize	-5035
▁reproduction	-5036
EN	-5037
öj	-5038
fil	-5039
ped	-5040
▁Ox	-5041
▁UV	-5042
oner	-5043
▁Num	-5044
▁dys	-5045
▁fre	-5046
▁mis	-5047
andin	-5048
ommun	-5049
stein	-5050
ubric	-5051
▁Dist	-5052
▁anis	-5053
▁libr	-5054
apping	-5055
charge	-5056
▁ATLAS	-5057
▁force	-5058
▁trust	-5059
▁Single	-5060
▁chiral	-5061
▁cyanob	-5062
▁exotic	-5063
▁itself	-5064
ospheric	-5065
▁actions	-5066
▁guarant	-5067
▁traject	-5068
▁economic	-5069
▁fraction	-5070
▁plastics	-5071
▁utilized	-5072
throughput	-5073
▁expensive	-5074
▁recycling	-5075
▁suggested	-5076
thropogenic	-5077
▁biophysical	-5078
▁specificity	-5079
▁mitochondrial	-5080
▁thermoelectric	-5081
▁transcriptomics	-5082
Ds	-5083
PI	-5084
pri	-5085
atus	-5086
cing	-5087
oxid	-5088
▁muc	-5089
arget	-5090
rying	-5091
escent	-5092
▁birds	-5093
▁stand	-5094
romatic	-5095
▁assist	-5096
▁fertil	-5097
▁handle	-5098
▁initio	-5099
▁quanti	-5100
▁sexual	-5101
▁realize	-5102
▁negative	-5103
▁gradients	-5104
▁zebrafish	-5105
▁Sustainable	-5106
▁interpretation	-5107
-3	-5108
4)	-5109
Gs	-5110
alk	-5111
eor	-5112
ria	-5113
▁Av	-5114
eräk	-5115
flic	-5116
obic	-5117
▁But	-5118
micro	-5119
▁actu	-5120
▁skin	-5121
abolic	-5122
aching	-5123
▁holes	-5124
unction	-5125
▁compil	-5126
▁double	-5127
▁faster	-5128
▁repres	-5129
olecules	-5130
▁biosens	-5131
▁respect	-5132
▁contamin	-5133
▁introduce	-5134
▁Utveckling	-5135
▁containing	-5136
▁operations	-5137
▁computationally	-5138
▁(1	-5139
▁ur	-5140
▁Cal	-5141
▁Top	-5142
▁dro	-5143
▁liv	-5144
asers	-5145
ectic	-5146
inery	-5147
olith	-5148
▁Glob	-5149
▁Real	-5150
▁beta	-5151
▁dram	-5152
▁elev	-5153
acchar	-5154
atalys	-5155
▁Based	-5156
▁below	-5157
▁chain	-5158
▁fibre	-5159
▁sense	-5160
▁losses	-5161
▁repair	-5162
breaking	-5163
▁failure	-5164
▁ligands	-5165
▁original	-5166
▁proposes	-5167
▁egenskaper	-5168
▁microbiota	-5169
▁photovolta	-5170
▁regulating	-5171
▁represents	-5172
▁throughout	-5173
▁surrounding	-5174
CS	-5175
sta	-5176
war	-5177
vari	-5178
▁Sci	-5179
▁hem	-5180
▁kem	-5181
▁mal	-5182
fully	-5183
▁Anti	-5184
▁Both	-5185
▁Sens	-5186
▁bioc	-5187
ported	-5188
▁aimed	-5189
▁eigen	-5190
▁whose	-5191
stellar	-5192
▁degree	-5193
▁gained	-5194
▁respir	-5195
▁sugges	-5196
▁Digital	-5197
▁fatigue	-5198
▁commonly	-5199
▁explicit	-5200
▁microbes	-5201
▁superior	-5202
▁employing	-5203
▁predicted	-5204
▁reconstruct	-5205
▁localization	-5206
▁applicability	-5207
▁combinatorial	-5208
PT	-5209
au	-5210
sl	-5211
uce	-5212
▁AR	-5213
▁Tr	-5214
▁Dir	-5215
▁nam	-5216
ading	-5217
iform	-5218
osfär	-5219
overy	-5220
▁biot	-5221
▁disk	-5222
▁memb	-5223
▁phyt	-5224
biotic	-5225
osomal	-5226
▁Space	-5227
▁alkal	-5228
▁ferro	-5229
▁regim	-5230
▁veloc	-5231
otropic	-5232
▁conjug	-5233
▁defect	-5234
▁evolve	-5235
▁physic	-5236
▁proton	-5237
▁static	-5238
▁channel	-5239
▁Advanced	-5240
▁domestic	-5241
▁universe	-5242
vironmental	-5243
▁biomedical	-5244
▁extraction	-5245
▁productivity	-5246
0.	-5247
PU	-5248
▁8	-5249
alae	-5250
oday	-5251
opes	-5252
stud	-5253
▁Sam	-5254
▁Sub	-5255
iquid	-5256
range	-5257
▁happ	-5258
▁inde	-5259
▁purs	-5260
▁stri	-5261
resist	-5262
▁crust	-5263
▁setup	-5264
▁shall	-5265
▁spint	-5266
▁fronti	-5267
▁inters	-5268
▁broader	-5269
▁monitor	-5270
▁Investig	-5271
▁determin	-5272
▁habitats	-5273
▁immunity	-5274
▁infrared	-5275
▁matrices	-5276
▁profiles	-5277
▁tracking	-5278
▁variable	-5279
▁vesicles	-5280
▁describing	-5281
▁extinction	-5282
▁perovskite	-5283
▁utveckling	-5284
▁discoveries	-5285
▁precipitation	-5286
▁superconducting	-5287
AB	-5288
ps	-5289
ners	-5290
▁Two	-5291
▁aer	-5292
▁bos	-5293
hertz	-5294
iring	-5295
▁Lund	-5296
▁exec	-5297
▁clean	-5298
▁topic	-5299
duktion	-5300
dynamik	-5301
inguish	-5302
vergent	-5303
▁causing	-5304
▁radical	-5305
▁regimes	-5306
▁category	-5307
▁polymorph	-5308
▁harvesting	-5309
▁electricity	-5310
▁Intelligence	-5311
ih	-5312
▁SM	-5313
orth	-5314
ours	-5315
plas	-5316
sian	-5317
vent	-5318
▁201	-5319
▁Upp	-5320
▁ham	-5321
super	-5322
▁face	-5323
atible	-5324
lantic	-5325
lering	-5326
▁grain	-5327
▁resid	-5328
riction	-5329
▁acquis	-5330
▁asympt	-5331
▁Current	-5332
▁conflic	-5333
▁depends	-5334
▁heating	-5335
▁numerous	-5336
▁detecting	-5337
▁enzymatic	-5338
▁magnitude	-5339
▁accelerate	-5340
▁divergence	-5341
▁freshwater	-5342
▁protection	-5343
▁behavioural	-5344
▁establishing	-5345
▁biogeochemical	-5346
Al	-5347
jus	-5348
lat	-5349
oor	-5350
▁Fr	-5351
eres	-5352
▁ann	-5353
eyond	-5354
▁Four	-5355
▁meta	-5356
▁road	-5357
ording	-5358
▁chlor	-5359
▁gauge	-5360
▁pairs	-5361
ymmetry	-5362
▁Differ	-5363
▁microm	-5364
▁supply	-5365
▁excited	-5366
▁national	-5367
▁profound	-5368
▁Alzheimer	-5369
▁atomistic	-5370
▁versatile	-5371
equilibrium	-5372
▁advantages	-5373
▁behavioral	-5374
▁adaptations	-5375
▁considering	-5376
▁maintaining	-5377
▁progression	-5378
▁extracellular	-5379
▁cardiovascular	-5380
▁2.	-5381
aced	-5382
oming	-5383
posed	-5384
vious	-5385
▁Quan	-5386
▁bias	-5387
▁foot	-5388
▁peat	-5389
▁push	-5390
▁true	-5391
ulence	-5392
weight	-5393
▁Numer	-5394
▁quasi	-5395
▁wound	-5396
defined	-5397
ontroll	-5398
▁govern	-5399
▁lipids	-5400
▁lubric	-5401
▁orient	-5402
▁routes	-5403
otherapy	-5404
▁designs	-5405
▁privacy	-5406
▁records	-5407
▁affinity	-5408
▁globally	-5409
▁biodegrad	-5410
▁comparing	-5411
▁regulated	-5412
▁accessible	-5413
▁modulation	-5414
▁Engineering	-5415
▁acquisition	-5416
▁incorporate	-5417
▁determination	-5418
▁reinforcement	-5419
▁microorganisms	-5420
nas	-5421
rab	-5422
xts	-5423
-202	-5424
cons	-5425
idop	-5426
offs	-5427
vity	-5428
▁Ele	-5429
▁Tel	-5430
▁urb	-5431
▁huge	-5432
▁pure	-5433
▁rati	-5434
pected	-5435
▁Afric	-5436
▁Today	-5437
▁urban	-5438
▁Commun	-5439
▁doping	-5440
▁proven	-5441
learning	-5442
▁Further	-5443
▁anticip	-5444
▁biofilm	-5445
▁demands	-5446
▁minimal	-5447
estration	-5448
▁Magnetic	-5449
▁contexts	-5450
▁efficacy	-5451
▁inherent	-5452
▁suggests	-5453
▁assessing	-5454
▁measuring	-5455
▁collective	-5456
▁conducting	-5457
▁initiation	-5458
▁pathogenic	-5459
▁vertebrates	-5460
▁successfully	-5461
TS	-5462
SCs	-5463
min	-5464
ält	-5465
wise	-5466
▁Hur	-5467
▁dig	-5468
▁eco	-5469
▁ell	-5470
▁spe	-5471
itter	-5472
toral	-5473
coming	-5474
ronics	-5475
▁least	-5476
▁links	-5477
ptional	-5478
▁causal	-5479
▁relies	-5480
▁assembl	-5481
▁plasmon	-5482
opulation	-5483
▁analyzed	-5484
▁appropri	-5485
▁barriers	-5486
▁guarante	-5487
▁recovery	-5488
tification	-5489
▁Antarctic	-5490
▁generally	-5491
▁occurring	-5492
▁engineered	-5493
▁influences	-5494
▁effectively	-5495
▁generations	-5496
▁recombination	-5497
▁tillämpningar	-5498
rh	-5499
akt	-5500
alg	-5501
ash	-5502
omm	-5503
ozo	-5504
tex	-5505
äng	-5506
▁LL	-5507
▁MO	-5508
uing	-5509
▁don	-5510
▁vär	-5511
▁Oper	-5512
▁salt	-5513
▁Catal	-5514
▁Dynam	-5515
▁Enzym	-5516
▁quick	-5517
idelity	-5518
▁hidden	-5519
▁values	-5520
▁volcan	-5521
▁Methods	-5522
▁bottlen	-5523
▁numbers	-5524
▁publish	-5525
▁unified	-5526
▁Atlantic	-5527
▁carriers	-5528
▁resolved	-5529
▁searches	-5530
electronic	-5531
▁abundance	-5532
▁corrosion	-5533
▁manifolds	-5534
▁planetary	-5535
▁spatially	-5536
▁eukaryotic	-5537
▁circulation	-5538
▁personalized	-5539
SPR	-5540
▁kn	-5541
adap	-5542
conn	-5543
otal	-5544
▁Ast	-5545
▁Due	-5546
▁tex	-5547
press	-5548
▁game	-5549
▁hund	-5550
▁zero	-5551
inding	-5552
▁accom	-5553
▁alloy	-5554
▁divid	-5555
▁extra	-5556
▁magne	-5557
acement	-5558
jective	-5559
▁induce	-5560
▁window	-5561
invasive	-5562
struktur	-5563
▁glasses	-5564
▁largest	-5565
▁silicon	-5566
▁traffic	-5567
▁overlook	-5568
▁nucleation	-5569
▁robustness	-5570
▁situations	-5571
▁frequencies	-5572
▁morphological	-5573
By	-5574
mar	-5575
ocl	-5576
ths	-5577
ärn	-5578
▁EC	-5579
▁IR	-5580
aman	-5581
ches	-5582
plex	-5583
▁CRI	-5584
▁wet	-5585
grade	-5586
inite	-5587
stead	-5588
▁prol	-5589
afrost	-5590
ogonal	-5591
emporal	-5592
factory	-5593
▁anomal	-5594
▁correc	-5595
▁vatten	-5596
tivation	-5597
▁dynamik	-5598
▁loading	-5599
▁spectra	-5600
radiation	-5601
▁constant	-5602
▁ensuring	-5603
▁Structure	-5604
▁capability	-5605
▁collection	-5606
▁geological	-5607
▁reactivity	-5608
▁symmetries	-5609
▁formulation	-5610
▁Ö	-5611
tid	-5612
önt	-5613
apse	-5614
ipid	-5615
mass	-5616
roup	-5617
▁net	-5618
▁vac	-5619
▁Cent	-5620
▁come	-5621
▁draw	-5622
▁stra	-5623
ometer	-5624
oplast	-5625
▁Light	-5626
▁agent	-5627
▁amino	-5628
▁polys	-5629
▁satis	-5630
▁units	-5631
derived	-5632
▁diatom	-5633
▁lasers	-5634
▁latter	-5635
▁vulner	-5636
modeller	-5637
▁Scandin	-5638
▁Surface	-5639
▁economy	-5640
▁emerged	-5641
▁modules	-5642
▁visible	-5643
▁Modeling	-5644
▁controls	-5645
▁revealed	-5646
▁computers	-5647
▁invariant	-5648
▁automation	-5649
▁feasibility	-5650
▁incorporating	-5651
▁interaktioner	-5652
▁theoretically	-5653
ft	-5654
▁å	-5655
-19	-5656
del	-5657
▁IV	-5658
▁ST	-5659
▁So	-5660
▁ak	-5661
biqu	-5662
comp	-5663
osqu	-5664
oval	-5665
▁imm	-5666
▁orb	-5667
onics	-5668
▁elim	-5669
▁emph	-5670
▁sput	-5671
illing	-5672
retion	-5673
itional	-5674
vention	-5675
▁Global	-5676
▁Mathem	-5677
▁easily	-5678
▁enrich	-5679
▁metric	-5680
▁remark	-5681
ologiska	-5682
ophistic	-5683
urrently	-5684
▁connect	-5685
▁mammals	-5686
▁usually	-5687
▁isolated	-5688
▁Exploring	-5689
▁bioinform	-5690
▁conserved	-5691
▁nutrients	-5692
▁oxidative	-5693
▁reference	-5694
▁innovation	-5695
▁complicated	-5696
▁interactive	-5697
▁interventions	-5698
▁noncommutative	-5699
NP	-5700
aer	-5701
nab	-5702
orn	-5703
pha	-5704
uts	-5705
avor	-5706
blem	-5707
▁III	-5708
▁Inf	-5709
▁Lie	-5710
▁und	-5711
exist	-5712
forsk	-5713
▁djup	-5714
▁five	-5715
iering	-5716
lation	-5717
▁Laser	-5718
▁Prote	-5719
▁baser	-5720
▁boost	-5721
▁fault	-5722
▁paras	-5723
▁rings	-5724
▁third	-5725
▁ubiqu	-5726
osquito	-5727
▁Beyond	-5728
▁Extrem	-5729
▁enough	-5730
▁fibres	-5731
▁sjukdom	-5732
▁coloring	-5733
▁organized	-5734
▁adsorption	-5735
▁commercial	-5736
▁inhibitors	-5737
▁nanostruct	-5738
▁pioneering	-5739
▁contributes	-5740
▁perovskites	-5741
▁Spectroscopy	-5742
▁agricultural	-5743
▁anthropogenic	-5744
VD	-5745
oT	-5746
rak	-5747
sch	-5748
▁Te	-5749
berg	-5750
chip	-5751
▁GaN	-5752
▁pow	-5753
eties	-5754
ports	-5755
▁cust	-5756
▁Autom	-5757
▁Impro	-5758
▁ammon	-5759
▁dense	-5760
▁rough	-5761
prising	-5762
taining	-5763
▁energe	-5764
▁explos	-5765
▁ligand	-5766
▁precis	-5767
▁scheme	-5768
▁smooth	-5769
temporal	-5770
▁circuit	-5771
▁linking	-5772
▁replace	-5773
▁decrease	-5774
▁momentum	-5775
▁methylation	-5776
▁electrocatal	-5777
▁substantially	-5778
IM	-5779
PP	-5780
ato	-5781
sel	-5782
▁Ep	-5783
▁VR	-5784
▁nm	-5785
▁pH	-5786
enet	-5787
▁aid	-5788
▁big	-5789
▁esc	-5790
▁leg	-5791
▁seg	-5792
ectiv	-5793
▁bond	-5794
▁håll	-5795
▁kind	-5796
▁pump	-5797
▁volt	-5798
allium	-5799
ophagy	-5800
tition	-5801
▁added	-5802
▁famil	-5803
▁inhib	-5804
▁usage	-5805
tenance	-5806
▁Predic	-5807
▁bakter	-5808
▁bounds	-5809
▁choice	-5810
▁object	-5811
▁prefer	-5812
▁probes	-5813
▁trends	-5814
timately	-5815
▁defense	-5816
▁habitat	-5817
▁markers	-5818
▁members	-5819
frequency	-5820
▁indicate	-5821
▁isotopes	-5822
▁operando	-5823
▁partners	-5824
▁practice	-5825
▁expanding	-5826
▁extending	-5827
▁isolation	-5828
▁pressures	-5829
▁beneficial	-5830
▁eukaryotes	-5831
▁optimizing	-5832
▁singularities	-5833
▁collaborations	-5834
zz	-5835
Aim	-5836
MRI	-5837
gap	-5838
ikt	-5839
son	-5840
▁sy	-5841
emed	-5842
iant	-5843
oded	-5844
roly	-5845
veil	-5846
▁Hom	-5847
▁old	-5848
cepti	-5849
ograf	-5850
stånd	-5851
upled	-5852
▁Most	-5853
▁call	-5854
▁clar	-5855
▁drop	-5856
▁obst	-5857
erated	-5858
itudes	-5859
▁Phase	-5860
▁expon	-5861
▁miljö	-5862
▁omics	-5863
▁vapor	-5864
▁CRISPR	-5865
▁meteor	-5866
▁native	-5867
▁secure	-5868
▁syntes	-5869
▁telesc	-5870
▁Fourier	-5871
▁meaning	-5872
▁concrete	-5873
▁friction	-5874
▁mitigate	-5875
▁promises	-5876
osynthetic	-5877
zoelectric	-5878
▁Greenland	-5879
▁sophistic	-5880
▁varieties	-5881
▁researcher	-5882
▁supporting	-5883
▁improvement	-5884
▁observation	-5885
▁operational	-5886
IB	-5887
vå	-5888
▁/	-5889
▁~	-5890
How	-5891
fal	-5892
ked	-5893
tyg	-5894
ilky	-5895
ison	-5896
risk	-5897
▁Enh	-5898
▁Hol	-5899
▁SiC	-5900
▁sun	-5901
▁tor	-5902
▁Fram	-5903
▁date	-5904
▁diab	-5905
▁list	-5906
▁vacc	-5907
äkemed	-5908
▁Elekt	-5909
▁Milky	-5910
▁arise	-5911
▁color	-5912
▁deras	-5913
▁perme	-5914
▁proxy	-5915
▁uncon	-5916
rosophil	-5917
▁altered	-5918
▁chronic	-5919
▁forcing	-5920
▁novelty	-5921
▁picture	-5922
▁studier	-5923
▁trophic	-5924
▁energies	-5925
▁prepared	-5926
▁sciences	-5927
▁separate	-5928
▁vascular	-5929
▁dependence	-5930
▁convergence	-5931
▁distinguish	-5932
▁investigates	-5933
▁combinatorics	-5934
▁sequestration	-5935
EG	-5936
LL	-5937
rå	-5938
sim	-5939
apes	-5940
etes	-5941
hern	-5942
nabb	-5943
oler	-5944
otox	-5945
rors	-5946
ways	-5947
▁Tow	-5948
▁Way	-5949
▁bif	-5950
▁por	-5951
flows	-5952
ional	-5953
teori	-5954
▁Then	-5955
▁scar	-5956
▁trib	-5957
▁wast	-5958
▁comes	-5959
▁inver	-5960
project	-5961
▁mining	-5962
▁thresh	-5963
▁urgent	-5964
▁reflect	-5965
▁sensory	-5966
▁smaller	-5967
▁surgery	-5968
▁uniform	-5969
operative	-5970
▁Building	-5971
▁Technology	-5972
▁integrates	-5973
▁appropriate	-5974
▁maintenance	-5975
NPs	-5976
Pro	-5977
▁1.	-5978
▁Br	-5979
rate	-5980
vnad	-5981
▁SAR	-5982
▁deb	-5983
▁had	-5984
▁hor	-5985
▁iii	-5986
▁kon	-5987
▁upp	-5988
aster	-5989
iders	-5990
oform	-5991
▁diam	-5992
▁visc	-5993
▁webs	-5994
itance	-5995
ivotal	-5996
otypes	-5997
▁North	-5998
▁abstr	-5999
▁gräns	-6000
▁liver	-6001
▁lumin	-6002
ativity	-6003
metoder	-6004
▁galaxy	-6005
▁innate	-6006
▁mobile	-6007
▁obstac	-6008
▁concern	-6009
▁compound	-6010
▁supernov	-6011
▁Modelling	-6012
▁naturally	-6013
▁practices	-6014
▁resistant	-6015
▁universal	-6016
▁chemically	-6017
▁overlooked	-6018
▁substances	-6019
▁preparation	-6020
▁nanoparticle	-6021
AN	-6022
BS	-6023
ON	-6024
ete	-6025
pts	-6026
tsk	-6027
▁ke	-6028
cest	-6029
lass	-6030
sala	-6031
▁day	-6032
▁kar	-6033
plets	-6034
▁Fund	-6035
▁Gene	-6036
▁Sign	-6037
▁insp	-6038
▁move	-6039
▁tunn	-6040
tiklar	-6041
▁Kvant	-6042
▁fatty	-6043
▁gives	-6044
▁quark	-6045
▁retur	-6046
idopsis	-6047
orphous	-6048
▁deciph	-6049
▁divided	-6050
▁periods	-6051
operation	-6052
efficients	-6053
rabidopsis	-6054
▁behaviors	-6055
▁detectors	-6056
▁switching	-6057
▁attractive	-6058
▁conceptual	-6059
▁consisting	-6060
▁limitation	-6061
▁agriculture	-6062
▁scalability	-6063
▁improvements	-6064
▁optimisation	-6065
▁configuration	-6066
▁photosynthesis	-6067
cre	-6068
ika	-6069
orf	-6070
öst	-6071
▁MX	-6072
down	-6073
ervo	-6074
reds	-6075
▁Vis	-6076
▁beg	-6077
▁tub	-6078
ohydr	-6079
olite	-6080
▁Turb	-6081
▁bary	-6082
▁bild	-6083
▁hole	-6084
▁lens	-6085
▁mode	-6086
ormous	-6087
▁holds	-6088
▁print	-6089
▁relax	-6090
▁right	-6091
control	-6092
▁framti	-6093
▁mostly	-6094
▁suffer	-6095
▁timesc	-6096
▁toxins	-6097
▁yields	-6098
ellulose	-6099
particle	-6100
▁Optical	-6101
▁Spatial	-6102
▁attract	-6103
▁culture	-6104
▁locally	-6105
▁pivotal	-6106
▁scienti	-6107
▁becoming	-6108
▁interfer	-6109
▁volcanic	-6110
associated	-6111
▁activated	-6112
▁chromatin	-6113
▁principle	-6114
▁disordered	-6115
▁excitation	-6116
▁exploiting	-6117
▁assessments	-6118
▁equilibrium	-6119
▁irradiation	-6120
▁outstanding	-6121
▁coefficients	-6122
▁transcriptional	-6123
An	-6124
IP	-6125
cks	-6126
jur	-6127
änn	-6128
▁(3	-6129
aker	-6130
oral	-6131
▁Red	-6132
▁eye	-6133
▁hur	-6134
▁pan	-6135
eknik	-6136
emble	-6137
▁capt	-6138
▁mång	-6139
▁thor	-6140
ension	-6141
imeter	-6142
rology	-6143
▁Raman	-6144
▁angle	-6145
▁hosts	-6146
▁ideas	-6147
▁opens	-6148
▁Intern	-6149
▁electr	-6150
▁hamper	-6151
▁verify	-6152
iffusion	-6153
▁believe	-6154
▁tunable	-6155
rosophila	-6156
▁frontier	-6157
▁neuronal	-6158
▁permafrost	-6159
▁phenotypes	-6160
▁facilitating	-6161
▁maskininlärning	-6162
LE	-6163
que	-6164
▁Wa	-6165
▁ax	-6166
▁sv	-6167
ched	-6168
rome	-6169
▁Ett	-6170
▁Obs	-6171
▁arb	-6172
▁hum	-6173
▁uns	-6174
class	-6175
rande	-6176
▁Mark	-6177
▁PDEs	-6178
▁coli	-6179
▁deco	-6180
▁hold	-6181
▁laws	-6182
▁male	-6183
ifiers	-6184
▁Nanop	-6185
▁intra	-6186
▁radar	-6187
ogether	-6188
▁Modell	-6189
▁actual	-6190
▁expert	-6191
▁halide	-6192
▁spruce	-6193
▁waters	-6194
▁enabled	-6195
▁greater	-6196
▁healing	-6197
▁latitud	-6198
▁reality	-6199
▁ubiquit	-6200
▁Hydrogen	-6201
▁Software	-6202
▁enormous	-6203
▁extremes	-6204
▁astronomy	-6205
▁integrity	-6206
▁intensity	-6207
▁precisely	-6208
▁directions	-6209
▁industries	-6210
▁influenced	-6211
▁Arabidopsis	-6212
▁projections	-6213
▁coordination	-6214
▁piezoelectric	-6215
▁characterizing	-6216
DM	-6217
IG	-6218
aun	-6219
cyc	-6220
det	-6221
gas	-6222
han	-6223
osa	-6224
▁Can	-6225
▁Equ	-6226
▁Ion	-6227
▁Min	-6228
borne	-6229
ektro	-6230
pread	-6231
rowth	-6232
under	-6233
▁cues	-6234
ursors	-6235
▁Heter	-6236
▁dedic	-6237
aussian	-6238
estinal	-6239
sökning	-6240
▁Cancer	-6241
▁Statis	-6242
▁allost	-6243
▁cosmic	-6244
critical	-6245
▁Uppsala	-6246
▁families	-6247
▁location	-6248
▁suscepti	-6249
▁thorough	-6250
▁Chemistry	-6251
▁Drosophila	-6252
▁Riemannian	-6253
▁attosecond	-6254
▁historical	-6255
▁navigation	-6256
▁sufficient	-6257
▁synthesize	-6258
▁throughput	-6259
▁algorithmic	-6260
▁crystalline	-6261
▁derivatives	-6262
▁conformational	-6263
▁multifunctional	-6264
▁3-	-6265
▁II	-6266
▁Na	-6267
high	-6268
▁Mat	-6269
▁Rel	-6270
▁Tri	-6271
▁ing	-6272
andem	-6273
empor	-6274
epend	-6275
iness	-6276
param	-6277
▁Know	-6278
▁bill	-6279
▁chip	-6280
▁comm	-6281
▁shar	-6282
▁sial	-6283
▁unit	-6284
▁vide	-6285
ervoir	-6286
fortun	-6287
metall	-6288
oretic	-6289
▁Waals	-6290
▁antag	-6291
▁beams	-6292
▁coron	-6293
▁mimic	-6294
▁taken	-6295
▁thous	-6296
▁wides	-6297
olation	-6298
plastic	-6299
▁Plasma	-6300
▁arrang	-6301
▁multiv	-6302
▁shapes	-6303
dynamics	-6304
▁Towards	-6305
▁becomes	-6306
figurable	-6307
▁adhesion	-6308
▁aerosols	-6309
▁droplets	-6310
▁exciting	-6311
▁handling	-6312
▁Character	-6313
▁biomarker	-6314
▁ekosystem	-6315
▁extension	-6316
environment	-6317
fortunately	-6318
▁Scattering	-6319
▁performing	-6320
▁constructed	-6321
▁replication	-6322
▁formulations	-6323
▁interference	-6324
▁respectively	-6325
▁cyanobacteria	-6326
▁sophisticated	-6327
▁visualization	-6328
AV	-6329
IT	-6330
sy	-6331
▁Si	-6332
▁zo	-6333
erna	-6334
iber	-6335
orrh	-6336
rist	-6337
▁CER	-6338
▁Imp	-6339
▁haz	-6340
▁Next	-6341
▁Park	-6342
▁glac	-6343
▁rock	-6344
aktion	-6345
ewater	-6346
spired	-6347
tation	-6348
uctive	-6349
▁Given	-6350
▁crops	-6351
▁grund	-6352
▁modul	-6353
▁mouse	-6354
▁refer	-6355
▁sched	-6356
▁spher	-6357
▁takes	-6358
ikation	-6359
science	-6360
species	-6361
▁ancest	-6362
▁circum	-6363
▁intric	-6364
▁notion	-6365
▁spatio	-6366
▁status	-6367
junction	-6368
▁Nuclear	-6369
▁Unravel	-6370
▁attempt	-6371
▁charged	-6372
▁funding	-6373
▁highest	-6374
▁nucleus	-6375
apacitors	-6376
oplastics	-6377
▁Adaptive	-6378
▁implants	-6379
▁manifold	-6380
▁mosquito	-6381
▁potentials	-6382
▁surprising	-6383
▁ultrasound	-6384
▁wavelength	-6385
▁widespread	-6386
▁confinement	-6387
▁homeostasis	-6388
▁introducing	-6389
▁stimulation	-6390
▁automatically	-6391
▁ferroelectric	-6392
▁nanomaterials	-6393
-,	-6394
De	-6395
ah	-6396
eta	-6397
set	-6398
ösa	-6399
▁2-	-6400
▁Fl	-6401
▁Mg	-6402
▁Up	-6403
▁kv	-6404
▁vs	-6405
bert	-6406
dist	-6407
edom	-6408
mann	-6409
omyc	-6410
orer	-6411
roke	-6412
work	-6413
▁Rep	-6414
▁Ver	-6415
▁bug	-6416
▁cul	-6417
▁era	-6418
gräns	-6419
ighet	-6420
itets	-6421
poses	-6422
relim	-6423
▁aven	-6424
▁fate	-6425
▁mice	-6426
▁perf	-6427
▁port	-6428
▁trem	-6429
ention	-6430
ilbert	-6431
matter	-6432
mental	-6433
stable	-6434
▁Cloud	-6435
▁filam	-6436
▁fysik	-6437
▁games	-6438
▁grant	-6439
▁skill	-6440
embrane	-6441
rystall	-6442
▁Hybrid	-6443
▁decade	-6444
▁escape	-6445
▁giving	-6446
▁intens	-6447
▁moving	-6448
▁namely	-6449
▁restor	-6450
▁shared	-6451
▁speech	-6452
▁toward	-6453
oprotein	-6454
▁Molekyl	-6455
▁aqueous	-6456
▁editing	-6457
▁fission	-6458
▁hydroph	-6459
▁intense	-6460
▁läkemed	-6461
▁observe	-6462
▁operate	-6463
▁possess	-6464
▁evolving	-6465
▁invasive	-6466
▁reported	-6467
▁students	-6468
▁synchron	-6469
▁transpor	-6470
▁velocity	-6471
reliminary	-6472
▁Currently	-6473
▁equipment	-6474
▁expressed	-6475
▁interconn	-6476
▁prototype	-6477
▁published	-6478
▁thickness	-6479
electronics	-6480
▁amplitudes	-6481
▁collisions	-6482
▁connectivity	-6483
▁multicellular	-6484
▁crystallography	-6485
1.	-6486
3.	-6487
DA	-6488
SO	-6489
enh	-6490
wid	-6491
▁Bl	-6492
▁Ul	-6493
▁sa	-6494
cium	-6495
elet	-6496
oted	-6497
▁DES	-6498
▁MAX	-6499
▁Mut	-6500
▁Sem	-6501
▁cha	-6502
▁fly	-6503
▁fot	-6504
▁fru	-6505
▁myc	-6506
iptic	-6507
optim	-6508
robot	-6509
tered	-6510
▁CERN	-6511
▁Från	-6512
▁Prec	-6513
▁Self	-6514
▁amen	-6515
▁fire	-6516
▁tect	-6517
otonic	-6518
photon	-6519
▁Appro	-6520
▁elast	-6521
▁exhib	-6522
▁nanot	-6523
▁cataly	-6524
▁exists	-6525
▁silico	-6526
assisted	-6527
echanics	-6528
▁Dynamic	-6529
▁Imaging	-6530
▁antagon	-6531
▁earlier	-6532
▁metagen	-6533
▁Galactic	-6534
▁bridging	-6535
▁realized	-6536
▁seasonal	-6537
▁Efficient	-6538
▁Numerical	-6539
▁condensed	-6540
▁concerning	-6541
▁manipulate	-6542
▁specialized	-6543
▁synthesized	-6544
▁alternatives	-6545
▁biomaterials	-6546
▁characterise	-6547
▁representing	-6548
▁antibacterial	-6549
▁fundamentally	-6550
MD	-6551
ny	-6552
EDs	-6553
cip	-6554
ods	-6555
oma	-6556
rep	-6557
yle	-6558
▁Do	-6559
håll	-6560
▁200	-6561
▁Ven	-6562
▁gly	-6563
▁vor	-6564
bound	-6565
mikro	-6566
ulära	-6567
▁cath	-6568
▁gate	-6569
▁half	-6570
▁ljus	-6571
▁rout	-6572
ommend	-6573
onucle	-6574
▁Mikro	-6575
▁Their	-6576
▁beräk	-6577
▁codes	-6578
▁genus	-6579
▁hotsp	-6580
▁penet	-6581
▁tight	-6582
▁until	-6583
outhern	-6584
program	-6585
▁Observ	-6586
▁absorb	-6587
▁mutual	-6588
▁organs	-6589
▁satisf	-6590
▁timely	-6591
algebras	-6592
athering	-6593
hydrogen	-6594
▁degrees	-6595
▁nätverk	-6596
▁solvers	-6597
dimension	-6598
▁continue	-6599
▁distance	-6600
▁machines	-6601
▁pipeline	-6602
▁reactors	-6603
▁stresses	-6604
▁volatile	-6605
▁Synthesis	-6606
▁förbättra	-6607
▁radiative	-6608
▁stressors	-6609
▁Multiscale	-6610
▁mekanismer	-6611
▁ubiquitous	-6612
▁Fundamental	-6613
▁geometrical	-6614
▁realization	-6615
▁compositions	-6616
▁intervention	-6617
▁Environmental	-6618
▁collaborative	-6619
▁magnetization	-6620
▁revolutionize	-6621
▁thermodynamics	-6622
1,	-6623
CD	-6624
CP	-6625
IV	-6626
rä	-6627
VID	-6628
ept	-6629
ubb	-6630
coun	-6631
äker	-6632
▁Med	-6633
▁flo	-6634
▁sil	-6635
cript	-6636
eless	-6637
ested	-6638
nucle	-6639
table	-6640
▁Spin	-6641
▁nerv	-6642
mented	-6643
▁Fluid	-6644
▁Neuro	-6645
▁motif	-6646
▁route	-6647
▁simul	-6648
▁wider	-6649
▁cavity	-6650
▁supers	-6651
▁wavegu	-6652
oplastic	-6653
▁Another	-6654
▁antenna	-6655
▁bonding	-6656
▁century	-6657
▁finally	-6658
▁library	-6659
▁substit	-6660
▁toolbox	-6661
▁trigger	-6662
precision	-6663
▁acquired	-6664
▁aromatic	-6665
▁infinite	-6666
▁komplexa	-6667
▁scanning	-6668
ectiveness	-6669
▁automatic	-6670
▁dedicated	-6671
▁fabricate	-6672
▁phenotype	-6673
▁reglering	-6674
▁förståelse	-6675
▁precursors	-6676
▁sequential	-6677
▁vertebrate	-6678
▁Information	-6679
▁Interaction	-6680
▁homogeneous	-6681
LA	-6682
mic	-6683
sub	-6684
usc	-6685
▁Ti	-6686
erom	-6687
havi	-6688
▁Lin	-6689
▁abs	-6690
amine	-6691
elial	-6692
etism	-6693
metal	-6694
ortom	-6695
otion	-6696
plish	-6697
▁(202	-6698
▁Circ	-6699
▁conv	-6700
▁fall	-6701
▁late	-6702
▁mort	-6703
▁onto	-6704
▁pose	-6705
▁qual	-6706
▁spac	-6707
period	-6708
ptions	-6709
▁Langu	-6710
▁Venus	-6711
▁comet	-6712
▁compl	-6713
▁embry	-6714
▁hjärn	-6715
▁rocks	-6716
▁sizes	-6717
▁works	-6718
ipheral	-6719
riguing	-6720
surface	-6721
▁Formal	-6722
▁arrays	-6723
▁criter	-6724
▁hydroc	-6725
▁proved	-6726
▁tailor	-6727
▁topics	-6728
▁tuning	-6729
odynamic	-6730
umptions	-6731
▁Parkins	-6732
▁ambient	-6733
▁collect	-6734
▁equival	-6735
▁freedom	-6736
▁hearing	-6737
▁typical	-6738
▁analysed	-6739
▁assessed	-6740
▁modulate	-6741
▁presents	-6742
▁repeated	-6743
▁autophagy	-6744
▁estimated	-6745
▁scaffolds	-6746
▁accomplish	-6747
▁conductive	-6748
▁evaluating	-6749
▁metastable	-6750
▁Preliminary	-6751
▁condensates	-6752
▁constrained	-6753
▁polysacchar	-6754
▁Biodiversity	-6755
▁constitutive	-6756
▁trajectories	-6757
▁metamaterials	-6758
CC	-6759
Cs	-6760
bo	-6761
add	-6762
eat	-6763
syn	-6764
ucl	-6765
amic	-6766
etyd	-6767
perm	-6768
▁Lag	-6769
▁Sel	-6770
▁eut	-6771
▁rhe	-6772
▁see	-6773
▁Alge	-6774
▁Vari	-6775
▁room	-6776
ompass	-6777
upling	-6778
▁concl	-6779
▁loads	-6780
▁shock	-6781
▁chains	-6782
▁coding	-6783
▁custom	-6784
▁injury	-6785
▁invers	-6786
▁underp	-6787
activity	-6788
ationary	-6789
ronology	-6790
ysiology	-6791
▁lithium	-6792
▁robotic	-6793
▁scaling	-6794
▁shaping	-6795
▁thought	-6796
▁duration	-6797
▁emitters	-6798
▁hydrogel	-6799
▁modeller	-6800
▁released	-6801
abrication	-6802
mechanical	-6803
▁amorphous	-6804
▁collision	-6805
▁invertebr	-6806
▁motivated	-6807
▁olfactory	-6808
▁photonics	-6809
▁requiring	-6810
▁constitute	-6811
▁dispersion	-6812
▁nanocompos	-6813
▁quantities	-6814
▁scientists	-6815
▁simplified	-6816
▁timescales	-6817
▁unexpected	-6818
▁intermediates	-6819
▁communications	-6820
CE	-6821
ede	-6822
ira	-6823
rap	-6824
▁Cr	-6825
,000	-6826
ened	-6827
pped	-6828
rele	-6829
such	-6830
▁Mot	-6831
▁eth	-6832
arrow	-6833
asion	-6834
flamm	-6835
ombin	-6836
otopy	-6837
ubble	-6838
▁Flow	-6839
▁bird	-6840
▁ever	-6841
▁inac	-6842
▁mini	-6843
liquid	-6844
tonian	-6845
▁Hyper	-6846
▁count	-6847
▁index	-6848
▁inequ	-6849
▁polyc	-6850
▁ratio	-6851
▁satur	-6852
▁scope	-6853
▁sheet	-6854
develop	-6855
▁Markov	-6856
▁afford	-6857
▁cyclic	-6858
▁flight	-6859
▁months	-6860
▁revers	-6861
▁weight	-6862
▁voltage	-6863
effective	-6864
omography	-6865
▁Internet	-6866
▁contains	-6867
▁majority	-6868
▁Nonlinear	-6869
▁dispersal	-6870
▁encompass	-6871
▁machinery	-6872
▁mammalian	-6873
▁thousands	-6874
▁landscapes	-6875
▁molekylära	-6876
▁Topological	-6877
▁association	-6878
▁continental	-6879
▁explainable	-6880
▁generalized	-6881
▁contaminants	-6882
▁dramatically	-6883
▁interstellar	-6884
▁astrophysical	-6885
▁characteristic	-6886
FD	-6887
OP	-6888
yd	-6889
▁μ	-6890
rie	-6891
bryt	-6892
fold	-6893
odic	-6894
uppl	-6895
uted	-6896
▁DFT	-6897
▁cat	-6898
▁mir	-6899
▁trä	-6900
aktor	-6901
ihood	-6902
posit	-6903
▁Addi	-6904
▁dens	-6905
▁merg	-6906
▁myst	-6907
ecraft	-6908
emiska	-6909
graphs	-6910
mosfär	-6911
rystal	-6912
urpose	-6913
▁Small	-6914
▁delay	-6915
linical	-6916
ättning	-6917
▁alumin	-6918
▁dissip	-6919
ederated	-6920
elektron	-6921
otential	-6922
transfer	-6923
▁adverse	-6924
▁attacks	-6925
▁compute	-6926
▁exoplan	-6927
▁harness	-6928
▁outside	-6929
▁removal	-6930
▁trained	-6931
forskning	-6932
▁Particle	-6933
▁biofilms	-6934
▁explores	-6935
▁facility	-6936
▁hundreds	-6937
▁millions	-6938
▁Knowledge	-6939
▁reservoir	-6940
▁difference	-6941
▁introduces	-6942
▁regulators	-6943
▁Theoretical	-6944
▁constructing	-6945
▁hierarchical	-6946
▁implementing	-6947
▁metabolomics	-6948
▁configurations	-6949
▁methodological	-6950
▁functionalities	-6951
Ph	-6952
Wh	-6953
SiC	-6954
ems	-6955
ris	-6956
ula	-6957
yrm	-6958
▁CM	-6959
▁Ca	-6960
▁OC	-6961
▁yo	-6962
ront	-6963
rown	-6964
view	-6965
växt	-6966
▁Ick	-6967
▁Typ	-6968
anent	-6969
asons	-6970
ayers	-6971
depth	-6972
fysik	-6973
habil	-6974
▁Also	-6975
▁Nano	-6976
▁Some	-6977
▁cult	-6978
▁quad	-6979
▁zone	-6980
celler	-6981
eroids	-6982
idning	-6983
ieties	-6984
matrix	-6985
ometri	-6986
proper	-6987
▁Field	-6988
▁Ultra	-6989
▁biore	-6990
▁bonds	-6991
▁defin	-6992
▁shows	-6993
▁telec	-6994
▁white	-6995
arching	-6996
ologisk	-6997
orphism	-6998
▁Ultras	-6999
▁acting	-7000
▁colour	-7001
▁errors	-7002
▁sector	-7003
▁solids	-7004
▁tumors	-7005
▁unlock	-7006
▁unveil	-7007
oclimate	-7008
▁General	-7009
▁Genetic	-7010
▁angular	-7011
▁cascade	-7012
▁recruit	-7013
▁serious	-7014
▁controll	-7015
▁covering	-7016
▁elevated	-7017
▁engineer	-7018
▁indirect	-7019
structural	-7020
▁biosphere	-7021
▁contempor	-7022
▁localized	-7023
▁revealing	-7024
▁Stochastic	-7025
▁correspond	-7026
▁competition	-7027
▁overarching	-7028
▁Interactions	-7029
▁combinations	-7030
▁functionally	-7031
▁inflammation	-7032
▁implementations	-7033
1-	-7034
PR	-7035
▁$	-7036
▁9	-7037
Cas	-7038
VOC	-7039
nos	-7040
▁ID	-7041
▁pa	-7042
▁wr	-7043
cers	-7044
inds	-7045
omik	-7046
över	-7047
▁AMR	-7048
▁flö	-7049
▁lar	-7050
ester	-7051
iotic	-7052
virus	-7053
▁Link	-7054
▁Long	-7055
▁bund	-7056
▁dots	-7057
▁nich	-7058
▁norm	-7059
▁tune	-7060
▁verk	-7061
acking	-7062
biosis	-7063
ektion	-7064
erings	-7065
icking	-7066
luding	-7067
target	-7068
▁Early	-7069
▁displ	-7070
▁efter	-7071
▁enter	-7072
▁plane	-7073
▁pulse	-7074
climate	-7075
erosion	-7076
instein	-7077
limatic	-7078
ressive	-7079
ristall	-7080
▁Dirich	-7081
▁bottom	-7082
▁center	-7083
▁prolif	-7084
▁sparse	-7085
ogeneous	-7086
ransport	-7087
titative	-7088
vändning	-7089
▁elusive	-7090
▁folding	-7091
▁minimum	-7092
▁mångfal	-7093
▁package	-7094
▁reactor	-7095
▁contacts	-7096
▁feasible	-7097
▁lifetime	-7098
▁periodic	-7099
ektroskopi	-7100
▁exploited	-7101
▁intricate	-7102
▁mortality	-7103
▁principal	-7104
▁orthogonal	-7105
▁Distributed	-7106
▁assumptions	-7107
▁exponential	-7108
▁homological	-7109
▁restoration	-7110
▁transistors	-7111
▁intermediate	-7112
▁phytoplankton	-7113
▁physicochemical	-7114
)-	-7115
4,	-7116
5%	-7117
En	-7118
NT	-7119
ean	-7120
jud	-7121
niv	-7122
osp	-7123
▁EV	-7124
▁od	-7125
bits	-7126
ceed	-7127
iest	-7128
orec	-7129
path	-7130
ster	-7131
▁Sec	-7132
▁nem	-7133
atisk	-7134
lived	-7135
plete	-7136
uster	-7137
▁Path	-7138
▁SARS	-7139
▁Star	-7140
▁acad	-7141
▁evol	-7142
▁geom	-7143
▁incl	-7144
▁pine	-7145
ektiva	-7146
enotyp	-7147
irable	-7148
eningar	-7149
thermal	-7150
urrence	-7151
▁Africa	-7152
▁Marine	-7153
▁adjust	-7154
▁budget	-7155
▁coming	-7156
▁disent	-7157
allation	-7158
▁Density	-7159
▁Metabol	-7160
▁convert	-7161
▁engines	-7162
▁generic	-7163
▁Material	-7164
▁effekter	-7165
▁granular	-7166
▁transmit	-7167
▁uniquely	-7168
produktion	-7169
▁Computing	-7170
▁Ultrafast	-7171
▁highlight	-7172
▁splitting	-7173
▁confidence	-7174
▁restricted	-7175
▁telescopes	-7176
▁synergistic	-7177
▁Applications	-7178
▁Optimization	-7179
▁considerable	-7180
▁transportation	-7181
▁reconstructions	-7182
3,	-7183
LP	-7184
oe	-7185
▁[	-7186
apl	-7187
gum	-7188
ken	-7189
upp	-7190
▁SE	-7191
▁mm	-7192
amil	-7193
▁Gra	-7194
▁Hög	-7195
▁Its	-7196
▁Key	-7197
▁exh	-7198
▁mol	-7199
▁när	-7200
▁pin	-7201
ermal	-7202
lines	-7203
matic	-7204
otide	-7205
▁Cons	-7206
▁Dark	-7207
▁Even	-7208
▁Prob	-7209
▁biop	-7210
▁cham	-7211
▁dess	-7212
▁easy	-7213
▁graf	-7214
▁moun	-7215
▁ring	-7216
loidal	-7217
▁alone	-7218
▁arter	-7219
▁holog	-7220
▁nanow	-7221
▁rules	-7222
artlägg	-7223
iations	-7224
ogenous	-7225
rangian	-7226
urfaces	-7227
▁Within	-7228
▁curves	-7229
▁immedi	-7230
▁partly	-7231
▁refine	-7232
▁switch	-7233
▁tensor	-7234
fidelity	-7235
▁changed	-7236
▁clarify	-7237
▁pharmac	-7238
▁plasmas	-7239
▁reasons	-7240
▁sorting	-7241
atibility	-7242
ophysical	-7243
▁emergent	-7244
▁emphasis	-7245
▁harmonic	-7246
▁missions	-7247
▁wearable	-7248
▁dissolved	-7249
▁processer	-7250
▁Ultimately	-7251
▁dielectric	-7252
▁extensions	-7253
▁instrument	-7254
▁interested	-7255
▁vibrations	-7256
▁instability	-7257
▁Mathematical	-7258
▁biomolecular	-7259
▁contemporary	-7260
▁continuously	-7261
Ne	-7262
▁Å	-7263
CoV	-7264
exp	-7265
fol	-7266
ryo	-7267
vet	-7268
▁Cu	-7269
▁GH	-7270
▁MR	-7271
holm	-7272
isph	-7273
outh	-7274
▁Age	-7275
▁ESS	-7276
▁aud	-7277
Based	-7278
ended	-7279
erior	-7280
estic	-7281
hydro	-7282
orrel	-7283
oting	-7284
ploid	-7285
speed	-7286
vices	-7287
width	-7288
worth	-7289
▁Hall	-7290
▁Land	-7291
▁Lign	-7292
▁Rand	-7293
▁erup	-7294
▁hars	-7295
▁kern	-7296
ariate	-7297
ceptor	-7298
domain	-7299
oxygen	-7300
ressed	-7301
romagn	-7302
öntgen	-7303
▁Analy	-7304
▁allel	-7305
▁anaer	-7306
▁never	-7307
▁poses	-7308
▁upper	-7309
dynamic	-7310
eringar	-7311
rystals	-7312
vergång	-7313
▁accoun	-7314
▁anatom	-7315
▁anpass	-7316
▁closed	-7317
▁deepen	-7318
▁orders	-7319
▁solved	-7320
▁Natural	-7321
▁gallium	-7322
onsekvens	-7323
▁breaking	-7324
▁friendly	-7325
▁proteome	-7326
▁robotics	-7327
▁actuators	-7328
▁databases	-7329
▁feedbacks	-7330
▁partition	-7331
▁recruited	-7332
▁standards	-7333
established	-7334
▁chromosome	-7335
▁counterpar	-7336
▁occurrence	-7337
▁peripheral	-7338
▁remarkable	-7339
▁spacecraft	-7340
▁wastewater	-7341
▁instruments	-7342
▁microfluidic	-7343
▁therapeutics	-7344
▁predictability	-7345
▁unconventional	-7346
3-	-7347
CL	-7348
Os	-7349
ga	-7350
▁—	-7351
ert	-7352
itz	-7353
ren	-7354
seq	-7355
ull	-7356
uzz	-7357
▁4)	-7358
anym	-7359
epar	-7360
häll	-7361
iers	-7362
ilot	-7363
onon	-7364
rong	-7365
triv	-7366
▁And	-7367
▁lag	-7368
▁ned	-7369
▁scr	-7370
anium	-7371
assic	-7372
polar	-7373
ratic	-7374
tiskt	-7375
▁Chal	-7376
▁auto	-7377
▁char	-7378
▁embr	-7379
▁fair	-7380
▁head	-7381
▁trap	-7382
everal	-7383
orrhiz	-7384
▁After	-7385
▁Ganym	-7386
▁algal	-7387
▁fixed	-7388
▁flame	-7389
▁seman	-7390
biology	-7391
▁achiev	-7392
▁attach	-7393
▁elucid	-7394
▁encoun	-7395
▁facing	-7396
▁female	-7397
▁finger	-7398
▁hetero	-7399
▁person	-7400
▁policy	-7401
▁quarks	-7402
▁return	-7403
pectives	-7404
physical	-7405
▁Algebra	-7406
▁Mercury	-7407
▁Program	-7408
▁centers	-7409
▁decline	-7410
▁filters	-7411
▁popular	-7412
▁stimuli	-7413
▁threats	-7414
odynamics	-7415
▁Computer	-7416
▁Language	-7417
▁confined	-7418
▁counting	-7419
▁informed	-7420
▁intended	-7421
▁possibly	-7422
▁Ecosystem	-7423
▁carbohydr	-7424
▁formalism	-7425
▁iterative	-7426
▁locations	-7427
▁procedure	-7428
▁situation	-7429
▁spacetime	-7430
▁comparison	-7431
▁correction	-7432
▁parametric	-7433
▁weathering	-7434
förändringar	-7435
▁coordinated	-7436
▁spintronics	-7437
▁transparent	-7438
▁complemented	-7439
▁explanations	-7440
▁participating	-7441
▁photovoltaics	-7442
▁proliferation	-7443
▁generalization	-7444
AF	-7445
NF	-7446
aph	-7447
ilt	-7448
rar	-7449
▁(&	-7450
▁CT	-7451
▁EM	-7452
▁Vä	-7453
▁yt	-7454
bion	-7455
with	-7456
▁GPC	-7457
▁PDE	-7458
▁che	-7459
algae	-7460
aptic	-7461
kalig	-7462
utron	-7463
▁disl	-7464
▁flav	-7465
▁germ	-7466
▁jord	-7467
▁prey	-7468
▁seaw	-7469
actors	-7470
isture	-7471
tility	-7472
turell	-7473
vatten	-7474
▁Reson	-7475
▁Smart	-7476
▁docum	-7477
▁harsh	-7478
▁incom	-7479
▁knock	-7480
▁palae	-7481
▁query	-7482
▁subun	-7483
▁walls	-7484
emental	-7485
olecule	-7486
olymers	-7487
oppling	-7488
ropical	-7489
▁Oxygen	-7490
▁archae	-7491
▁burden	-7492
▁drives	-7493
▁latest	-7494
▁modify	-7495
▁moduli	-7496
▁qualit	-7497
friendly	-7498
ukturell	-7499
▁carbide	-7500
▁erosion	-7501
▁nervous	-7502
▁protect	-7503
▁reached	-7504
▁solvent	-7505
▁surfact	-7506
eleration	-7507
ikationer	-7508
ontaneous	-7509
otemporal	-7510
▁Collabor	-7511
▁holistic	-7512
▁purposes	-7513
▁theorems	-7514
▁Bacterial	-7515
▁Dirichlet	-7516
▁capturing	-7517
▁correlate	-7518
▁strengths	-7519
▁aggregates	-7520
▁avbildning	-7521
▁downstream	-7522
▁mitigating	-7523
▁prevention	-7524
▁anisotropic	-7525
▁calibration	-7526
▁geochemical	-7527
▁quantifying	-7528
▁disturbances	-7529
▁oscillations	-7530
▁breakthroughs	-7531
▁effectiveness	-7532
▁instabilities	-7533
▁intracellular	-7534
▁bioinformatics	-7535
..	-7536
Hg	-7537
Hs	-7538
alt	-7539
any	-7540
rog	-7541
▁Au	-7542
▁Gl	-7543
▁MD	-7544
▁MN	-7545
▁TR	-7546
▁ty	-7547
ayer	-7548
obil	-7549
oron	-7550
rosp	-7551
ryck	-7552
seud	-7553
örel	-7554
▁Aim	-7555
▁amb	-7556
▁cam	-7557
▁mag	-7558
▁oce	-7559
aware	-7560
elves	-7561
flies	-7562
ifier	-7563
immun	-7564
solid	-7565
▁Post	-7566
▁blue	-7567
▁curv	-7568
▁fasc	-7569
▁ferm	-7570
▁loop	-7571
▁migr	-7572
▁rear	-7573
▁shor	-7574
izable	-7575
static	-7576
▁Hydro	-7577
▁annot	-7578
▁artic	-7579
▁check	-7580
▁melan	-7581
▁share	-7582
trivial	-7583
▁Determ	-7584
▁Future	-7585
▁Random	-7586
▁confir	-7587
▁impair	-7588
▁påverk	-7589
▁qubits	-7590
▁sialic	-7591
pressure	-7592
spectral	-7593
▁glacial	-7594
▁guiding	-7595
▁harmful	-7596
▁mikrobi	-7597
▁mission	-7598
▁opening	-7599
▁treated	-7600
▁vehicle	-7601
uleringar	-7602
▁Ganymede	-7603
▁Together	-7604
▁decipher	-7605
▁independ	-7606
▁inspired	-7607
▁isotopic	-7608
▁mediated	-7609
▁reaching	-7610
▁Parkinson	-7611
▁desirable	-7612
▁engineers	-7613
▁extracted	-7614
▁proteiner	-7615
▁recommend	-7616
▁Integrated	-7617
▁Lagrangian	-7618
▁antibodies	-7619
▁durability	-7620
▁eventually	-7621
▁herbivores	-7622
▁intriguing	-7623
▁compression	-7624
▁extensively	-7625
▁groundwater	-7626
▁pollination	-7627
▁Quantitative	-7628
▁associations	-7629
▁biomolecules	-7630
▁intersection	-7631
▁pathological	-7632
▁perspectives	-7633
▁perturbation	-7634
▁compositional	-7635
▁incorporation	-7636
▁perturbations	-7637
4-	-7638
4.	-7639
BP	-7640
Re	-7641
dW	-7642
GaN	-7643
lag	-7644
nal	-7645
pan	-7646
spr	-7647
ube	-7648
uss	-7649
vol	-7650
▁IT	-7651
▁PL	-7652
ichi	-7653
jälv	-7654
pens	-7655
rone	-7656
skal	-7657
tids	-7658
▁Col	-7659
▁Den	-7660
▁Had	-7661
▁Val	-7662
▁alk	-7663
▁hav	-7664
▁rum	-7665
ativa	-7666
iella	-7667
manif	-7668
oichi	-7669
ulent	-7670
ulomb	-7671
umann	-7672
öping	-7673
▁Drug	-7674
▁Free	-7675
▁Pale	-7676
▁Pers	-7677
▁cast	-7678
▁diag	-7679
▁grad	-7680
▁keep	-7681
▁snow	-7682
▁tend	-7683
ahertz	-7684
atiska	-7685
endous	-7686
illary	-7687
itrary	-7688
ouling	-7689
▁adequ	-7690
▁alpha	-7691
▁rigid	-7692
andemic	-7693
elihood	-7694
imaging	-7695
▁Matter	-7696
▁Visual	-7697
▁butter	-7698
▁guidel	-7699
▁mature	-7700
▁oceans	-7701
▁preval	-7702
▁relate	-7703
▁wounds	-7704
▁Element	-7705
▁Instead	-7706
▁Optimal	-7707
▁Science	-7708
▁absence	-7709
▁emitted	-7710
▁lateral	-7711
▁magneto	-7712
▁options	-7713
▁printed	-7714
▁recover	-7715
resistant	-7716
▁communic	-7717
▁nanofibr	-7718
▁resonant	-7719
▁subjects	-7720
controlled	-7721
emperature	-7722
▁according	-7723
▁ambitious	-7724
▁bioactive	-7725
▁calculate	-7726
▁depending	-7727
▁distances	-7728
▁energetic	-7729
▁organiska	-7730
▁permanent	-7731
▁Generative	-7732
▁bottleneck	-7733
▁guidelines	-7734
▁konsekvens	-7735
▁modalities	-7736
▁recognized	-7737
▁regression	-7738
▁sputtering	-7739
▁tremendous	-7740
▁correctness	-7741
▁foundations	-7742
▁respiratory	-7743
▁Differential	-7744
▁biosynthesis	-7745
▁mitochondria	-7746
▁Communication	-7747
▁deterministic	-7748
▁photoelectron	-7749
--	-7750
AP	-7751
Ch	-7752
OT	-7753
SF	-7754
ney	-7755
orb	-7756
ptä	-7757
sea	-7758
▁AF	-7759
▁PD	-7760
▁du	-7761
With	-7762
aria	-7763
aust	-7764
uras	-7765
▁Dom	-7766
▁IoT	-7767
▁Low	-7768
▁Sun	-7769
▁bak	-7770
▁mer	-7771
chang	-7772
earth	-7773
ocial	-7774
odium	-7775
oints	-7776
rared	-7777
waves	-7778
▁Prof	-7779
▁dose	-7780
▁grid	-7781
▁hope	-7782
▁lost	-7783
▁mjuk	-7784
▁subt	-7785
ografi	-7786
▁Immun	-7787
▁Local	-7788
▁algae	-7789
▁endoc	-7790
▁grown	-7791
▁lives	-7792
▁roots	-7793
ectious	-7794
▁Robust	-7795
▁bodies	-7796
▁breast	-7797
▁energi	-7798
▁hazard	-7799
▁replic	-7800
▁viable	-7801
vandling	-7802
▁Atmosph	-7803
▁Perovsk	-7804
▁layered	-7805
▁melting	-7806
▁ordered	-7807
otoxicity	-7808
sensitive	-7809
▁Chalmers	-7810
▁although	-7811
▁composed	-7812
▁criteria	-7813
▁diabetes	-7814
▁hampered	-7815
▁spanning	-7816
rinsically	-7817
▁Formation	-7818
▁Microbial	-7819
▁additives	-7820
▁analysing	-7821
▁curvature	-7822
▁divergent	-7823
▁fragments	-7824
▁observing	-7825
▁triggered	-7826
▁behaviours	-7827
▁consistent	-7828
▁simulating	-7829
▁Modellering	-7830
▁forecasting	-7831
▁orientation	-7832
▁oscillators	-7833
▁recombinant	-7834
▁spontaneous	-7835
▁biochemistry	-7836
▁introduction	-7837
▁groundbreaking	-7838
▁reconfigurable	-7839
DI	-7840
HE	-7841
uv	-7842
aks	-7843
amb	-7844
kod	-7845
lit	-7846
uly	-7847
▁30	-7848
▁Ob	-7849
▁pi	-7850
itor	-7851
onge	-7852
osel	-7853
ästa	-7854
▁blo	-7855
▁pet	-7856
antle	-7857
loids	-7858
omere	-7859
value	-7860
▁Life	-7861
▁cycl	-7862
▁extr	-7863
▁flat	-7864
▁guid	-7865
▁männ	-7866
▁vess	-7867
eptide	-7868
imetry	-7869
otroph	-7870
▁Galax	-7871
▁going	-7872
▁impos	-7873
▁logic	-7874
▁matro	-7875
▁pilot	-7876
▁posed	-7877
▁remod	-7878
▁seism	-7879
▁shell	-7880
▁solub	-7881
▁steel	-7882
▁sympt	-7883
▁video	-7884
portant	-7885
▁Analys	-7886
▁Behavi	-7887
▁Magnet	-7888
▁biopro	-7889
▁pherom	-7890
▁retrie	-7891
▁salmon	-7892
▁solver	-7893
▁stroke	-7894
informed	-7895
piration	-7896
property	-7897
▁Coulomb	-7898
▁Several	-7899
▁Studies	-7900
▁backbon	-7901
▁extends	-7902
▁mercury	-7903
▁origins	-7904
▁running	-7905
▁utility	-7906
▁verktyg	-7907
itization	-7908
ontinuous	-7909
▁Collider	-7910
▁attribut	-7911
▁collapse	-7912
▁deposits	-7913
▁envision	-7914
▁included	-7915
▁multilay	-7916
containing	-7917
conversion	-7918
▁elemental	-7919
▁pathology	-7920
▁Population	-7921
▁allosteric	-7922
▁clinically	-7923
▁frequently	-7924
▁infectious	-7925
▁inhibition	-7926
▁likelihood	-7927
▁persistent	-7928
▁chloroplast	-7929
▁demographic	-7930
▁experienced	-7931
▁neuroscience	-7932
▁Unfortunately	-7933
▁magnetosphere	-7934
▁specification	-7935
▁translational	-7936
▁microstructures	-7937
▁superconductors	-7938
10	-7939
Bs	-7940
RL	-7941
SE	-7942
Ss	-7943
AXS	-7944
alc	-7945
dge	-7946
ekv	-7947
flö	-7948
irk	-7949
kan	-7950
sek	-7951
▁ER	-7952
▁km	-7953
▁sn	-7954
ames	-7955
host	-7956
ixed	-7957
loop	-7958
made	-7959
osen	-7960
oxia	-7961
stim	-7962
▁PRO	-7963
▁did	-7964
▁din	-7965
▁ped	-7966
▁raw	-7967
▁tit	-7968
ident	-7969
inent	-7970
ionic	-7971
uries	-7972
▁Cont	-7973
▁Dise	-7974
▁Icke	-7975
▁RNAs	-7976
▁Wave	-7977
▁dend	-7978
▁femt	-7979
▁frac	-7980
▁styr	-7981
▁åter	-7982
asitic	-7983
ennial	-7984
ipping	-7985
änning	-7986
▁Polar	-7987
▁boson	-7988
▁flood	-7989
▁mekan	-7990
▁quite	-7991
▁stead	-7992
turning	-7993
▁Neurom	-7994
▁burial	-7995
▁costly	-7996
▁market	-7997
▁potent	-7998
▁senior	-7999
▁tumour	-8000
funktion	-8001
läggande	-8002
rimental	-8003
▁Neutron	-8004
▁bandgap	-8005
▁choices	-8006
▁proving	-8007
▁undergo	-8008
coelastic	-8009
functions	-8010
▁Specific	-8011
▁believed	-8012
▁doctoral	-8013
▁dominant	-8014
▁geometri	-8015
▁guidance	-8016
▁lineages	-8017
▁minimize	-8018
▁policies	-8019
▁programm	-8020
▁sections	-8021
▁Architect	-8022
▁coherence	-8023
▁comprises	-8024
▁electroph	-8025
▁multiplex	-8026
▁simulated	-8027
▁terahertz	-8028
▁virulence	-8029
▁biosensors	-8030
▁critically	-8031
▁elementary	-8032
▁fabricated	-8033
▁resonances	-8034
akterisering	-8035
habilitation	-8036
ommunikation	-8037
▁consequence	-8038
▁explanation	-8039
▁fluorescent	-8040
▁Evolutionary	-8041
▁hydrological	-8042
▁neurological	-8043
AG	-8044
vo	-8045
ext	-8046
iob	-8047
▁Cy	-8048
▁EU	-8049
▁SO	-8050
▁py	-8051
ensk	-8052
imal	-8053
imet	-8054
last	-8055
olet	-8056
▁PET	-8057
▁Ren	-8058
▁aug	-8059
▁erg	-8060
▁jet	-8061
▁let	-8062
▁ont	-8063
▁ram	-8064
abled	-8065
biome	-8066
orbit	-8067
space	-8068
▁burn	-8069
▁oste	-8070
enomen	-8071
erving	-8072
inetic	-8073
integr	-8074
otrans	-8075
revers	-8076
▁Euras	-8077
▁Hamil	-8078
▁Power	-8079
▁Solid	-8080
▁bands	-8081
▁bifur	-8082
▁catch	-8083
▁doing	-8084
▁kinem	-8085
▁metod	-8086
▁paper	-8087
▁toxin	-8088
▁tract	-8089
lattice	-8090
pecific	-8091
▁biotic	-8092
▁famous	-8093
▁glycos	-8094
▁indoor	-8095
▁motifs	-8096
▁pestic	-8097
cellular	-8098
▁Biology	-8099
▁Hilbert	-8100
▁Stellar	-8101
▁abiotic	-8102
▁avenues	-8103
▁capital	-8104
▁discrim	-8105
▁encoded	-8106
▁epidemi	-8107
▁orbital	-8108
ativistic	-8109
electroly	-8110
▁Gaussian	-8111
▁Holocene	-8112
▁Northern	-8113
▁actively	-8114
▁genotype	-8115
▁nitrides	-8116
▁påverkan	-8117
▁unstable	-8118
ocatalysis	-8119
utveckling	-8120
▁Förbättra	-8121
▁abilities	-8122
▁carefully	-8123
▁hydrogels	-8124
▁otherwise	-8125
▁waveguide	-8126
artläggning	-8127
▁Developing	-8128
▁Scandinavi	-8129
▁applicants	-8130
▁clustering	-8131
▁hyperbolic	-8132
▁insulators	-8133
▁magnetiska	-8134
▁suggesting	-8135
▁detrimental	-8136
▁supervision	-8137
▁acceleration	-8138
▁foundational	-8139
▁microfluidics	-8140
▁optoelectronic	-8141
▁spatiotemporal	-8142
▁pharmaceuticals	-8143
Es	-8144
Ex	-8145
▁β	-8146
BAR	-8147
TEM	-8148
jon	-8149
occ	-8150
uel	-8151
▁18	-8152
▁CD	-8153
▁Mi	-8154
▁SW	-8155
arth	-8156
ecks	-8157
fall	-8158
idae	-8159
ligt	-8160
load	-8161
okes	-8162
rick	-8163
▁1-2	-8164
▁Def	-8165
▁bes	-8166
▁pat	-8167
analy	-8168
ataly	-8169
cerol	-8170
chain	-8171
eroid	-8172
group	-8173
itten	-8174
model	-8175
toler	-8176
▁Hard	-8177
▁Plan	-8178
▁educ	-8179
▁excl	-8180
▁farm	-8181
▁insu	-8182
▁laun	-8183
▁mild	-8184
▁once	-8185
▁pain	-8186
▁växt	-8187
amming	-8188
efront	-8189
ondens	-8190
values	-8191
violet	-8192
worthy	-8193
▁COVID	-8194
▁Fluor	-8195
▁MXene	-8196
▁onset	-8197
▁Compar	-8198
▁Genome	-8199
▁adding	-8200
▁always	-8201
▁easier	-8202
▁guided	-8203
▁inputs	-8204
▁kombin	-8205
▁latent	-8206
▁pollen	-8207
▁proofs	-8208
▁retain	-8209
▁trials	-8210
▁warmer	-8211
isations	-8212
▁Mapping	-8213
▁Overall	-8214
▁Sensing	-8215
▁epitaxy	-8216
▁nitride	-8217
▁quickly	-8218
▁readily	-8219
▁sectors	-8220
▁service	-8221
▁Previous	-8222
▁calculus	-8223
▁encoding	-8224
▁entirely	-8225
▁forestry	-8226
▁rotation	-8227
principles	-8228
▁Linköping	-8229
▁densities	-8230
▁forefront	-8231
▁resilient	-8232
▁semantics	-8233
▁specimens	-8234
▁spreading	-8235
▁indicators	-8236
▁integrable	-8237
▁multilayer	-8238
▁supervised	-8239
armaceutical	-8240
▁Statistical	-8241
▁accelerated	-8242
▁advancement	-8243
▁competitive	-8244
▁inheritance	-8245
▁integrative	-8246
▁transformed	-8247
▁Scandinavian	-8248
▁inflammatory	-8249
▁interpretable	-8250
▁stabilization	-8251
▁photosynthetic	-8252
BF	-8253
CI	-8254
dik	-8255
kon	-8256
tek	-8257
uum	-8258
fill	-8259
okas	-8260
rian	-8261
rust	-8262
vled	-8263
warf	-8264
zone	-8265
▁GPU	-8266
▁Hal	-8267
▁Mes	-8268
▁cod	-8269
▁cub	-8270
▁dog	-8271
arian	-8272
etary	-8273
iance	-8274
ister	-8275
sible	-8276
umble	-8277
urate	-8278
ursor	-8279
▁Ferm	-8280
▁acts	-8281
▁gold	-8282
▁moon	-8283
▁reef	-8284
▁rend	-8285
▁sink	-8286
▁trac	-8287
▁twin	-8288
▁unus	-8289
▁wing	-8290
aktiva	-8291
applic	-8292
escope	-8293
istisk	-8294
ocytes	-8295
orient	-8296
posite	-8297
source	-8298
▁Brain	-8299
▁Innov	-8300
▁Lipid	-8301
▁argum	-8302
▁cores	-8303
▁fruit	-8304
▁traum	-8305
binding	-8306
folding	-8307
glacial	-8308
ockholm	-8309
plement	-8310
▁Hadron	-8311
▁Health	-8312
▁binary	-8313
▁defici	-8314
▁discre	-8315
▁drying	-8316
▁emerge	-8317
▁mantle	-8318
▁motors	-8319
▁select	-8320
▁ultral	-8321
etically	-8322
orrhizal	-8323
periodic	-8324
relevant	-8325
▁calcium	-8326
▁discipl	-8327
▁fibrils	-8328
▁probing	-8329
▁showing	-8330
▁surveys	-8331
including	-8332
▁adoption	-8333
▁antennas	-8334
▁develops	-8335
▁effektiv	-8336
▁fragment	-8337
▁moisture	-8338
▁pandemic	-8339
▁verified	-8340
▁vertical	-8341
ionization	-8342
▁Framework	-8343
▁anaerobic	-8344
▁arbitrary	-8345
▁footprint	-8346
▁impacting	-8347
▁promoting	-8348
▁Generation	-8349
▁equivalent	-8350
▁guarantees	-8351
▁inherently	-8352
▁Unravelling	-8353
▁dissipation	-8354
▁dynamically	-8355
▁numerically	-8356
▁persistence	-8357
▁biologically	-8358
▁incorporated	-8359
▁metamaterial	-8360
▁biodegradable	-8361
▁fragmentation	-8362
▁hybridization	-8363
▁functionalized	-8364
▁interconnected	-8365
▁photocatalytic	-8366
SL	-8367
ita	-8368
rub	-8369
sen	-8370
ägg	-8371
▁0.	-8372
▁Ny	-8373
aily	-8374
ares	-8375
fast	-8376
head	-8377
ifer	-8378
imil	-8379
izer	-8380
ostr	-8381
redi	-8382
rine	-8383
skap	-8384
uell	-8385
uler	-8386
uous	-8387
▁(4)	-8388
▁Lor	-8389
▁SVs	-8390
▁TEM	-8391
▁adm	-8392
▁bil	-8393
▁lös	-8394
blems	-8395
brain	-8396
iable	-8397
▁Atom	-8398
▁Hist	-8399
▁auth	-8400
▁hall	-8401
▁imag	-8402
▁iter	-8403
▁negl	-8404
▁quas	-8405
▁stop	-8406
ending	-8407
ishing	-8408
strain	-8409
tifici	-8410
tified	-8411
ömning	-8412
▁Aeros	-8413
▁Photo	-8414
▁daily	-8415
▁donor	-8416
▁mater	-8417
▁metas	-8418
▁nanos	-8419
▁remed	-8420
▁skyrm	-8421
odivers	-8422
plectic	-8423
▁Finite	-8424
▁Norway	-8425
▁Source	-8426
▁Unlike	-8427
▁chaper	-8428
▁decays	-8429
▁narrow	-8430
▁reconc	-8431
▁shocks	-8432
▁silica	-8433
▁starts	-8434
▁summer	-8435
▁survey	-8436
entioned	-8437
handling	-8438
ifiering	-8439
omorphic	-8440
plastics	-8441
stablish	-8442
▁Neutrin	-8443
▁billion	-8444
▁diatoms	-8445
▁implies	-8446
▁located	-8447
▁maximum	-8448
▁prepare	-8449
▁readout	-8450
▁whereas	-8451
classical	-8452
processer	-8453
▁Algorith	-8454
▁classify	-8455
▁elliptic	-8456
▁implicit	-8457
▁mångfald	-8458
▁supports	-8459
▁surgical	-8460
▁wildlife	-8461
fficiently	-8462
rystalline	-8463
▁Detection	-8464
▁Telescope	-8465
▁asymmetry	-8466
▁countries	-8467
▁explosion	-8468
▁oligomers	-8469
▁tailoring	-8470
ysiological	-8471
▁Laboratory	-8472
▁assemblies	-8473
▁deployment	-8474
▁preventing	-8475
▁regularity	-8476
▁saturation	-8477
▁scheduling	-8478
▁Intelligent	-8479
▁chromosomes	-8480
▁essentially	-8481
▁astrophysics	-8482
▁counterparts	-8483
▁independently	-8484
CM	-8485
bl	-8486
sa	-8487
ING	-8488
adi	-8489
bur	-8490
lek	-8491
zon	-8492
▁3.	-8493
▁OP	-8494
▁Of	-8495
▁Po	-8496
aign	-8497
bear	-8498
cost	-8499
heet	-8500
oppl	-8501
ptäc	-8502
rier	-8503
ulär	-8504
örer	-8505
▁Air	-8506
▁HEM	-8507
▁Hel	-8508
▁ILs	-8509
▁Out	-8510
▁ark	-8511
▁ask	-8512
▁dry	-8513
▁lot	-8514
▁upd	-8515
anden	-8516
avail	-8517
ients	-8518
initi	-8519
ozoic	-8520
toxic	-8521
▁2025	-8522
▁Poly	-8523
▁aver	-8524
▁deal	-8525
▁eyes	-8526
▁lact	-8527
ariant	-8528
avirus	-8529
istent	-8530
otropy	-8531
uclide	-8532
ulates	-8533
ulsion	-8534
valent	-8535
▁dwarf	-8536
▁front	-8537
▁giant	-8538
▁lifes	-8539
▁match	-8540
▁monol	-8541
ampaign	-8542
inflamm	-8543
ometers	-8544
parency	-8545
rinking	-8546
▁masses	-8547
▁potato	-8548
▁pursue	-8549
▁scarce	-8550
▁tandem	-8551
▁versus	-8552
inspired	-8553
lational	-8554
▁Diagnos	-8555
▁assumed	-8556
▁compart	-8557
▁devoted	-8558
▁isolate	-8559
▁learned	-8560
▁mediate	-8561
▁modeled	-8562
▁notably	-8563
▁survive	-8564
▁zeolite	-8565
▁Additive	-8566
▁Graphene	-8567
▁attempts	-8568
▁branches	-8569
▁directed	-8570
▁exosomes	-8571
▁framtida	-8572
▁initiate	-8573
▁necessit	-8574
▁obstacle	-8575
▁symptoms	-8576
▁telomere	-8577
▁forecasts	-8578
▁movements	-8579
▁parabolic	-8580
▁societies	-8581
▁viscosity	-8582
modellering	-8583
▁inversions	-8584
▁proteoform	-8585
▁relaxation	-8586
▁strukturer	-8587
▁unresolved	-8588
▁Explainable	-8589
▁Hamiltonian	-8590
▁atmospheres	-8591
▁eigenvalues	-8592
▁innovations	-8593
▁lubrication	-8594
▁observables	-8595
▁represented	-8596
▁colonization	-8597
▁multivariate	-8598
▁structurally	-8599
▁universality	-8600
▁Investigating	-8601
electrochemical	-8602
▁representative	-8603
):	-8604
FA	-8605
IL	-8606
jö	-8607
gar	-8608
ley	-8609
ser	-8610
▁1,	-8611
▁25	-8612
▁50	-8613
▁DA	-8614
▁LC	-8615
allo	-8616
elin	-8617
ians	-8618
loss	-8619
magn	-8620
thin	-8621
▁Bor	-8622
▁Ent	-8623
▁Sur	-8624
▁Vol	-8625
▁amy	-8626
▁lim	-8627
aktiv	-8628
being	-8629
▁Each	-8630
▁beet	-8631
▁ende	-8632
▁evap	-8633
▁marg	-8634
▁puzz	-8635
▁skog	-8636
▁synd	-8637
antine	-8638
barhet	-8639
enthic	-8640
föring	-8641
onsequ	-8642
raphic	-8643
rected	-8644
urance	-8645
▁Gener	-8646
▁Initi	-8647
▁Metam	-8648
▁Nanom	-8649
▁State	-8650
▁Thomp	-8651
▁actin	-8652
▁admin	-8653
▁adopt	-8654
▁antiv	-8655
▁cereb	-8656
▁label	-8657
▁labor	-8658
▁nodes	-8659
▁outer	-8660
▁paleo	-8661
▁paths	-8662
▁reper	-8663
▁resol	-8664
▁storm	-8665
▁thems	-8666
▁truly	-8667
▁valor	-8668
▁zones	-8669
aktorer	-8670
ellulos	-8671
grained	-8672
irality	-8673
itherto	-8674
leading	-8675
mission	-8676
problem	-8677
respons	-8678
theless	-8679
▁Stable	-8680
▁bifurc	-8681
▁corner	-8682
▁dissem	-8683
▁lifest	-8684
▁propor	-8685
▁scalar	-8686
▁sheets	-8687
▁showed	-8688
▁suited	-8689
▁växter	-8690
analysis	-8691
embranes	-8692
homology	-8693
otrophic	-8694
▁Disease	-8695
▁Inverse	-8696
▁answers	-8697
▁biocomp	-8698
▁coexist	-8699
▁exciton	-8700
▁moments	-8701
▁profile	-8702
▁stoichi	-8703
amination	-8704
astically	-8705
electrics	-8706
everaging	-8707
manifolds	-8708
producing	-8709
unktional	-8710
▁assisted	-8711
▁atmosfär	-8712
▁consumer	-8713
▁equipped	-8714
▁floating	-8715
▁foraging	-8716
▁matching	-8717
▁referred	-8718
▁Dynamical	-8719
▁Processes	-8720
▁dominated	-8721
▁genetiska	-8722
▁guarantee	-8723
▁realizing	-8724
▁reprogram	-8725
▁resolving	-8726
▁sometimes	-8727
▁Autonomous	-8728
▁Mechanisms	-8729
▁Multimodal	-8730
▁compatible	-8731
▁conduction	-8732
▁explaining	-8733
▁generalize	-8734
▁Traditional	-8735
▁alterations	-8736
▁collections	-8737
▁disentangle	-8738
▁fascinating	-8739
▁konsekvenser	-8740
▁photovoltaic	-8741
▁surprisingly	-8742
▁transporters	-8743
▁homogenization	-8744
▁nanocomposites	-8745
30	-8746
EF	-8747
HO	-8748
Im	-8749
MI	-8750
ja	-8751
oh	-8752
”.	-8753
ARP	-8754
For	-8755
aut	-8756
ips	-8757
röd	-8758
sam	-8759
ued	-8760
▁15	-8761
▁GO	-8762
▁GR	-8763
▁Go	-8764
▁SH	-8765
beam	-8766
emia	-8767
hold	-8768
isen	-8769
itiz	-8770
part	-8771
plan	-8772
pres	-8773
▁ATP	-8774
▁CCT	-8775
▁CNS	-8776
▁Del	-8777
▁his	-8778
▁lok	-8779
▁onc	-8780
▁två	-8781
agent	-8782
erals	-8783
gorit	-8784
induc	-8785
marks	-8786
probe	-8787
tikel	-8788
yntes	-8789
▁AMOC	-8790
▁dich	-8791
▁fost	-8792
▁gluc	-8793
▁novo	-8794
elines	-8795
otoxic	-8796
ulties	-8797
▁Emerg	-8798
▁adult	-8799
▁kinds	-8800
▁night	-8801
▁spray	-8802
▁stake	-8803
density	-8804
princip	-8805
umblebe	-8806
▁Instit	-8807
▁belong	-8808
▁chosen	-8809
▁encaps	-8810
▁interm	-8811
▁tunnel	-8812
abilitet	-8813
▁ammonia	-8814
▁arising	-8815
▁refined	-8816
▁synergy	-8817
component	-8818
ostruktur	-8819
▁campaign	-8820
▁homotopy	-8821
▁humidity	-8822
▁mutation	-8823
▁phosphor	-8824
▁protocol	-8825
▁rearrang	-8826
▁received	-8827
▁reliably	-8828
▁salinity	-8829
▁Advancing	-8830
▁Stockholm	-8831
▁cosmology	-8832
▁dynamiska	-8833
▁insulator	-8834
▁molekylär	-8835
▁obtaining	-8836
▁packaging	-8837
▁plasmonic	-8838
▁strategic	-8839
▁visualize	-8840
ochronology	-8841
▁condensate	-8842
▁generators	-8843
▁impossible	-8844
▁incomplete	-8845
▁recurrence	-8846
▁solubility	-8847
▁themselves	-8848
▁calculation	-8849
▁collaborate	-8850
▁conclusions	-8851
▁constitutes	-8852
▁hypergraphs	-8853
▁respiration	-8854
▁Undersökning	-8855
▁descriptions	-8856
▁electrolysis	-8857
▁permeability	-8858
▁demonstration	-8859
▁domestication	-8860
▁nanostructured	-8861
▁transformative	-8862
▁Electrochemical	-8863
▁instrumentation	-8864
2+	-8865
BB	-8866
CR	-8867
IE	-8868
OL	-8869
PD	-8870
eg	-8871
tw	-8872
ESS	-8873
ICs	-8874
III	-8875
Rec	-8876
ank	-8877
etz	-8878
las	-8879
nes	-8880
▁Er	-8881
jord	-8882
▁Ark	-8883
▁Mad	-8884
▁Now	-8885
▁Saf	-8886
▁Use	-8887
▁mys	-8888
▁neg	-8889
These	-8890
akers	-8891
astro	-8892
cloud	-8893
fluor	-8894
heter	-8895
itary	-8896
metic	-8897
▁cour	-8898
▁kill	-8899
▁piec	-8900
▁pulp	-8901
▁span	-8902
▁summ	-8903
embles	-8904
letion	-8905
ningen	-8906
onical	-8907
predic	-8908
▁Image	-8909
▁Incre	-8910
▁Techn	-8911
▁astro	-8912
▁basal	-8913
▁diges	-8914
▁drift	-8915
▁exped	-8916
▁mobil	-8917
▁overl	-8918
▁splic	-8919
▁templ	-8920
▁tuned	-8921
concept	-8922
edicine	-8923
faction	-8924
halogen	-8925
▁Assess	-8926
▁Domain	-8927
▁Schröd	-8928
▁Stress	-8929
▁approx	-8930
▁blooms	-8931
▁driver	-8932
▁leaves	-8933
▁nanoph	-8934
▁nearby	-8935
▁neuron	-8936
▁skills	-8937
▁stjärn	-8938
inations	-8939
infrared	-8940
projects	-8941
wareness	-8942
▁Consequ	-8943
▁Neumann	-8944
▁Results	-8945
▁Strateg	-8946
▁chromat	-8947
▁dietary	-8948
▁ensures	-8949
▁follows	-8950
▁jointly	-8951
▁passive	-8952
▁shorter	-8953
▁textile	-8954
represent	-8955
▁Multiple	-8956
▁backbone	-8957
▁bringing	-8958
▁climates	-8959
▁coverage	-8960
▁påverkar	-8961
▁scenario	-8962
omponenter	-8963
▁Combining	-8964
▁ancestral	-8965
▁assembled	-8966
▁colloidal	-8967
▁entangled	-8968
▁initially	-8969
▁läkemedel	-8970
▁neutrinos	-8971
▁paradigms	-8972
▁phylogeny	-8973
▁protected	-8974
▁retention	-8975
▁ribosomal	-8976
▁vibration	-8977
▁Transition	-8978
▁deviations	-8979
▁intestinal	-8980
▁pollinator	-8981
▁thresholds	-8982
▁dislocation	-8983
▁qualitative	-8984
interaktioner	-8985
▁insufficient	-8986
▁fertilization	-8987
▁approximations	-8988
▁susceptibility	-8989
▁Maskininlärning	-8990
▁infrastructures	-8991
18	-8992
LT	-8993
MM	-8994
MP	-8995
OH	-8996
RE	-8997
RF	-8998
tr	-8999
AIR	-9000
aim	-9001
ano	-9002
cob	-9003
fly	-9004
ict	-9005
lab	-9006
nen	-9007
▁GU	-9008
▁HE	-9009
▁MS	-9010
▁NW	-9011
▁Om	-9012
▁RE	-9013
▁Ro	-9014
Here	-9015
hane	-9016
hard	-9017
ofil	-9018
ukle	-9019
utin	-9020
vivo	-9021
▁Big	-9022
▁Fer	-9023
▁Gas	-9024
▁Tun	-9025
▁ign	-9026
▁kan	-9027
▁kid	-9028
▁unt	-9029
eters	-9030
issue	-9031
rance	-9032
sized	-9033
▁2022	-9034
▁Edge	-9035
▁arri	-9036
▁eDNA	-9037
▁faun	-9038
▁kont	-9039
▁mole	-9040
▁sett	-9041
forska	-9042
isting	-9043
omeres	-9044
upiter	-9045
▁Recon	-9046
▁Silic	-9047
▁arith	-9048
▁betyd	-9049
▁cleav	-9050
▁destr	-9051
▁hired	-9052
▁mesoc	-9053
▁niche	-9054
▁orbit	-9055
▁sperm	-9056
Develop	-9057
coupled	-9058
keletal	-9059
▁Atomic	-9060
▁Impact	-9061
▁annual	-9062
▁biases	-9063
▁covari	-9064
▁invest	-9065
▁leader	-9066
▁module	-9067
▁nearly	-9068
▁powder	-9069
▁remove	-9070
▁rivers	-9071
▁thanks	-9072
negative	-9073
▁assimil	-9074
▁embritt	-9075
▁feeding	-9076
▁heavily	-9077
▁tightly	-9078
▁trapped	-9079
▁vectors	-9080
▁Geometry	-9081
▁Improved	-9082
▁alkaline	-9083
▁charging	-9084
▁compiler	-9085
▁computed	-9086
▁conflict	-9087
▁drinking	-9088
▁electrom	-9089
▁elektrok	-9090
▁enhances	-9091
▁failures	-9092
▁homology	-9093
▁matroids	-9094
▁ordinary	-9095
▁upcoming	-9096
efficiency	-9097
▁Synthetic	-9098
▁alongside	-9099
▁awareness	-9100
▁partially	-9101
▁regulates	-9102
electrolyte	-9103
▁asymptotic	-9104
▁completion	-9105
▁disruption	-9106
▁minimizing	-9107
▁relativity	-9108
▁volumetric	-9109
▁Schrödinger	-9110
▁anticipated	-9111
▁approximate	-9112
▁genetically	-9113
▁interaktion	-9114
▁preferences	-9115
▁vibrational	-9116
▁constituents	-9117
▁transparency	-9118
▁multicomponent	-9119
▁biogeochemistry	-9120
ND	-9121
OX	-9122
TA	-9123
cy	-9124
yg	-9125
api	-9126
ili	-9127
iva	-9128
kom	-9129
kri	-9130
leg	-9131
vex	-9132
▁40	-9133
▁LR	-9134
▁SP	-9135
▁dy	-9136
▁nu	-9137
▁ry	-9138
▁ul	-9139
ails	-9140
cont	-9141
data	-9142
djur	-9143
isis	-9144
iton	-9145
oice	-9146
oses	-9147
pled	-9148
sten	-9149
ymph	-9150
▁Dem	-9151
▁Rem	-9152
▁Sex	-9153
▁adi	-9154
▁aur	-9155
▁oil	-9156
▁sti	-9157
andet	-9158
anges	-9159
antal	-9160
emory	-9161
iling	-9162
lined	-9163
where	-9164
▁ALMA	-9165
▁CMOS	-9166
▁Gram	-9167
▁bugs	-9168
▁clay	-9169
▁tids	-9170
ecause	-9171
formed	-9172
lighet	-9173
omeric	-9174
▁Fermi	-9175
▁Found	-9176
▁acute	-9177
▁assay	-9178
▁bakom	-9179
▁epith	-9180
▁mucus	-9181
▁neigh	-9182
▁prosp	-9183
▁shrub	-9184
▁teori	-9185
▁tough	-9186
▁young	-9187
conduct	-9188
ffektiv	-9189
identif	-9190
istiska	-9191
lerosis	-9192
rometry	-9193
upplöst	-9194
ustrial	-9195
▁Altern	-9196
▁Oscill	-9197
▁Search	-9198
▁alkali	-9199
▁calibr	-9200
▁encode	-9201
▁excess	-9202
▁feedst	-9203
▁filter	-9204
▁funded	-9205
▁invent	-9206
▁mating	-9207
▁methyl	-9208
▁vävnad	-9209
articles	-9210
artiklar	-9211
centered	-9212
cessible	-9213
emitting	-9214
ologists	-9215
oriented	-9216
othermal	-9217
printing	-9218
▁Plastic	-9219
▁Problem	-9220
▁broadly	-9221
▁comprom	-9222
▁diamond	-9223
▁happens	-9224
▁lactose	-9225
▁motions	-9226
▁somatic	-9227
▁symbion	-9228
astrophic	-9229
hållanden	-9230
intensive	-9231
ontroller	-9232
▁Einstein	-9233
▁defining	-9234
▁discreti	-9235
▁earliest	-9236
▁epidemic	-9237
▁extremal	-9238
▁greatest	-9239
▁hitherto	-9240
▁hållbara	-9241
▁normally	-9242
▁striking	-9243
criptomics	-9244
mikroskopi	-9245
▁Important	-9246
▁Potential	-9247
▁Represent	-9248
▁eliminate	-9249
▁formulate	-9250
▁generates	-9251
▁intensive	-9252
▁inversion	-9253
▁modulated	-9254
▁peatlands	-9255
▁pipelines	-9256
▁precursor	-9257
▁prominent	-9258
▁Biological	-9259
▁Leveraging	-9260
▁Mechanical	-9261
▁Processing	-9262
▁biophysics	-9263
▁competence	-9264
▁estimating	-9265
▁fractional	-9266
▁maintained	-9267
▁microalgae	-9268
▁motivation	-9269
▁quantified	-9270
▁spintronic	-9271
▁Temperature	-9272
▁dysfunction	-9273
▁selectively	-9274
▁transferred	-9275
▁transported	-9276
▁carbohydrate	-9277
▁förändringar	-9278
▁inequalities	-9279
▁radiotherapy	-9280
▁intrinsically	-9281
▁photocatalysis	-9282
▁transcriptomic	-9283
▁crystallization	-9284
BN	-9285
ME	-9286
Ox	-9287
no	-9288
ux	-9289
100	-9290
Syn	-9291
avy	-9292
err	-9293
isy	-9294
opt	-9295
rip	-9296
▁(~	-9297
▁CP	-9298
▁FT	-9299
▁LU	-9300
▁NH	-9301
▁Ni	-9302
rets	-9303
tian	-9304
tors	-9305
uced	-9306
▁Aqu	-9307
▁Cas	-9308
▁Mac	-9309
▁QFT	-9310
▁fas	-9311
▁häl	-9312
▁psy	-9313
▁sin	-9314
There	-9315
ensal	-9316
ergic	-9317
kning	-9318
limit	-9319
titud	-9320
▁1000	-9321
▁BVOC	-9322
▁That	-9323
▁Ther	-9324
▁Tree	-9325
▁Util	-9326
▁bete	-9327
▁enig	-9328
▁hosp	-9329
▁knot	-9330
▁kärn	-9331
▁resh	-9332
▁thaw	-9333
abatic	-9334
atomic	-9335
consum	-9336
oredox	-9337
▁Estim	-9338
▁Madag	-9339
▁avanc	-9340
▁crypt	-9341
▁horiz	-9342
▁nerve	-9343
▁patch	-9344
▁salts	-9345
However	-9346
enabled	-9347
itoring	-9348
tivated	-9349
ymbolic	-9350
▁Deciph	-9351
▁Förstå	-9352
▁Lignin	-9353
▁Tissue	-9354
▁baryon	-9355
▁bright	-9356
▁coarse	-9357
▁combat	-9358
▁course	-9359
▁export	-9360
▁mirror	-9361
▁paving	-9362
▁played	-9363
▁proxim	-9364
▁thermo	-9365
▁vacuum	-9366
▁winter	-9367
emission	-9368
goritmer	-9369
strained	-9370
tolerant	-9371
▁Aerosol	-9372
▁Extreme	-9373
▁acquire	-9374
▁allowed	-9375
▁cations	-9376
▁chemist	-9377
▁debated	-9378
▁ingredi	-9379
▁katalys	-9380
▁pioneer	-9381
▁reverse	-9382
otherapeu	-9383
unktioner	-9384
▁Enhanced	-9385
▁Operator	-9386
▁Secondly	-9387
▁Thompson	-9388
▁antibody	-9389
▁cavities	-9390
▁entities	-9391
▁exposome	-9392
▁hindered	-9393
▁minerals	-9394
▁parasite	-9395
▁pinpoint	-9396
▁scaffold	-9397
▁severity	-9398
elektriska	-9399
supervised	-9400
▁Transport	-9401
▁accretion	-9402
▁analogues	-9403
▁antiviral	-9404
▁asteroids	-9405
▁balancing	-9406
▁chemosens	-9407
▁competing	-9408
▁concerned	-9409
▁conformal	-9410
▁execution	-9411
▁herbivory	-9412
▁microscop	-9413
▁programme	-9414
▁quadratic	-9415
▁separated	-9416
▁Electronic	-9417
▁anisotropy	-9418
▁coordinate	-9419
▁ionization	-9420
▁microscale	-9421
▁mosquitoes	-9422
▁protective	-9423
▁Simulations	-9424
▁amenability	-9425
▁cooperative	-9426
▁decoherence	-9427
▁enhancement	-9428
▁nutritional	-9429
▁surfactants	-9430
▁trustworthy	-9431
dimensionella	-9432
▁dependencies	-9433
▁difficulties	-9434
▁purification	-9435
▁subsequently	-9436
▁transduction	-9437
▁biomechanical	-9438
▁characterised	-9439
▁correspondence	-9440
▁rehabilitation	-9441
.)	-9442
BG	-9443
sn	-9444
öt	-9445
FEL	-9446
IBE	-9447
bet	-9448
cut	-9449
kad	-9450
▁BS	-9451
▁CR	-9452
▁PM	-9453
▁PP	-9454
avia	-9455
harm	-9456
hing	-9457
hort	-9458
oxyl	-9459
prot	-9460
utsä	-9461
▁DBS	-9462
▁Har	-9463
▁REE	-9464
▁Run	-9465
▁Sup	-9466
▁dil	-9467
▁dim	-9468
▁thi	-9469
emisk	-9470
oders	-9471
opath	-9472
reted	-9473
rivna	-9474
stone	-9475
▁Heat	-9476
▁MOFs	-9477
▁Phyt	-9478
▁Sequ	-9479
▁Tera	-9480
▁acet	-9481
▁aden	-9482
▁bigg	-9483
▁cope	-9484
▁dead	-9485
▁jets	-9486
▁nytt	-9487
▁rRNA	-9488
abling	-9489
carbon	-9490
genome	-9491
ittent	-9492
örande	-9493
▁Chrom	-9494
▁Dirac	-9495
▁Palae	-9496
▁flera	-9497
▁hours	-9498
▁inhom	-9499
▁noisy	-9500
▁plate	-9501
▁pores	-9502
▁pseud	-9503
▁sharp	-9504
▁shelf	-9505
alactic	-9506
article	-9507
iserade	-9508
orption	-9509
reening	-9510
ulatory	-9511
▁Charge	-9512
▁Proper	-9513
▁Stream	-9514
▁arctic	-9515
▁brings	-9516
▁crisis	-9517
▁mimics	-9518
▁neighb	-9519
▁outbre	-9520
mosphere	-9521
ospheres	-9522
▁bundles	-9523
▁cathode	-9524
▁gaining	-9525
▁glycine	-9526
▁illumin	-9527
▁immobil	-9528
developed	-9529
▁Existing	-9530
▁Membrane	-9531
▁Spectral	-9532
▁infected	-9533
▁kontroll	-9534
▁lifespan	-9535
▁manifest	-9536
▁maximize	-9537
▁mountain	-9538
▁recorded	-9539
▁rheology	-9540
▁semantic	-9541
▁sunlight	-9542
▁treating	-9543
▁Cellulose	-9544
▁Mitochond	-9545
▁analytics	-9546
▁bandwidth	-9547
▁broadband	-9548
▁carbonate	-9549
▁decreased	-9550
▁education	-9551
▁inelastic	-9552
▁positions	-9553
▁presented	-9554
▁processed	-9555
▁threshold	-9556
evertheless	-9557
onstruction	-9558
▁abundances	-9559
▁arithmetic	-9560
▁supernovae	-9561
▁trajectory	-9562
▁Scandinavia	-9563
▁cultivation	-9564
▁femtosecond	-9565
▁importantly	-9566
▁influencing	-9567
▁particulate	-9568
▁radioactive	-9569
▁arrangements	-9570
▁nanoplastics	-9571
▁regenerative	-9572
▁polymerization	-9573
0,	-9574
Fe	-9575
XS	-9576
ECT	-9577
ION	-9578
THz	-9579
ana	-9580
▁12	-9581
▁AB	-9582
▁AS	-9583
▁Mn	-9584
▁SL	-9585
▁UN	-9586
▁Ze	-9587
▁nc	-9588
▁ow	-9589
Cube	-9590
aque	-9591
entz	-9592
jära	-9593
klar	-9594
leag	-9595
ligg	-9596
nytt	-9597
oody	-9598
phal	-9599
ught	-9600
used	-9601
▁Dat	-9602
▁Mul	-9603
▁mät	-9604
▁små	-9605
▁tro	-9606
efsch	-9607
elian	-9608
elled	-9609
ember	-9610
esium	-9611
otive	-9612
ritic	-9613
▁Diff	-9614
▁Germ	-9615
▁ages	-9616
▁crow	-9617
▁dest	-9618
▁drag	-9619
▁leak	-9620
▁quen	-9621
▁song	-9622
▁ster	-9623
▁taxa	-9624
agents	-9625
arbons	-9626
ernary	-9627
etting	-9628
lowing	-9629
orecep	-9630
ulator	-9631
▁bioch	-9632
▁calor	-9633
▁frame	-9634
▁helps	-9635
▁inser	-9636
▁shrin	-9637
▁stora	-9638
▁wheat	-9639
atories	-9640
balance	-9641
gravity	-9642
▁Correl	-9643
▁Forest	-9644
▁attain	-9645
▁cation	-9646
▁devise	-9647
▁dinosa	-9648
▁marina	-9649
▁myself	-9650
▁placed	-9651
▁spring	-9652
▁themes	-9653
▁vortex	-9654
limation	-9655
ongevity	-9656
▁Because	-9657
▁IceCube	-9658
▁arthrop	-9659
▁distant	-9660
▁exactly	-9661
▁females	-9662
▁mixture	-9663
▁perfect	-9664
▁reduces	-9665
▁relying	-9666
character	-9667
theoretic	-9668
▁Genomics	-9669
▁baserade	-9670
▁bumblebe	-9671
▁captured	-9672
▁decoding	-9673
▁fermions	-9674
▁invasion	-9675
▁miniatur	-9676
▁nonlocal	-9677
▁outflows	-9678
▁suppress	-9679
▁syndrome	-9680
▁Establish	-9681
▁Terahertz	-9682
▁anomalous	-9683
▁attracted	-9684
▁biosensor	-9685
▁cognition	-9686
▁commensal	-9687
▁demanding	-9688
▁eruptions	-9689
▁hierarchy	-9690
▁incidence	-9691
▁libraries	-9692
▁microcirc	-9693
▁optimised	-9694
▁remaining	-9695
▁sjukdomar	-9696
odiversitet	-9697
▁asymmetric	-9698
▁meaningful	-9699
▁optimering	-9700
▁recordings	-9701
▁stationary	-9702
▁topography	-9703
▁Atmospheric	-9704
▁cooperation	-9705
▁dissolution	-9706
▁excitations	-9707
▁recruitment	-9708
▁Nevertheless	-9709
▁inaccessible	-9710
▁sufficiently	-9711
▁viscoelastic	-9712
▁embrittlement	-9713
▁establishment	-9714
▁pharmacological	-9715
▁supercapacitors	-9716
*-	-9717
BE	-9718
GS	-9719
HR	-9720
My	-9721
kl	-9722
xi	-9723
▁=	-9724
▁`	-9725
Res	-9726
ada	-9727
cor	-9728
kam	-9729
non	-9730
ume	-9731
▁DL	-9732
▁LP	-9733
bral	-9734
hets	-9735
irds	-9736
odet	-9737
opic	-9738
ovid	-9739
phen	-9740
rädd	-9741
site	-9742
ulse	-9743
uple	-9744
▁CFD	-9745
▁Dep	-9746
▁Exp	-9747
▁GHG	-9748
▁Leg	-9749
▁ect	-9750
▁rew	-9751
▁sav	-9752
▁six	-9753
▁ten	-9754
IBEAM	-9755
actor	-9756
anted	-9757
arity	-9758
backs	-9759
elsen	-9760
enger	-9761
ethyl	-9762
etics	-9763
ixing	-9764
izers	-9765
osing	-9766
raled	-9767
ämnen	-9768
▁Diss	-9769
▁Kvan	-9770
▁Open	-9771
▁leaf	-9772
▁leap	-9773
▁resc	-9774
batter	-9775
etiska	-9776
linked	-9777
spring	-9778
ålning	-9779
▁Black	-9780
▁Brown	-9781
▁Euler	-9782
▁atten	-9783
▁brown	-9784
▁chaos	-9785
▁effek	-9786
▁flies	-9787
▁gamma	-9788
▁imped	-9789
▁nemat	-9790
▁plans	-9791
▁spent	-9792
▁twins	-9793
holders	-9794
illance	-9795
latitud	-9796
optical	-9797
product	-9798
▁Social	-9799
▁cement	-9800
▁diodes	-9801
▁grains	-9802
▁infilt	-9803
▁kidney	-9804
▁planar	-9805
▁setups	-9806
▁shaped	-9807
▁stands	-9808
itudinal	-9809
magnetic	-9810
ometrics	-9811
ontinuum	-9812
otically	-9813
timatter	-9814
verkning	-9815
▁appears	-9816
▁benthic	-9817
▁cardiac	-9818
▁creates	-9819
▁extrema	-9820
▁jamming	-9821
▁volumes	-9822
eparation	-9823
transport	-9824
umination	-9825
▁Approach	-9826
▁Funktion	-9827
▁deployed	-9828
▁improves	-9829
▁neutrons	-9830
▁peatland	-9831
▁prototyp	-9832
▁quantity	-9833
▁severely	-9834
▁splicing	-9835
▁subunits	-9836
▁tectonic	-9837
behandling	-9838
ekvationer	-9839
opulations	-9840
▁Equations	-9841
▁alignment	-9842
▁capillary	-9843
▁consumers	-9844
▁immediate	-9845
▁latitudes	-9846
▁offspring	-9847
▁parasitic	-9848
▁projected	-9849
▁translate	-9850
ostrukturer	-9851
uminescence	-9852
▁Adaptation	-9853
▁Epigenetic	-9854
▁Perovskite	-9855
▁Spallation	-9856
▁anticipate	-9857
▁användning	-9858
▁constraint	-9859
▁enrichment	-9860
▁transistor	-9861
▁uncovering	-9862
▁Deciphering	-9863
▁biomaterial	-9864
▁drastically	-9865
▁penetration	-9866
▁problematic	-9867
▁replacement	-9868
▁strukturell	-9869
▁ultraviolet	-9870
▁Consequently	-9871
▁antagonistic	-9872
▁deformations	-9873
▁microplastic	-9874
▁paleoclimate	-9875
▁stakeholders	-9876
▁biocompatible	-9877
▁Identification	-9878
▁polysaccharide	-9879
▁supersymmetric	-9880
▁karakterisering	-9881
▁microstructural	-9882
/2	-9883
15	-9884
2:	-9885
80	-9886
CN	-9887
Pl	-9888
RD	-9889
RT	-9890
WE	-9891
”,	-9892
▁q	-9893
DFT	-9894
aqu	-9895
dle	-9896
eds	-9897
igt	-9898
ugg	-9899
uth	-9900
yll	-9901
▁NP	-9902
▁Ur	-9903
▁mt	-9904
LEDs	-9905
Year	-9906
burg	-9907
oles	-9908
oset	-9909
roch	-9910
slöj	-9911
tity	-9912
▁End	-9913
▁Nob	-9914
▁ROS	-9915
▁ded	-9916
▁dot	-9917
▁jaw	-9918
▁jon	-9919
▁kun	-9920
▁tet	-9921
▁tin	-9922
aktär	-9923
charg	-9924
ensus	-9925
enzym	-9926
forms	-9927
optic	-9928
▁Fast	-9929
▁Prin	-9930
▁Stor	-9931
▁cord	-9932
▁fold	-9933
▁kvan	-9934
▁lång	-9935
▁mesh	-9936
▁tung	-9937
aliana	-9938
entity	-9939
factor	-9940
itness	-9941
itride	-9942
normal	-9943
otides	-9944
prints	-9945
uclein	-9946
▁Third	-9947
▁antif	-9948
▁elong	-9949
▁exerc	-9950
▁house	-9951
▁lacks	-9952
▁safer	-9953
▁själv	-9954
▁stere	-9955
▁stiff	-9956
▁store	-9957
▁winds	-9958
ediment	-9959
ismatch	-9960
linking	-9961
ologous	-9962
räddars	-9963
tifying	-9964
uscular	-9965
▁Change	-9966
▁Chiral	-9967
▁HIBEAM	-9968
▁Nature	-9969
▁bortom	-9970
▁cities	-9971
▁deline	-9972
▁floral	-9973
▁wealth	-9974
adaptive	-9975
efschetz	-9976
weighted	-9977
ynamical	-9978
▁Amyloid	-9979
▁Jupiter	-9980
▁Lorentz	-9981
▁Polymer	-9982
▁cancers	-9983
▁fossils	-9984
▁hotspot	-9985
▁människ	-9986
▁neurala	-9987
▁nucleic	-9988
▁obvious	-9989
▁reperto	-9990
▁simpler	-9991
▁soluble	-9992
diffusion	-9993
gregation	-9994
▁Effektiv	-9995
▁Proteins	-9996
▁dramatic	-9997
▁examined	-9998
▁industri	-9999
▁interior	-10000
▁southern	-10001
▁symbolic	-10002
▁thaliana	-10003
▁triggers	-10004
▁turbines	-10005
ographical	-10006
population	-10007
överföring	-10008
▁Constrain	-10009
▁Diffusion	-10010
▁Precision	-10011
▁Uncertain	-10012
▁biologisk	-10013
▁buildings	-10014
▁couplings	-10015
▁epitaxial	-10016
▁federated	-10017
▁injection	-10018
▁interacts	-10019
▁leverages	-10020
▁nanometer	-10021
▁searching	-10022
▁symbiosis	-10023
▁virtually	-10024
▁Microscopy	-10025
▁Tomography	-10026
▁affordable	-10027
▁anpassning	-10028
▁conjugated	-10029
▁endogenous	-10030
▁explicitly	-10031
▁phosphorus	-10032
▁physically	-10033
▁remodeling	-10034
▁stabilitet	-10035
▁temperatur	-10036
▁triggering	-10037
▁bottlenecks	-10038
▁coevolution	-10039
▁cornerstone	-10040
▁wavelengths	-10041
▁controllable	-10042
▁implantation	-10043
▁postdoctoral	-10044
▁acidification	-10045
▁reprogramming	-10046
▁transcriptome	-10047
CA	-10048
El	-10049
FB	-10050
TO	-10051
tb	-10052
MAA	-10053
eas	-10054
ena	-10055
enz	-10056
ply	-10057
rad	-10058
rat	-10059
umn	-10060
▁2,	-10061
▁Pr	-10062
▁eg	-10063
ALDI	-10064
anda	-10065
asal	-10066
coll	-10067
core	-10068
isel	-10069
kala	-10070
kraf	-10071
olip	-10072
rupt	-10073
text	-10074
värd	-10075
wood	-10076
▁Aff	-10077
▁Ang	-10078
▁Div	-10079
▁Kac	-10080
▁QCD	-10081
▁RIS	-10082
▁box	-10083
▁men	-10084
▁mil	-10085
▁möj	-10086
▁von	-10087
acent	-10088
alkyl	-10089
avier	-10090
cells	-10091
centr	-10092
chann	-10093
ifies	-10094
ompan	-10095
ritis	-10096
stage	-10097
ungal	-10098
using	-10099
yclic	-10100
änder	-10101
▁Till	-10102
▁asth	-10103
▁bees	-10104
▁cros	-10105
▁hybr	-10106
▁larv	-10107
▁seem	-10108
entral	-10109
pollin	-10110
ranial	-10111
stabil	-10112
theory	-10113
▁Among	-10114
▁Beräk	-10115
▁Major	-10116
▁Nanoc	-10117
▁Synch	-10118
▁absol	-10119
▁anion	-10120
▁bases	-10121
▁bulge	-10122
▁cyber	-10123
▁doped	-10124
▁emuls	-10125
▁lymph	-10126
▁nästa	-10127
▁retro	-10128
▁stret	-10129
ambrian	-10130
oscopic	-10131
regular	-10132
studied	-10133
äkerhet	-10134
åverkan	-10135
▁Batter	-10136
▁Fusion	-10137
▁Plants	-10138
▁attenu	-10139
▁centre	-10140
▁endoth	-10141
▁hormon	-10142
▁indeed	-10143
▁kemisk	-10144
▁legacy	-10145
▁mental	-10146
▁organo	-10147
▁ranges	-10148
▁redund	-10149
▁sodium	-10150
▁steady	-10151
▁stored	-10152
▁summar	-10153
▁undert	-10154
lärnings	-10155
molecule	-10156
ordinary	-10157
unctions	-10158
▁Species	-10159
▁Testing	-10160
▁bounded	-10161
▁degrade	-10162
▁dissoci	-10163
▁instant	-10164
▁proxies	-10165
▁smartph	-10166
▁telecom	-10167
▁tropics	-10168
▁unusual	-10169
▁version	-10170
istically	-10171
regulated	-10172
unctional	-10173
▁Bacteria	-10174
▁Decision	-10175
▁Neutrino	-10176
▁Problems	-10177
▁Southern	-10178
▁abstract	-10179
▁acceptor	-10180
▁cultural	-10181
▁cytoplas	-10182
▁everyday	-10183
▁filament	-10184
▁hotspots	-10185
▁inducing	-10186
▁kristall	-10187
▁labeling	-10188
▁ribosome	-10189
▁turnover	-10190
▁unpredic	-10191
▁vaccines	-10192
atmosphere	-10193
regulation	-10194
▁Catalytic	-10195
▁Institute	-10196
▁Turbulent	-10197
▁canonical	-10198
▁describes	-10199
▁neglected	-10200
▁obstacles	-10201
▁polymeric	-10202
▁predation	-10203
▁regulator	-10204
▁replacing	-10205
▁violation	-10206
onstruktion	-10207
onucleotide	-10208
▁Experiment	-10209
▁Structures	-10210
▁biogenesis	-10211
▁comprising	-10212
▁determines	-10213
▁difficulty	-10214
▁respective	-10215
▁underwater	-10216
▁Exploration	-10217
▁butterflies	-10218
▁conjectures	-10219
▁disciplines	-10220
▁experiences	-10221
▁multilayers	-10222
▁oscillation	-10223
▁resolutions	-10224
▁zooplankton	-10225
▁Neuromorphic	-10226
▁accelerating	-10227
▁participants	-10228
▁extraordinary	-10229
▁fractionation	-10230
▁invertebrates	-10231
▁nanostructure	-10232
▁phenomenology	-10233
Is	-10234
TM	-10235
▁α	-10236
Gen	-10237
ORM	-10238
dec	-10239
erb	-10240
lux	-10241
meå	-10242
oli	-10243
opy	-10244
sky	-10245
vak	-10246
äss	-10247
▁CA	-10248
▁ET	-10249
▁FE	-10250
▁Ir	-10251
▁Ma	-10252
▁OM	-10253
▁är	-10254
aked	-10255
bred	-10256
drug	-10257
film	-10258
gels	-10259
poll	-10260
ribu	-10261
yles	-10262
▁3-4	-10263
▁AAV	-10264
▁DOC	-10265
▁ECM	-10266
▁EEG	-10267
▁Hem	-10268
▁Lev	-10269
▁Pos	-10270
▁Rap	-10271
▁TFs	-10272
▁ash	-10273
▁bow	-10274
▁die	-10275
▁lam	-10276
▁opt	-10277
▁rip	-10278
▁rod	-10279
▁suc	-10280
▁unw	-10281
▁vdW	-10282
Moody	-10283
after	-10284
ascar	-10285
ausal	-10286
elles	-10287
entia	-10288
ernas	-10289
medel	-10290
plied	-10291
raphy	-10292
tryck	-10293
▁2024	-10294
▁Bron	-10295
▁Fenn	-10296
▁Last	-10297
▁Prog	-10298
▁bios	-10299
▁buff	-10300
▁doub	-10301
▁driv	-10302
▁glia	-10303
▁jour	-10304
▁muse	-10305
▁orch	-10306
▁prem	-10307
▁rank	-10308
Stokes	-10309
amples	-10310
ancies	-10311
cribed	-10312
differ	-10313
ektral	-10314
iteter	-10315
riving	-10316
scales	-10317
vement	-10318
▁Cardi	-10319
▁Cross	-10320
▁Embed	-10321
▁Focus	-10322
▁Ionic	-10323
▁Still	-10324
▁Study	-10325
▁Three	-10326
▁avian	-10327
▁charm	-10328
▁child	-10329
▁combs	-10330
▁curve	-10331
▁cytos	-10332
▁edges	-10333
▁faces	-10334
▁favor	-10335
▁natur	-10336
▁olika	-10337
▁phage	-10338
▁river	-10339
▁stack	-10340
▁suite	-10341
aktions	-10342
biologi	-10343
ceeding	-10344
ochrome	-10345
omputer	-10346
ospital	-10347
plicity	-10348
systems	-10349
▁Galaxy	-10350
▁assign	-10351
▁broken	-10352
▁celler	-10353
▁copper	-10354
▁curved	-10355
▁dating	-10356
▁elabor	-10357
▁forese	-10358
▁fuller	-10359
▁happen	-10360
▁kernel	-10361
▁option	-10362
▁probed	-10363
▁rescue	-10364
▁rising	-10365
▁teknik	-10366
ektioner	-10367
▁African	-10368
▁Biomass	-10369
▁Central	-10370
▁Reinfor	-10371
▁alleles	-10372
▁biochar	-10373
▁compens	-10374
▁degener	-10375
▁hypoxia	-10376
▁kemiska	-10377
▁latency	-10378
▁macroph	-10379
▁malaria	-10380
▁mutants	-10381
▁nedbryt	-10382
▁offered	-10383
▁pursued	-10384
▁scrutin	-10385
▁started	-10386
discharge	-10387
tifiering	-10388
uccessful	-10389
▁Reactive	-10390
▁Resonant	-10391
▁academic	-10392
▁adequate	-10393
▁biocatal	-10394
▁cleavage	-10395
▁cultures	-10396
▁enriched	-10397
▁exhibits	-10398
▁expanded	-10399
▁graphite	-10400
▁mekanism	-10401
▁mismatch	-10402
▁modality	-10403
▁modelled	-10404
▁radicals	-10405
▁regolith	-10406
capacitors	-10407
structured	-10408
▁Mechanics	-10409
▁beginning	-10410
▁endocrine	-10411
▁hazardous	-10412
▁inlärning	-10413
▁installed	-10414
▁lifetimes	-10415
▁longevity	-10416
▁magnetron	-10417
▁nutrition	-10418
▁pheromone	-10419
▁phosphory	-10420
▁secretion	-10421
▁supernova	-10422
engineering	-10423
▁Algorithms	-10424
▁Madagascar	-10425
▁Microfluid	-10426
▁accounting	-10427
▁allocation	-10428
▁cohomology	-10429
▁connecting	-10430
▁formulated	-10431
▁förbättrad	-10432
▁geographic	-10433
▁kinematics	-10434
▁oscillator	-10435
▁perspektiv	-10436
▁senescence	-10437
generational	-10438
▁Comparative	-10439
▁Utforskning	-10440
▁assemblages	-10441
▁calculating	-10442
▁elucidating	-10443
▁evaporation	-10444
▁facilitated	-10445
▁intelligens	-10446
▁lightweight	-10447
▁overturning	-10448
▁ecologically	-10449
▁efficiencies	-10450
▁funktionella	-10451
▁instrumental	-10452
▁longitudinal	-10453
▁multiphysics	-10454
▁organisation	-10455
▁polymorphism	-10456
▁surveillance	-10457
▁contamination	-10458
▁biodegradation	-10459
▁stratification	-10460
".	-10461
-)	-10462
DD	-10463
DP	-10464
FE	-10465
Ni	-10466
Or	-10467
TR	-10468
:1)	-10469
Con	-10470
tox	-10471
ärg	-10472
äst	-10473
▁AG	-10474
▁CC	-10475
▁MP	-10476
▁PR	-10477
▁RL	-10478
▁vå	-10479
Over	-10480
ager	-10481
bach	-10482
balt	-10483
elag	-10484
ergi	-10485
fält	-10486
hist	-10487
hyth	-10488
icks	-10489
kage	-10490
nivå	-10491
osyl	-10492
tail	-10493
tiga	-10494
tude	-10495
unar	-10496
ycle	-10497
▁Bcl	-10498
▁DOM	-10499
▁Fol	-10500
▁Hyp	-10501
▁Kon	-10502
▁Lat	-10503
▁NAS	-10504
▁ink	-10505
▁til	-10506
▁war	-10507
▁åld	-10508
Elect	-10509
aring	-10510
attle	-10511
estim	-10512
modal	-10513
reduc	-10514
stalk	-10515
ställ	-10516
tiles	-10517
verks	-10518
▁2026	-10519
▁Cryo	-10520
▁Disc	-10521
▁Grav	-10522
▁LLMs	-10523
▁Mill	-10524
▁Resp	-10525
▁Umeå	-10526
▁alco	-10527
▁caps	-10528
▁harb	-10529
▁hydr	-10530
▁seam	-10531
▁varm	-10532
▁vatt	-10533
▁värd	-10534
Driven	-10535
dioxid	-10536
elfare	-10537
inator	-10538
ularly	-10539
vering	-10540
önster	-10541
▁Austr	-10542
▁Rapid	-10543
▁clock	-10544
▁foton	-10545
▁males	-10546
▁mucin	-10547
▁occup	-10548
▁prime	-10549
▁prost	-10550
▁socio	-10551
▁throm	-10552
algebra	-10553
asoning	-10554
delning	-10555
entropy	-10556
imetric	-10557
uration	-10558
▁Liquid	-10559
▁Target	-10560
▁bubble	-10561
▁cobalt	-10562
▁covers	-10563
▁larvae	-10564
▁macrom	-10565
▁manage	-10566
▁manual	-10567
▁serves	-10568
▁spinal	-10569
ensitive	-10570
iability	-10571
parallel	-10572
▁Archean	-10573
▁Germany	-10574
▁Martian	-10575
▁Thermal	-10576
▁burning	-10577
▁chamber	-10578
▁chaotic	-10579
▁differs	-10580
▁duality	-10581
▁durable	-10582
▁elektro	-10583
▁halvled	-10584
▁insulin	-10585
▁protons	-10586
inorganic	-10587
selective	-10588
▁Accurate	-10589
▁Elektron	-10590
▁Phylogen	-10591
▁accepted	-10592
▁accompan	-10593
▁adapting	-10594
▁division	-10595
▁fixation	-10596
▁formally	-10597
▁memories	-10598
▁predator	-10599
▁remained	-10600
▁residues	-10601
▁seamless	-10602
▁versions	-10603
analytical	-10604
strukturer	-10605
wavelength	-10606
▁Molekylär	-10607
▁embedding	-10608
▁filtering	-10609
▁inclusion	-10610
▁integrals	-10611
▁multitude	-10612
▁organoids	-10613
▁recognize	-10614
▁spherical	-10615
▁stabilize	-10616
▁taxonomic	-10617
▁tectonics	-10618
▁workflows	-10619
▁Combustion	-10620
▁Management	-10621
▁Molekylära	-10622
▁attributed	-10623
▁bioprocess	-10624
▁constantly	-10625
▁deficiency	-10626
▁exhibiting	-10627
▁groundwork	-10628
▁indicating	-10629
▁metabolite	-10630
▁prevalence	-10631
▁reflection	-10632
▁strengthen	-10633
▁ultrasonic	-10634
▁undergoing	-10635
▁vulnerable	-10636
▁aerodynamic	-10637
▁informative	-10638
▁regulations	-10639
▁structuring	-10640
▁Fluorescence	-10641
▁catastrophic	-10642
▁condensation	-10643
▁invertebrate	-10644
▁luminescence	-10645
▁manufactured	-10646
▁consideration	-10647
▁microplastics	-10648
▁probabilities	-10649
▁chromatography	-10650
▁mathematically	-10651
At	-10652
BI	-10653
It	-10654
PL	-10655
Sh	-10656
UV	-10657
mi	-10658
mm	-10659
New	-10660
WST	-10661
arc	-10662
eer	-10663
enk	-10664
erk	-10665
ett	-10666
gel	-10667
pot	-10668
rik	-10669
sup	-10670
våg	-10671
▁--	-10672
▁13	-10673
▁EG	-10674
▁RN	-10675
▁SS	-10676
▁ca	-10677
▁os	-10678
▁år	-10679
PFAS	-10680
elia	-10681
elle	-10682
from	-10683
gran	-10684
iser	-10685
otor	-10686
pole	-10687
prey	-10688
step	-10689
▁20%	-10690
▁ALT	-10691
▁BAR	-10692
▁Bes	-10693
▁ESA	-10694
▁SEM	-10695
▁UCP	-10696
▁XAI	-10697
▁gla	-10698
▁hep	-10699
▁orn	-10700
▁vic	-10701
Using	-10702
amics	-10703
atric	-10704
genic	-10705
itory	-10706
mazon	-10707
orier	-10708
reson	-10709
skikt	-10710
terna	-10711
ällor	-10712
▁Bang	-10713
▁Cosm	-10714
▁Eluc	-10715
▁FAIR	-10716
▁Mean	-10717
▁Radi	-10718
▁anch	-10719
▁blod	-10720
▁feat	-10721
▁goes	-10722
▁left	-10723
▁limb	-10724
▁oral	-10725
▁rule	-10726
▁viol	-10727
anthan	-10728
covery	-10729
hesion	-10730
initio	-10731
olysis	-10732
ormone	-10733
sprung	-10734
▁Astro	-10735
▁Bound	-10736
▁GPCRs	-10737
▁Group	-10738
▁Morph	-10739
▁Scots	-10740
▁Virus	-10741
▁antig	-10742
▁biome	-10743
▁calls	-10744
▁coral	-10745
▁domin	-10746
▁klass	-10747
▁loops	-10748
▁spins	-10749
▁split	-10750
▁voice	-10751
arities	-10752
bounded	-10753
erativa	-10754
inities	-10755
nätverk	-10756
urgical	-10757
▁Signal	-10758
▁abrupt	-10759
▁arises	-10760
▁bioref	-10761
▁bosons	-10762
▁couple	-10763
▁enanti	-10764
▁extrac	-10765
▁incomp	-10766
▁peptid	-10767
▁places	-10768
▁predom	-10769
▁prompt	-10770
▁rarely	-10771
▁sulfur	-10772
▁travel	-10773
▁underl	-10774
▁varied	-10775
latitude	-10776
pathogen	-10777
▁Eurasia	-10778
▁Plasmon	-10779
▁baserad	-10780
▁biggest	-10781
▁confirm	-10782
▁equally	-10783
▁exchang	-10784
▁finance	-10785
▁fitting	-10786
▁harvest	-10787
▁logical	-10788
▁mystery	-10789
▁nitrate	-10790
▁profess	-10791
▁rainfor	-10792
▁relates	-10793
▁samhäll	-10794
▁scatter	-10795
▁texture	-10796
▁tipping	-10797
▁tracers	-10798
▁tracing	-10799
▁twisted	-10800
▁witness	-10801
atalytisk	-10802
materials	-10803
okastiska	-10804
oreningar	-10805
tificiell	-10806
vergångar	-10807
▁Approxim	-10808
▁Cambrian	-10809
▁Physical	-10810
▁Struktur	-10811
▁Wireless	-10812
▁amyloids	-10813
▁apparent	-10814
▁cascades	-10815
▁deterior	-10816
▁eutectic	-10817
▁frequent	-10818
▁genetisk	-10819
▁governed	-10820
▁photodet	-10821
▁rigidity	-10822
▁seawater	-10823
▁stronger	-10824
▁upstream	-10825
▁Catalysis	-10826
▁Lefschetz	-10827
▁Stability	-10828
▁crosstalk	-10829
▁deposited	-10830
▁ensembles	-10831
▁heatwaves	-10832
▁lifestyle	-10833
▁machining	-10834
▁producers	-10835
▁proposing	-10836
▁proximity	-10837
▁roughness	-10838
▁silencing	-10839
▁streaming	-10840
associative	-10841
ophysiology	-10842
▁Antibiotic	-10843
▁Simulation	-10844
▁biologiska	-10845
▁cavitation	-10846
▁challenged	-10847
▁circumvent	-10848
▁converting	-10849
▁patterning	-10850
▁spacetimes	-10851
▁thoroughly	-10852
▁university	-10853
▁backgrounds	-10854
▁conflicting	-10855
▁expressions	-10856
▁hydrophobic	-10857
▁nanofibrils	-10858
▁practically	-10859
▁remediation	-10860
▁requirement	-10861
▁restriction	-10862
▁trafficking	-10863
▁Conventional	-10864
▁adaptability	-10865
▁concentrated	-10866
▁electrically	-10867
▁infiltration	-10868
▁metasurfaces	-10869
▁microbiology	-10870
▁pathogenesis	-10871
▁relativistic	-10872
▁djupinlärning	-10873
▁hydrogenation	-10874
▁thermoplastic	-10875
▁traditionally	-10876
▁vulnerability	-10877
▁dimensionality	-10878
▁photochemistry	-10879
▁nanofabrication	-10880
▁polysaccharides	-10881
40	-10882
5)	-10883
60	-10884
Ns	-10885
PV	-10886
QC	-10887
Qs	-10888
TU	-10889
-10	-10890
ALS	-10891
AlN	-10892
MHC	-10893
PSC	-10894
SCI	-10895
asp	-10896
ekn	-10897
elt	-10898
fam	-10899
iré	-10900
kta	-10901
lik	-10902
mit	-10903
ocy	-10904
pus	-10905
uft	-10906
▁GW	-10907
▁IN	-10908
▁Ly	-10909
▁MC	-10910
▁PA	-10911
▁PG	-10912
▁Zn	-10913
PEAs	-10914
Time	-10915
hift	-10916
ibly	-10917
ikts	-10918
ipro	-10919
kind	-10920
mäss	-10921
obot	-10922
oped	-10923
rats	-10924
stär	-10925
tera	-10926
ydda	-10927
▁GHz	-10928
▁ISM	-10929
▁Ter	-10930
▁VOC	-10931
▁Web	-10932
▁Why	-10933
▁Wol	-10934
▁jus	-10935
▁pig	-10936
▁sky	-10937
▁tac	-10938
▁Öst	-10939
adays	-10940
adian	-10941
allic	-10942
asure	-10943
atial	-10944
beräk	-10945
elets	-10946
human	-10947
iated	-10948
ickel	-10949
illar	-10950
ilver	-10951
inska	-10952
itekt	-10953
jande	-10954
lings	-10955
linna	-10956
skaps	-10957
snitt	-10958
which	-10959
while	-10960
xiety	-10961
years	-10962
▁ARGs	-10963
▁CNNs	-10964
▁Djup	-10965
▁Host	-10966
▁ITER	-10967
▁Late	-10968
▁Olig	-10969
▁Perm	-10970
▁Spar	-10971
▁Thin	-10972
▁alve	-10973
▁argu	-10974
▁biok	-10975
▁gels	-10976
▁glut	-10977
▁mess	-10978
▁scre	-10979
▁sess	-10980
▁silk	-10981
▁skal	-10982
▁spik	-10983
▁tyre	-10984
anding	-10985
biased	-10986
cancer	-10987
dition	-10988
folded	-10989
ofluid	-10990
ogener	-10991
oscill	-10992
points	-10993
solids	-10994
uronal	-10995
valued	-10996
▁Avanc	-10997
▁Cells	-10998
▁Covid	-10999
▁Grund	-11000
▁biops	-11001
▁deals	-11002
▁deple	-11003
▁equiv	-11004
▁grows	-11005
▁imply	-11006
▁insek	-11007
▁integ	-11008
▁kraft	-11009
▁magma	-11010
▁panel	-11011
▁perce	-11012
▁piezo	-11013
▁psych	-11014
▁resis	-11015
▁south	-11016
▁spans	-11017
▁stark	-11018
▁theme	-11019
angling	-11020
artment	-11021
eedback	-11022
känning	-11023
olithic	-11024
operiod	-11025
otonics	-11026
oustics	-11027
perturb	-11028
purpose	-11029
umation	-11030
▁Amazon	-11031
▁Bronze	-11032
▁Growth	-11033
▁Higher	-11034
▁Isotop	-11035
▁Reveal	-11036
▁Strong	-11037
▁branch	-11038
▁camera	-11039
▁confer	-11040
▁fibril	-11041
▁former	-11042
▁hydrox	-11043
▁meshes	-11044
▁mutant	-11045
▁neuros	-11046
▁phonon	-11047
▁posing	-11048
▁season	-11049
▁studie	-11050
▁tempor	-11051
▁utmost	-11052
acterium	-11053
erskalig	-11054
isenberg	-11055
proteins	-11056
▁Methane	-11057
▁Project	-11058
▁Studier	-11059
▁applies	-11060
▁dealing	-11061
▁hybrids	-11062
▁hållbar	-11063
▁imposed	-11064
▁microbe	-11065
▁sampled	-11066
▁sulfate	-11067
▁ternary	-11068
consuming	-11069
itability	-11070
obacteria	-11071
utational	-11072
▁Enabling	-11073
▁Triassic	-11074
▁Tropical	-11075
▁Utforska	-11076
▁archives	-11077
▁dementia	-11078
▁ensemble	-11079
▁mesocosm	-11080
▁plasmids	-11081
▁prevents	-11082
▁priority	-11083
▁properly	-11084
▁publicly	-11085
▁richness	-11086
▁trapping	-11087
▁underpin	-11088
▁utilizes	-11089
elektronik	-11090
intestinal	-11091
responsive	-11092
volutional	-11093
▁Different	-11094
▁Geometric	-11095
▁Microwave	-11096
▁Secondary	-11097
▁Transient	-11098
▁aluminium	-11099
▁amplitude	-11100
▁bakterier	-11101
▁betydelse	-11102
▁breakdown	-11103
▁chirality	-11104
▁constants	-11105
▁cryogenic	-11106
▁exoplanet	-11107
▁filaments	-11108
▁hindering	-11109
▁indicates	-11110
▁modifying	-11111
▁networked	-11112
▁pollutant	-11113
▁reflected	-11114
▁shrinkage	-11115
▁Monitoring	-11116
▁arthropods	-11117
▁attributes	-11118
▁capacities	-11119
▁compliance	-11120
▁counteract	-11121
▁developers	-11122
▁discontinu	-11123
▁documented	-11124
▁elasticity	-11125
▁mathematic	-11126
▁millimeter	-11127
▁negatively	-11128
▁neurotrans	-11129
▁polymorphs	-11130
▁refinement	-11131
▁reservoirs	-11132
▁rotational	-11133
▁similarity	-11134
▁stimulated	-11135
▁validating	-11136
▁conjunction	-11137
▁manufacture	-11138
▁metamorphic	-11139
▁phenotyping	-11140
▁photoperiod	-11141
▁pollinators	-11142
▁suppression	-11143
▁susceptible	-11144
armaceuticals	-11145
▁Multiphysics	-11146
▁cosmological	-11147
▁exploitation	-11148
▁photoelectro	-11149
▁programmable	-11150
▁publications	-11151
▁restrictions	-11152
▁demonstrating	-11153
▁electrostatic	-11154
▁exceptionally	-11155
▁kommunikation	-11156
▁Noncommutative	-11157
▁explainability	-11158
Cu	-11159
DH	-11160
DL	-11161
FL	-11162
Me	-11163
NG	-11164
US	-11165
su	-11166
sv	-11167
åk	-11168
▁.	-11169
:1.	-11170
ELL	-11171
exc	-11172
fri	-11173
how	-11174
irt	-11175
nde	-11176
uck	-11177
▁17	-11178
▁EB	-11179
▁Io	-11180
▁Zr	-11181
▁fo	-11182
achy	-11183
atil	-11184
bind	-11185
case	-11186
ellt	-11187
empl	-11188
fatt	-11189
fram	-11190
mode	-11191
nath	-11192
osom	-11193
ounc	-11194
prop	-11195
tium	-11196
umor	-11197
vice	-11198
▁300	-11199
▁Cap	-11200
▁Der	-11201
▁Lip	-11202
▁Mal	-11203
▁Not	-11204
▁Ret	-11205
▁Ste	-11206
▁agg	-11207
▁ant	-11208
▁cup	-11209
▁mit	-11210
▁nät	-11211
▁rek	-11212
▁rev	-11213
▁swe	-11214
▁wor	-11215
aired	-11216
aping	-11217
eller	-11218
ichia	-11219
igand	-11220
iming	-11221
othen	-11222
vitro	-11223
▁2023	-11224
▁East	-11225
▁Håll	-11226
▁Much	-11227
▁PARP	-11228
▁RNAi	-11229
▁Work	-11230
▁XFEL	-11231
▁bygg	-11232
▁cars	-11233
▁gase	-11234
▁livs	-11235
▁meso	-11236
▁perc	-11237
▁pric	-11238
▁pron	-11239
▁rays	-11240
effect	-11241
icians	-11242
imetic	-11243
urable	-11244
ärande	-11245
örelse	-11246
▁Blood	-11247
▁Fiber	-11248
▁Radio	-11249
▁Redox	-11250
▁biota	-11251
▁grids	-11252
▁ozone	-11253
▁pleth	-11254
▁seeds	-11255
▁stors	-11256
▁valve	-11257
adriven	-11258
charges	-11259
genetic	-11260
massive	-11261
powered	-11262
printed	-11263
▁Animal	-11264
▁Cooper	-11265
▁Gothen	-11266
▁Proton	-11267
▁Vision	-11268
▁advers	-11269
▁belief	-11270
▁cattle	-11271
▁compan	-11272
▁corona	-11273
▁fishes	-11274
▁fungus	-11275
▁gastro	-11276
▁introg	-11277
▁methan	-11278
▁porösa	-11279
▁predik	-11280
▁progen	-11281
▁review	-11282
▁shrubs	-11283
economic	-11284
operando	-11285
pensions	-11286
▁Effects	-11287
▁Purpose	-11288
▁aligned	-11289
▁charges	-11290
▁defence	-11291
▁dissect	-11292
▁gaseous	-11293
▁leakage	-11294
▁vaccine	-11295
▁vessels	-11296
▁welfare	-11297
▁written	-11298
ecosystem	-11299
ieffektiv	-11300
oproteins	-11301
▁Compared	-11302
▁Transfer	-11303
▁adhesive	-11304
▁autonomy	-11305
▁bioavail	-11306
▁cellulos	-11307
▁declines	-11308
▁descript	-11309
▁dominate	-11310
▁glaciers	-11311
▁glycerol	-11312
▁grounded	-11313
▁hypothal	-11314
▁infinity	-11315
▁nanopore	-11316
▁nanowire	-11317
▁tillväxt	-11318
centration	-11319
processing	-11320
resistance	-11321
▁According	-11322
▁Electroly	-11323
▁Following	-11324
▁Improving	-11325
▁Reasoning	-11326
▁catchment	-11327
▁converted	-11328
▁examining	-11329
▁factories	-11330
▁flowering	-11331
▁hydrology	-11332
▁koldioxid	-11333
▁nanowires	-11334
▁partiklar	-11335
▁phosphate	-11336
▁signature	-11337
▁skyrmions	-11338
▁theoretic	-11339
▁thermally	-11340
▁Department	-11341
▁Gothenburg	-11342
▁achievable	-11343
▁amplifiers	-11344
▁appearance	-11345
▁contextual	-11346
▁decreasing	-11347
▁definition	-11348
▁disruptive	-11349
▁epithelial	-11350
▁explosions	-11351
▁preference	-11352
▁redundancy	-11353
▁remarkably	-11354
▁repertoire	-11355
▁translated	-11356
▁Alternative	-11357
▁Electronics	-11358
▁Experiments	-11359
▁Synchrotron	-11360
▁Uncertainty	-11361
▁destruction	-11362
▁differently	-11363
▁endothelial	-11364
▁facilitates	-11365
▁fluctuating	-11366
▁proteoforms	-11367
▁subcellular	-11368
oluminescence	-11369
▁Kartläggning	-11370
▁biomechanics	-11371
▁complexities	-11372
▁nanomaterial	-11373
▁segmentation	-11374
▁submanifolds	-11375
▁valorization	-11376
▁Microfluidics	-11377
▁Probabilistic	-11378
▁Reinforcement	-11379
▁biotechnology	-11380
▁compatibility	-11381
▁photochemical	-11382
▁superalgebras	-11383
▁mineralization	-11384
▁nanotechnology	-11385
▁photocatalysts	-11386
▁quantitatively	-11387
▁interpretations	-11388
▁technologically	-11389
AA	-11390
FP	-11391
RA	-11392
TL	-11393
ba	-11394
.).	-11395
Des	-11396
ISC	-11397
LHC	-11398
ams	-11399
ban	-11400
iet	-11401
imp	-11402
sec	-11403
öra	-11404
▁Gu	-11405
▁MI	-11406
▁VL	-11407
▁fs	-11408
▁wa	-11409
city	-11410
fire	-11411
grid	-11412
ilep	-11413
kary	-11414
mans	-11415
oter	-11416
pack	-11417
phot	-11418
quis	-11419
road	-11420
ulin	-11421
ulph	-11422
valb	-11423
vara	-11424
well	-11425
▁CAR	-11426
▁EVs	-11427
▁Fil	-11428
▁Mob	-11429
▁Pen	-11430
▁Ric	-11431
▁SCR	-11432
▁SMC	-11433
▁Små	-11434
▁emb	-11435
▁hyg	-11436
▁les	-11437
▁lev	-11438
▁meg	-11439
▁pay	-11440
▁sap	-11441
▁tag	-11442
▁try	-11443
▁ven	-11444
ailed	-11445
arial	-11446
arted	-11447
avour	-11448
elser	-11449
fract	-11450
ingar	-11451
nabba	-11452
ontal	-11453
oside	-11454
scher	-11455
types	-11456
ucoid	-11457
uting	-11458
▁Bone	-11459
▁LEDs	-11460
▁Lang	-11461
▁Lith	-11462
▁MeHg	-11463
▁Tail	-11464
▁away	-11465
▁copy	-11466
▁djur	-11467
▁fält	-11468
▁gait	-11469
▁hair	-11470
▁iner	-11471
▁lept	-11472
▁mask	-11473
▁pool	-11474
▁reds	-11475
▁tell	-11476
▁tors	-11477
anpass	-11478
assium	-11479
bachia	-11480
entary	-11481
facing	-11482
indeer	-11483
ligand	-11484
monary	-11485
olytic	-11486
ounced	-11487
posing	-11488
rogate	-11489
ynolds	-11490
ämning	-11491
▁Class	-11492
▁Param	-11493
▁Stell	-11494
▁audio	-11495
▁birth	-11496
▁cheap	-11497
▁claim	-11498
▁eller	-11499
▁exfol	-11500
▁indis	-11501
▁nanol	-11502
▁spars	-11503
▁wings	-11504
complex	-11505
cycling	-11506
diagnos	-11507
implant	-11508
itektur	-11509
ogaster	-11510
ressing	-11511
titativ	-11512
valitet	-11513
▁Bortom	-11514
▁Enzyme	-11515
▁Graphs	-11516
▁States	-11517
▁behave	-11518
▁denitr	-11519
▁econom	-11520
▁emphas	-11521
▁entity	-11522
▁faults	-11523
▁flavon	-11524
▁hydrop	-11525
▁larval	-11526
▁multim	-11527
▁outper	-11528
▁purity	-11529
▁pyroly	-11530
▁ratios	-11531
▁refers	-11532
▁report	-11533
▁sought	-11534
▁upptäc	-11535
cription	-11536
directed	-11537
harmonic	-11538
piratory	-11539
tivities	-11540
▁Acceler	-11541
▁Biomark	-11542
▁Integra	-11543
▁Partial	-11544
▁Peptide	-11545
▁Similar	-11546
▁ceramic	-11547
▁cubical	-11548
▁diffuse	-11549
▁discuss	-11550
▁ergodic	-11551
▁hormone	-11552
▁looking	-11553
▁merging	-11554
▁outputs	-11555
▁paradox	-11556
▁prognos	-11557
▁ramverk	-11558
▁röntgen	-11559
▁sammans	-11560
▁sharing	-11561
applicant	-11562
dominated	-11563
icksilver	-11564
▁Critical	-11565
▁Embedded	-11566
▁Emerging	-11567
▁Interpre	-11568
▁Personal	-11569
▁Robotics	-11570
▁actually	-11571
▁airborne	-11572
▁analogue	-11573
▁articles	-11574
▁baseline	-11575
▁biobased	-11576
▁ceramics	-11577
▁chambers	-11578
▁diagrams	-11579
▁excitons	-11580
▁exercise	-11581
▁fidelity	-11582
▁plethora	-11583
▁reagents	-11584
▁straight	-11585
▁unwanted	-11586
▁validity	-11587
avbildning	-11588
ecological	-11589
iconductor	-11590
omvandling	-11591
scherichia	-11592
▁Federated	-11593
▁Revealing	-11594
▁Transform	-11595
▁Utilizing	-11596
▁Wolbachia	-11597
▁absorbing	-11598
▁branching	-11599
▁continued	-11600
▁depletion	-11601
▁feedstock	-11602
▁presently	-11603
▁recurrent	-11604
▁sclerosis	-11605
▁Proteomics	-11606
▁Regulation	-11607
▁Turbulence	-11608
▁constructs	-11609
▁diagnostik	-11610
▁exoplanets	-11611
▁initiative	-11612
▁läkemedels	-11613
▁misfolding	-11614
▁pronounced	-11615
▁subproject	-11616
aktärisering	-11617
echnological	-11618
▁Correlation	-11619
▁Mechanistic	-11620
▁beräkningar	-11621
▁bifurcation	-11622
▁disturbance	-11623
▁duplication	-11624
▁involvement	-11625
▁mycorrhizal	-11626
▁photosystem	-11627
▁Observations	-11628
▁determinants	-11629
▁expectations	-11630
▁illumination	-11631
▁substitution	-11632
▁strengthening	-11633
▁unpredictable	-11634
▁asymptotically	-11635
▁micromembranes	-11636
▁recommendations	-11637
:(	-11638
Bi	-11639
Cl	-11640
HD	-11641
If	-11642
TP	-11643
bä	-11644
ij	-11645
300	-11646
NMR	-11647
One	-11648
TAC	-11649
ele	-11650
hav	-11651
iae	-11652
inn	-11653
ios	-11654
isc	-11655
lös	-11656
phi	-11657
väx	-11658
▁11	-11659
▁PV	-11660
▁ic	-11661
▁ko	-11662
Lapl	-11663
acyl	-11664
answ	-11665
eton	-11666
gene	-11667
gets	-11668
itis	-11669
keln	-11670
läpp	-11671
onas	-11672
oser	-11673
osym	-11674
rint	-11675
shot	-11676
värm	-11677
▁000	-11678
▁30%	-11679
▁50%	-11680
▁Are	-11681
▁Her	-11682
▁InN	-11683
▁Kar	-11684
▁Kol	-11685
▁MAT	-11686
▁Pri	-11687
▁SLC	-11688
▁Sym	-11689
▁USA	-11690
▁bor	-11691
▁edd	-11692
▁gel	-11693
▁sjö	-11694
▁sle	-11695
abund	-11696
atern	-11697
derly	-11698
iator	-11699
ifers	-11700
ikter	-11701
inely	-11702
mekan	-11703
nanop	-11704
oving	-11705
plain	-11706
ploys	-11707
rings	-11708
sense	-11709
ättre	-11710
▁Cere	-11711
▁DNNs	-11712
▁Feyn	-11713
▁List	-11714
▁NASA	-11715
▁PCET	-11716
▁PSCs	-11717
▁Wind	-11718
▁Wood	-11719
▁bark	-11720
▁epis	-11721
▁exac	-11722
▁komp	-11723
▁pest	-11724
▁phon	-11725
▁runs	-11726
▁said	-11727
▁zeta	-11728
atiles	-11729
drivna	-11730
förlit	-11731
growth	-11732
oalkyl	-11733
series	-11734
steady	-11735
▁Cyber	-11736
▁HEMTs	-11737
▁Holog	-11738
▁Limit	-11739
▁apopt	-11740
▁arsen	-11741
▁cargo	-11742
▁forsk	-11743
▁frust	-11744
▁kisel	-11745
▁lingu	-11746
▁melts	-11747
▁ornam	-11748
▁pests	-11749
▁realm	-11750
▁sinks	-11751
▁somet	-11752
▁speck	-11753
▁teams	-11754
▁tunna	-11755
experim	-11756
ircraft	-11757
itively	-11758
omerase	-11759
peratur	-11760
polymer	-11761
raining	-11762
rinting	-11763
strateg	-11764
ucoidan	-11765
vinning	-11766
▁Active	-11767
▁MXenes	-11768
▁Things	-11769
▁alters	-11770
▁corpus	-11771
▁dilute	-11772
▁filmer	-11773
▁immers	-11774
▁lignoc	-11775
▁loaded	-11776
▁marked	-11777
▁maskin	-11778
▁master	-11779
▁milest	-11780
▁myster	-11781
▁neurop	-11782
▁pulsed	-11783
addnings	-11784
breeding	-11785
calation	-11786
distance	-11787
polation	-11788
vascular	-11789
▁Coupled	-11790
▁Medical	-11791
▁adopted	-11792
▁archive	-11793
▁colleag	-11794
▁compass	-11795
▁earthqu	-11796
▁evolves	-11797
▁förutsä	-11798
▁managed	-11799
▁residue	-11800
▁resting	-11801
▁section	-11802
▁stretch	-11803
▁studera	-11804
▁tilting	-11805
aktivitet	-11806
catalysis	-11807
fficiency	-11808
parameter	-11809
▁Combined	-11810
▁Hierarch	-11811
▁Nitrogen	-11812
▁Resource	-11813
▁administ	-11814
▁asteroid	-11815
▁astronom	-11816
▁catalyze	-11817
▁cerebral	-11818
▁compress	-11819
▁emitting	-11820
▁injuries	-11821
▁junction	-11822
▁launched	-11823
▁operated	-11824
▁postdocs	-11825
▁relating	-11826
▁replaced	-11827
▁robustly	-11828
▁secreted	-11829
▁shedding	-11830
▁sulfides	-11831
▁workflow	-11832
inlärnings	-11833
ombination	-11834
projective	-11835
reaktioner	-11836
▁Algebraic	-11837
▁Automated	-11838
▁anomalies	-11839
▁colliders	-11840
▁discharge	-11841
▁enigmatic	-11842
▁explained	-11843
▁extrinsic	-11844
▁genotypes	-11845
▁molekyler	-11846
▁parasites	-11847
▁perennial	-11848
▁pesticide	-11849
▁polyploid	-11850
▁posterior	-11851
▁quenching	-11852
▁reproduce	-11853
▁simulator	-11854
▁something	-11855
▁symmetric	-11856
▁tillstånd	-11857
information	-11858
rophication	-11859
tifications	-11860
uloskeletal	-11861
▁Beräknings	-11862
▁Ultrasound	-11863
▁automotive	-11864
▁behandling	-11865
▁dehydrogen	-11866
▁delivering	-11867
▁discharges	-11868
▁eigenvalue	-11869
▁envisioned	-11870
▁expansions	-11871
▁insulation	-11872
▁ionosphere	-11873
▁kontroller	-11874
▁observable	-11875
▁resonators	-11876
▁responsive	-11877
▁separately	-11878
▁simulering	-11879
▁transplant	-11880
ormalization	-11881
▁Environment	-11882
▁Importantly	-11883
▁Observatory	-11884
▁abstraction	-11885
▁approaching	-11886
▁arrangement	-11887
▁capacitance	-11888
▁contrasting	-11889
▁directional	-11890
▁interpreted	-11891
▁manipulated	-11892
▁predictable	-11893
▁subprojects	-11894
▁suspensions	-11895
otherapeutics	-11896
▁Spectrometry	-11897
▁Verification	-11898
▁accomplished	-11899
▁chemosensory	-11900
▁intermittent	-11901
▁laboratories	-11902
▁longstanding	-11903
▁spectrometer	-11904
▁transformers	-11905
▁biodiversitet	-11906
▁comprehension	-11907
▁constructions	-11908
▁glycosylation	-11909
▁thermogenesis	-11910
▁rearrangements	-11911
▁Electromagnetic	-11912
▁nucleosynthesis	-11913
▁physiologically	-11914
:-	-11915
AO	-11916
EV	-11917
KA	-11918
NO	-11919
PM	-11920
PO	-11921
Se	-11922
Si	-11923
Sn	-11924
TF	-11925
UC	-11926
sö	-11927
ICE	-11928
cel	-11929
fäl	-11930
ipp	-11931
log	-11932
oes	-11933
tra	-11934
uro	-11935
vin	-11936
åga	-11937
▁1-	-11938
▁CS	-11939
▁FR	-11940
▁Ln	-11941
▁OR	-11942
▁OS	-11943
▁PF	-11944
▁QD	-11945
▁QM	-11946
▁SD	-11947
▁TU	-11948
▁Ve	-11949
anck	-11950
bedo	-11951
bror	-11952
chol	-11953
diff	-11954
eras	-11955
oren	-11956
pine	-11957
sign	-11958
tekn	-11959
tify	-11960
ytor	-11961
öntg	-11962
▁AlN	-11963
▁Bre	-11964
▁CSF	-11965
▁Cre	-11966
▁GMC	-11967
▁Jan	-11968
▁MNL	-11969
▁MOF	-11970
▁PNA	-11971
▁Sal	-11972
▁Tid	-11973
▁fir	-11974
▁glu	-11975
▁mör	-11976
▁rym	-11977
▁väg	-11978
▁vät	-11979
Under	-11980
accum	-11981
acian	-11982
ampar	-11983
asome	-11984
ellow	-11985
itism	-11986
itron	-11987
nande	-11988
ourse	-11989
ssätt	-11990
tskor	-11991
ående	-11992
▁BMAA	-11993
▁Conc	-11994
▁Fish	-11995
▁JWST	-11996
▁LLPS	-11997
▁Oden	-11998
▁Scal	-11999
▁alle	-12000
▁bism	-12001
▁gath	-12002
▁gram	-12003
▁moln	-12004
▁peri	-12005
▁susp	-12006
▁tons	-12007
▁vind	-12008
access	-12009
acting	-12010
alloys	-12011
assing	-12012
atrans	-12013
eeding	-12014
enskap	-12015
eptors	-12016
escens	-12017
family	-12018
fields	-12019
ganese	-12020
iobate	-12021
itrous	-12022
oreala	-12023
plasma	-12024
specif	-12025
▁Polyc	-12026
▁Resil	-12027
▁Sheet	-12028
▁Svalb	-12029
▁Trees	-12030
▁anode	-12031
▁argue	-12032
▁boron	-12033
▁burst	-12034
▁djupa	-12035
▁entry	-12036
▁fetal	-12037
▁foods	-12038
▁gains	-12039
▁grass	-12040
▁inten	-12041
▁lokal	-12042
▁mesop	-12043
▁mtDNA	-12044
▁owing	-12045
▁peric	-12046
▁reefs	-12047
▁sheep	-12048
▁stems	-12049
▁sulph	-12050
▁table	-12051
▁trend	-12052
▁words	-12053
abolism	-12054
alcogen	-12055
aterade	-12056
bearbet	-12057
biotics	-12058
comings	-12059
lingual	-12060
nection	-12061
onomics	-12062
ophilic	-12063
trophic	-12064
verktyg	-12065
▁Centre	-12066
▁Clouds	-12067
▁Direct	-12068
▁Hubble	-12069
▁Linear	-12070
▁Mutual	-12071
▁Safety	-12072
▁convex	-12073
▁debate	-12074
▁diverg	-12075
▁exceed	-12076
▁flames	-12077
▁föränd	-12078
▁haptic	-12079
▁microt	-12080
▁opened	-12081
▁permit	-12082
▁purino	-12083
▁raises	-12084
▁sounds	-12085
▁spiral	-12086
▁strand	-12087
▁subtle	-12088
▁trauma	-12089
akterier	-12090
ektering	-12091
exchange	-12092
lattices	-12093
ontology	-12094
pensable	-12095
reatment	-12096
rospinal	-12097
standard	-12098
uclidean	-12099
utrients	-12100
▁Conduct	-12101
▁Dispers	-12102
▁Feynman	-12103
▁Firstly	-12104
▁Komplex	-12105
▁Massive	-12106
▁Storage	-12107
▁Subsequ	-12108
▁employs	-12109
▁exacerb	-12110
▁kernels	-12111
▁lineage	-12112
▁meeting	-12113
▁players	-12114
▁roughly	-12115
▁routing	-12116
▁seaweed	-12117
▁sliding	-12118
▁surpass	-12119
▁tension	-12120
▁tumours	-12121
▁valence	-12122
▁whereby	-12123
ategories	-12124
batterier	-12125
ompositer	-12126
proteiner	-12127
synuclein	-12128
▁Cellular	-12129
▁Insights	-12130
▁Integral	-12131
▁Mediator	-12132
▁Phenotyp	-12133
▁Reynolds	-12134
▁aluminum	-12135
▁amenable	-12136
▁aviation	-12137
▁biogenic	-12138
▁collider	-12139
▁cracking	-12140
▁displays	-12141
▁executed	-12142
▁opposite	-12143
▁optimise	-12144
▁plankton	-12145
▁platelet	-12146
▁probably	-12147
▁produces	-12148
▁resulted	-12149
▁swelling	-12150
▁textiles	-12151
▁titanium	-12152
▁unifying	-12153
▁urgently	-12154
adaptation	-12155
oselective	-12156
▁Discovery	-12157
▁Diversity	-12158
▁Enhancing	-12159
▁Renewable	-12160
▁acceptors	-12161
▁accounted	-12162
▁answering	-12163
▁circadian	-12164
▁completed	-12165
▁consensus	-12166
▁considers	-12167
▁fertility	-12168
▁initiated	-12169
▁lightning	-12170
▁nanopores	-12171
▁nematodes	-12172
▁parametri	-12173
▁polyfluor	-12174
▁preserved	-12175
▁sequenced	-12176
▁stimulate	-12177
▁symbionts	-12178
abilization	-12179
istribution	-12180
▁Efficiency	-12181
▁Foundation	-12182
▁Interfaces	-12183
▁colleagues	-12184
▁comprehens	-12185
▁conjugates	-12186
▁degradable	-12187
▁extracting	-12188
▁kombinator	-12189
▁microscope	-12190
▁migrations	-12191
▁modulators	-12192
▁multiphase	-12193
▁produktion	-12194
▁randomized	-12195
▁reinforced	-12196
▁transverse	-12197
▁tunability	-12198
▁velocities	-12199
inflammation	-12200
perturbative	-12201
▁Circulation	-12202
▁Escherichia	-12203
▁automorphic	-12204
▁equivariant	-12205
▁holographic	-12206
▁ingredients	-12207
▁ionospheric	-12208
▁originating	-12209
▁oscillatory	-12210
▁overlapping	-12211
▁singularity	-12212
▁termination	-12213
▁transmitted	-12214
environmental	-12215
▁Architecture	-12216
▁consequently	-12217
▁considerably	-12218
▁dissociation	-12219
▁habitability	-12220
▁heterogenous	-12221
▁hydrodynamic	-12222
▁industrially	-12223
▁metagenomics	-12224
▁paramagnetic	-12225
▁supermassive	-12226
▁synchronized	-12227
▁transforming	-12228
▁underpinning	-12229
▁Collaborative	-12230
▁bioinformatic	-12231
▁collisionless	-12232
▁grundläggande	-12233
▁nanophotonics	-12234
▁triboelectric	-12235
▁discrimination	-12236
▁nonlinearities	-12237
▁experimentation	-12238
;1	-12239
Ar	-12240
IA	-12241
Ob	-12242
SW	-12243
▁ε	-12244
Bio	-12245
Met	-12246
NFs	-12247
bio	-12248
bro	-12249
gly	-12250
idi	-12251
lop	-12252
mät	-12253
rek	-12254
ulo	-12255
vey	-12256
väg	-12257
ydd	-12258
▁16	-12259
▁BI	-12260
▁Ka	-12261
▁Ol	-12262
▁TE	-12263
▁TO	-12264
▁TS	-12265
▁ds	-12266
▁́,	-12267
SIMS	-12268
Stud	-12269
arom	-12270
bero	-12271
here	-12272
iner	-12273
ivid	-12274
ocon	-12275
ocyt	-12276
orse	-12277
osin	-12278
ozoa	-12279
ranc	-12280
rose	-12281
tida	-12282
tite	-12283
uels	-12284
uven	-12285
vals	-12286
vary	-12287
ynes	-12288
änsk	-12289
▁ALD	-12290
▁AdS	-12291
▁Aug	-12292
▁ECG	-12293
▁INP	-12294
▁MHC	-12295
▁Mem	-12296
▁Mie	-12297
▁NIR	-12298
▁Pac	-12299
▁Sum	-12300
▁Wik	-12301
▁ech	-12302
▁kor	-12303
▁lid	-12304
▁sof	-12305
▁vit	-12306
Earth	-12307
ancre	-12308
anter	-12309
apses	-12310
hyper	-12311
itely	-12312
metod	-12313
obots	-12314
ogena	-12315
oking	-12316
plane	-12317
romet	-12318
råden	-12319
silic	-12320
ström	-12321
utral	-12322
vågor	-12323
▁2017	-12324
▁Biot	-12325
▁Chem	-12326
▁Dual	-12327
▁Flex	-12328
▁GPCR	-12329
▁LPMO	-12330
▁Poll	-12331
▁Rare	-12332
▁Role	-12333
▁Soil	-12334
▁Wear	-12335
▁axis	-12336
▁dyes	-12337
▁hjär	-12338
▁iden	-12339
▁intu	-12340
▁luft	-12341
▁moth	-12342
▁odor	-12343
▁outd	-12344
▁pace	-12345
▁remo	-12346
▁sand	-12347
▁soon	-12348
▁tang	-12349
▁tele	-12350
depend	-12351
forest	-12352
grafer	-12353
istine	-12354
kaliga	-12355
memory	-12356
method	-12357
ologic	-12358
ources	-12359
ovirus	-12360
posure	-12361
steori	-12362
▁Alpha	-12363
▁Array	-12364
▁China	-12365
▁Clust	-12366
▁Event	-12367
▁Manip	-12368
▁Trust	-12369
▁Where	-12370
▁alkyl	-12371
▁chips	-12372
▁decon	-12373
▁dsRNA	-12374
▁equal	-12375
▁hälsa	-12376
▁inexp	-12377
▁items	-12378
▁osteo	-12379
▁redef	-12380
▁spinn	-12381
▁språk	-12382
▁tokam	-12383
▁trial	-12384
Protein	-12385
breaker	-12386
ceptual	-12387
ditions	-12388
ematisk	-12389
eptides	-12390
healing	-12391
inetics	-12392
isphere	-12393
katalys	-12394
limited	-12395
nuclear	-12396
omotion	-12397
onstruk	-12398
osphate	-12399
raktion	-12400
scaling	-12401
terande	-12402
▁Arktis	-12403
▁Klimat	-12404
▁Modern	-12405
▁Nordic	-12406
▁Period	-12407
▁adsorb	-12408
▁allevi	-12409
▁angles	-12410
▁använd	-12411
▁aurora	-12412
▁bursts	-12413
▁circle	-12414
▁closer	-12415
▁colors	-12416
▁devast	-12417
▁flares	-12418
▁flöden	-12419
▁foster	-12420
▁första	-12421
▁gating	-12422
▁gender	-12423
▁grafer	-12424
▁hinder	-12425
▁instit	-12426
▁kinase	-12427
▁kvants	-12428
▁mammal	-12429
▁micron	-12430
▁molten	-12431
▁papers	-12432
▁recycl	-12433
▁repeat	-12434
▁skelet	-12435
▁strugg	-12436
agnetism	-12437
answered	-12438
coupling	-12439
enhanced	-12440
gineered	-12441
ificance	-12442
plitting	-12443
reaching	-12444
roscopic	-12445
▁Aquatic	-12446
▁Enzymes	-12447
▁Kinetic	-12448
▁Special	-12449
▁altitud	-12450
▁boreala	-12451
▁budgets	-12452
▁categor	-12453
▁clearly	-12454
▁enteric	-12455
▁expands	-12456
▁halogen	-12457
▁hinders	-12458
▁hitting	-12459
▁hundred	-12460
▁intends	-12461
▁lanthan	-12462
▁leaving	-12463
▁optiska	-12464
▁prokary	-12465
▁shallow	-12466
▁transit	-12467
▁turbine	-12468
assembled	-12469
ilarities	-12470
▁Examples	-12471
▁Feedback	-12472
▁Studying	-12473
▁Svalbard	-12474
▁academia	-12475
▁actuator	-12476
▁aligning	-12477
▁beamline	-12478
▁beteende	-12479
▁carrying	-12480
▁children	-12481
▁decompos	-12482
▁deriving	-12483
▁dinosaur	-12484
▁endeavor	-12485
▁exploits	-12486
▁galactic	-12487
▁hospital	-12488
▁inverkan	-12489
▁neurotox	-12490
▁ordering	-12491
▁protease	-12492
▁reacting	-12493
▁refining	-12494
▁systemic	-12495
▁textures	-12496
▁transduc	-12497
▁unsolved	-12498
ontinental	-12499
▁Designing	-12500
▁Effective	-12501
▁Euclidean	-12502
▁Magnetism	-12503
▁campaigns	-12504
▁centuries	-12505
▁compilers	-12506
▁conflicts	-12507
▁correctly	-12508
▁delivered	-12509
▁fluidized	-12510
▁misfolded	-12511
▁phenology	-12512
▁platelets	-12513
▁proteases	-12514
▁provision	-12515
▁radically	-12516
▁retrieval	-12517
▁ribosomes	-12518
▁subjected	-12519
▁synergies	-12520
▁viability	-12521
antineutron	-12522
räddarsydda	-12523
▁Heisenberg	-12524
▁Industrial	-12525
▁Mekanismer	-12526
▁Properties	-12527
▁Scientific	-12528
▁Unraveling	-12529
▁alteration	-12530
▁anatomical	-12531
▁assumption	-12532
▁avancerade	-12533
▁beräknings	-12534
▁calculated	-12535
▁characters	-12536
▁comparable	-12537
▁convection	-12538
▁encounters	-12539
▁monolayers	-12540
▁propulsion	-12541
▁protecting	-12542
▁prototypes	-12543
▁telecommun	-12544
distribution	-12545
▁Performance	-12546
▁biopolymers	-12547
▁coexistence	-12548
▁devastating	-12549
▁implantable	-12550
▁inefficient	-12551
▁percolation	-12552
▁predominant	-12553
▁transporter	-12554
computational	-12555
translational	-12556
▁epidemiology	-12557
▁geographical	-12558
▁reionization	-12559
▁undersökning	-12560
▁utvecklingen	-12561
▁Antimicrobial	-12562
▁Nanoparticles	-12563
▁differentiate	-12564
▁integrability	-12565
▁introgression	-12566
▁Representation	-12567
▁specifications	-12568
▁electrification	-12569
▁internationally	-12570
▁vulnerabilities	-12571
01	-12572
11	-12573
AK	-12574
GP	-12575
Li	-12576
NE	-12577
NV	-12578
TI	-12579
Ti	-12580
UR	-12581
Un	-12582
öl	-12583
4).	-12584
450	-12585
Civ	-12586
DES	-12587
Net	-12588
cin	-12589
hel	-12590
hiz	-12591
ige	-12592
nia	-12593
ony	-12594
pes	-12595
sem	-12596
top	-12597
upt	-12598
urn	-12599
ård	-12600
▁CF	-12601
▁NO	-12602
▁Pi	-12603
▁Sv	-12604
▁Ta	-12605
▁az	-12606
▁cm	-12607
LAMS	-12608
LLMs	-12609
Wave	-12610
What	-12611
aden	-12612
akta	-12613
alia	-12614
anes	-12615
anks	-12616
biom	-12617
bygg	-12618
ders	-12619
edia	-12620
glac	-12621
ibet	-12622
iffr	-12623
ilda	-12624
real	-12625
strå	-12626
util	-12627
vide	-12628
yzed	-12629
▁1-3	-12630
▁10%	-12631
▁2-3	-12632
▁Add	-12633
▁Erg	-12634
▁GAB	-12635
▁Log	-12636
▁Mag	-12637
▁Mtb	-12638
▁SHP	-12639
▁SOA	-12640
▁bee	-12641
▁ble	-12642
▁inh	-12643
▁kom	-12644
▁lie	-12645
▁mak	-12646
▁mik	-12647
▁tal	-12648
▁unn	-12649
Organ	-12650
abila	-12651
adium	-12652
anser	-12653
anten	-12654
ellum	-12655
flöde	-12656
hythm	-12657
ibers	-12658
igene	-12659
imers	-12660
inear	-12661
isive	-12662
ivity	-12663
oglob	-12664
scape	-12665
thing	-12666
thora	-12667
undra	-12668
▁100%	-12669
▁Auto	-12670
▁Food	-12671
▁Grön	-12672
▁Lake	-12673
▁Very	-12674
▁Virt	-12675
▁aper	-12676
▁brak	-12677
▁cure	-12678
▁loci	-12679
▁milj	-12680
▁mind	-12681
▁mono	-12682
▁para	-12683
▁tarm	-12684
▁tiny	-12685
▁week	-12686
agnose	-12687
ashion	-12688
cience	-12689
jected	-12690
ofysik	-12691
permat	-12692
rafine	-12693
timate	-12694
▁Anten	-12695
▁Betyd	-12696
▁Mycob	-12697
▁Nobel	-12698
▁Noise	-12699
▁Short	-12700
▁Urban	-12701
▁aktiv	-12702
▁appar	-12703
▁disks	-12704
▁hemic	-12705
▁högre	-12706
▁lunar	-12707
▁naked	-12708
▁older	-12709
▁ström	-12710
▁venti	-12711
Through	-12712
echiffr	-12713
history	-12714
keleton	-12715
microbe	-12716
neutral	-12717
onality	-12718
ritiska	-12719
usiness	-12720
vakning	-12721
ventive	-12722
▁Boreal	-12723
▁Matrix	-12724
▁Moduli	-12725
▁Navier	-12726
▁Remote	-12727
▁actors	-12728
▁aligns	-12729
▁author	-12730
▁cooper	-12731
▁delays	-12732
▁distor	-12733
▁effekt	-12734
▁elasto	-12735
▁exempl	-12736
▁graded	-12737
▁intest	-12738
▁orbits	-12739
▁raised	-12740
▁reform	-12741
▁safegu	-12742
▁thromb	-12743
▁utveck	-12744
▁vastly	-12745
▁vessel	-12746
▁weakly	-12747
larative	-12748
omografi	-12749
ontinuer	-12750
portance	-12751
receptor	-12752
targeted	-12753
vergångs	-12754
▁Besides	-12755
▁Changes	-12756
▁Cluster	-12757
▁Gallium	-12758
▁Solving	-12759
▁adipose	-12760
▁anomaly	-12761
▁average	-12762
▁avoided	-12763
▁binders	-12764
▁cheaper	-12765
▁compile	-12766
▁concert	-12767
▁conifer	-12768
▁droplet	-12769
▁elderly	-12770
▁fenotyp	-12771
▁fulfill	-12772
▁glucose	-12773
▁homolog	-12774
▁imagery	-12775
▁lengths	-12776
▁mutagen	-12777
▁möjligg	-12778
▁percent	-12779
▁receive	-12780
▁runtime	-12781
▁samband	-12782
▁screens	-12783
▁seismic	-12784
▁summary	-12785
▁turning	-12786
▁varmare	-12787
▁viscous	-12788
▁wetting	-12789
adiabatic	-12790
arthritis	-12791
dynamical	-12792
entitious	-12793
oreceptor	-12794
principle	-12795
specially	-12796
structing	-12797
▁Boundary	-12798
▁Clinical	-12799
▁Division	-12800
▁Effekter	-12801
▁Hospital	-12802
▁Photonic	-12803
▁Reaction	-12804
▁Semantic	-12805
▁Starting	-12806
▁absolute	-12807
▁adjacent	-12808
▁aircraft	-12809
▁annually	-12810
▁assemble	-12811
▁backward	-12812
▁biomassa	-12813
▁diabetic	-12814
▁diagnose	-12815
▁freezing	-12816
▁identity	-12817
▁interval	-12818
▁ionizing	-12819
▁irrevers	-12820
▁outlined	-12821
▁promotes	-12822
▁realised	-12823
▁recharge	-12824
▁sorption	-12825
▁stacking	-12826
▁taxonomy	-12827
▁terminal	-12828
▁thinking	-12829
▁transkri	-12830
mekanismer	-12831
orrelation	-12832
parametric	-12833
stationary	-12834
technology	-12835
▁Behaviour	-12836
▁Frequency	-12837
▁Interface	-12838
▁crucially	-12839
▁degrading	-12840
▁elektroly	-12841
▁exceeding	-12842
▁featuring	-12843
▁magnesium	-12844
▁meltwater	-12845
▁monitored	-12846
▁polarized	-12847
▁propagate	-12848
▁routinely	-12849
▁ultraljud	-12850
▁vacancies	-12851
ramolecular	-12852
ronological	-12853
▁Continuous	-12854
▁Förbättrad	-12855
▁Predicting	-12856
▁Predictive	-12857
▁accumulate	-12858
▁continents	-12859
▁convergent	-12860
▁derivation	-12861
▁exhumation	-12862
▁framtidens	-12863
▁hydropower	-12864
▁illuminate	-12865
▁modulating	-12866
▁organelles	-12867
▁overcoming	-12868
▁profoundly	-12869
▁projection	-12870
▁reflective	-12871
▁rigorously	-12872
▁smartphone	-12873
▁strategier	-12874
▁symplectic	-12875
▁unanswered	-12876
förhållanden	-12877
organization	-12878
▁Quantifying	-12879
▁eliminating	-12880
▁encompasses	-12881
▁fingerprint	-12882
▁hydrophilic	-12883
▁immediately	-12884
▁impairments	-12885
▁inexpensive	-12886
▁lithography	-12887
▁luminescent	-12888
▁segregation	-12889
▁stokastiska	-12890
▁tomographic	-12891
▁Hierarchical	-12892
▁Localization	-12893
▁astronomical	-12894
▁autonomously	-12895
▁biosynthetic	-12896
▁constraining	-12897
▁hydrocarbons	-12898
▁performances	-12899
▁polarisation	-12900
▁shortcomings	-12901
▁synthesizing	-12902
▁upconversion	-12903
▁Investigation	-12904
▁amplification	-12905
▁collaborating	-12906
▁dissemination	-12907
▁geochronology	-12908
▁immunotherapy	-12909
▁indispensable	-12910
▁archaeological	-12911
▁eutrophication	-12912
▁mathematicians	-12913
▁neutralization	-12914
▁bioavailability	-12915
▁comprehensively	-12916
▁denitrification	-12917
▁polycrystalline	-12918
1:	-12919
Na	-12920
PG	-12921
Ws	-12922
▁+	-12923
3),	-12924
MSI	-12925
NSS	-12926
TLs	-12927
WPs	-12928
afe	-12929
cap	-12930
car	-12931
duk	-12932
edd	-12933
fas	-12934
lds	-12935
map	-12936
pen	-12937
tia	-12938
änk	-12939
örj	-12940
▁14	-12941
▁AC	-12942
▁Bo	-12943
▁Ko	-12944
▁OF	-12945
▁RF	-12946
▁US	-12947
▁``	-12948
▁aS	-12949
OCVD	-12950
acet	-12951
amma	-12952
aped	-12953
even	-12954
glyc	-12955
ikal	-12956
imir	-12957
ique	-12958
meth	-12959
okus	-12960
orib	-12961
osms	-12962
pace	-12963
pekt	-12964
rath	-12965
rept	-12966
svar	-12967
swit	-12968
ubes	-12969
vågs	-12970
weak	-12971
▁199	-12972
▁AFM	-12973
▁AND	-12974
▁Aer	-12975
▁Bar	-12976
▁Fac	-12977
▁Fot	-12978
▁Gut	-12979
▁Mic	-12980
▁Pan	-12981
▁Rek	-12982
▁bra	-12983
▁emo	-12984
▁est	-12985
▁fed	-12986
▁nod	-12987
▁oxy	-12988
▁son	-12989
▁var	-12990
▁you	-12991
ATION	-12992
NNBAR	-12993
While	-12994
aceae	-12995
andia	-12996
atoms	-12997
chrom	-12998
ensic	-12999
ercul	-13000
ferro	-13001
itons	-13002
ofilm	-13003
rosis	-13004
shore	-13005
▁2018	-13006
▁AMPs	-13007
▁Harm	-13008
▁Levi	-13009
▁Priv	-13010
▁Test	-13011
▁Type	-13012
▁biob	-13013
▁filt	-13014
▁gest	-13015
▁kemi	-13016
▁moss	-13017
▁ophi	-13018
▁väte	-13019
Civita	-13020
agraph	-13021
ateria	-13022
ership	-13023
idable	-13024
immune	-13025
iously	-13026
knings	-13027
odynam	-13028
porous	-13029
proton	-13030
strate	-13031
▁Evalu	-13032
▁Navig	-13033
▁Plate	-13034
▁Robot	-13035
▁Spint	-13036
▁aware	-13037
▁coinc	-13038
▁imper	-13039
▁inhal	-13040
▁koppl	-13041
▁meets	-13042
▁north	-13043
▁qubit	-13044
▁reuse	-13045
▁revis	-13046
▁sRNAs	-13047
▁tidig	-13048
▁värld	-13049
▁women	-13050
Project	-13051
atility	-13052
centred	-13053
forward	-13054
ifiable	-13055
kodning	-13056
krafter	-13057
locking	-13058
nathost	-13059
optimal	-13060
partite	-13061
quisite	-13062
scatter	-13063
▁Asympt	-13064
▁Causal	-13065
▁Indeed	-13066
▁String	-13067
▁albedo	-13068
▁anyons	-13069
▁assume	-13070
▁beetle	-13071
▁column	-13072
▁cracks	-13073
▁deaths	-13074
▁dispos	-13075
▁freeze	-13076
▁intrac	-13077
▁micros	-13078
▁museum	-13079
▁nanode	-13080
▁pedest	-13081
▁pieces	-13082
▁polyox	-13083
▁purely	-13084
▁radion	-13085
▁shield	-13086
▁simply	-13087
▁spores	-13088
▁tidiga	-13089
▁tracks	-13090
▁transf	-13091
Building	-13092
acoustic	-13093
bättring	-13094
elverkan	-13095
explored	-13096
neuronal	-13097
ophysics	-13098
organism	-13099
▁Astroph	-13100
▁Conject	-13101
▁alcohol	-13102
▁bacteri	-13103
▁beetles	-13104
▁brittle	-13105
▁centres	-13106
▁convers	-13107
▁crustal	-13108
▁damping	-13109
▁diagram	-13110
▁endosym	-13111
▁fashion	-13112
▁flowers	-13113
▁foramin	-13114
▁formula	-13115
▁glacier	-13116
▁globala	-13117
▁histone	-13118
▁maximal	-13119
▁miljöer	-13120
▁muscles	-13121
▁neither	-13122
▁prevail	-13123
▁proceed	-13124
▁satisfy	-13125
▁sheaves	-13126
▁soliton	-13127
▁sputter	-13128
▁vesicle	-13129
catalyzed	-13130
erculosis	-13131
kvationer	-13132
oreactors	-13133
particles	-13134
tillstånd	-13135
värdering	-13136
▁Brownian	-13137
▁Function	-13138
▁Identify	-13139
▁accommod	-13140
▁altering	-13141
▁connects	-13142
▁diameter	-13143
▁fairness	-13144
▁gathered	-13145
▁hardness	-13146
▁hormones	-13147
▁isolates	-13148
▁koppling	-13149
▁parental	-13150
▁partikel	-13151
▁portable	-13152
▁preserve	-13153
▁redshift	-13154
▁reindeer	-13155
▁scarcity	-13156
▁shifting	-13157
▁transloc	-13158
▁vicinity	-13159
▁åldrande	-13160
▁Dynamiska	-13161
▁accessing	-13162
▁arguments	-13163
▁bumblebee	-13164
▁dendritic	-13165
▁digestion	-13166
▁distribut	-13167
▁effektiva	-13168
▁endometri	-13169
▁frontiers	-13170
▁hallmarks	-13171
▁impedance	-13172
▁induction	-13173
▁instances	-13174
▁intervals	-13175
▁labelling	-13176
▁mediating	-13177
▁metatrans	-13178
▁mimicking	-13179
▁multiplic	-13180
▁oncogenic	-13181
▁potassium	-13182
▁prevalent	-13183
▁reconcile	-13184
▁rendering	-13185
▁solceller	-13186
▁stiffness	-13187
▁substance	-13188
▁suffering	-13189
▁symbiotic	-13190
▁unlocking	-13191
alcogenides	-13192
plikationer	-13193
▁Estimation	-13194
▁Lorentzian	-13195
▁Production	-13196
▁Speciation	-13197
▁Successful	-13198
▁atmosfären	-13199
▁attachment	-13200
▁controller	-13201
▁covariance	-13202
▁creativity	-13203
▁deformable	-13204
▁dominating	-13205
▁elucidated	-13206
▁filtration	-13207
▁maturation	-13208
▁metagenome	-13209
▁nanoporous	-13210
▁processors	-13211
▁satisfying	-13212
▁uniqueness	-13213
plementation	-13214
▁Controlling	-13215
▁Integrating	-13216
▁adversarial	-13217
▁attenuation	-13218
▁bioreactors	-13219
▁corresponds	-13220
▁deciphering	-13221
▁geophysical	-13222
▁holomorphic	-13223
▁macrophages	-13224
▁mutagenesis	-13225
▁plasticitet	-13226
▁positioning	-13227
▁reproducing	-13228
▁sedimentary	-13229
▁spectroscop	-13230
characterized	-13231
▁Metabolomics	-13232
▁Transmission	-13233
▁accelerators	-13234
▁assimilation	-13235
▁cryptography	-13236
▁displacement	-13237
▁domesticated	-13238
▁evolutionära	-13239
▁melanogaster	-13240
▁simuleringar	-13241
▁tillverkning	-13242
▁Grundläggande	-13243
▁Heterogeneous	-13244
▁Identifiering	-13245
▁Transcription	-13246
▁complications	-13247
▁distinguished	-13248
▁exponentially	-13249
▁hydroclimatic	-13250
▁intercalation	-13251
▁nanocellulose	-13252
▁reflectometry	-13253
▁revolutionized	-13254
▁thermochemical	-13255
▁generalizations	-13256
▁reproducibility	-13257
-/	-13258
.-	-13259
20	-13260
5.	-13261
HA	-13262
HF	-13263
Hy	-13264
Pb	-13265
mp	-13266
oS	-13267
va	-13268
xy	-13269
ÖR	-13270
äs	-13271
åd	-13272
3).	-13273
CFT	-13274
DOS	-13275
ERI	-13276
bel	-13277
epl	-13278
iar	-13279
ien	-13280
lam	-13281
rid	-13282
vdW	-13283
yra	-13284
äck	-13285
ämv	-13286
▁AQ	-13287
▁DM	-13288
▁EF	-13289
▁HF	-13290
▁PB	-13291
▁RI	-13292
▁Sl	-13293
▁Su	-13294
▁TM	-13295
ECTs	-13296
MOFs	-13297
atik	-13298
comb	-13299
dMRI	-13300
erat	-13301
hole	-13302
ifts	-13303
ixel	-13304
nade	-13305
oltz	-13306
poly	-13307
rank	-13308
self	-13309
uleå	-13310
äkra	-13311
ätta	-13312
▁1.5	-13313
▁197	-13314
▁2).	-13315
▁BBB	-13316
▁Ban	-13317
▁Bas	-13318
▁Bra	-13319
▁Cut	-13320
▁Cyt	-13321
▁HTS	-13322
▁Kan	-13323
▁Kle	-13324
▁LTU	-13325
▁Myc	-13326
▁NAC	-13327
▁Sph	-13328
▁TCR	-13329
▁aux	-13330
▁hab	-13331
▁hub	-13332
▁mål	-13333
-2026	-13334
acrom	-13335
ament	-13336
cycle	-13337
destr	-13338
fälts	-13339
incre	-13340
isons	-13341
joner	-13342
okond	-13343
onges	-13344
ortic	-13345
oured	-13346
roism	-13347
wards	-13348
åglar	-13349
▁Does	-13350
▁Iron	-13351
▁Kerr	-13352
▁OPVs	-13353
▁SAXS	-13354
▁Sver	-13355
▁Task	-13356
▁Tens	-13357
▁Weyl	-13358
▁agre	-13359
▁appe	-13360
▁arom	-13361
▁bubb	-13362
▁chol	-13363
▁cirk	-13364
▁heli	-13365
▁pren	-13366
▁tann	-13367
▁unim	-13368
arming	-13369
estern	-13370
graded	-13371
ibetan	-13372
iliary	-13373
ingdom	-13374
ipedia	-13375
lining	-13376
oiding	-13377
ophyll	-13378
oprote	-13379
optics	-13380
retely	-13381
rowing	-13382
urgery	-13383
ussian	-13384
ypical	-13385
▁Energ	-13386
▁Exact	-13387
▁Heavy	-13388
▁Luleå	-13389
▁Mixed	-13390
▁begin	-13391
▁codon	-13392
▁drain	-13393
▁gates	-13394
▁humid	-13395
▁marks	-13396
▁metab	-13397
▁overs	-13398
▁prere	-13399
▁prone	-13400
▁scann	-13401
▁seems	-13402
▁signs	-13403
▁slump	-13404
▁symbi	-13405
▁views	-13406
ecology	-13407
element	-13408
ilibria	-13409
inaural	-13410
itizers	-13411
machine	-13412
obicity	-13413
omycete	-13414
roughts	-13415
steknik	-13416
ulative	-13417
villing	-13418
▁PROTAC	-13419
▁Vinter	-13420
▁advent	-13421
▁anions	-13422
▁became	-13423
▁breeds	-13424
▁copies	-13425
▁dispro	-13426
▁engage	-13427
▁explor	-13428
▁extant	-13429
▁flexib	-13430
▁fourth	-13431
▁frames	-13432
▁infest	-13433
▁oldest	-13434
▁pancre	-13435
▁powers	-13436
▁quasic	-13437
▁resili	-13438
▁scaled	-13439
▁stocks	-13440
▁termed	-13441
▁traces	-13442
▁unknow	-13443
▁varies	-13444
▁viewed	-13445
beroende	-13446
covering	-13447
essenger	-13448
kontroll	-13449
koppling	-13450
modellen	-13451
mutators	-13452
okemiska	-13453
oltzmann	-13454
ophthora	-13455
orphisms	-13456
poration	-13457
positive	-13458
värmning	-13459
▁Casimir	-13460
▁Contact	-13461
▁Crystal	-13462
▁Devices	-13463
▁Fennosc	-13464
▁Genomic	-13465
▁Lattice	-13466
▁Neurode	-13467
▁Plateau	-13468
▁anatomy	-13469
▁anxiety	-13470
▁baryons	-13471
▁careful	-13472
▁cereals	-13473
▁disrupt	-13474
▁filling	-13475
▁förklar	-13476
▁gradual	-13477
▁helping	-13478
▁ickelin	-13479
▁impulse	-13480
▁induces	-13481
▁placing	-13482
▁prolong	-13483
▁pushing	-13484
▁removed	-13485
▁reports	-13486
▁reposit	-13487
▁station	-13488
▁weights	-13489
electrode	-13490
intensity	-13491
rotrophic	-13492
▁Analytic	-13493
▁Decoding	-13494
▁Extremal	-13495
▁Hardware	-13496
▁Singular	-13497
▁Temporal	-13498
▁billions	-13499
▁crossing	-13500
▁drilling	-13501
▁impacted	-13502
▁internet	-13503
▁lighting	-13504
▁navigate	-13505
▁occurred	-13506
▁pressing	-13507
▁putative	-13508
▁segments	-13509
▁stations	-13510
▁thiamine	-13511
▁unbiased	-13512
legeringar	-13513
optimering	-13514
ostructure	-13515
paralleled	-13516
stransport	-13517
övergångar	-13518
▁Australia	-13519
▁Increased	-13520
▁Metabolic	-13521
▁Wikipedia	-13522
▁aggregate	-13523
▁chaperone	-13524
▁confirmed	-13525
▁continues	-13526
▁delineate	-13527
▁depolymer	-13528
▁discourse	-13529
▁drawbacks	-13530
▁ferromagn	-13531
▁forskning	-13532
▁histories	-13533
▁identical	-13534
▁incorrect	-13535
▁iteration	-13536
▁junctions	-13537
▁mentioned	-13538
▁organiskt	-13539
▁pioneered	-13540
▁polymerer	-13541
▁telescope	-13542
▁volatiles	-13543
▁övergångs	-13544
entifically	-13545
oelektriska	-13546
oxygenation	-13547
▁Addressing	-13548
▁Antarctica	-13549
▁Combinator	-13550
▁Electrical	-13551
▁adequately	-13552
▁algoritmer	-13553
▁attraction	-13554
▁clinicians	-13555
▁collecting	-13556
▁contacting	-13557
▁correlates	-13558
▁degenerate	-13559
▁equilibria	-13560
▁estimators	-13561
▁horizontal	-13562
▁impairment	-13563
▁inequality	-13564
▁lubricants	-13565
▁outperform	-13566
▁pesticides	-13567
▁precisions	-13568
▁prescribed	-13569
▁satellites	-13570
▁separating	-13571
spektroskopi	-13572
▁Identifying	-13573
▁Integration	-13574
▁accelerator	-13575
▁accompanied	-13576
▁artificiell	-13577
▁bakteriella	-13578
▁conditional	-13579
▁conjugation	-13580
▁coronagraph	-13581
▁dimensioner	-13582
▁fabricating	-13583
▁komponenter	-13584
▁latitudinal	-13585
▁participate	-13586
▁progressive	-13587
preprojective	-13588
▁commercially	-13589
▁continuation	-13590
▁magnetically	-13591
▁miniaturized	-13592
▁minimization	-13593
▁nanocrystals	-13594
▁preservation	-13595
▁similarities	-13596
▁spektroskopi	-13597
▁surroundings	-13598
▁transferring	-13599
▁unparalleled	-13600
▁Gravitational	-13601
▁Metamaterials	-13602
▁approximately	-13603
▁catalytically	-13604
▁conformations	-13605
▁inhomogeneous	-13606
▁multispectral	-13607
▁nanocomposite	-13608
▁pathogenicity	-13609
▁photophysical	-13610
▁stoichiometry	-13611
▁topologically	-13612
▁discretization	-13613
▁elektrokemiska	-13614
▁evolutionarily	-13615
▁magnetospheres	-13616
electrochemistry	-13617
▁electrodynamics	-13618
▁optoelectronics	-13619
▁polyfluoroalkyl	-13620
",	-13621
Br	-13622
DT	-13623
GH	-13624
GR	-13625
He	-13626
LS	-13627
MF	-13628
Ma	-13629
ee	-13630
åt	-13631
▁°	-13632
▁”	-13633
500	-13634
LED	-13635
PES	-13636
arv	-13637
dem	-13638
fit	-13639
gat	-13640
ivå	-13641
jet	-13642
ker	-13643
oil	-13644
oke	-13645
rof	-13646
sur	-13647
ups	-13648
zer	-13649
zyg	-13650
ämf	-13651
▁4.	-13652
▁DC	-13653
▁DG	-13654
▁Lo	-13655
▁NE	-13656
▁SU	-13657
▁TH	-13658
▁Yo	-13659
▁ha	-13660
▁kl	-13661
IREE	-13662
PDEs	-13663
adal	-13664
apro	-13665
esth	-13666
fria	-13667
hind	-13668
illi	-13669
lets	-13670
mill	-13671
måga	-13672
nals	-13673
neum	-13674
opol	-13675
osed	-13676
otik	-13677
pair	-13678
pred	-13679
psis	-13680
rary	-13681
size	-13682
skad	-13683
spin	-13684
stor	-13685
that	-13686
uate	-13687
urip	-13688
user	-13689
▁CPU	-13690
▁CVD	-13691
▁Cop	-13692
▁Fat	-13693
▁FÖR	-13694
▁GPT	-13695
▁Hor	-13696
▁MPC	-13697
▁Mid	-13698
▁Ore	-13699
▁Ryd	-13700
▁bin	-13701
▁coh	-13702
▁dos	-13703
▁duc	-13704
▁fal	-13705
▁hex	-13706
▁kvä	-13707
▁nyc	-13708
▁peb	-13709
▁squ	-13710
▁uts	-13711
▁änd	-13712
Since	-13713
adequ	-13714
amate	-13715
axial	-13716
ender	-13717
enter	-13718
eterm	-13719
ibrio	-13720
ifera	-13721
iques	-13722
lipid	-13723
luids	-13724
metry	-13725
ocomp	-13726
omets	-13727
orses	-13728
rific	-13729
ronch	-13730
sheet	-13731
ushes	-13732
xture	-13733
▁1980	-13734
▁Asia	-13735
▁Body	-13736
▁Conf	-13737
▁Hear	-13738
▁Lapl	-13739
▁Moon	-13740
▁Pati	-13741
▁Prot	-13742
▁Term	-13743
▁Trib	-13744
▁Wall	-13745
▁cave	-13746
▁dogs	-13747
▁elic	-13748
▁exud	-13749
▁grup	-13750
▁järn	-13751
▁obsc	-13752
▁rain	-13753
▁skap	-13754
▁snap	-13755
▁träd	-13756
▁tube	-13757
▁unch	-13758
▁utan	-13759
▁vent	-13760
▁ytor	-13761
▁Åter	-13762
Second	-13763
aginal	-13764
amhäll	-13765
cephal	-13766
fossil	-13767
guided	-13768
iatric	-13769
ierark	-13770
inates	-13771
iserad	-13772
ivirus	-13773
ochrom	-13774
osetta	-13775
teknik	-13776
twined	-13777
ynthes	-13778
▁Anaer	-13779
▁Birds	-13780
▁Coron	-13781
▁Ferro	-13782
▁Genom	-13783
▁Goren	-13784
▁MALDI	-13785
▁Nanot	-13786
▁Teore	-13787
▁ambig	-13788
▁belts	-13789
▁bival	-13790
▁bland	-13791
▁chick	-13792
▁conce	-13793
▁creep	-13794
▁diver	-13795
▁eight	-13796
▁fauna	-13797
▁flöde	-13798
▁globe	-13799
▁grand	-13800
▁impur	-13801
▁joner	-13802
▁lidar	-13803
▁lifec	-13804
▁lists	-13805
▁music	-13806
▁norra	-13807
▁petro	-13808
▁phant	-13809
▁prest	-13810
▁progn	-13811
▁renew	-13812
▁seals	-13813
▁spots	-13814
▁strål	-13815
▁synte	-13816
▁truth	-13817
▁ulvan	-13818
▁unify	-13819
▁veget	-13820
acylgly	-13821
centric	-13822
crystal	-13823
idating	-13824
ificant	-13825
ikalier	-13826
inergic	-13827
ineries	-13828
ionella	-13829
istance	-13830
istatic	-13831
istered	-13832
neutron	-13833
ostatic	-13834
perovsk	-13835
student	-13836
usively	-13837
varying	-13838
veiling	-13839
zations	-13840
ämpning	-13841
▁Americ	-13842
▁Center	-13843
▁Europa	-13844
▁Ground	-13845
▁Photon	-13846
▁Porous	-13847
▁Travel	-13848
▁amines	-13849
▁barley	-13850
▁biased	-13851
▁bättre	-13852
▁canopy	-13853
▁choose	-13854
▁deeply	-13855
▁depths	-13856
▁dipole	-13857
▁epilep	-13858
▁evapor	-13859
▁glycan	-13860
▁harmon	-13861
▁height	-13862
▁incons	-13863
▁joints	-13864
▁mapped	-13865
▁ncRNAs	-13866
▁niches	-13867
▁nickel	-13868
▁optisk	-13869
▁portal	-13870
▁priors	-13871
▁puzzle	-13872
▁repeti	-13873
▁retina	-13874
▁sepsis	-13875
▁shells	-13876
▁solely	-13877
▁speeds	-13878
▁triang	-13879
Gaussian	-13880
abundant	-13881
arcoding	-13882
atellite	-13883
itations	-13884
påverkan	-13885
spectrum	-13886
structed	-13887
symbolic	-13888
terozoic	-13889
▁Biosens	-13890
▁DESIREE	-13891
▁Harness	-13892
▁Respons	-13893
▁Rosetta	-13894
▁Rydberg	-13895
▁Virtual	-13896
▁analogs	-13897
▁antifer	-13898
▁bilayer	-13899
▁bridges	-13900
▁cohorts	-13901
▁execute	-13902
▁exhaust	-13903
▁geology	-13904
▁handled	-13905
▁knowing	-13906
▁labeled	-13907
▁materia	-13908
▁minutes	-13909
▁nematic	-13910
▁ontogen	-13911
▁outflow	-13912
▁restore	-13913
▁retreat	-13914
▁serving	-13915
▁solutes	-13916
▁spiders	-13917
▁subunit	-13918
▁thereof	-13919
▁utilise	-13920
▁variant	-13921
▁windows	-13922
gradation	-13923
molecular	-13924
omagnetic	-13925
omorphism	-13926
ontrolled	-13927
▁Domestic	-13928
▁Electric	-13929
▁Sampling	-13930
▁Tailored	-13931
▁ablation	-13932
▁automate	-13933
▁biopsies	-13934
▁business	-13935
▁captures	-13936
▁centered	-13937
▁disposal	-13938
▁distribu	-13939
▁droughts	-13940
▁effekten	-13941
▁fluorine	-13942
▁fucoidan	-13943
▁functors	-13944
▁lattices	-13945
▁magnetis	-13946
▁managing	-13947
▁offshore	-13948
▁organics	-13949
▁pristine	-13950
▁prospect	-13951
▁purified	-13952
▁regarded	-13953
▁reliance	-13954
▁riparian	-13955
▁silicate	-13956
▁ursprung	-13957
▁vortices	-13958
Generation	-13959
accharides	-13960
ainability	-13961
applicants	-13962
assembling	-13963
oreceptors	-13964
permatozoa	-13965
pollinator	-13966
preserving	-13967
ufacturing	-13968
▁Functions	-13969
▁Stellites	-13970
▁analogous	-13971
▁annotated	-13972
▁apoptosis	-13973
▁attribute	-13974
▁butterfly	-13975
▁companies	-13976
▁cytoplasm	-13977
▁economics	-13978
▁emergency	-13979
▁exposures	-13980
▁fractures	-13981
▁infestans	-13982
▁manganese	-13983
▁massively	-13984
▁monotonic	-13985
▁olfaction	-13986
▁outbreaks	-13987
▁paramount	-13988
▁placement	-13989
▁predators	-13990
▁processor	-13991
▁spridning	-13992
▁surgeries	-13993
▁tractable	-13994
▁withstand	-13995
eralization	-13996
independent	-13997
informatics	-13998
integration	-13999
▁Collective	-14000
▁Complexity	-14001
▁Conducting	-14002
▁Especially	-14003
▁Gorenstein	-14004
▁Navigation	-14005
▁Optimering	-14006
▁Phenotypic	-14007
▁Strategies	-14008
▁biologists	-14009
▁concurrent	-14010
▁depression	-14011
▁energetics	-14012
▁funktioner	-14013
▁generality	-14014
▁halvledare	-14015
▁harnessing	-14016
▁icebreaker	-14017
▁implicated	-14018
▁impurities	-14019
▁maximizing	-14020
▁metastasis	-14021
▁preserving	-14022
▁preventive	-14023
▁reductions	-14024
▁reflecting	-14025
▁temporally	-14026
▁transgenic	-14027
▁transients	-14028
▁usefulness	-14029
föroreningar	-14030
rochronology	-14031
▁Mathematics	-14032
▁Photosystem	-14033
▁Spintronics	-14034
▁Terrestrial	-14035
▁acclimation	-14036
▁antifouling	-14037
▁beamforming	-14038
▁consistency	-14039
▁discovering	-14040
▁electroweak	-14041
▁elucidation	-14042
▁empirically	-14043
▁establishes	-14044
▁geomagnetic	-14045
▁hydrocarbon	-14046
▁indications	-14047
▁molecularly	-14048
▁nanodevices	-14049
▁preclinical	-14050
▁prototyping	-14051
▁variational	-14052
▁versatility	-14053
Understanding	-14054
▁Fennoscandia	-14055
▁economically	-14056
▁hypothalamic	-14057
▁interpreting	-14058
▁mechanically	-14059
▁partitioning	-14060
▁reproducible	-14061
▁tuberculosis	-14062
ophysiological	-14063
▁Mitochondrial	-14064
▁hemicellulose	-14065
▁nanopartiklar	-14066
▁supersymmetry	-14067
▁cyanobacterial	-14068
▁graphitization	-14069
▁transcriptomes	-14070
-0	-14071
.(	-14072
19	-14073
3:	-14074
5,	-14075
BD	-14076
Ca	-14077
GD	-14078
HV	-14079
KD	-14080
MT	-14081
PF	-14082
SH	-14083
UL	-14084
UM	-14085
ke	-14086
px	-14087
vs	-14088
▁,	-14089
Ass	-14090
ELs	-14091
FET	-14092
IBs	-14093
Mod	-14094
PCR	-14095
ahl	-14096
don	-14097
exh	-14098
fre	-14099
ger	-14100
has	-14101
hyd	-14102
ums	-14103
usk	-14104
öna	-14105
▁24	-14106
▁67	-14107
▁CL	-14108
▁IL	-14109
▁LO	-14110
▁MY	-14111
▁Pa	-14112
▁Pt	-14113
▁RP	-14114
▁SN	-14115
▁TL	-14116
▁oc	-14117
▁́t	-14118
Spec	-14119
arks	-14120
both	-14121
ihil	-14122
indi	-14123
isks	-14124
itic	-14125
karb	-14126
leum	-14127
lude	-14128
matt	-14129
odia	-14130
odom	-14131
oidy	-14132
omod	-14133
oney	-14134
rikt	-14135
scal	-14136
then	-14137
uary	-14138
ylan	-14139
▁DEM	-14140
▁Flo	-14141
▁Hyd	-14142
▁MSI	-14143
▁PCR	-14144
▁Rig	-14145
▁SNe	-14146
▁UFP	-14147
▁egg	-14148
▁hop	-14149
▁osm	-14150
▁pCO	-14151
▁ple	-14152
▁sig	-14153
▁sud	-14154
▁tol	-14155
COVID	-14156
amman	-14157
amond	-14158
ander	-14159
appro	-14160
board	-14161
cence	-14162
deriv	-14163
doped	-14164
emics	-14165
enden	-14166
engue	-14167
erate	-14168
folds	-14169
ician	-14170
idium	-14171
ierad	-14172
ingly	-14173
inion	-14174
itize	-14175
ivery	-14176
laser	-14177
lasov	-14178
multi	-14179
ogene	-14180
otten	-14181
perme	-14182
ständ	-14183
udied	-14184
uplex	-14185
vesic	-14186
vägar	-14187
▁2030	-14188
▁Allo	-14189
▁Cogn	-14190
▁GNSS	-14191
▁INPH	-14192
▁Jord	-14193
▁LHCb	-14194
▁Moun	-14195
▁Norr	-14196
▁OSCs	-14197
▁Orig	-14198
▁Prom	-14199
▁RIXS	-14200
▁Solv	-14201
▁VLQs	-14202
▁Webb	-14203
▁Wedd	-14204
▁Wild	-14205
▁akin	-14206
▁anne	-14207
▁apps	-14208
▁brow	-14209
▁exer	-14210
▁fore	-14211
▁hire	-14212
▁inre	-14213
▁intr	-14214
▁ljud	-14215
▁myel	-14216
▁oils	-14217
▁vice	-14218
▁zinc	-14219
Planck	-14220
ancial	-14221
bursts	-14222
groups	-14223
hybrid	-14224
ifting	-14225
length	-14226
medels	-14227
models	-14228
rating	-14229
skraft	-14230
ökning	-14231
▁ALICE	-14232
▁Geant	-14233
▁Influ	-14234
▁Minim	-14235
▁Point	-14236
▁Polym	-14237
▁Quasi	-14238
▁Ricci	-14239
▁Stars	-14240
▁Viral	-14241
▁aided	-14242
▁artif	-14243
▁aspen	-14244
▁blind	-14245
▁crowd	-14246
▁enfor	-14247
▁epoch	-14248
▁hepat	-14249
▁infin	-14250
▁miRNA	-14251
▁mjuka	-14252
▁moves	-14253
▁named	-14254
▁nukle	-14255
▁paves	-14256
▁piece	-14257
▁pneum	-14258
▁sized	-14259
▁stain	-14260
▁sugar	-14261
▁surge	-14262
▁taste	-14263
▁zeros	-14264
Another	-14265
acrific	-14266
bearing	-14267
driving	-14268
enskapl	-14269
ergetic	-14270
feeding	-14271
genital	-14272
kinetic	-14273
kondens	-14274
materia	-14275
network	-14276
odicity	-14277
oxvirus	-14278
trained	-14279
öntgens	-14280
▁Eukary	-14281
▁Fossil	-14282
▁France	-14283
▁Immune	-14284
▁Ligand	-14285
▁Patter	-14286
▁Robots	-14287
▁Secure	-14288
▁Synerg	-14289
▁avenue	-14290
▁avslöj	-14291
▁breaks	-14292
▁carcin	-14293
▁clocks	-14294
▁filled	-14295
▁gather	-14296
▁harves	-14297
▁intras	-14298
▁magnon	-14299
▁matris	-14300
▁panels	-14301
▁plates	-14302
▁plurip	-14303
▁recalc	-14304
▁sinter	-14305
▁storms	-14306
▁things	-14307
▁timber	-14308
▁trying	-14309
Einstein	-14310
Recently	-14311
Specific	-14312
aculture	-14313
bredning	-14314
encoders	-14315
eterious	-14316
metaller	-14317
ocytosis	-14318
positely	-14319
rolinska	-14320
solution	-14321
tivering	-14322
urbation	-14323
▁Diffuse	-14324
▁Finland	-14325
▁Pacific	-14326
▁Silicon	-14327
▁Sverige	-14328
▁Tibetan	-14329
▁Weddell	-14330
▁abelian	-14331
▁airflow	-14332
▁airways	-14333
▁antigen	-14334
[...]
