<unk>	0
<s>	0
</s>	0
in	-0
▁t	-1
▁a	-2
on	-3
ti	-4
er	-5
es	-6
en	-7
▁th	-8
al	-9
▁s	-10
or	-11
▁c	-12
▁p	-13
nd	-14
▁o	-15
ro	-16
tion	-17
▁the	-18
at	-19
ing	-20
re	-21
▁m	-22
is	-23
▁f	-24
ic	-25
an	-26
▁in	-27
ar	-28
ed	-29
▁and	-30
▁w	-31
▁of	-32
▁d	-33
ec	-34
▁b	-35
el	-36
it	-37
▁to	-38
ation	-39
ent	-40
il	-41
ol	-42
om	-43
st	-44
et	-45
▁pro	-46
▁e	-47
im	-48
le	-49
ac	-50
as	-51
▁h	-52
ur	-53
ul	-54
▁n	-55
ect	-56
▁T	-57
▁g	-58
tic	-59
▁re	-60
▁u	-61
▁for	-62
od	-63
▁l	-64
em	-65
▁st	-66
id	-67
uc	-68
ill	-69
ig	-70
ve	-71
ly	-72
res	-73
os	-74
ter	-75
ra	-76
▁Th	-77
▁will	-78
▁is	-79
ab	-80
▁con	-81
ut	-82
ow	-83
ver	-84
op	-85
▁be	-86
▁ex	-87
ot	-88
ch	-89
ce	-90
ith	-91
qu	-92
ate	-93
ity	-94
▁com	-95
am	-96
pl	-97
og	-98
us	-99
▁on	-100
▁de	-101
ir	-102
if	-103
▁with	-104
ical	-105
▁(	-106
per	-107
vel	-108
▁as	-109
ge	-110
▁an	-111
ri	-112
ant	-113
▁en	-114
▁S	-115
ell	-116
▁A	-117
▁The	-118
▁res	-119
um	-120
th	-121
▁ch	-122
▁v	-123
ject	-124
ion	-125
ial	-126
un	-127
ations	-128
and	-129
▁are	-130
ure	-131
ess	-132
▁I	-133
▁project	-134
▁that	-135
▁mod	-136
▁sp	-137
ud	-138
ment	-139
▁im	-140
▁M	-141
ys	-142
▁ne	-143
▁C	-144
▁us	-145
▁al	-146
iz	-147
ear	-148
▁comp	-149
▁wh	-150
▁by	-151
igh	-152
olog	-153
tions	-154
tive	-155
ran	-156
▁met	-157
ies	-158
yst	-159
ff	-160
oc	-161
ech	-162
ag	-163
ens	-164
rom	-165
ain	-166
ater	-167
ap	-168
▁this	-169
ad	-170
▁P	-171
uct	-172
▁ap	-173
te	-174
▁k	-175
▁ph	-176
for	-177
ist	-178
▁at	-179
▁gen	-180
▁we	-181
velop	-182
yn	-183
▁inter	-184
nder	-185
ine	-186
▁ad	-187
▁ac	-188
ystem	-189
ics	-190
ated	-191
ph	-192
able	-193
▁E	-194
▁develop	-195
▁or	-196
ning	-197
ts	-198
ers	-199
▁str	-200
pro	-201
▁W	-202
▁D	-203
▁under	-204
und	-205
▁model	-206
▁su	-207
▁H	-208
▁bi	-209
enti	-210
ign	-211
▁el	-212
all	-213
rans	-214
form	-215
▁stud	-216
▁from	-217
por	-218
▁pl	-219
ence	-220
ms	-221
▁qu	-222
tical	-223
aterial	-224
est	-225
ore	-226
▁F	-227
cess	-228
fer	-229
di	-230
ere	-231
ties	-232
pos	-233
ous	-234
▁par	-235
▁can	-236
▁le	-237
▁cont	-238
▁cl	-239
ular	-240
ach	-241
ution	-242
duc	-243
▁In	-244
ance	-245
▁B	-246
ay	-247
▁meth	-248
act	-249
▁eff	-250
▁trans	-251
▁system	-252
ak	-253
ory	-254
▁un	-255
▁av	-256
▁N	-257
▁This	-258
▁method	-259
ide	-260
ich	-261
ble	-262
▁ev	-263
ese	-264
▁material	-265
▁new	-266
ork	-267
ents	-268
ron	-269
ave	-270
▁high	-271
tiv	-272
earch	-273
▁pre	-274
port	-275
tim	-276
▁co	-277
ary	-278
▁dat	-279
stand	-280
ug	-281
▁int	-282
▁R	-283
▁sc	-284
ased	-285
ility	-286
▁it	-287
ors	-288
vers	-289
olution	-290
ry	-291
ass	-292
▁L	-293
ress	-294
▁dis	-295
unc	-296
▁se	-297
plic	-298
▁O	-299
ör	-300
uch	-301
▁aim	-302
erg	-303
▁inc	-304
▁We	-305
etw	-306
echn	-307
▁elect	-308
▁struct	-309
ific	-310
ology	-311
▁which	-312
▁research	-313
▁process	-314
ynam	-315
echan	-316
▁G	-317
sc	-318
▁understand	-319
icro	-320
▁dif	-321
erm	-322
ves	-323
▁data	-324
ase	-325
▁cell	-326
▁anal	-327
ost	-328
▁di	-329
▁have	-330
▁op	-331
▁des	-332
▁sh	-333
▁techn	-334
▁ro	-335
▁r	-336
ati	-337
▁their	-338
ating	-339
▁these	-340
ast	-341
etic	-342
ari	-343
our	-344
tional	-345
▁fl	-346
▁exper	-347
ental	-348
▁how	-349
ace	-350
iqu	-351
▁mechan	-352
enc	-353
ath	-354
▁no	-355
ization	-356
agn	-357
oll	-358
▁func	-359
▁such	-360
ures	-361
ds	-362
str	-363
▁och	-364
▁spec	-365
▁rec	-366
▁methods	-367
▁det	-368
▁materials	-369
ugh	-370
anc	-371
▁micro	-372
ik	-373
ym	-374
ep	-375
yp	-376
▁för	-377
ric	-378
ative	-379
ering	-380
▁per	-381
▁gener	-382
oth	-383
rib	-384
ential	-385
acter	-386
▁models	-387
ust	-388
▁fi	-389
▁using	-390
av	-391
tein	-392
ulti	-393
▁applic	-394
▁study	-395
ip	-396
▁gro	-397
ond	-398
now	-399
lex	-400
olec	-401
ong	-402
▁use	-403
▁U	-404
▁appro	-405
ved	-406
▁chan	-407
tig	-408
▁reg	-409
▁differ	-410
ack	-411
lo	-412
ates	-413
ural	-414
ome	-415
▁ob	-416
ability	-417
gan	-418
▁dynam	-419
▁sol	-420
▁proper	-421
se	-422
▁form	-423
ological	-424
rol	-425
▁our	-426
of	-427
▁em	-428
ue	-429
▁systems	-430
▁has	-431
▁prov	-432
▁sim	-433
▁i	-434
▁understanding	-435
age	-436
iron	-437
end	-438
▁ab	-439
▁ass	-440
ici	-441
ergy	-442
▁propos	-443
▁experim	-444
▁rel	-445
up	-446
▁ext	-447
▁y	-448
▁analys	-449
ult	-450
▁man	-451
so	-452
▁tim	-453
emical	-454
ational	-455
▁properties	-456
ind	-457
▁ra	-458
ound	-459
atter	-460
ulation	-461
▁mechanis	-462
viron	-463
vironment	-464
▁interac	-465
isk	-466
▁imp	-467
ek	-468
▁approach	-469
▁novel	-470
ther	-471
ual	-472
▁vari	-473
▁comb	-474
▁also	-475
Th	-476
ight	-477
vestig	-478
▁multi	-479
ale	-480
led	-481
▁phys	-482
les	-483
▁sign	-484
ects	-485
rough	-486
are	-487
▁protein	-488
ew	-489
▁design	-490
antum	-491
arge	-492
entif	-493
sk	-494
ive	-495
imate	-496
▁car	-497
ia	-498
▁theory	-499
▁molec	-500
mun	-501
gen	-502
▁know	-503
ions	-504
▁sur	-505
▁investig	-506
iv	-507
ib	-508
▁environment	-509
iss	-510
▁nan	-511
ition	-512
▁all	-513
een	-514
▁expl	-515
▁development	-516
ram	-517
▁2	-518
▁partic	-519
ges	-520
etween	-521
▁between	-522
▁me	-523
tics	-524
▁adv	-525
ely	-526
▁into	-527
▁ar	-528
pt	-529
rain	-530
ities	-531
ting	-532
ish	-533
▁energy	-534
ize	-535
▁evolution	-536
▁lear	-537
ail	-538
ied	-539
▁fiel	-540
▁complex	-541
uring	-542
dic	-543
ite	-544
▁import	-545
▁control	-546
▁ec	-547
▁different	-548
▁time	-549
fl	-550
ogen	-551
▁pol	-552
lud	-553
▁pot	-554
ection	-555
▁cons	-556
arg	-557
▁non	-558
▁syn	-559
ree	-560
urr	-561
oss	-562
ov	-563
▁organ	-564
▁sub	-565
▁over	-566
▁exp	-567
rec	-568
ever	-569
▁learning	-570
▁but	-571
teg	-572
▁used	-573
ulations	-574
ized	-575
til	-576
raph	-577
▁ins	-578
▁processes	-579
▁med	-580
omet	-581
▁well	-582
▁quantum	-583
▁hy	-584
▁proble	-585
▁includ	-586
▁go	-587
▁climate	-588
tain	-589
ard	-590
▁structure	-591
▁aims	-592
NA	-593
▁acc	-594
based	-595
uman	-596
▁magn	-597
▁potential	-598
ature	-599
ling	-600
▁analysis	-601
aracter	-602
als	-603
▁not	-604
ons	-605
▁dynamics	-606
ven	-607
▁combin	-608
).	-609
tivity	-610
esis	-611
▁comput	-612
formation	-613
▁effici	-614
▁through	-615
▁techniqu	-616
▁produc	-617
ently	-618
▁id	-619
▁out	-620
out	-621
▁applications	-622
her	-623
▁dec	-624
atal	-625
▁work	-626
▁more	-627
▁St	-628
▁provide	-629
allen	-630
▁he	-631
The	-632
▁pr	-633
▁character	-634
scop	-635
▁been	-636
tegr	-637
▁electron	-638
▁impro	-639
▁How	-640
very	-641
▁fund	-642
▁challen	-643
▁molecular	-644
▁cr	-645
▁identif	-646
▁mechanisms	-647
etwork	-648
▁resp	-649
▁perform	-650
▁tw	-651
▁tool	-652
▁1	-653
ases	-654
▁based	-655
▁coll	-656
xt	-657
tif	-658
▁am	-659
▁ge	-660
▁its	-661
ected	-662
▁predic	-663
amental	-664
ey	-665
▁3	-666
ie	-667
ros	-668
ets	-669
▁beh	-670
ire	-671
ults	-672
▁sens	-673
cer	-674
ple	-675
▁K	-676
▁human	-677
▁large	-678
▁optim	-679
rop	-680
ild	-681
erv	-682
ark	-683
▁both	-684
och	-685
▁phot	-686
▁year	-687
ants	-688
▁sel	-689
ective	-690
▁spect	-691
▁important	-692
▁fundamental	-693
är	-694
ally	-695
ible	-696
ocus	-697
ement	-698
▁add	-699
ise	-700
ledge	-701
▁field	-702
atic	-703
),	-704
emb	-705
de	-706
co	-707
▁condi	-708
▁results	-709
▁where	-710
▁studies	-711
face	-712
▁two	-713
reat	-714
▁num	-715
▁real	-716
br	-717
▁integr	-718
▁meas	-719
▁cor	-720
▁focus	-721
ade	-722
▁incre	-723
ten	-724
avi	-725
▁dist	-726
▁knowledge	-727
bi	-728
ateg	-729
▁network	-730
▁cap	-731
ivers	-732
▁inv	-733
irst	-734
der	-735
resent	-736
▁chemical	-737
▁techniques	-738
omp	-739
ency	-740
osph	-741
aging	-742
▁curr	-743
bon	-744
ood	-745
imit	-746
▁main	-747
▁other	-748
▁V	-749
▁interactions	-750
art	-751
▁Ph	-752
▁ag	-753
▁sam	-754
▁However	-755
▁effects	-756
ake	-757
oci	-758
▁dev	-759
▁there	-760
▁́	-761
▁advanc	-762
▁species	-763
▁conditions	-764
▁tra	-765
ox	-766
ose	-767
▁functional	-768
ower	-769
▁rem	-770
uld	-771
▁synth	-772
yl	-773
▁adap	-774
ically	-775
▁modell	-776
▁limit	-777
sp	-778
yc	-779
▁path	-780
▁address	-781
aus	-782
ile	-783
▁commun	-784
abor	-785
▁-	-786
▁electro	-787
▁behavi	-788
▁key	-789
▁tr	-790
▁experimental	-791
▁need	-792
▁tem	-793
▁investigate	-794
▁cells	-795
ice	-796
ator	-797
▁years	-798
eter	-799
▁information	-800
arm	-801
▁plas	-802
▁change	-803
int	-804
▁one	-805
▁rep	-806
▁during	-807
ci	-808
achine	-809
▁ox	-810
▁typ	-811
▁An	-812
par	-813
▁water	-814
ful	-815
▁long	-816
▁first	-817
ub	-818
scopy	-819
▁grow	-820
▁signific	-821
▁att	-822
ments	-823
▁reac	-824
▁physics	-825
▁plan	-826
ision	-827
▁To	-828
▁group	-829
dro	-830
aces	-831
ids	-832
uk	-833
▁up	-834
▁role	-835
▁test	-836
▁sci	-837
▁lead	-838
▁mo	-839
ribut	-840
▁tools	-841
alu	-842
▁so	-843
lob	-844
▁flow	-845
ral	-846
▁dise	-847
▁fram	-848
lement	-849
ber	-850
ene	-851
ving	-852
emist	-853
▁measure	-854
▁most	-855
▁allow	-856
▁inf	-857
▁sm	-858
ucle	-859
osystem	-860
▁function	-861
ks	-862
uture	-863
▁super	-864
cept	-865
imens	-866
▁prog	-867
omic	-868
▁state	-869
▁aff	-870
ross	-871
▁phen	-872
ays	-873
scale	-874
▁requ	-875
ism	-876
ality	-877
▁biom	-878
▁fe	-879
▁impact	-880
▁obs	-881
ication	-882
▁flu	-883
emistry	-884
ices	-885
▁Our	-886
struct	-887
ption	-888
▁including	-889
lish	-890
rect	-891
▁geomet	-892
▁significant	-893
elect	-894
▁determ	-895
urb	-896
▁light	-897
ang	-898
▁changes	-899
ray	-900
its	-901
▁class	-902
ides	-903
▁sup	-904
▁formation	-905
▁loc	-906
▁structures	-907
▁ques	-908
▁targ	-909
▁developed	-910
▁carbon	-911
▁future	-912
rel	-913
▁many	-914
ord	-915
ian	-916
▁Sp	-917
▁they	-918
▁alg	-919
▁oper	-920
orph	-921
▁poss	-922
▁identify	-923
▁quan	-924
▁Pro	-925
▁equ	-926
oretical	-927
▁aut	-928
ences	-929
▁glob	-930
▁lin	-931
▁therm	-932
▁bu	-933
one	-934
▁modelling	-935
▁sever	-936
▁within	-937
ework	-938
▁strateg	-939
ification	-940
▁es	-941
▁problems	-942
iska	-943
▁genetic	-944
▁surface	-945
▁pop	-946
ages	-947
abol	-948
▁reduc	-949
▁general	-950
▁En	-951
gine	-952
istic	-953
duct	-954
▁pur	-955
▁po	-956
▁do	-957
▁catal	-958
atical	-959
ier	-960
▁goal	-961
aser	-962
▁enh	-963
▁sing	-964
ablish	-965
lin	-966
▁proteins	-967
ings	-968
ax	-969
met	-970
▁AI	-971
▁Q	-972
utions	-973
▁level	-974
▁rele	-975
ators	-976
▁proposed	-977
▁framework	-978
▁fact	-979
▁cre	-980
▁rob	-981
abil	-982
▁experiments	-983
flu	-984
ike	-985
▁ind	-986
▁sust	-987
oph	-988
▁due	-989
▁These	-990
▁sustain	-991
reen	-992
atory	-993
▁particular	-994
ns	-995
ans	-996
▁low	-997
▁Ar	-998
tisk	-999
▁theoretical	-1000
orith	-1001
▁interaction	-1002
▁temper	-1003
establish	-1004
ape	-1005
▁efficient	-1006
00	-1007
ces	-1008
omes	-1009
imension	-1010
▁environmental	-1011
rac	-1012
tit	-1013
mon	-1014
omics	-1015
▁prom	-1016
▁exist	-1017
▁dem	-1018
ritical	-1019
▁current	-1020
▁imaging	-1021
▁machine	-1022
▁hydro	-1023
▁magnetic	-1024
chie	-1025
ma	-1026
▁X	-1027
▁may	-1028
▁transport	-1029
▁simulations	-1030
▁computational	-1031
ness	-1032
iti	-1033
riven	-1034
ob	-1035
ont	-1036
ging	-1037
athem	-1038
▁specific	-1039
▁analy	-1040
▁ecosystem	-1041
ife	-1042
▁only	-1043
▁performance	-1044
▁structural	-1045
oft	-1046
▁def	-1047
▁achie	-1048
olved	-1049
▁compos	-1050
▁global	-1051
▁plant	-1052
▁sec	-1053
▁Un	-1054
▁mass	-1055
▁about	-1056
ety	-1057
▁ran	-1058
▁divers	-1059
▁algorith	-1060
els	-1061
rin	-1062
▁than	-1063
ort	-1064
ologies	-1065
vi	-1066
▁vir	-1067
onstr	-1068
▁establish	-1069
▁technology	-1070
▁production	-1071
ld	-1072
▁diff	-1073
▁j	-1074
iversity	-1075
▁set	-1076
▁power	-1077
alth	-1078
▁assess	-1079
▁uniqu	-1080
▁Al	-1081
▁spati	-1082
ules	-1083
▁nucle	-1084
▁ion	-1085
the	-1086
▁prec	-1087
aking	-1088
vant	-1089
ains	-1090
ether	-1091
▁It	-1092
▁growth	-1093
vely	-1094
▁Mod	-1095
▁sour	-1096
▁sequ	-1097
▁phase	-1098
▁adapt	-1099
cri	-1100
ites	-1101
▁problem	-1102
otic	-1103
ights	-1104
▁́s	-1105
▁For	-1106
oring	-1107
▁engine	-1108
▁synthesis	-1109
old	-1110
ples	-1111
rem	-1112
pose	-1113
atural	-1114
▁space	-1115
ware	-1116
ider	-1117
▁bec	-1118
▁val	-1119
vid	-1120
▁scal	-1121
▁top	-1122
▁dep	-1123
▁very	-1124
tt	-1125
▁mathem	-1126
▁By	-1127
inary	-1128
▁three	-1129
▁param	-1130
▁devices	-1131
▁dom	-1132
izing	-1133
ograph	-1134
▁improve	-1135
▁critical	-1136
ium	-1137
▁ear	-1138
▁app	-1139
▁–	-1140
▁deep	-1141
ty	-1142
▁when	-1143
▁several	-1144
▁collabor	-1145
▁contribut	-1146
▁Ch	-1147
▁Ex	-1148
▁show	-1149
ission	-1150
▁bacter	-1151
▁advanced	-1152
zym	-1153
ements	-1154
▁represent	-1155
▁across	-1156
▁polym	-1157
ne	-1158
irc	-1159
atis	-1160
▁accur	-1161
▁metabol	-1162
▁dr	-1163
urther	-1164
▁metal	-1165
▁;	-1166
▁unique	-1167
▁Bi	-1168
▁mi	-1169
omen	-1170
▁mon	-1171
▁single	-1172
ex	-1173
eng	-1174
▁alge	-1175
▁explore	-1176
ars	-1177
upl	-1178
▁min	-1179
faces	-1180
▁evalu	-1181
jor	-1182
ould	-1183
▁prot	-1184
mosph	-1185
▁util	-1186
raf	-1187
astic	-1188
▁cal	-1189
ok	-1190
▁treat	-1191
gra	-1192
▁inn	-1193
▁caus	-1194
▁four	-1195
▁health	-1196
▁organic	-1197
▁CO	-1198
▁bl	-1199
ising	-1200
▁small	-1201
volution	-1202
▁bet	-1203
▁disco	-1204
▁support	-1205
▁De	-1206
ital	-1207
ern	-1208
▁Sw	-1209
ajor	-1210
otyp	-1211
▁observ	-1212
af	-1213
▁find	-1214
atures	-1215
▁propose	-1216
▁gene	-1217
▁spectro	-1218
usion	-1219
▁radi	-1220
▁enable	-1221
▁target	-1222
▁challenges	-1223
▁networks	-1224
eric	-1225
▁developing	-1226
▁them	-1227
ensive	-1228
▁insights	-1229
▁natural	-1230
▁local	-1231
ired	-1232
plo	-1233
▁life	-1234
fore	-1235
embran	-1236
▁disease	-1237
▁transfer	-1238
▁på	-1239
ekt	-1240
itive	-1241
till	-1242
▁soft	-1243
▁hyp	-1244
eous	-1245
▁stress	-1246
ån	-1247
▁questions	-1248
▁4	-1249
rial	-1250
▁anti	-1251
▁fil	-1252
▁major	-1253
▁cent	-1254
▁direct	-1255
lying	-1256
▁Swed	-1257
▁associ	-1258
ditional	-1259
▁build	-1260
ards	-1261
ories	-1262
▁proposal	-1263
▁indi	-1264
orld	-1265
ung	-1266
duced	-1267
▁exam	-1268
itu	-1269
eration	-1270
▁highly	-1271
esc	-1272
onse	-1273
ength	-1274
▁phenomen	-1275
ored	-1276
▁ful	-1277
▁graph	-1278
▁cyc	-1279
▁neu	-1280
▁Wh	-1281
▁ver	-1282
▁approaches	-1283
▁number	-1284
▁strong	-1285
ande	-1286
▁bio	-1287
ression	-1288
▁various	-1289
tern	-1290
▁spin	-1291
▁fac	-1292
▁neut	-1293
▁tiss	-1294
▁modeling	-1295
▁numer	-1296
▁sustainable	-1297
▁part	-1298
ration	-1299
▁further	-1300
▁chemistry	-1301
▁Re	-1302
ination	-1303
▁algorithms	-1304
cc	-1305
▁known	-1306
▁purpose	-1307
ensity	-1308
▁till	-1309
▁influ	-1310
▁order	-1311
▁behavior	-1312
▁way	-1313
▁regul	-1314
vious	-1315
▁atmosph	-1316
▁conn	-1317
▁range	-1318
ribution	-1319
▁del	-1320
▁functions	-1321
round	-1322
ucial	-1323
▁result	-1324
ll	-1325
ffici	-1326
▁immun	-1327
▁indust	-1328
imensional	-1329
ysis	-1330
▁enab	-1331
▁implement	-1332
▁temperature	-1333
▁gra	-1334
icial	-1335
▁physical	-1336
ock	-1337
time	-1338
▁mat	-1339
inc	-1340
▁related	-1341
▁strategies	-1342
▁Qu	-1343
▁enzym	-1344
to	-1345
▁prob	-1346
▁recent	-1347
▁fr	-1348
▁avail	-1349
▁contin	-1350
vidual	-1351
▁Ne	-1352
▁crucial	-1353
▁fin	-1354
▁ult	-1355
▁found	-1356
▁der	-1357
▁hypoth	-1358
agnos	-1359
▁pers	-1360
ruct	-1361
▁drug	-1362
sequ	-1363
gg	-1364
▁Ad	-1365
▁te	-1366
▁exc	-1367
▁via	-1368
▁dri	-1369
▁ter	-1370
uccess	-1371
ues	-1372
▁some	-1373
fact	-1374
▁extrem	-1375
▁gl	-1376
ze	-1377
con	-1378
▁cancer	-1379
▁individual	-1380
▁if	-1381
asing	-1382
▁while	-1383
▁DNA	-1384
ounds	-1385
▁evolutionary	-1386
▁bas	-1387
ted	-1388
bial	-1389
ctic	-1390
requ	-1391
▁spatial	-1392
▁gap	-1393
ii	-1394
▁lay	-1395
▁host	-1396
tives	-1397
▁possible	-1398
▁generation	-1399
pre	-1400
▁circ	-1401
▁stability	-1402
▁solar	-1403
▁effect	-1404
▁geometry	-1405
orm	-1406
▁efficiency	-1407
▁coupl	-1408
▁20	-1409
idate	-1410
▁end	-1411
oun	-1412
▁bre	-1413
▁bro	-1414
onic	-1415
▁estim	-1416
▁membran	-1417
bra	-1418
▁make	-1419
yt	-1420
▁br	-1421
ploy	-1422
▁better	-1423
ands	-1424
ily	-1425
▁respons	-1426
driven	-1427
▁compon	-1428
▁engineering	-1429
▁determine	-1430
pid	-1431
ode	-1432
▁quantif	-1433
des	-1434
▁success	-1435
▁brain	-1436
put	-1437
▁scale	-1438
▁As	-1439
▁ther	-1440
acy	-1441
▁application	-1442
▁Comp	-1443
▁interest	-1444
▁technologies	-1445
ections	-1446
▁fields	-1447
▁obtain	-1448
▁vis	-1449
▁size	-1450
linear	-1451
isation	-1452
▁previous	-1453
ick	-1454
▁sk	-1455
ping	-1456
▁cryst	-1457
▁biology	-1458
▁mathematical	-1459
▁spectroscopy	-1460
▁clin	-1461
▁conc	-1462
▁what	-1463
▁resist	-1464
ined	-1465
ins	-1466
lig	-1467
▁optical	-1468
▁detail	-1469
In	-1470
▁PhD	-1471
▁ess	-1472
▁activ	-1473
▁invol	-1474
▁often	-1475
▁signal	-1476
▁measurements	-1477
omb	-1478
uter	-1479
▁hist	-1480
▁biological	-1481
▁electronic	-1482
air	-1483
▁sym	-1484
ately	-1485
ots	-1486
▁open	-1487
▁activity	-1488
▁response	-1489
▁tow	-1490
ollow	-1491
▁const	-1492
▁pos	-1493
▁carri	-1494
tificial	-1495
▁processing	-1496
AS	-1497
▁transition	-1498
▁calc	-1499
▁land	-1500
▁still	-1501
▁multiple	-1502
▁poll	-1503
.,	-1504
▁Met	-1505
▁initi	-1506
▁pathw	-1507
onal	-1508
plet	-1509
▁stor	-1510
onduct	-1511
▁program	-1512
▁essential	-1513
ellig	-1514
▁anim	-1515
▁states	-1516
▁statis	-1517
We	-1518
iel	-1519
ough	-1520
▁heter	-1521
▁tissue	-1522
▁quality	-1523
RI	-1524
▁El	-1525
▁emerg	-1526
▁diagnos	-1527
ogn	-1528
roph	-1529
▁gas	-1530
▁pati	-1531
▁science	-1532
▁cost	-1533
▁plat	-1534
▁matter	-1535
▁like	-1536
▁student	-1537
▁existing	-1538
grad	-1539
▁occ	-1540
▁lack	-1541
▁prim	-1542
▁early	-1543
▁factors	-1544
onom	-1545
▁sem	-1546
iding	-1547
▁relevant	-1548
lim	-1549
▁particles	-1550
▁optimization	-1551
year	-1552
▁arch	-1553
▁particle	-1554
▁type	-1555
▁could	-1556
sor	-1557
▁inst	-1558
▁affect	-1559
▁variation	-1560
ytic	-1561
▁detect	-1562
▁contribute	-1563
▁paramet	-1564
▁associated	-1565
▁solutions	-1566
This	-1567
▁world	-1568
▁challenge	-1569
▁treatment	-1570
dis	-1571
▁patter	-1572
ared	-1573
ines	-1574
▁ice	-1575
tiska	-1576
ae	-1577
▁genes	-1578
▁innov	-1579
▁nanop	-1580
▁behaviour	-1581
isms	-1582
▁larg	-1583
ography	-1584
▁plasma	-1585
▁lo	-1586
amm	-1587
ince	-1588
ture	-1589
▁col	-1590
▁appl	-1591
▁relations	-1592
▁combination	-1593
▁numerical	-1594
ole	-1595
▁conf	-1596
▁autom	-1597
▁population	-1598
term	-1599
▁map	-1600
artic	-1601
▁turb	-1602
ochemical	-1603
asc	-1604
▁hel	-1605
▁addi	-1606
▁Des	-1607
▁mechanical	-1608
ered	-1609
▁(2	-1610
read	-1611
▁resour	-1612
▁molecules	-1613
▁vol	-1614
attering	-1615
▁consider	-1616
dimensional	-1617
▁underlying	-1618
▁link	-1619
EM	-1620
▁asp	-1621
crib	-1622
organ	-1623
▁orig	-1624
▁recently	-1625
▁gu	-1626
▁neural	-1627
▁achieve	-1628
▁Ear	-1629
▁enhanc	-1630
▁advance	-1631
▁algebra	-1632
▁limited	-1633
eck	-1634
red	-1635
▁et	-1636
ified	-1637
▁predict	-1638
▁present	-1639
▁obj	-1640
▁Multi	-1641
▁demonstr	-1642
▁available	-1643
▁thus	-1644
endent	-1645
▁follow	-1646
ody	-1647
alled	-1648
▁extend	-1649
▁phenomena	-1650
▁environments	-1651
▁then	-1652
▁detection	-1653
▁increasing	-1654
ify	-1655
oid	-1656
veal	-1657
ulate	-1658
▁solid	-1659
▁correl	-1660
▁higher	-1661
▁dynamic	-1662
▁microscopy	-1663
spec	-1664
reg	-1665
ised	-1666
▁facil	-1667
entific	-1668
▁studied	-1669
akes	-1670
cipl	-1671
▁RNA	-1672
▁ent	-1673
▁tas	-1674
▁risk	-1675
position	-1676
▁conduct	-1677
▁platform	-1678
▁ser	-1679
▁expected	-1680
▁warm	-1681
▁composition	-1682
▁“	-1683
▁broad	-1684
odiversity	-1685
▁communication	-1686
ived	-1687
▁pres	-1688
▁There	-1689
val	-1690
▁Im	-1691
eros	-1692
itet	-1693
▁Gen	-1694
▁frequ	-1695
▁importance	-1696
yond	-1697
ultim	-1698
▁outc	-1699
▁towards	-1700
▁mechanism	-1701
▁simulation	-1702
▁clinical	-1703
iod	-1704
▁bound	-1705
▁beyond	-1706
▁diversity	-1707
kt	-1708
▁plants	-1709
by	-1710
hib	-1711
▁groups	-1712
standing	-1713
cell	-1714
▁food	-1715
▁rapid	-1716
▁reactions	-1717
version	-1718
ygen	-1719
▁batter	-1720
▁common	-1721
opl	-1722
itro	-1723
know	-1724
▁expos	-1725
▁Elect	-1726
▁active	-1727
▁increase	-1728
▁intern	-1729
angu	-1730
▁nature	-1731
chemical	-1732
▁describ	-1733
▁hydrogen	-1734
med	-1735
ience	-1736
▁enhance	-1737
▁liqu	-1738
electric	-1739
hip	-1740
▁gr	-1741
▁applied	-1742
▁transcri	-1743
▁scientific	-1744
inal	-1745
ring	-1746
▁atom	-1747
▁step	-1748
ibility	-1749
▁second	-1750
fficient	-1751
era	-1752
andard	-1753
ference	-1754
▁reveal	-1755
▁robust	-1756
pec	-1757
▁situ	-1758
▁sources	-1759
▁would	-1760
▁Arctic	-1761
▁At	-1762
aves	-1763
ests	-1764
▁mar	-1765
▁density	-1766
tur	-1767
▁types	-1768
uction	-1769
▁monit	-1770
▁improved	-1771
▁resistance	-1772
ynth	-1773
▁feed	-1774
he	-1775
▁employ	-1776
ifically	-1777
▁selection	-1778
eti	-1779
▁Cl	-1780
acts	-1781
▁tox	-1782
▁ground	-1783
▁resolution	-1784
cean	-1785
▁separ	-1786
RNA	-1787
▁loss	-1788
▁prac	-1789
▁modern	-1790
▁include	-1791
▁influence	-1792
▁reli	-1793
certain	-1794
▁Quantum	-1795
▁ability	-1796
▁wind	-1797
brid	-1798
▁storage	-1799
▁underst	-1800
▁reaction	-1801
▁saf	-1802
itect	-1803
poral	-1804
▁computing	-1805
▁adaptation	-1806
▁Pl	-1807
▁ep	-1808
verk	-1809
▁areas	-1810
▁intro	-1811
▁concept	-1812
▁software	-1813
▁hard	-1814
▁virus	-1815
idation	-1816
Ps	-1817
mod	-1818
ndom	-1819
issions	-1820
aterials	-1821
▁Earth	-1822
▁constrain	-1823
▁equations	-1824
▁Sweden	-1825
▁continu	-1826
▁require	-1827
▁components	-1828
agnetic	-1829
▁consequ	-1830
▁parameters	-1831
▁my	-1832
▁soil	-1833
▁conte	-1834
▁diseases	-1835
▁distribution	-1836
known	-1837
▁product	-1838
▁post	-1839
▁generate	-1840
▁hom	-1841
ited	-1842
▁self	-1843
▁laser	-1844
ventional	-1845
ann	-1846
produc	-1847
discipl	-1848
tically	-1849
▁random	-1850
eed	-1851
▁act	-1852
▁scattering	-1853
ient	-1854
▁Rec	-1855
ances	-1856
▁create	-1857
▁compounds	-1858
▁populations	-1859
igg	-1860
▁significantly	-1861
▁vi	-1862
verg	-1863
ining	-1864
▁star	-1865
▁prote	-1866
raction	-1867
▁discover	-1868
AR	-1869
iven	-1870
▁Res	-1871
▁help	-1872
▁turbul	-1873
▁thermal	-1874
▁cellular	-1875
itt	-1876
olds	-1877
otop	-1878
▁Con	-1879
abric	-1880
▁fast	-1881
▁genome	-1882
▁quantify	-1883
▁understood	-1884
▁collaboration	-1885
cep	-1886
▁ast	-1887
erved	-1888
▁J	-1889
back	-1890
encing	-1891
▁ecosystems	-1892
disciplinary	-1893
epti	-1894
▁much	-1895
lear	-1896
pite	-1897
ream	-1898
▁cer	-1899
▁hos	-1900
orous	-1901
ysics	-1902
▁access	-1903
1)	-1904
ler	-1905
ield	-1906
ially	-1907
▁great	-1908
▁ens	-1909
iting	-1910
ningar	-1911
▁ecological	-1912
na	-1913
▁prof	-1914
▁bacteria	-1915
lt	-1916
▁microbial	-1917
▁z	-1918
sing	-1919
▁biodiversity	-1920
ned	-1921
▁tog	-1922
▁neuro	-1923
▁leading	-1924
ella	-1925
▁poor	-1926
▁prin	-1927
ogenic	-1928
▁nuclear	-1929
olecular	-1930
▁membrane	-1931
ery	-1932
ära	-1933
fter	-1934
▁mut	-1935
idence	-1936
scopic	-1937
▁together	-1938
▁uncertain	-1939
▁apply	-1940
▁intellig	-1941
▁combining	-1942
▁community	-1943
utri	-1944
▁soci	-1945
▁remains	-1946
▁With	-1947
▁heat	-1948
itation	-1949
structure	-1950
▁combined	-1951
▁observations	-1952
än	-1953
▁lip	-1954
▁allo	-1955
▁Inter	-1956
▁consist	-1957
▁catalyst	-1958
nings	-1959
▁bind	-1960
igital	-1961
odynam	-1962
▁complet	-1963
▁computer	-1964
▁transform	-1965
▁train	-1966
▁remain	-1967
ires	-1968
▁deli	-1969
▁even	-1970
▁concer	-1971
▁search	-1972
ilic	-1973
▁solution	-1974
less	-1975
för	-1976
ibr	-1977
▁play	-1978
▁langu	-1979
▁press	-1980
▁elements	-1981
▁promising	-1982
igen	-1983
▁charge	-1984
▁central	-1985
▁polymer	-1986
be	-1987
▁needed	-1988
▁plastic	-1989
▁statistical	-1990
änd	-1991
▁tun	-1992
atics	-1993
▁able	-1994
▁disc	-1995
▁next	-1996
▁scales	-1997
▁surfaces	-1998
▁architect	-1999
aw	-2000
func	-2001
▁making	-2002
▁region	-2003
▁pathways	-2004
▁providing	-2005
▁Co	-2006
▁Model	-2007
▁diffic	-2008
▁artificial	-2009
ries	-2010
econd	-2011
▁High	-2012
ontrol	-2013
rix	-2014
itions	-2015
▁source	-2016
▁facilit	-2017
ense	-2018
▁without	-2019
▁ve	-2020
ters	-2021
tial	-2022
▁past	-2023
▁same	-2024
▁since	-2025
▁accurate	-2026
▁Here	-2027
tively	-2028
▁sensing	-2029
abilities	-2030
-2	-2031
ract	-2032
▁Fin	-2033
hy	-2034
▁yet	-2035
▁shif	-2036
▁regulation	-2037
▁Trans	-2038
▁interact	-2039
▁relationship	-2040
reh	-2041
iter	-2042
▁mac	-2043
▁transm	-2044
ätt	-2045
▁Nan	-2046
▁hand	-2047
▁thin	-2048
▁recept	-2049
▁analyses	-2050
plications	-2051
DE	-2052
elf	-2053
ikro	-2054
like	-2055
▁air	-2056
▁som	-2057
▁ut	-2058
ause	-2059
▁bene	-2060
▁levels	-2061
▁responses	-2062
ount	-2063
▁events	-2064
▁building	-2065
▁enabling	-2066
bed	-2067
day	-2068
▁Car	-2069
▁morph	-2070
electron	-2071
▁neutron	-2072
▁patterns	-2073
▁phenotyp	-2074
▁complexity	-2075
▁bel	-2076
▁offer	-2077
▁point	-2078
▁marine	-2079
▁lab	-2080
▁physi	-2081
ependent	-2082
▁adaptive	-2083
▁emissions	-2084
▁challenging	-2085
ka	-2086
▁innovative	-2087
▁Op	-2088
▁vä	-2089
over	-2090
▁far	-2091
other	-2092
ufact	-2093
▁ions	-2094
▁green	-2095
▁atomic	-2096
therm	-2097
▁each	-2098
ochastic	-2099
▁warming	-2100
▁methodology	-2101
ner	-2102
oint	-2103
ually	-2104
▁benef	-2105
▁nonlinear	-2106
rical	-2107
▁gain	-2108
▁wave	-2109
▁wide	-2110
▁fluid	-2111
▁short	-2112
äm	-2113
tor	-2114
rees	-2115
erative	-2116
▁domain	-2117
▁period	-2118
▁currently	-2119
▁ide	-2120
▁nec	-2121
aneous	-2122
▁successful	-2123
▁dam	-2124
▁full	-2125
▁degrad	-2126
▁oxygen	-2127
▁combine	-2128
unk	-2129
ute	-2130
bras	-2131
▁any	-2132
▁back	-2133
ulose	-2134
▁unknown	-2135
ysical	-2136
ason	-2137
iation	-2138
▁impacts	-2139
▁interpre	-2140
▁question	-2141
▁integrated	-2142
▁consequences	-2143
den	-2144
ossil	-2145
ulated	-2146
induced	-2147
▁assemb	-2148
▁become	-2149
▁explain	-2150
▁effective	-2151
▁polar	-2152
▁compar	-2153
▁origin	-2154
▁history	-2155
ER	-2156
ule	-2157
ellar	-2158
ostruct	-2159
atically	-2160
specific	-2161
▁increased	-2162
apeu	-2163
eral	-2164
ilar	-2165
▁202	-2166
▁Dynam	-2167
▁depend	-2168
▁concent	-2169
▁reproduc	-2170
▁bacterial	-2171
▁difficult	-2172
▁technique	-2173
play	-2174
▁blo	-2175
▁iss	-2176
jects	-2177
▁area	-2178
▁stable	-2179
▁electric	-2180
bar	-2181
▁was	-2182
ather	-2183
▁eluc	-2184
▁aspects	-2185
▁biomass	-2186
▁carried	-2187
▁quantit	-2188
▁theories	-2189
▁expression	-2190
▁capac	-2191
äk	-2192
ata	-2193
▁Sc	-2194
▁rate	-2195
▁team	-2196
▁Micro	-2197
▁nutri	-2198
▁subst	-2199
▁samples	-2200
▁features	-2201
tise	-2202
▁free	-2203
▁Under	-2204
▁fabric	-2205
▁hybrid	-2206
▁context	-2207
▁Or	-2208
▁sch	-2209
icity	-2210
romet	-2211
▁flux	-2212
▁nano	-2213
▁rates	-2214
▁optimal	-2215
▁produce	-2216
▁whether	-2217
olar	-2218
▁One	-2219
ching	-2220
▁minim	-2221
▁radiation	-2222
▁atmospheric	-2223
ange	-2224
▁lat	-2225
verse	-2226
▁diss	-2227
▁tail	-2228
itable	-2229
▁device	-2230
▁necess	-2231
sw	-2232
line	-2233
▁pri	-2234
▁från	-2235
▁shown	-2236
▁compreh	-2237
▁manufact	-2238
sm	-2239
xim	-2240
edim	-2241
vent	-2242
▁immune	-2243
ributions	-2244
com	-2245
▁kine	-2246
aboratory	-2247
▁electroly	-2248
SC	-2249
pers	-2250
▁Spec	-2251
▁last	-2252
▁incor	-2253
▁detailed	-2254
erc	-2255
▁fu	-2256
ouse	-2257
tice	-2258
▁pul	-2259
agement	-2260
▁liquid	-2261
▁element	-2262
▁expertise	-2263
▁University	-2264
go	-2265
▁mot	-2266
water	-2267
▁near	-2268
▁explo	-2269
▁reduce	-2270
▁targets	-2271
▁discovery	-2272
not	-2273
▁"	-2274
own	-2275
alax	-2276
▁enc	-2277
erosol	-2278
▁among	-2279
▁being	-2280
▁reson	-2281
▁magnet	-2282
▁regions	-2283
▁therefore	-2284
▁nanopartic	-2285
ES	-2286
ead	-2287
▁animal	-2288
▁consum	-2289
▁directly	-2290
▁hypothesis	-2291
▁identified	-2292
MR	-2293
tik	-2294
▁strength	-2295
▁construct	-2296
▁experiment	-2297
tes	-2298
▁pe	-2299
▁Lear	-2300
▁occur	-2301
▁reach	-2302
▁predictions	-2303
▁soc	-2304
▁made	-2305
▁involved	-2306
▁mechanistic	-2307
▁traditional	-2308
3)	-2309
ivo	-2310
osc	-2311
ote	-2312
▁mix	-2313
▁calculations	-2314
▁conventional	-2315
ime	-2316
itr	-2317
rot	-2318
ends	-2319
medi	-2320
▁now	-2321
▁acid	-2322
▁case	-2323
▁term	-2324
▁Using	-2325
▁evaluate	-2326
lic	-2327
▁given	-2328
▁testing	-2329
▁designed	-2330
▁prediction	-2331
apy	-2332
row	-2333
prec	-2334
▁fam	-2335
▁red	-2336
▁flex	-2337
▁fluor	-2338
escence	-2339
▁genomic	-2340
▁microbi	-2341
▁studying	-2342
ya	-2343
land	-2344
▁Anal	-2345
▁absor	-2346
▁datas	-2347
▁particularly	-2348
▁Non	-2349
ggest	-2350
orphic	-2351
▁again	-2352
▁lever	-2353
▁terms	-2354
▁suggest	-2355
▁Learning	-2356
dom	-2357
▁1)	-2358
oding	-2359
▁pack	-2360
▁pepti	-2361
▁altern	-2362
▁should	-2363
▁findings	-2364
▁monitoring	-2365
MS	-2366
▁ed	-2367
▁er	-2368
eler	-2369
ores	-2370
umin	-2371
▁fib	-2372
▁gly	-2373
▁certain	-2374
▁incorpor	-2375
▁patients	-2376
AT	-2377
OC	-2378
urop	-2379
▁More	-2380
▁around	-2381
iconduct	-2382
AI	-2383
ät	-2384
pir	-2385
ciples	-2386
▁forest	-2387
▁traits	-2388
▁motion	-2389
▁overall	-2390
▁required	-2391
pr	-2392
oud	-2393
▁bar	-2394
▁tum	-2395
▁cycle	-2396
ributed	-2397
▁addition	-2398
▁applicant	-2399
▁sl	-2400
greg	-2401
allel	-2402
▁genom	-2403
▁heterogen	-2404
▁conversion	-2405
▁communities	-2406
▁&	-2407
get	-2408
▁mus	-2409
▁run	-2410
▁ocean	-2411
▁symmet	-2412
▁example	-2413
äl	-2414
▁few	-2415
uktur	-2416
▁cloud	-2417
▁photo	-2418
▁allows	-2419
▁humans	-2420
▁capture	-2421
▁requires	-2422
▁topological	-2423
▁2)	-2424
▁fer	-2425
hibit	-2426
▁coun	-2427
▁mill	-2428
▁clust	-2429
ellular	-2430
▁Develop	-2431
▁differential	-2432
▁tel	-2433
▁fish	-2434
▁impl	-2435
▁hyper	-2436
▁tasks	-2437
itivity	-2438
▁called	-2439
pecially	-2440
▁Climate	-2441
▁organisms	-2442
▁industrial	-2443
ala	-2444
▁Hy	-2445
rast	-2446
tioner	-2447
▁fossil	-2448
▁screen	-2449
▁transl	-2450
▁against	-2451
▁extreme	-2452
▁introduc	-2453
▁complement	-2454
▁researchers	-2455
ably	-2456
veck	-2457
▁off	-2458
level	-2459
▁stars	-2460
▁recogn	-2461
▁visual	-2462
▁ecology	-2463
▁interpret	-2464
equ	-2465
▁sal	-2466
inter	-2467
▁System	-2468
▁compared	-2469
▁feedback	-2470
▁atmosphere	-2471
ask	-2472
▁Fl	-2473
ival	-2474
▁basis	-2475
▁Machine	-2476
▁because	-2477
▁standard	-2478
igur	-2479
uper	-2480
▁(2)	-2481
▁films	-2482
▁antibi	-2483
▁matrix	-2484
▁however	-2485
▁emission	-2486
▁performed	-2487
▁controlled	-2488
▁especially	-2489
▁interfaces	-2490
rag	-2491
aste	-2492
▁fung	-2493
▁formal	-2494
▁coupling	-2495
▁frequency	-2496
▁pub	-2497
▁core	-2498
▁blood	-2499
▁primary	-2500
▁accuracy	-2501
▁products	-2502
▁stochastic	-2503
▁sw	-2504
▁(1)	-2505
▁give	-2506
▁While	-2507
▁chrom	-2508
▁parad	-2509
▁sedim	-2510
▁sequencing	-2511
▁spaces	-2512
▁Finally	-2513
▁enzymes	-2514
▁progress	-2515
▁resources	-2516
▁potentially	-2517
erade	-2518
active	-2519
▁Europ	-2520
▁infra	-2521
▁coupled	-2522
▁resulting	-2523
ekan	-2524
orts	-2525
change	-2526
istics	-2527
▁isotop	-2528
▁Despite	-2529
▁similar	-2530
▁observed	-2531
ening	-2532
▁break	-2533
▁image	-2534
▁macro	-2535
ynthesis	-2536
▁setting	-2537
▁investigated	-2538
▁om	-2539
dens	-2540
▁New	-2541
▁aqu	-2542
▁prop	-2543
▁today	-2544
▁landsc	-2545
order	-2546
herent	-2547
▁after	-2548
▁manip	-2549
▁Swedish	-2550
▁medical	-2551
▁integration	-2552
ET	-2553
HC	-2554
▁den	-2555
ented	-2556
pling	-2557
▁strain	-2558
▁laboratory	-2559
IC	-2560
ras	-2561
oder	-2562
▁bur	-2563
▁har	-2564
▁ref	-2565
▁load	-2566
▁advant	-2567
▁special	-2568
▁hypothes	-2569
ång	-2570
▁neur	-2571
▁management	-2572
▁quantitative	-2573
olve	-2574
tiva	-2575
▁sex	-2576
baser	-2577
ready	-2578
▁body	-2579
urtherm	-2580
▁alloys	-2581
urthermore	-2582
▁synthetic	-2583
▁established	-2584
▁x	-2585
ane	-2586
▁mov	-2587
▁take	-2588
▁univers	-2589
▁suitable	-2590
▁previously	-2591
▁degradation	-2592
▁electrochemical	-2593
ta	-2594
▁categ	-2595
▁oxide	-2596
▁those	-2597
▁waves	-2598
ulating	-2599
▁analyze	-2600
▁language	-2601
▁therapeu	-2602
resolution	-2603
▁generated	-2604
▁comprehensive	-2605
▁representations	-2606
fac	-2607
stå	-2608
ury	-2609
▁mem	-2610
▁perm	-2611
▁indic	-2612
▁mitig	-2613
▁finite	-2614
▁metabolism	-2615
resp	-2616
rins	-2617
ither	-2618
iving	-2619
▁less	-2620
ylogen	-2621
▁ultim	-2622
▁aerosol	-2623
▁powerful	-2624
▁catalytic	-2625
amin	-2626
ocks	-2627
rete	-2628
▁age	-2629
▁hal	-2630
portun	-2631
▁expand	-2632
▁digital	-2633
▁capacity	-2634
▁pressure	-2635
▁semiconduct	-2636
ög	-2637
odes	-2638
▁answ	-2639
▁fully	-2640
▁ultra	-2641
▁Struct	-2642
▁exposure	-2643
▁opportun	-2644
▁provides	-2645
▁classical	-2646
▁characterize	-2647
ope	-2648
iral	-2649
wide	-2650
▁beam	-2651
▁means	-2652
▁Protein	-2653
▁binding	-2654
evolution	-2655
ultaneous	-2656
▁decision	-2657
▁outcomes	-2658
▁integrating	-2659
hic	-2660
lär	-2661
tem	-2662
ided	-2663
▁sea	-2664
▁line	-2665
▁poly	-2666
isions	-2667
▁reason	-2668
Hz	-2669
ded	-2670
ocal	-2671
▁cand	-2672
▁lign	-2673
arkers	-2674
▁cross	-2675
▁galax	-2676
rometry	-2677
▁Europe	-2678
▁damage	-2679
▁metall	-2680
▁metabolic	-2681
▁implications	-2682
hes	-2683
ior	-2684
▁strategy	-2685
▁sensitivity	-2686
olek	-2687
ovsk	-2688
rest	-2689
▁rad	-2690
cover	-2691
▁valu	-2692
▁elekt	-2693
through	-2694
▁sample	-2695
▁training	-2696
itud	-2697
trans	-2698
bility	-2699
olekyl	-2700
▁shape	-2701
▁safety	-2702
▁algebras	-2703
▁evidence	-2704
▁elucidate	-2705
cl	-2706
▁PI	-2707
dynam	-2708
enari	-2709
▁vivo	-2710
▁wall	-2711
atively	-2712
▁poorly	-2713
▁superc	-2714
▁programm	-2715
▁manufacturing	-2716
ced	-2717
ector	-2718
▁isol	-2719
▁along	-2720
▁resil	-2721
▁phases	-2722
ectively	-2723
▁already	-2724
▁thereby	-2725
oelectric	-2726
▁industry	-2727
gl	-2728
▁vary	-2729
▁alter	-2730
▁medic	-2731
ectives	-2732
▁temporal	-2733
▁continuous	-2734
tebr	-2735
▁must	-2736
ervation	-2737
▁diverse	-2738
▁largely	-2739
▁separation	-2740
▁5	-2741
atur	-2742
free	-2743
wave	-2744
ogens	-2745
▁wild	-2746
▁noise	-2747
osphere	-2748
▁descri	-2749
▁dynamical	-2750
To	-2751
pp	-2752
▁Y	-2753
▁cry	-2754
▁rest	-2755
▁ionic	-2756
▁social	-2757
ectivity	-2758
▁contain	-2759
ductivity	-2760
▁diffusion	-2761
osm	-2762
▁gam	-2763
▁biof	-2764
▁clos	-2765
▁goals	-2766
▁linear	-2767
▁paradig	-2768
▁necessary	-2769
);	-2770
ats	-2771
▁band	-2772
▁buil	-2773
onomous	-2774
▁planet	-2775
▁stream	-2776
veckling	-2777
▁scenari	-2778
▁includes	-2779
▁transmission	-2780
ck	-2781
kal	-2782
▁Int	-2783
scill	-2784
▁lipid	-2785
ascular	-2786
oration	-2787
▁fusion	-2788
▁metals	-2789
▁society	-2790
efficient	-2791
▁electrical	-2792
▁architecture	-2793
▁international	-2794
jär	-2795
rup	-2796
otics	-2797
ymmet	-2798
▁enti	-2799
▁flows	-2800
▁domains	-2801
▁spectral	-2802
▁precision	-2803
▁plasticity	-2804
CT	-2805
▁Nor	-2806
▁cut	-2807
▁surv	-2808
▁contact	-2809
▁principles	-2810
▁intelligence	-2811
As	-2812
ero	-2813
urity	-2814
▁gover	-2815
▁acceler	-2816
▁facilitate	-2817
▁done	-2818
▁recon	-2819
▁classes	-2820
▁constit	-2821
▁obtained	-2822
▁algebraic	-2823
FT	-2824
▁Z	-2825
urg	-2826
▁grav	-2827
▁view	-2828
▁cases	-2829
▁layer	-2830
▁silic	-2831
organic	-2832
related	-2833
▁factor	-2834
▁objects	-2835
▁advances	-2836
▁emerging	-2837
generation	-2838
▁catalysts	-2839
▁electronics	-2840
▁specifically	-2841
▁identification	-2842
ylo	-2843
ward	-2844
▁bal	-2845
▁here	-2846
▁circu	-2847
▁trees	-2848
isering	-2849
▁layers	-2850
▁photon	-2851
▁polymers	-2852
▁Furthermore	-2853
▁capabilities	-2854
ev	-2855
vä	-2856
anal	-2857
ises	-2858
aries	-2859
▁Phot	-2860
▁Such	-2861
▁refl	-2862
▁parts	-2863
▁driven	-2864
▁substr	-2865
▁contrast	-2866
▁objective	-2867
II	-2868
NN	-2869
ror	-2870
ump	-2871
äns	-2872
▁cur	-2873
▁ren	-2874
osens	-2875
ravel	-2876
itting	-2877
▁abund	-2878
▁Comput	-2879
▁efforts	-2880
▁patient	-2881
▁parallel	-2882
▁presence	-2883
▁reduction	-2884
▁deposition	-2885
▁characteristics	-2886
▁mel	-2887
▁nor	-2888
▁tur	-2889
▁inform	-2890
▁regard	-2891
▁approxim	-2892
▁objectives	-2893
▁simultaneous	-2894
tis	-2895
▁Ut	-2896
ynom	-2897
oplan	-2898
▁down	-2899
▁boundary	-2900
▁geometric	-2901
etal	-2902
perim	-2903
state	-2904
ukary	-2905
▁fail	-2906
ocatal	-2907
▁schem	-2908
▁valid	-2909
▁mainly	-2910
▁regulatory	-2911
▁nanoparticles	-2912
IS	-2913
olym	-2914
turb	-2915
▁hab	-2916
inity	-2917
▁Thus	-2918
▁does	-2919
▁synch	-2920
▁track	-2921
▁sensor	-2922
▁practical	-2923
▁foundation	-2924
man	-2925
ols	-2926
▁Expl	-2927
▁glyc	-2928
▁aggreg	-2929
▁condens	-2930
▁extensive	-2931
OS	-2932
▁mes	-2933
ables	-2934
▁direc	-2935
▁energ	-2936
▁length	-2937
▁precise	-2938
▁crystall	-2939
▁enhanced	-2940
▁turbulent	-2941
▁individuals	-2942
▁variability	-2943
▁temperatures	-2944
ove	-2945
itoch	-2946
▁tree	-2947
igning	-2948
▁behind	-2949
▁induced	-2950
▁interface	-2951
▁Understanding	-2952
AM	-2953
PC	-2954
ott	-2955
anced	-2956
eness	-2957
▁brid	-2958
though	-2959
▁barri	-2960
ilities	-2961
itochond	-2962
▁animals	-2963
▁parameter	-2964
▁sensitive	-2965
▁activation	-2966
▁limitations	-2967
-1	-2968
ori	-2969
erad	-2970
limat	-2971
▁enzyme	-2972
▁record	-2973
▁produced	-2974
▁catalysis	-2975
ostructures	-2976
dr	-2977
oge	-2978
▁Ge	-2979
asis	-2980
king	-2981
▁För	-2982
▁hol	-2983
esian	-2984
going	-2985
▁were	-2986
▁gradi	-2987
▁instr	-2988
ationer	-2989
▁invari	-2990
▁achieved	-2991
▁resource	-2992
▁constraints	-2993
▁uncertainty	-2994
▁ö	-2995
ints	-2996
rolog	-2997
ronic	-2998
▁reliable	-2999
▁Molecular	-3000
▁complexes	-3001
iph	-3002
▁Se	-3003
atom	-3004
▁stim	-3005
elling	-3006
▁manif	-3007
unktion	-3008
▁Evolution	-3009
▁conducted	-3010
▁analytical	-3011
▁considered	-3012
▁3)	-3013
ades	-3014
cent	-3015
ulture	-3016
lärning	-3017
▁limits	-3018
▁reconstr	-3019
▁implementation	-3020
▁rig	-3021
▁vid	-3022
inated	-3023
▁analyz	-3024
▁insight	-3025
OM	-3026
rich	-3027
ittle	-3028
▁comm	-3029
rophic	-3030
▁proof	-3031
▁robots	-3032
resolved	-3033
▁batteries	-3034
lay	-3035
omal	-3036
▁lik	-3037
▁vers	-3038
encies	-3039
▁forms	-3040
tention	-3041
▁coating	-3042
▁utilize	-3043
▁cellulose	-3044
▁spectrometry	-3045
▁technological	-3046
▁Data	-3047
▁seek	-3048
▁Organ	-3049
▁embed	-3050
▁solve	-3051
ayesian	-3052
itrogen	-3053
▁sensors	-3054
▁signals	-3055
▁variety	-3056
▁genomics	-3057
▁mechanics	-3058
▁discovered	-3059
ste	-3060
uge	-3061
resh	-3062
situ	-3063
▁Ult	-3064
eding	-3065
oreal	-3066
▁They	-3067
▁serv	-3068
▁Green	-3069
▁cause	-3070
▁input	-3071
▁formed	-3072
▁series	-3073
▁unprec	-3074
▁vision	-3075
▁polynom	-3076
▁release	-3077
▁maintain	-3078
▁thermodynam	-3079
ED	-3080
off	-3081
mark	-3082
osis	-3083
▁mul	-3084
▁acqu	-3085
▁constr	-3086
▁substan	-3087
echanical	-3088
▁delivery	-3089
▁describe	-3090
▁unpreced	-3091
▁improving	-3092
▁physiological	-3093
lar	-3094
ibri	-3095
▁Deep	-3096
ecting	-3097
▁cover	-3098
▁lower	-3099
▁profil	-3100
▁battery	-3101
▁focusing	-3102
▁phylogen	-3103
att	-3104
doc	-3105
rum	-3106
odal	-3107
ones	-3108
rics	-3109
▁bir	-3110
ometry	-3111
▁chann	-3112
▁mikro	-3113
▁pharm	-3114
▁changing	-3115
▁relationships	-3116
ön	-3117
000	-3118
▁No	-3119
ropy	-3120
akter	-3121
aving	-3122
▁glass	-3123
▁habit	-3124
▁eukary	-3125
ographic	-3126
▁capable	-3127
▁Bayesian	-3128
▁exchange	-3129
▁evaluation	-3130
bs	-3131
da	-3132
▁Fe	-3133
▁lig	-3134
▁mig	-3135
aling	-3136
▁unex	-3137
▁close	-3138
▁roles	-3139
▁expect	-3140
dependent	-3141
▁sequence	-3142
▁infection	-3143
▁inference	-3144
▁interplay	-3145
▁activities	-3146
▁assessment	-3147
▁transcript	-3148
FAS	-3149
bild	-3150
uctu	-3151
infor	-3152
▁repl	-3153
▁wood	-3154
ewable	-3155
▁basic	-3156
▁black	-3157
▁focuses	-3158
▁following	-3159
▁investigation	-3160
house	-3161
▁carb	-3162
rinsic	-3163
protein	-3164
▁memory	-3165
▁crystal	-3166
▁graphene	-3167
▁oxidation	-3168
▁unprecedented	-3169
▁code	-3170
▁regen	-3171
▁allowing	-3172
▁paradigm	-3173
▁landscape	-3174
▁screening	-3175
aceu	-3176
▁ret	-3177
ologi	-3178
ompos	-3179
▁stabil	-3180
▁Network	-3181
▁correct	-3182
▁Moreover	-3183
romagnetic	-3184
▁selective	-3185
▁diagnostics	-3186
02	-3187
▁(3)	-3188
▁fill	-3189
▁Large	-3190
▁Theory	-3191
▁entire	-3192
ogenesis	-3193
restrial	-3194
▁scenarios	-3195
▁investigations	-3196
ales	-3197
ontin	-3198
▁best	-3199
▁heav	-3200
rotron	-3201
▁sites	-3202
▁viral	-3203
▁oscill	-3204
▁threat	-3205
▁forests	-3206
▁instrum	-3207
▁scalable	-3208
▁differenti	-3209
▁distributed	-3210
▁therapeutic	-3211
sh	-3212
bre	-3213
hod	-3214
▁Man	-3215
oscale	-3216
oustic	-3217
tering	-3218
ustion	-3219
▁possib	-3220
▁useful	-3221
▁cutting	-3222
▁algorithm	-3223
▁signaling	-3224
▁infections	-3225
▁predictive	-3226
▁transitions	-3227
0%	-3228
AC	-3229
sis	-3230
▁dop	-3231
▁eas	-3232
▁ett	-3233
▁trop	-3234
▁persp	-3235
▁probe	-3236
▁waste	-3237
▁fluxes	-3238
▁linked	-3239
▁propag	-3240
▁derived	-3241
▁complete	-3242
ix	-3243
erge	-3244
flow	-3245
ists	-3246
ektiv	-3247
oxide	-3248
energy	-3249
omplex	-3250
▁drugs	-3251
▁times	-3252
▁creating	-3253
▁involves	-3254
▁strongly	-3255
▁mathematics	-3256
SP	-3257
ives	-3258
▁Dec	-3259
▁deg	-3260
atile	-3261
thern	-3262
ilibri	-3263
onding	-3264
urface	-3265
▁induc	-3266
▁makes	-3267
▁smart	-3268
▁targeted	-3269
▁alternative	-3270
▁experimentally	-3271
ös	-3272
ulf	-3273
yloid	-3274
▁bone	-3275
▁fuel	-3276
▁pair	-3277
ground	-3278
▁react	-3279
▁cannot	-3280
▁simple	-3281
▁corresp	-3282
▁enables	-3283
▁addresses	-3284
▁polynomial	-3285
▁identifying	-3286
AL	-3287
NS	-3288
irus	-3289
ryst	-3290
▁Aut	-3291
▁Mon	-3292
▁ang	-3293
ellan	-3294
▁ways	-3295
atives	-3296
▁concentr	-3297
▁medicine	-3298
ochemistry	-3299
▁Therefore	-3300
▁controlling	-3301
▁conservation	-3302
åll	-3303
▁AT	-3304
▁upon	-3305
▁either	-3306
▁ensure	-3307
vergence	-3308
▁neutrin	-3309
▁outcome	-3310
▁chemicals	-3311
▁extremely	-3312
▁pathogens	-3313
▁demonstrate	-3314
▁Sh	-3315
ommun	-3316
▁vehic	-3317
▁Design	-3318
▁lignin	-3319
▁uncover	-3320
▁CH	-3321
▁ir	-3322
ptake	-3323
▁bioge	-3324
▁trigg	-3325
▁magneti	-3326
▁reduced	-3327
▁synthes	-3328
▁singular	-3329
▁Ap	-3330
▁cy	-3331
atch	-3332
▁fit	-3333
▁oxid	-3334
▁want	-3335
▁appear	-3336
▁porous	-3337
▁viruses	-3338
▁combines	-3339
▁resilience	-3340
▁characterized	-3341
AD	-3342
Ms	-3343
acc	-3344
iff	-3345
▁Eff	-3346
▁led	-3347
ormal	-3348
▁task	-3349
modell	-3350
▁Optim	-3351
▁coord	-3352
electro	-3353
▁extens	-3354
▁growing	-3355
▁targeting	-3356
▁sustainability	-3357
yr	-3358
äll	-3359
▁ML	-3360
ysik	-3361
arily	-3362
ecast	-3363
▁care	-3364
▁cogn	-3365
▁rare	-3366
▁text	-3367
▁nanoc	-3368
▁vitro	-3369
▁fluctu	-3370
▁mellan	-3371
aktioner	-3372
▁Electro	-3373
▁extended	-3374
▁autonomous	-3375
▁verification	-3376
▁methodologies	-3377
asi	-3378
omer	-3379
utes	-3380
ternal	-3381
▁shift	-3382
▁speed	-3383
▁before	-3384
igenetic	-3385
▁Experim	-3386
▁examine	-3387
2,	-3388
CO	-3389
juk	-3390
tud	-3391
body	-3392
izes	-3393
▁Det	-3394
enska	-3395
▁mach	-3396
▁musc	-3397
▁turn	-3398
inform	-3399
olving	-3400
rafast	-3401
▁uptake	-3402
▁assembly	-3403
▁tailored	-3404
▁operators	-3405
ativ	-3406
ured	-3407
▁Att	-3408
▁bul	-3409
fluid	-3410
▁gaps	-3411
▁hear	-3412
▁weak	-3413
urrent	-3414
▁empir	-3415
▁volum	-3416
▁perovsk	-3417
aceutical	-3418
echnology	-3419
▁realistic	-3420
▁regarding	-3421
▁biochemical	-3422
▁investigating	-3423
Vs	-3424
aps	-3425
mer	-3426
oton	-3427
rang	-3428
▁Coll	-3429
▁Func	-3430
▁dust	-3431
zation	-3432
▁event	-3433
▁needs	-3434
▁whole	-3435
▁graphs	-3436
▁issues	-3437
▁internal	-3438
▁receptor	-3439
▁Specifically	-3440
Fs	-3441
▁6	-3442
ink	-3443
orem	-3444
▁her	-3445
onomy	-3446
▁mamm	-3447
▁stem	-3448
▁redox	-3449
▁demand	-3450
▁affected	-3451
▁relation	-3452
▁integrate	-3453
bol	-3454
jäl	-3455
ione	-3456
raft	-3457
ying	-3458
▁analog	-3459
▁spread	-3460
acterial	-3461
▁conject	-3462
▁planned	-3463
▁therapy	-3464
▁advantage	-3465
▁absorption	-3466
▁estimation	-3467
▁revolution	-3468
▁demonstrated	-3469
öd	-3470
▁ol	-3471
arch	-3472
▁dark	-3473
▁mean	-3474
onomic	-3475
plicit	-3476
▁accum	-3477
process	-3478
▁larger	-3479
▁driving	-3480
▁extract	-3481
▁measures	-3482
▁survival	-3483
▁mitochond	-3484
▁receptors	-3485
▁combinator	-3486
▁Ga	-3487
emic	-3488
otype	-3489
▁cardi	-3490
▁intend	-3491
▁klimat	-3492
▁distinc	-3493
riv	-3494
▁Di	-3495
ious	-3496
▁cyt	-3497
asive	-3498
▁shap	-3499
▁boreal	-3500
▁causes	-3501
inlärning	-3502
▁sampling	-3503
ditionally	-3504
▁involving	-3505
▁pollution	-3506
EC	-3507
OR	-3508
▁AM	-3509
▁My	-3510
east	-3511
kton	-3512
rams	-3513
▁ben	-3514
▁she	-3515
cient	-3516
tegra	-3517
▁ampl	-3518
esting	-3519
▁atoms	-3520
▁exact	-3521
▁little	-3522
ilibrium	-3523
perature	-3524
▁initial	-3525
▁nitrogen	-3526
▁operation	-3527
▁renewable	-3528
▁morphology	-3529
▁Development	-3530
▁superconduct	-3531
▁representation	-3532
gu	-3533
▁cho	-3534
▁hög	-3535
▁What	-3536
▁wear	-3537
▁affects	-3538
ultimodal	-3539
▁external	-3540
▁reactive	-3541
osynthesis	-3542
▁addressing	-3543
ML	-3544
wn	-3545
åg	-3546
prin	-3547
▁NMR	-3548
▁supp	-3549
vision	-3550
▁bioph	-3551
▁clear	-3552
ireless	-3553
▁Energy	-3554
▁answer	-3555
▁conver	-3556
▁prelim	-3557
▁mapping	-3558
▁attention	-3559
▁phenotypic	-3560
ilj	-3561
rim	-3562
▁tom	-3563
isted	-3564
ively	-3565
▁Spect	-3566
▁datab	-3567
ekanism	-3568
▁neurom	-3569
▁proced	-3570
▁dispers	-3571
▁ongoing	-3572
▁postdoc	-3573
▁rapidly	-3574
▁restric	-3575
▁hardware	-3576
▁description	-3577
uli	-3578
▁Ac	-3579
▁Am	-3580
▁Hg	-3581
▁Ri	-3582
▁Ext	-3583
▁Pre	-3584
▁dur	-3585
▁toler	-3586
bildning	-3587
getation	-3588
▁defects	-3589
▁deliver	-3590
▁equation	-3591
▁packages	-3592
▁electrode	-3593
iC	-3594
we	-3595
typ	-3596
▁4-	-3597
▁Bal	-3598
▁Par	-3599
▁Per	-3600
▁crop	-3601
▁frag	-3602
▁rely	-3603
osomes	-3604
▁biofil	-3605
▁family	-3606
▁tested	-3607
▁account	-3608
▁solving	-3609
plication	-3610
▁galaxies	-3611
▁nutrient	-3612
racellular	-3613
▁preliminary	-3614
▁construction	-3615
EL	-3616
SA	-3617
▁He	-3618
▁mic	-3619
▁mixt	-3620
▁tack	-3621
assemb	-3622
perform	-3623
▁pathway	-3624
▁perturb	-3625
▁optimize	-3626
▁reducing	-3627
▁interesting	-3628
▁perspective	-3629
lä	-3630
zo	-3631
can	-3632
urs	-3633
uble	-3634
▁hyd	-3635
askin	-3636
▁PFAS	-3637
▁puls	-3638
▁decre	-3639
▁Integr	-3640
▁improv	-3641
▁inside	-3642
▁aquatic	-3643
▁vertebr	-3644
▁position	-3645
▁security	-3646
▁Artificial	-3647
▁consumption	-3648
▁implemented	-3649
mut	-3650
ska	-3651
oids	-3652
▁Adv	-3653
atell	-3654
cepts	-3655
flamm	-3656
▁Cell	-3657
▁mark	-3658
▁overc	-3659
▁public	-3660
function	-3661
▁nanoscale	-3662
▁optimized	-3663
▁fabrication	-3664
IR	-3665
emi	-3666
sol	-3667
most	-3668
▁Dis	-3669
▁sum	-3670
enced	-3671
▁good	-3672
▁rise	-3673
system	-3674
▁agric	-3675
▁carry	-3676
osecond	-3677
▁focused	-3678
▁forecast	-3679
▁validate	-3680
ef	-3681
ota	-3682
▁WP	-3683
axim	-3684
edic	-3685
▁mom	-3686
antic	-3687
ompon	-3688
rought	-3689
▁Super	-3690
▁prior	-3691
▁radio	-3692
ainable	-3693
▁extent	-3694
▁images	-3695
▁Systems	-3696
▁drivers	-3697
▁express	-3698
▁theorem	-3699
mentation	-3700
▁Analysis	-3701
omposition	-3702
▁dimension	-3703
▁turbulence	-3704
ök	-3705
eff	-3706
kel	-3707
oot	-3708
▁Sm	-3709
care	-3710
iggs	-3711
liga	-3712
oper	-3713
▁cle	-3714
▁tri	-3715
▁cool	-3716
▁harm	-3717
▁tests	-3718
▁yield	-3719
▁entang	-3720
▁concepts	-3721
▁intrinsic	-3722
▁differences	-3723
▁recognition	-3724
kv	-3725
aff	-3726
ton	-3727
band	-3728
opro	-3729
▁art	-3730
▁fem	-3731
▁gut	-3732
▁wid	-3733
▁cosm	-3734
▁read	-3735
action	-3736
anning	-3737
▁final	-3738
▁joint	-3739
▁metam	-3740
acteria	-3741
▁amount	-3742
▁pollut	-3743
▁stellar	-3744
▁Although	-3745
▁combustion	-3746
▁interacting	-3747
▁measurement	-3748
MO	-3749
ople	-3750
▁Sim	-3751
ekter	-3752
elekt	-3753
inant	-3754
vents	-3755
▁Stud	-3756
▁bott	-3757
▁fron	-3758
▁fract	-3759
▁pione	-3760
▁sound	-3761
ception	-3762
▁Second	-3763
▁occurr	-3764
▁oxides	-3765
▁points	-3766
▁protoc	-3767
▁ancient	-3768
▁balance	-3769
▁content	-3770
▁explored	-3771
▁terrestrial	-3772
▁increasingly	-3773
▁reconstruction	-3774
ru	-3775
▁THz	-3776
▁lung	-3777
▁safe	-3778
▁swit	-3779
▁above	-3780
▁simpl	-3781
icrobial	-3782
▁involve	-3783
▁partial	-3784
▁acoustic	-3785
▁disorder	-3786
▁genetics	-3787
▁operator	-3788
▁component	-3789
▁typically	-3790
▁variations	-3791
▁synchrotron	-3792
▁distributions	-3793
inv	-3794
let	-3795
lor	-3796
rok	-3797
ämp	-3798
▁Em	-3799
▁fa	-3800
▁ze	-3801
▁why	-3802
atten	-3803
catal	-3804
osome	-3805
▁rich	-3806
▁sets	-3807
uktion	-3808
▁belie	-3809
▁mixed	-3810
▁lattice	-3811
▁prevent	-3812
▁Standard	-3813
▁interven	-3814
▁sediment	-3815
▁toxicity	-3816
▁designing	-3817
▁electrons	-3818
▁etc	-3819
▁clim	-3820
▁iron	-3821
▁yeast	-3822
duction	-3823
▁expans	-3824
▁recomb	-3825
▁Dynamics	-3826
▁datasets	-3827
▁flexible	-3828
▁valuable	-3829
functional	-3830
▁connected	-3831
▁empirical	-3832
▁systematic	-3833
▁fluorescence	-3834
▁systematically	-3835
tal	-3836
▁hot	-3837
▁ord	-3838
lands	-3839
throp	-3840
called	-3841
drogen	-3842
▁Univers	-3843
▁conform	-3844
▁decades	-3845
▁homogen	-3846
chemistry	-3847
▁concerns	-3848
▁configur	-3849
▁efficiently	-3850
▁exploration	-3851
MC	-3852
def	-3853
avig	-3854
skop	-3855
iffer	-3856
inate	-3857
world	-3858
▁adop	-3859
▁film	-3860
▁value	-3861
▁blocks	-3862
▁output	-3863
▁genomes	-3864
▁schemes	-3865
▁distinct	-3866
▁kinetics	-3867
▁particip	-3868
▁mutations	-3869
IN	-3870
amp	-3871
arb	-3872
▁ny	-3873
bara	-3874
field	-3875
light	-3876
tices	-3877
▁Form	-3878
▁shed	-3879
▁guide	-3880
▁might	-3881
▁Models	-3882
▁rather	-3883
▁instead	-3884
▁working	-3885
▁personal	-3886
▁utilizing	-3887
DNA	-3888
bätt	-3889
edge	-3890
▁First	-3891
▁depth	-3892
▁toxic	-3893
▁molekyl	-3894
▁varying	-3895
▁programs	-3896
▁rational	-3897
▁experience	-3898
▁contribution	-3899
▁simultaneously	-3900
▁‘	-3901
▁AL	-3902
▁nya	-3903
▁spr	-3904
▁uses	-3905
▁recyc	-3906
▁disrup	-3907
▁likely	-3908
▁offers	-3909
▁people	-3910
▁phosph	-3911
▁relative	-3912
timicrobial	-3913
▁biomarkers	-3914
▁reliability	-3915
▁responsible	-3916
▁Computational	-3917
▁transcription	-3918
Our	-3919
ged	-3920
jug	-3921
bers	-3922
idel	-3923
▁pale	-3924
▁Human	-3925
▁issue	-3926
▁lakes	-3927
▁leads	-3928
▁maxim	-3929
▁robot	-3930
▁tumor	-3931
▁fitness	-3932
▁subsequ	-3933
▁overcome	-3934
▁evaluated	-3935
▁membranes	-3936
▁electrodes	-3937
▁possibility	-3938
▁contributions	-3939
2-	-3940
gr	-3941
ils	-3942
▁feas	-3943
▁medi	-3944
▁nitr	-3945
▁virt	-3946
▁Recent	-3947
▁optics	-3948
▁kinetic	-3949
▁strains	-3950
▁embedded	-3951
▁functionality	-3952
ål	-3953
ina	-3954
ino	-3955
nov	-3956
var	-3957
▁If	-3958
aper	-3959
eper	-3960
▁Sea	-3961
▁log	-3962
emann	-3963
▁every	-3964
ylation	-3965
▁circuits	-3966
▁selected	-3967
▁automated	-3968
▁cognitive	-3969
▁supported	-3970
use	-3971
▁19	-3972
onds	-3973
pass	-3974
▁Rob	-3975
▁ick	-3976
ocene	-3977
▁inom	-3978
▁vast	-3979
plored	-3980
▁decay	-3981
▁heavy	-3982
▁nanof	-3983
▁Baltic	-3984
baserade	-3985
omponent	-3986
▁neurons	-3987
▁exploring	-3988
▁applicable	-3989
▁completely	-3990
▁connection	-3991
▁microbiome	-3992
▁computation	-3993
2)	-3994
AX	-3995
PE	-3996
app	-3997
bry	-3998
else	-3999
▁tens	-4000
▁Graph	-4001
▁acids	-4002
▁steps	-4003
ierarch	-4004
▁agents	-4005
▁shifts	-4006
enskaper	-4007
▁compare	-4008
▁counter	-4009
▁dataset	-4010
▁reinfor	-4011
▁Intellig	-4012
▁interfac	-4013
▁enhancing	-4014
▁epigenetic	-4015
▁signatures	-4016
▁vegetation	-4017
TH	-4018
wh	-4019
gue	-4020
het	-4021
ifi	-4022
iver	-4023
rand	-4024
gative	-4025
ifying	-4026
ontinu	-4027
▁Novel	-4028
▁lines	-4029
▁place	-4030
quality	-4031
▁satell	-4032
▁amyloid	-4033
▁cycling	-4034
▁implant	-4035
▁inhibit	-4036
▁unravel	-4037
imensions	-4038
▁symmetry	-4039
▁antibiotic	-4040
▁hypotheses	-4041
▁validation	-4042
▁programming	-4043
▁Additionally	-4044
Ls	-4045
tz	-4046
år	-4047
▁On	-4048
järn	-4049
oxic	-4050
▁Over	-4051
▁bulk	-4052
edical	-4053
▁Higgs	-4054
▁infer	-4055
▁motiv	-4056
ulering	-4057
▁deeper	-4058
▁forces	-4059
▁Riemann	-4060
▁coherent	-4061
▁tropical	-4062
structures	-4063
▁resonance	-4064
▁treatments	-4065
▁deformation	-4066
▁availability	-4067
SS	-4068
gt	-4069
io	-4070
vis	-4071
ysi	-4072
▁lif	-4073
▁rot	-4074
incip	-4075
itude	-4076
tious	-4077
▁Soft	-4078
alling	-4079
ancing	-4080
▁crack	-4081
▁death	-4082
▁Method	-4083
▁attack	-4084
▁severe	-4085
▁methane	-4086
▁princip	-4087
▁consists	-4088
▁services	-4089
▁starting	-4090
▁wireless	-4091
▁advancing	-4092
▁diagnostic	-4093
▁semiconductor	-4094
bes	-4095
eth	-4096
inf	-4097
ird	-4098
ush	-4099
van	-4100
▁AD	-4101
▁ga	-4102
side	-4103
▁Biom	-4104
olymer	-4105
▁drive	-4106
▁fungi	-4107
▁caused	-4108
▁hydrog	-4109
▁metast	-4110
▁Physics	-4111
▁employed	-4112
▁measured	-4113
▁northern	-4114
▁candidate	-4115
▁reasoning	-4116
▁concentration	-4117
DEs	-4118
ora	-4119
tun	-4120
▁bo	-4121
▁Ind	-4122
▁mim	-4123
▁mob	-4124
▁cryo	-4125
rained	-4126
▁aging	-4127
▁inner	-4128
▁media	-4129
▁nanom	-4130
▁newly	-4131
elastic	-4132
▁stages	-4133
ynthetic	-4134
▁benefit	-4135
▁experts	-4136
▁European	-4137
▁movement	-4138
▁additional	-4139
▁categories	-4140
▁developments	-4141
▁transformation	-4142
iii	-4143
imer	-4144
▁Bio	-4145
▁inj	-4146
▁kin	-4147
▁ves	-4148
▁miss	-4149
atorer	-4150
olding	-4151
verkan	-4152
▁coast	-4153
▁costs	-4154
▁excit	-4155
▁later	-4156
forming	-4157
▁ultras	-4158
▁Organic	-4159
genskaper	-4160
oplankton	-4161
▁integral	-4162
▁planning	-4163
▁spectrum	-4164
▁topology	-4165
▁predicting	-4166
▁heterogeneous	-4167
NNs	-4168
oti	-4169
erve	-4170
▁Neu	-4171
▁cop	-4172
ounts	-4173
▁From	-4174
▁lies	-4175
▁adsor	-4176
▁bring	-4177
▁kvant	-4178
▁Research	-4179
▁discrete	-4180
▁dimensions	-4181
▁generative	-4182
▁multiscale	-4183
▁speciation	-4184
▁connections	-4185
▁propagation	-4186
az	-4187
ympt	-4188
▁Nya	-4189
▁eng	-4190
▁rib	-4191
▁ste	-4192
▁Time	-4193
▁mRNA	-4194
▁repe	-4195
ectors	-4196
▁excell	-4197
▁multic	-4198
▁muscle	-4199
ications	-4200
▁drought	-4201
▁tissues	-4202
▁Electron	-4203
▁collected	-4204
▁dependent	-4205
▁transient	-4206
▁Functional	-4207
▁conjecture	-4208
▁regeneration	-4209
WP	-4210
LAS	-4211
otes	-4212
ancer	-4213
bolic	-4214
▁Adap	-4215
▁emit	-4216
▁orth	-4217
▁subs	-4218
▁user	-4219
▁learn	-4220
▁total	-4221
▁users	-4222
ometric	-4223
▁Mechan	-4224
▁Neural	-4225
▁action	-4226
▁derive	-4227
▁though	-4228
▁widely	-4229
▁Through	-4230
▁exhibit	-4231
abilistic	-4232
ifications	-4233
▁existence	-4234
▁intermedi	-4235
performance	-4236
▁background	-4237
▁requirements	-4238
▁decomposition	-4239
▁possibilities	-4240
enn	-4241
▁Tw	-4242
ando	-4243
lock	-4244
radi	-4245
ysts	-4246
▁fat	-4247
gener	-4248
▁Comb	-4249
▁Mass	-4250
▁chem	-4251
▁harv	-4252
▁idea	-4253
▁antib	-4254
▁block	-4255
▁trade	-4256
physics	-4257
ultural	-4258
▁biolog	-4259
▁förstå	-4260
▁planets	-4261
▁crystals	-4262
▁estimate	-4263
▁neutrino	-4264
▁projects	-4265
▁ultimate	-4266
▁excellent	-4267
▁variables	-4268
▁dimensional	-4269
▁interfacial	-4270
▁concentrations	-4271
▁10	-4272
▁ek	-4273
char	-4274
ords	-4275
rays	-4276
▁Ins	-4277
▁sug	-4278
otrop	-4279
point	-4280
▁fibr	-4281
▁site	-4282
effici	-4283
▁error	-4284
▁gases	-4285
▁motor	-4286
alities	-4287
andling	-4288
ändring	-4289
▁integra	-4290
▁liquids	-4291
gineering	-4292
▁coatings	-4293
▁peptides	-4294
▁estimates	-4295
▁determining	-4296
▁fluctuations	-4297
▁approximation	-4298
▁Le	-4299
▁ey	-4300
hydr	-4301
▁100	-4302
▁Str	-4303
▁bud	-4304
▁doc	-4305
▁kol	-4306
▁sus	-4307
▁unc	-4308
inger	-4309
▁Magn	-4310
▁cyan	-4311
▁hind	-4312
▁risks	-4313
▁Carbon	-4314
▁deploy	-4315
▁effort	-4316
▁timing	-4317
▁dioxide	-4318
▁evolved	-4319
▁finding	-4320
▁persist	-4321
▁resolve	-4322
ekanismer	-4323
▁decisions	-4324
▁substantial	-4325
▁electrolytes	-4326
▁opportunities	-4327
bal	-4328
hal	-4329
oms	-4330
sts	-4331
arbon	-4332
odies	-4333
▁Mars	-4334
▁meet	-4335
▁root	-4336
associ	-4337
cement	-4338
▁Solar	-4339
izations	-4340
▁forward	-4341
▁mineral	-4342
ceptional	-4343
▁followed	-4344
▁mixtures	-4345
▁struktur	-4346
▁Materials	-4347
▁secondary	-4348
▁phenomenon	-4349
▁correlation	-4350
▁contributing	-4351
▁correlations	-4352
▁pharmaceutical	-4353
▁electromagnetic	-4354
ilk	-4355
jup	-4356
uls	-4357
▁Be	-4358
apor	-4359
▁Sol	-4360
▁orb	-4361
▁tax	-4362
figur	-4363
orders	-4364
▁liter	-4365
▁recru	-4366
▁bridge	-4367
▁clouds	-4368
▁explan	-4369
▁remote	-4370
▁exploit	-4371
▁massive	-4372
▁metoder	-4373
▁Networks	-4374
▁funktion	-4375
▁boundaries	-4376
▁healthcare	-4377
▁ultimately	-4378
▁infrastructure	-4379
EN	-4380
Ga	-4381
ret	-4382
ende	-4383
iskt	-4384
▁LHC	-4385
▁get	-4386
▁own	-4387
eling	-4388
ophil	-4389
▁roll	-4390
▁created	-4391
▁regular	-4392
▁Chemical	-4393
▁clusters	-4394
▁microwave	-4395
▁comparative	-4396
▁organization	-4397
▁reproductive	-4398
apac	-4399
atin	-4400
eity	-4401
▁Ant	-4402
ields	-4403
ource	-4404
phase	-4405
vance	-4406
▁pass	-4407
atitud	-4408
▁builds	-4409
▁respond	-4410
▁photonic	-4411
▁positive	-4412
▁surround	-4413
▁diagnosis	-4414
▁direction	-4415
▁expansion	-4416
▁platforms	-4417
▁ultrafast	-4418
▁statistics	-4419
▁manipulation	-4420
▁differentiation	-4421
-4	-4422
LC	-4423
ame	-4424
alge	-4425
itax	-4426
▁cav	-4427
commut	-4428
inning	-4429
tially	-4430
▁Monte	-4431
▁fiber	-4432
▁navig	-4433
▁soils	-4434
▁vesic	-4435
inating	-4436
▁compet	-4437
▁barrier	-4438
▁cooling	-4439
▁defined	-4440
▁isotope	-4441
▁Recently	-4442
▁offering	-4443
▁pathogen	-4444
▁printing	-4445
▁property	-4446
▁migration	-4447
▁primarily	-4448
▁generating	-4449
▁multimodal	-4450
▁physiology	-4451
▁relatively	-4452
▁structured	-4453
▁tomography	-4454
conductivity	-4455
evolutionary	-4456
▁functioning	-4457
▁microscopic	-4458
▁opportunity	-4459
lu	-4460
nad	-4461
▁Flu	-4462
▁Pol	-4463
▁put	-4464
▁who	-4465
alian	-4466
skopi	-4467
thers	-4468
▁Sing	-4469
▁Sust	-4470
▁fine	-4471
▁sulf	-4472
▁Carlo	-4473
▁Ocean	-4474
▁Water	-4475
▁plasm	-4476
▁prove	-4477
▁surve	-4478
▁assays	-4479
▁define	-4480
▁medium	-4481
▁inverse	-4482
▁Universe	-4483
▁vehicles	-4484
▁unexplored	-4485
▁computations	-4486
ST	-4487
biv	-4488
fär	-4489
ding	-4490
▁gre	-4491
idity	-4492
riend	-4493
spect	-4494
▁Neut	-4495
▁proj	-4496
▁slow	-4497
astics	-4498
▁adhes	-4499
▁seeks	-4500
ractive	-4501
▁cycles	-4502
▁insect	-4503
▁moment	-4504
assembly	-4505
ovascular	-4506
▁disorders	-4507
▁sediments	-4508
▁sequences	-4509
▁technical	-4510
▁validated	-4511
▁greenhouse	-4512
▁leveraging	-4513
▁aggregation	-4514
▁diffraction	-4515
▁neuromorphic	-4516
Co	-4517
me	-4518
ss	-4519
▁ri	-4520
imet	-4521
ingu	-4522
valu	-4523
layer	-4524
local	-4525
▁just	-4526
▁lith	-4527
▁prep	-4528
▁seen	-4529
▁side	-4530
▁surg	-4531
ercury	-4532
▁vital	-4533
▁extinc	-4534
plicated	-4535
▁closely	-4536
▁million	-4537
▁peptide	-4538
▁weather	-4539
▁applying	-4540
▁constitu	-4541
▁leverage	-4542
commutative	-4543
temperature	-4544
▁perception	-4545
▁Experimental	-4546
▁antimicrobial	-4547
iga	-4548
omy	-4549
way	-4550
gram	-4551
type	-4552
▁pip	-4553
apies	-4554
idden	-4555
power	-4556
▁bran	-4557
▁casc	-4558
▁icke	-4559
▁maps	-4560
▁priv	-4561
▁över	-4562
bättra	-4563
inator	-4564
▁Spati	-4565
▁attem	-4566
▁avoid	-4567
▁fresh	-4568
▁shear	-4569
▁aiming	-4570
▁consid	-4571
▁tackle	-4572
▁Control	-4573
▁neutral	-4574
rological	-4575
▁additive	-4576
▁gradient	-4577
▁rigorous	-4578
▁relevance	-4579
▁worldwide	-4580
▁macroscopic	-4581
▁polynomials	-4582
▁complementary	-4583
dd	-4584
aged	-4585
iljö	-4586
▁Plas	-4587
▁ambi	-4588
arctic	-4589
chmark	-4590
dentif	-4591
▁Plant	-4592
▁built	-4593
▁plays	-4594
actions	-4595
▁histor	-4596
▁others	-4597
▁regime	-4598
▁amounts	-4599
▁analyse	-4600
▁pattern	-4601
▁settings	-4602
▁condition	-4603
▁accurately	-4604
▁frameworks	-4605
▁literature	-4606
▁exceptional	-4607
▁utilization	-4608
▁thermodynamic	-4609
EE	-4610
SI	-4611
nan	-4612
nik	-4613
zed	-4614
estr	-4615
jälp	-4616
lägg	-4617
uild	-4618
▁MRI	-4619
▁Sch	-4620
▁fix	-4621
▁law	-4622
usive	-4623
▁suff	-4624
▁antic	-4625
▁deriv	-4626
▁insul	-4627
▁start	-4628
omestic	-4629
▁accept	-4630
▁manner	-4631
mediated	-4632
▁exposed	-4633
▁feature	-4634
▁ranging	-4635
▁hierarch	-4636
▁instance	-4637
▁limiting	-4638
▁photocatal	-4639
▁breakthrough	-4640
▁architectures	-4641
▁collaborators	-4642
▁spectroscopic	-4643
PS	-4644
ovol	-4645
ulus	-4646
▁Reg	-4647
▁bed	-4648
▁ill	-4649
▁sen	-4650
arant	-4651
ophag	-4652
osity	-4653
print	-4654
▁dual	-4655
▁rece	-4656
idates	-4657
▁Hence	-4658
▁Since	-4659
▁anten	-4660
▁hjälp	-4661
riendly	-4662
uctions	-4663
▁aspect	-4664
▁mixing	-4665
▁vector	-4666
▁despite	-4667
▁gravity	-4668
▁circular	-4669
generative	-4670
▁protocols	-4671
▁substrate	-4672
▁tolerance	-4673
▁invariants	-4674
▁pollutants	-4675
askininlärning	-4676
MA	-4677
ift	-4678
ito	-4679
vär	-4680
RNAs	-4681
tile	-4682
▁Cor	-4683
▁Rad	-4684
▁Syn	-4685
▁Tra	-4686
▁pic	-4687
▁van	-4688
uling	-4689
▁glac	-4690
making	-4691
rosion	-4692
▁assum	-4693
▁earth	-4694
▁hence	-4695
▁ideal	-4696
▁stage	-4697
▁thick	-4698
▁trace	-4699
herence	-4700
odegrad	-4701
material	-4702
requency	-4703
▁adapted	-4704
▁entropy	-4705
itational	-4706
▁abundant	-4707
▁currents	-4708
▁addressed	-4709
▁inorganic	-4710
▁satellite	-4711
▁Structural	-4712
▁substrates	-4713
▁antibiotics	-4714
▁modellering	-4715
▁advancements	-4716
▁conductivity	-4717
▁significance	-4718
2.	-4719
hom	-4720
oor	-4721
rig	-4722
arse	-4723
graph	-4724
▁Arch	-4725
▁pave	-4726
▁seas	-4727
design	-4728
erande	-4729
stream	-4730
usions	-4731
▁Therm	-4732
inement	-4733
ocation	-4734
▁experi	-4735
▁overlo	-4736
ospheric	-4737
▁coastal	-4738
▁details	-4739
▁metrics	-4740
▁fracture	-4741
▁described	-4742
▁candidates	-4743
▁independent	-4744
▁phylogenetic	-4745
▁reproduction	-4746
▁mitochondrial	-4747
▁classification	-4748
▁nanostructures	-4749
▁transformations	-4750
ID	-4751
alg	-4752
orb	-4753
braf	-4754
flic	-4755
ulos	-4756
▁KTH	-4757
▁adj	-4758
▁mid	-4759
▁muc	-4760
▁väx	-4761
rying	-4762
▁ATLAS	-4763
▁equip	-4764
baserad	-4765
▁living	-4766
▁normal	-4767
▁occurs	-4768
▁pulses	-4769
▁sexual	-4770
▁string	-4771
▁Process	-4772
▁competi	-4773
▁missing	-4774
▁neurode	-4775
▁promise	-4776
▁channels	-4777
▁molecule	-4778
▁societal	-4779
▁solvents	-4780
▁composite	-4781
▁emergence	-4782
▁mitigation	-4783
▁signalling	-4784
▁intelligent	-4785
▁polarization	-4786
öj	-4787
▁7	-4788
mat	-4789
▁Me	-4790
aken	-4791
ffic	-4792
mers	-4793
ooth	-4794
▁ago	-4795
acing	-4796
eries	-4797
▁lake	-4798
▁prox	-4799
istors	-4800
ätverk	-4801
▁charg	-4802
▁depos	-4803
▁effic	-4804
▁Partic	-4805
▁ageing	-4806
▁epitax	-4807
▁synerg	-4808
ibration	-4809
olecules	-4810
▁cluster	-4811
▁compact	-4812
▁insects	-4813
ämpningar	-4814
▁organism	-4815
▁regulate	-4816
▁benchmark	-4817
▁languages	-4818
▁microfluid	-4819
▁selectivity	-4820
▁developmental	-4821
▁microstructure	-4822
▁quantification	-4823
▁diversification	-4824
50	-4825
Ds	-4826
Rs	-4827
la	-4828
öm	-4829
bor	-4830
cal	-4831
ped	-4832
▁Ab	-4833
▁Sk	-4834
▁But	-4835
▁Gal	-4836
▁Mar	-4837
actic	-4838
angle	-4839
times	-4840
vised	-4841
▁Many	-4842
▁cold	-4843
▁edge	-4844
▁gran	-4845
▁ones	-4846
▁vibr	-4847
apping	-4848
ovolta	-4849
ductive	-4850
romatic	-4851
uilding	-4852
▁fluids	-4853
▁precip	-4854
▁astroph	-4855
▁biosens	-4856
▁healthy	-4857
▁promote	-4858
▁breeding	-4859
▁detected	-4860
▁simulate	-4861
▁variants	-4862
▁correlated	-4863
▁electrolyte	-4864
RO	-4865
len	-4866
omm	-4867
zhe	-4868
▁Ag	-4869
▁Dr	-4870
▁ii	-4871
agen	-4872
avel	-4873
lies	-4874
rost	-4875
▁All	-4876
▁too	-4877
▁urg	-4878
▁actu	-4879
▁look	-4880
jukdom	-4881
▁Nucle	-4882
▁inher	-4883
▁longer	-4884
▁microc	-4885
▁proton	-4886
▁komplex	-4887
▁lacking	-4888
▁modular	-4889
▁photons	-4890
▁detector	-4891
▁elektron	-4892
▁modified	-4893
▁analyzing	-4894
▁magnetism	-4895
▁composites	-4896
▁proteomics	-4897
▁subsequent	-4898
▁accumulation	-4899
▁observational	-4900
▁uncertainties	-4901
SM	-4902
box	-4903
dep	-4904
hol	-4905
raw	-4906
ria	-4907
▁Av	-4908
▁PC	-4909
enes	-4910
loud	-4911
oxid	-4912
vari	-4913
ytes	-4914
▁Ele	-4915
▁tid	-4916
ectic	-4917
atigue	-4918
charge	-4919
▁eigen	-4920
▁force	-4921
ontroll	-4922
ymmetric	-4923
▁Identif	-4924
▁carrier	-4925
▁desired	-4926
▁virtual	-4927
▁benefits	-4928
▁fraction	-4929
▁provided	-4930
▁therapies	-4931
▁determined	-4932
▁introduced	-4933
▁modification	-4934
▁corresponding	-4935
sök	-4936
▁Gr	-4937
▁Is	-4938
anti	-4939
▁Acc	-4940
▁Ice	-4941
▁Yet	-4942
▁dys	-4943
eline	-4944
▁skin	-4945
analys	-4946
▁Metal	-4947
▁Space	-4948
▁align	-4949
▁compr	-4950
▁polic	-4951
▁scaff	-4952
▁trait	-4953
ostasis	-4954
▁taking	-4955
▁Complex	-4956
▁commerc	-4957
▁forming	-4958
▁magnets	-4959
obacteria	-4960
▁creation	-4961
▁examples	-4962
▁metallic	-4963
▁operating	-4964
▁transcriptomics	-4965
CH	-4966
▁Ec	-4967
▁SC	-4968
ancy	-4969
▁Cal	-4970
▁Dir	-4971
▁mal	-4972
inery	-4973
▁Sens	-4974
▁home	-4975
▁semi	-4976
coding	-4977
partic	-4978
▁fuels	-4979
▁sense	-4980
▁During	-4981
▁double	-4982
▁fibers	-4983
▁guarant	-4984
▁ligands	-4985
▁subject	-4986
▁unclear	-4987
▁climatic	-4988
▁affecting	-4989
▁increases	-4990
▁containing	-4991
▁procedures	-4992
▁entanglement	-4993
▁applicability	-4994
▁heterogeneity	-4995
▁thermoelectric	-4996
▁environmentally	-4997
▁superconducting	-4998
4)	-4999
PT	-5000
St	-5001
atus	-5002
sens	-5003
▁vul	-5004
fully	-5005
iform	-5006
kvens	-5007
▁Glob	-5008
▁anis	-5009
▁phyt	-5010
atalys	-5011
escent	-5012
▁Alzhe	-5013
▁heart	-5014
▁serve	-5015
▁chiral	-5016
▁deform	-5017
▁fungal	-5018
▁inters	-5019
▁repair	-5020
▁repres	-5021
entation	-5022
▁actions	-5023
▁failure	-5024
▁respect	-5025
▁analytic	-5026
▁contamin	-5027
▁economic	-5028
▁regional	-5029
▁expensive	-5030
▁polymorph	-5031
▁producing	-5032
▁facilities	-5033
▁Sustainable	-5034
▁modifications	-5035
▁probabilistic	-5036
▁semiconductors	-5037
0.	-5038
ops	-5039
rob	-5040
tag	-5041
▁Mo	-5042
▁Num	-5043
▁dro	-5044
andin	-5045
arget	-5046
overy	-5047
veloc	-5048
▁epid	-5049
▁pore	-5050
abolic	-5051
▁regim	-5052
▁whose	-5053
brafish	-5054
otropic	-5055
▁almost	-5056
▁having	-5057
▁itself	-5058
▁losses	-5059
▁online	-5060
▁prepar	-5061
▁volume	-5062
▁another	-5063
▁greatly	-5064
▁inflamm	-5065
▁traject	-5066
▁Investig	-5067
▁category	-5068
▁database	-5069
▁continuum	-5070
▁predicted	-5071
▁geometries	-5072
▁microbiota	-5073
▁represents	-5074
▁hypothesize	-5075
▁metabolites	-5076
▁probability	-5077
▁translation	-5078
sl	-5079
fil	-5080
sta	-5081
▁SM	-5082
▁Tr	-5083
▁ur	-5084
eres	-5085
life	-5086
stud	-5087
vänd	-5088
▁Tel	-5089
istor	-5090
omers	-5091
osfär	-5092
plant	-5093
rices	-5094
▁When	-5095
▁base	-5096
▁biot	-5097
▁libr	-5098
▁live	-5099
▁olig	-5100
▁array	-5101
▁colon	-5102
▁ferro	-5103
▁holes	-5104
▁shall	-5105
▁stand	-5106
▁topic	-5107
olation	-5108
▁asympt	-5109
▁compil	-5110
▁evolve	-5111
▁exotic	-5112
▁faster	-5113
▁herbiv	-5114
breaking	-5115
▁realize	-5116
ändringar	-5117
▁explicit	-5118
▁immunity	-5119
▁variable	-5120
▁gradients	-5121
▁biomedical	-5122
▁extraction	-5123
▁localization	-5124
▁interpretation	-5125
▁tre	-5126
riska	-5127
stein	-5128
▁dram	-5129
▁elev	-5130
▁exec	-5131
▁peat	-5132
▁modes	-5133
▁trust	-5134
roscopy	-5135
stellar	-5136
▁Differ	-5137
▁fronti	-5138
▁gained	-5139
▁initio	-5140
▁sugges	-5141
▁Digital	-5142
▁causing	-5143
▁display	-5144
▁regimes	-5145
▁streams	-5146
▁utilized	-5147
▁achieving	-5148
▁employing	-5149
▁recycling	-5150
▁Utveckling	-5151
▁behavioral	-5152
▁protection	-5153
▁biophysical	-5154
▁reconstruct	-5155
▁vertebrates	-5156
PI	-5157
Ts	-5158
▁(1	-5159
alae	-5160
cing	-5161
oner	-5162
▁201	-5163
▁hem	-5164
▁urb	-5165
itors	-5166
micro	-5167
▁Real	-5168
▁bioc	-5169
▁cere	-5170
▁pred	-5171
▁aimed	-5172
▁below	-5173
▁chain	-5174
▁chlor	-5175
▁resid	-5176
▁urban	-5177
▁assist	-5178
▁astron	-5179
▁degree	-5180
▁nuclei	-5181
▁respir	-5182
▁conflic	-5183
▁monitor	-5184
▁determin	-5185
▁national	-5186
▁numerous	-5187
▁profiles	-5188
▁comparing	-5189
▁introduce	-5190
▁harvesting	-5191
▁operations	-5192
▁specificity	-5193
▁combinatorial	-5194
-3	-5195
ih	-5196
ps	-5197
▁Ox	-5198
▁ST	-5199
eräk	-5200
opes	-5201
▁Ass	-5202
▁Sci	-5203
▁mis	-5204
hertz	-5205
▁Four	-5206
▁foot	-5207
▁memb	-5208
▁meta	-5209
▁seed	-5210
▁true	-5211
acchar	-5212
ported	-5213
▁Based	-5214
▁birds	-5215
▁spint	-5216
▁lipids	-5217
▁broader	-5218
▁designs	-5219
▁privacy	-5220
▁commonly	-5221
▁microbes	-5222
▁mobility	-5223
▁searches	-5224
▁universe	-5225
▁governing	-5226
▁profiling	-5227
vironmental	-5228
▁flexibility	-5229
▁biogeochemical	-5230
▁computationally	-5231
▁8	-5232
pri	-5233
▁Li	-5234
▁Two	-5235
▁fre	-5236
▁nam	-5237
▁web	-5238
range	-5239
▁Both	-5240
▁purs	-5241
▁stri	-5242
aching	-5243
atible	-5244
osomal	-5245
▁alkal	-5246
▁crust	-5247
▁pairs	-5248
▁conjug	-5249
▁quanti	-5250
▁volcan	-5251
▁depends	-5252
▁elastic	-5253
organisms	-5254
▁barriers	-5255
▁original	-5256
▁tracking	-5257
▁Antarctic	-5258
▁suggested	-5259
▁egenskaper	-5260
▁establishing	-5261
Gs	-5262
alk	-5263
jus	-5264
ths	-5265
-202	-5266
orth	-5267
▁aer	-5268
▁eco	-5269
▁liv	-5270
ading	-5271
asers	-5272
iquid	-5273
olith	-5274
▁diet	-5275
▁happ	-5276
emiska	-5277
ogonal	-5278
weight	-5279
▁Catal	-5280
▁clean	-5281
▁veloc	-5282
duktion	-5283
unction	-5284
vergent	-5285
ymmetry	-5286
▁Single	-5287
▁Current	-5288
▁disturb	-5289
▁plasmon	-5290
▁radical	-5291
▁negative	-5292
▁proposes	-5293
▁recovery	-5294
▁resolved	-5295
▁vesicles	-5296
▁describing	-5297
▁modulation	-5298
▁photovolta	-5299
▁Engineering	-5300
▁electricity	-5301
▁gravitational	-5302
▁recombination	-5303
▁reinforcement	-5304
▁cardiovascular	-5305
SPR	-5306
orn	-5307
ozo	-5308
uce	-5309
▁Af	-5310
▁UV	-5311
obic	-5312
osqu	-5313
▁ell	-5314
▁sor	-5315
eyond	-5316
▁Dist	-5317
▁Lund	-5318
lantic	-5319
ronics	-5320
ulence	-5321
▁quick	-5322
acement	-5323
factory	-5324
ptional	-5325
▁doping	-5326
▁handle	-5327
▁orient	-5328
▁minimal	-5329
avelength	-5330
estration	-5331
▁analyzed	-5332
▁globally	-5333
▁magnitude	-5334
▁measuring	-5335
▁versatile	-5336
▁accessible	-5337
▁geological	-5338
▁nucleation	-5339
▁effectively	-5340
▁maintaining	-5341
▁Intelligence	-5342
▁determination	-5343
▁precipitation	-5344
NP	-5345
TS	-5346
xts	-5347
ners	-5348
oday	-5349
uing	-5350
vity	-5351
▁Sub	-5352
▁Top	-5353
▁ham	-5354
▁net	-5355
▁pie	-5356
▁Quan	-5357
▁beta	-5358
▁melt	-5359
▁push	-5360
parent	-5361
▁gauge	-5362
dynamik	-5363
osquito	-5364
▁physic	-5365
▁static	-5366
learning	-5367
▁biofilm	-5368
▁channel	-5369
▁excited	-5370
▁spectra	-5371
opulation	-5372
radiation	-5373
▁Advanced	-5374
▁affinity	-5375
▁coloring	-5376
▁contexts	-5377
▁efficacy	-5378
▁guarante	-5379
▁habitats	-5380
▁infrared	-5381
▁matrices	-5382
▁assessing	-5383
▁biodegrad	-5384
▁spatially	-5385
thropogenic	-5386
▁engineered	-5387
▁initiation	-5388
▁regulating	-5389
▁symmetries	-5390
▁throughout	-5391
▁utveckling	-5392
▁generations	-5393
▁personalized	-5394
CS	-5395
▁2.	-5396
idop	-5397
ming	-5398
offs	-5399
▁Upp	-5400
▁ann	-5401
▁don	-5402
▁spl	-5403
inite	-5404
ubric	-5405
▁opto	-5406
▁pure	-5407
▁Numer	-5408
▁accom	-5409
▁divid	-5410
defined	-5411
▁Further	-5412
▁anticip	-5413
▁fatigue	-5414
▁heating	-5415
▁records	-5416
▁inherent	-5417
▁suggests	-5418
throughput	-5419
▁atomistic	-5420
▁detecting	-5421
▁inhibitors	-5422
▁reactivity	-5423
▁adaptations	-5424
▁successfully	-5425
▁extracellular	-5426
By	-5427
▁Fr	-5428
▁kn	-5429
roup	-5430
sian	-5431
▁CRI	-5432
▁Lie	-5433
▁adm	-5434
▁spe	-5435
▁und	-5436
▁vär	-5437
grade	-5438
super	-5439
▁Oper	-5440
▁bias	-5441
▁huge	-5442
▁road	-5443
▁zero	-5444
pected	-5445
resist	-5446
▁least	-5447
▁paras	-5448
▁wound	-5449
▁acquis	-5450
▁induce	-5451
▁metric	-5452
▁routes	-5453
invasive	-5454
temporal	-5455
▁Methods	-5456
▁silicon	-5457
▁traffic	-5458
▁constant	-5459
▁domestic	-5460
▁plastics	-5461
▁revealed	-5462
▁superior	-5463
▁Alzheimer	-5464
▁Structure	-5465
▁occurring	-5466
▁divergence	-5467
▁freshwater	-5468
▁pathogenic	-5469
▁situations	-5470
▁behavioural	-5471
▁considering	-5472
▁frequencies	-5473
▁morphological	-5474
▁singularities	-5475
EG	-5476
▁å	-5477
Aim	-5478
MRI	-5479
akt	-5480
mar	-5481
rab	-5482
tid	-5483
önt	-5484
▁IV	-5485
▁MO	-5486
ches	-5487
ipid	-5488
otal	-5489
▁Sam	-5490
▁bos	-5491
arker	-5492
▁Anti	-5493
▁draw	-5494
▁game	-5495
biotic	-5496
ophagy	-5497
▁agent	-5498
▁links	-5499
▁units	-5500
▁fertil	-5501
▁latter	-5502
▁relies	-5503
▁culture	-5504
▁defense	-5505
▁modules	-5506
▁numbers	-5507
▁visible	-5508
▁Magnetic	-5509
▁carriers	-5510
▁ensuring	-5511
▁overlook	-5512
▁corrosion	-5513
▁manifolds	-5514
equilibrium	-5515
▁accelerate	-5516
▁advantages	-5517
▁capability	-5518
▁collective	-5519
▁circulation	-5520
▁discoveries	-5521
▁formulation	-5522
▁interactive	-5523
▁incorporating	-5524
▁theoretically	-5525
AB	-5526
Al	-5527
ocl	-5528
war	-5529
comp	-5530
iant	-5531
ours	-5532
▁Ast	-5533
▁Hur	-5534
▁esc	-5535
aster	-5536
iring	-5537
posed	-5538
toral	-5539
▁emph	-5540
▁inde	-5541
afrost	-5542
iering	-5543
lering	-5544
ording	-5545
▁Autom	-5546
▁Light	-5547
▁Today	-5548
▁baser	-5549
▁magne	-5550
▁rings	-5551
▁setup	-5552
inguish	-5553
riction	-5554
taining	-5555
▁Commun	-5556
▁Global	-5557
otherapy	-5558
tiveness	-5559
▁bottlen	-5560
▁demands	-5561
▁Atlantic	-5562
▁Modeling	-5563
▁controls	-5564
▁oxidative	-5565
▁eukaryotic	-5566
▁extinction	-5567
▁acquisition	-5568
▁surrounding	-5569
▁productivity	-5570
del	-5571
son	-5572
▁pH	-5573
aced	-5574
oming	-5575
▁elim	-5576
allium	-5577
inding	-5578
▁Enzym	-5579
▁Impro	-5580
▁alloy	-5581
▁boost	-5582
▁satis	-5583
▁usage	-5584
derived	-5585
emporal	-5586
▁choice	-5587
▁easily	-5588
▁govern	-5589
▁ligand	-5590
▁window	-5591
rosophil	-5592
struktur	-5593
tivation	-5594
▁markers	-5595
▁publish	-5596
▁usually	-5597
▁decrease	-5598
▁promises	-5599
▁Exploring	-5600
▁conserved	-5601
▁generally	-5602
▁influences	-5603
▁incorporate	-5604
▁agricultural	-5605
▁tillämpningar	-5606
IP	-5607
au	-5608
rap	-5609
ärn	-5610
▁Te	-5611
▁VR	-5612
▁ak	-5613
biqu	-5614
chip	-5615
hern	-5616
oded	-5617
rate	-5618
wise	-5619
▁Due	-5620
▁wet	-5621
itter	-5622
▁djup	-5623
▁five	-5624
▁hund	-5625
▁prol	-5626
▁rati	-5627
▁stra	-5628
▁volt	-5629
coming	-5630
illing	-5631
skning	-5632
▁amino	-5633
▁expon	-5634
▁polys	-5635
idelity	-5636
▁Beyond	-5637
▁CRISPR	-5638
▁energe	-5639
▁precis	-5640
▁prefer	-5641
▁proven	-5642
▁supply	-5643
▁telesc	-5644
▁values	-5645
ologiska	-5646
ophistic	-5647
▁Fourier	-5648
▁Scandin	-5649
▁Surface	-5650
▁circuit	-5651
▁connect	-5652
▁loading	-5653
▁unified	-5654
▁profound	-5655
▁bioinform	-5656
▁zebrafish	-5657
▁collection	-5658
▁conducting	-5659
▁pioneering	-5660
▁robustness	-5661
▁improvement	-5662
▁progression	-5663
▁interaktioner	-5664
▁collaborations	-5665
BS	-5666
▁Ö	-5667
SCs	-5668
rak	-5669
▁AR	-5670
aman	-5671
apse	-5672
cons	-5673
enet	-5674
plex	-5675
veil	-5676
▁SAR	-5677
ilies	-5678
ograf	-5679
▁Cent	-5680
▁drop	-5681
▁face	-5682
▁obst	-5683
▁Prote	-5684
▁grain	-5685
▁rough	-5686
▁third	-5687
▁ubiqu	-5688
prising	-5689
▁causal	-5690
▁defect	-5691
▁diatom	-5692
▁hidden	-5693
▁remark	-5694
▁secure	-5695
▁syntes	-5696
modeller	-5697
▁appropri	-5698
▁operando	-5699
▁vascular	-5700
▁computers	-5701
▁organized	-5702
▁planetary	-5703
▁commercial	-5704
▁eukaryotes	-5705
▁perovskites	-5706
▁interventions	-5707
▁sequestration	-5708
▁microorganisms	-5709
zz	-5710
ato	-5711
gap	-5712
nab	-5713
äng	-5714
apes	-5715
ison	-5716
mass	-5717
risk	-5718
▁big	-5719
▁pow	-5720
press	-5721
▁kind	-5722
▁dense	-5723
▁Mathem	-5724
▁bounds	-5725
▁enrich	-5726
▁vulner	-5727
▁largest	-5728
▁mammals	-5729
▁concrete	-5730
osynthetic	-5731
tification	-5732
▁abundance	-5733
▁invariant	-5734
▁nutrients	-5735
▁adsorption	-5736
▁innovation	-5737
▁contributes	-5738
LL	-5739
ft	-5740
NPs	-5741
Pro	-5742
aer	-5743
berg	-5744
rors	-5745
ways	-5746
▁had	-5747
eties	-5748
stead	-5749
▁list	-5750
▁pump	-5751
▁vacc	-5752
▁Elekt	-5753
▁North	-5754
▁fibre	-5755
▁inhib	-5756
▁miljö	-5757
tenance	-5758
vention	-5759
▁anomal	-5760
▁smooth	-5761
▁trends	-5762
▁vatten	-5763
▁concern	-5764
▁dynamik	-5765
▁habitat	-5766
▁sensory	-5767
▁uniform	-5768
frequency	-5769
▁compound	-5770
▁mitigate	-5771
▁partners	-5772
electronic	-5773
▁chromatin	-5774
▁expanding	-5775
▁pressures	-5776
▁reference	-5777
▁sophistic	-5778
▁automation	-5779
▁complicated	-5780
▁nanoparticle	-5781
BE	-5782
CM	-5783
IT	-5784
PU	-5785
How	-5786
ked	-5787
sim	-5788
▁IR	-5789
▁So	-5790
adap	-5791
avor	-5792
etes	-5793
▁dig	-5794
▁fly	-5795
▁leg	-5796
▁old	-5797
onics	-5798
ports	-5799
stånd	-5800
▁bary	-5801
▁clar	-5802
▁come	-5803
▁disk	-5804
▁håll	-5805
▁insp	-5806
▁move	-5807
▁salt	-5808
▁sput	-5809
▁trib	-5810
ometer	-5811
tition	-5812
▁Afric	-5813
▁Phase	-5814
▁added	-5815
▁uncon	-5816
▁vapor	-5817
▁correc	-5818
▁deciph	-5819
▁lasers	-5820
▁object	-5821
▁obstac	-5822
▁probes	-5823
▁Spatial	-5824
▁emerged	-5825
▁meaning	-5826
▁studier	-5827
rosophila	-5828
▁energies	-5829
▁isolated	-5830
▁sciences	-5831
▁volcanic	-5832
▁enzymatic	-5833
▁extending	-5834
▁dependence	-5835
▁nanostruct	-5836
▁feasibility	-5837
▁operational	-5838
▁Spectroscopy	-5839
▁photosynthesis	-5840
IM	-5841
ON	-5842
▁~	-5843
ikt	-5844
nas	-5845
pha	-5846
tex	-5847
▁Io	-5848
▁sy	-5849
conn	-5850
lier	-5851
oler	-5852
oval	-5853
▁day	-5854
▁pan	-5855
▁upp	-5856
etric	-5857
exist	-5858
oform	-5859
ohydr	-5860
upled	-5861
▁Then	-5862
▁scar	-5863
▁thor	-5864
▁Laser	-5865
▁perme	-5866
▁quasi	-5867
control	-5868
▁enough	-5869
▁native	-5870
▁timesc	-5871
▁yields	-5872
ellulose	-5873
timately	-5874
urrently	-5875
▁economy	-5876
▁members	-5877
▁novelty	-5878
▁reflect	-5879
▁replace	-5880
▁sjukdom	-5881
efficients	-5882
▁Modelling	-5883
▁regulated	-5884
▁varieties	-5885
▁attractive	-5886
▁perovskite	-5887
▁substances	-5888
▁irradiation	-5889
LA	-5890
asm	-5891
ete	-5892
fal	-5893
jur	-5894
orf	-5895
ält	-5896
änn	-5897
▁LL	-5898
emed	-5899
roly	-5900
▁Enh	-5901
▁deb	-5902
▁eye	-5903
▁hor	-5904
▁imm	-5905
▁vac	-5906
cepti	-5907
eknik	-5908
flows	-5909
iders	-5910
▁Gene	-5911
▁Most	-5912
▁diam	-5913
▁sial	-5914
▁wast	-5915
ension	-5916
ivotal	-5917
retion	-5918
▁inver	-5919
▁lumin	-5920
▁omics	-5921
▁quark	-5922
jective	-5923
orphous	-5924
▁Modell	-5925
▁lubric	-5926
iffusion	-5927
▁chronic	-5928
▁divided	-5929
▁linking	-5930
▁periods	-5931
▁families	-5932
▁momentum	-5933
▁practice	-5934
▁Greenland	-5935
▁behaviors	-5936
▁intensity	-5937
▁Drosophila	-5938
▁Technology	-5939
▁beneficial	-5940
▁chemically	-5941
▁overlooked	-5942
▁researcher	-5943
▁maintenance	-5944
▁observation	-5945
▁coefficients	-5946
▁noncommutative	-5947
VD	-5948
han	-5949
ika	-5950
lat	-5951
pts	-5952
sch	-5953
▁ke	-5954
nabb	-5955
otox	-5956
▁Ion	-5957
▁Min	-5958
▁sun	-5959
plets	-5960
▁bild	-5961
▁call	-5962
▁coli	-5963
▁date	-5964
▁deco	-5965
▁diab	-5966
▁hole	-5967
▁lens	-5968
oplast	-5969
äkemed	-5970
▁Kvant	-5971
▁abstr	-5972
▁arise	-5973
▁fatty	-5974
▁radar	-5975
▁bakter	-5976
▁expert	-5977
▁explos	-5978
▁framti	-5979
▁thresh	-5980
▁urgent	-5981
▁altered	-5982
▁forcing	-5983
▁healing	-5984
▁locally	-5985
▁nucleus	-5986
operation	-5987
▁frontier	-5988
▁implants	-5989
▁indicate	-5990
▁interfer	-5991
▁mosquito	-5992
▁thorough	-5993
▁precisely	-5994
▁supporting	-5995
▁electrocatal	-5996
▁improvements	-5997
▁configuration	-5998
▁substantially	-5999
▁conformational	-6000
▁transcriptional	-6001
IG	-6002
ash	-6003
uts	-6004
öst	-6005
▁Br	-6006
▁sv	-6007
zing	-6008
▁Hom	-6009
▁arb	-6010
▁kar	-6011
▁qub	-6012
ektro	-6013
▁Fram	-6014
▁Turb	-6015
▁chip	-6016
▁mode	-6017
▁visc	-6018
lation	-6019
oretic	-6020
ormous	-6021
▁Nanop	-6022
▁comes	-6023
▁coron	-6024
▁gives	-6025
▁hosts	-6026
metoder	-6027
▁cosmic	-6028
▁innate	-6029
▁spatio	-6030
▁waters	-6031
▁attract	-6032
▁believe	-6033
▁enabled	-6034
▁pivotal	-6035
▁scienti	-6036
▁smaller	-6037
▁Building	-6038
▁Hydrogen	-6039
▁friction	-6040
▁manifold	-6041
▁transpor	-6042
associated	-6043
▁naturally	-6044
▁resistant	-6045
▁conceptual	-6046
▁consisting	-6047
▁integrates	-6048
▁permafrost	-6049
▁convergence	-6050
▁derivatives	-6051
▁distinguish	-6052
▁outstanding	-6053
▁interference	-6054
▁investigates	-6055
▁anthropogenic	-6056
cre	-6057
det	-6058
tyg	-6059
▁1.	-6060
▁nm	-6061
blem	-6062
down	-6063
sala	-6064
turn	-6065
▁CER	-6066
▁DES	-6067
▁bif	-6068
▁kon	-6069
▁por	-6070
▁tub	-6071
▁uns	-6072
emble	-6073
rande	-6074
under	-6075
▁Mark	-6076
▁hold	-6077
erated	-6078
▁beams	-6079
▁color	-6080
▁deras	-6081
▁gräns	-6082
▁holds	-6083
▁print	-6084
▁right	-6085
idopsis	-6086
ogether	-6087
species	-6088
sökning	-6089
▁Predic	-6090
▁Statis	-6091
▁galaxy	-6092
▁halide	-6093
▁mobile	-6094
dynamics	-6095
▁becoming	-6096
▁location	-6097
rabidopsis	-6098
▁isolation	-6099
▁attosecond	-6100
▁directions	-6101
▁exploiting	-6102
▁limitation	-6103
▁optimizing	-6104
▁preparation	-6105
▁replication	-6106
▁scalability	-6107
rå	-6108
▁/	-6109
-19	-6110
aqu	-6111
cks	-6112
gas	-6113
osa	-6114
tsk	-6115
bert	-6116
cium	-6117
ervo	-6118
oral	-6119
▁Equ	-6120
▁III	-6121
▁Red	-6122
▁Ven	-6123
▁beg	-6124
▁bug	-6125
▁hur	-6126
▁tex	-6127
class	-6128
olite	-6129
pread	-6130
teori	-6131
▁Next	-6132
▁Self	-6133
▁bill	-6134
▁male	-6135
▁vide	-6136
ulator	-6137
▁Heter	-6138
▁Utfor	-6139
▁grant	-6140
itional	-6141
▁actual	-6142
▁escape	-6143
▁intric	-6144
▁mining	-6145
▁multiv	-6146
▁scheme	-6147
▁Unravel	-6148
▁picture	-6149
▁tunable	-6150
▁Software	-6151
▁enormous	-6152
▁Chemistry	-6153
▁detectors	-6154
▁switching	-6155
▁universal	-6156
▁excitation	-6157
▁influenced	-6158
▁ultrasound	-6159
▁agriculture	-6160
▁combinatorics	-6161
▁cyanobacteria	-6162
▁maskininlärning	-6163
AV	-6164
CD	-6165
SO	-6166
eor	-6167
▁MX	-6168
▁zo	-6169
ilky	-6170
orer	-6171
▁Tri	-6172
ighet	-6173
▁CERN	-6174
▁Fund	-6175
▁Know	-6176
▁Sign	-6177
▁amen	-6178
▁cust	-6179
▁fire	-6180
▁webs	-6181
aktion	-6182
itance	-6183
rology	-6184
tiklar	-6185
▁Given	-6186
▁Milky	-6187
▁dedic	-6188
▁proxy	-6189
▁takes	-6190
▁wides	-6191
ativity	-6192
estinal	-6193
outhern	-6194
▁Cancer	-6195
▁Extrem	-6196
▁hamper	-6197
▁microm	-6198
▁shapes	-6199
▁verify	-6200
algebras	-6201
▁Optical	-6202
▁attempt	-6203
▁latitud	-6204
▁ubiquit	-6205
figurable	-6206
▁aerosols	-6207
▁bridging	-6208
▁isotopes	-6209
▁neuronal	-6210
▁seasonal	-6211
▁separate	-6212
▁supernov	-6213
▁volatile	-6214
▁activated	-6215
▁biomarker	-6216
▁principle	-6217
▁industries	-6218
▁phenotypes	-6219
▁sufficient	-6220
▁Arabidopsis	-6221
▁algorithmic	-6222
▁crystalline	-6223
▁equilibrium	-6224
▁connectivity	-6225
▁respectively	-6226
▁sophisticated	-6227
▁characterizing	-6228
▁thermodynamics	-6229
De	-6230
rh	-6231
cyc	-6232
rep	-6233
ösa	-6234
▁(3	-6235
▁Ca	-6236
▁Ep	-6237
▁Si	-6238
▁Up	-6239
aker	-6240
erom	-6241
rome	-6242
vnad	-6243
▁Can	-6244
▁Ett	-6245
▁SiC	-6246
▁Vis	-6247
▁Way	-6248
▁aid	-6249
▁cha	-6250
▁iii	-6251
empor	-6252
oidal	-6253
▁bond	-6254
▁capt	-6255
▁fate	-6256
▁laws	-6257
▁mång	-6258
ilbert	-6259
ommend	-6260
▁Venus	-6261
▁cataly	-6262
▁restor	-6263
▁spruce	-6264
▁status	-6265
▁suffer	-6266
▁toxins	-6267
hydrogen	-6268
▁becomes	-6269
▁greater	-6270
▁droplets	-6271
▁handling	-6272
▁prepared	-6273
▁realized	-6274
▁Character	-6275
▁Synthesis	-6276
▁Scattering	-6277
▁metastable	-6278
▁surprising	-6279
▁throughput	-6280
▁widespread	-6281
▁appropriate	-6282
▁condensates	-6283
▁projections	-6284
▁coordination	-6285
▁formulations	-6286
▁representing	-6287
▁ferroelectric	-6288
▁multifunctional	-6289
NT	-6290
PP	-6291
ken	-6292
uit	-6293
▁Bl	-6294
▁Wa	-6295
▁vs	-6296
ched	-6297
dist	-6298
glac	-6299
reds	-6300
work	-6301
▁GaN	-6302
▁Hol	-6303
▁fot	-6304
bound	-6305
ional	-6306
param	-6307
tered	-6308
▁Från	-6309
▁cath	-6310
▁shar	-6311
▁tect	-6312
▁trem	-6313
arkins	-6314
ervoir	-6315
matter	-6316
uctive	-6317
ursors	-6318
▁Raman	-6319
▁angle	-6320
▁antag	-6321
▁grund	-6322
▁ideas	-6323
▁nanot	-6324
▁opens	-6325
▁refer	-6326
artment	-6327
science	-6328
▁Hybrid	-6329
▁Intern	-6330
▁Plasma	-6331
▁absorb	-6332
▁exists	-6333
▁mostly	-6334
▁shared	-6335
▁wavegu	-6336
assisted	-6337
echanics	-6338
▁Nuclear	-6339
▁Uppsala	-6340
▁charged	-6341
▁intense	-6342
▁reality	-6343
▁trigger	-6344
▁aromatic	-6345
▁suscepti	-6346
▁velocity	-6347
ectiveness	-6348
▁autophagy	-6349
▁olfactory	-6350
▁phenotype	-6351
▁practices	-6352
▁radiative	-6353
environment	-6354
▁Riemannian	-6355
▁potentials	-6356
▁constructed	-6357
▁methylation	-6358
▁synthesized	-6359
▁biomaterials	-6360
▁automatically	-6361
ede	-6362
eta	-6363
sel	-6364
ucl	-6365
wid	-6366
▁2-	-6367
▁CM	-6368
▁Do	-6369
▁Mg	-6370
▁kv	-6371
▁sa	-6372
coun	-6373
erna	-6374
high	-6375
lass	-6376
oted	-6377
▁Imp	-6378
▁MAX	-6379
▁Med	-6380
▁Tow	-6381
▁abs	-6382
▁hum	-6383
▁seg	-6384
▁tor	-6385
epend	-6386
rowth	-6387
ubble	-6388
ulära	-6389
▁PDEs	-6390
▁Prec	-6391
▁unit	-6392
fortun	-6393
otonic	-6394
spired	-6395
▁Their	-6396
▁ammon	-6397
▁games	-6398
▁mouse	-6399
▁penet	-6400
▁sched	-6401
▁electr	-6402
▁giving	-6403
▁months	-6404
▁moving	-6405
▁silico	-6406
▁speech	-6407
▁aqueous	-6408
▁finally	-6409
▁glasses	-6410
▁acquired	-6411
▁distance	-6412
▁evolving	-6413
▁infinite	-6414
▁machines	-6415
zoelectric	-6416
▁Numerical	-6417
▁ekosystem	-6418
fortunately	-6419
▁disordered	-6420
▁navigation	-6421
▁performing	-6422
▁synthesize	-6423
▁assessments	-6424
▁homogeneous	-6425
▁optimisation	-6426
▁collaborative	-6427
3.	-6428
An	-6429
FD	-6430
ny	-6431
sy	-6432
ubb	-6433
▁II	-6434
▁OC	-6435
▁Ti	-6436
iber	-6437
äker	-6438
▁Obs	-6439
▁Rel	-6440
▁Rep	-6441
▁Sel	-6442
▁era	-6443
▁ing	-6444
▁sil	-6445
andem	-6446
borne	-6447
etism	-6448
gräns	-6449
iness	-6450
▁cues	-6451
▁fall	-6452
▁tunn	-6453
ewater	-6454
metall	-6455
otypes	-6456
ptions	-6457
stable	-6458
tation	-6459
valent	-6460
▁Appro	-6461
▁Cloud	-6462
▁Waals	-6463
▁crops	-6464
▁fault	-6465
▁fysik	-6466
▁liver	-6467
▁skill	-6468
▁taken	-6469
▁thous	-6470
▁wider	-6471
ikation	-6472
▁circum	-6473
▁fibres	-6474
particle	-6475
▁Parkins	-6476
▁earlier	-6477
▁exoplan	-6478
▁highest	-6479
▁lithium	-6480
▁läkemed	-6481
▁nätverk	-6482
▁operate	-6483
▁surgery	-6484
▁trophic	-6485
dimension	-6486
operative	-6487
▁adhesion	-6488
▁exciting	-6489
▁komplexa	-6490
▁reactors	-6491
▁reported	-6492
▁astronomy	-6493
▁condensed	-6494
▁expressed	-6495
▁extension	-6496
▁integrity	-6497
▁interconn	-6498
▁motivated	-6499
▁published	-6500
electronics	-6501
▁concerning	-6502
▁historical	-6503
▁landscapes	-6504
▁manipulate	-6505
▁continental	-6506
▁homeostasis	-6507
▁realization	-6508
▁characterise	-6509
▁fundamentally	-6510
1,	-6511
Bs	-6512
IV	-6513
LE	-6514
oma	-6515
▁3-	-6516
▁Ul	-6517
alit	-6518
håll	-6519
poll	-6520
uted	-6521
▁Inf	-6522
▁Mut	-6523
amine	-6524
cript	-6525
ested	-6526
itets	-6527
plish	-6528
▁ljus	-6529
▁mort	-6530
idning	-6531
itudes	-6532
photon	-6533
▁embry	-6534
▁genus	-6535
▁inequ	-6536
▁intra	-6537
▁relax	-6538
project	-6539
rystall	-6540
▁alumin	-6541
▁cyclic	-6542
▁decade	-6543
▁intens	-6544
▁revers	-6545
activity	-6546
critical	-6547
odynamic	-6548
ronology	-6549
▁Molekyl	-6550
▁antagon	-6551
▁bonding	-6552
▁funding	-6553
▁scaling	-6554
▁voltage	-6555
▁Adaptive	-6556
▁analysed	-6557
▁hydrogel	-6558
▁majority	-6559
▁stresses	-6560
▁Efficient	-6561
▁fabricate	-6562
▁prototype	-6563
▁accomplish	-6564
▁evaluating	-6565
▁förståelse	-6566
▁mekanismer	-6567
▁molekylära	-6568
▁nanocompos	-6569
▁timescales	-6570
▁wavelength	-6571
▁confinement	-6572
▁specialized	-6573
▁compositions	-6574
▁nanomaterials	-6575
▁revolutionize	-6576
1.	-6577
▁$	-6578
VOC	-6579
cip	-6580
syn	-6581
▁Na	-6582
rele	-6583
tors	-6584
▁Mat	-6585
▁anc	-6586
▁eut	-6587
▁lar	-6588
ortom	-6589
poses	-6590
robot	-6591
table	-6592
▁(202	-6593
▁aven	-6594
▁late	-6595
▁spac	-6596
ifiers	-6597
mosfär	-6598
▁Langu	-6599
▁Mikro	-6600
▁exhib	-6601
▁filam	-6602
▁mimic	-6603
▁spher	-6604
aussian	-6605
ättning	-6606
▁criter	-6607
▁namely	-6608
▁proved	-6609
▁supers	-6610
▁toward	-6611
▁weight	-6612
▁Another	-6613
▁Dynamic	-6614
▁collect	-6615
▁degrees	-6616
▁editing	-6617
▁observe	-6618
▁solvers	-6619
▁substit	-6620
▁biofilms	-6621
▁duration	-6622
structural	-6623
▁amorphous	-6624
▁dedicated	-6625
▁estimated	-6626
▁Multiscale	-6627
▁orthogonal	-6628
▁scientists	-6629
▁ubiquitous	-6630
▁Information	-6631
▁introducing	-6632
▁stimulation	-6633
▁constitutive	-6634
▁Environmental	-6635
▁antibacterial	-6636
▁crystallography	-6637
-,	-6638
CP	-6639
ND	-6640
TE	-6641
▁μ	-6642
add	-6643
ris	-6644
set	-6645
▁EV	-6646
▁SE	-6647
cers	-6648
havi	-6649
odic	-6650
▁200	-6651
▁cul	-6652
▁mir	-6653
elial	-6654
emisk	-6655
optim	-6656
otion	-6657
virus	-6658
▁Link	-6659
▁Spin	-6660
▁conv	-6661
▁half	-6662
▁mini	-6663
▁perf	-6664
▁pose	-6665
▁quad	-6666
▁rock	-6667
ention	-6668
erging	-6669
ompass	-6670
proper	-6671
▁beräk	-6672
▁hjärn	-6673
▁pulse	-6674
▁tight	-6675
▁until	-6676
develop	-6677
▁Dirich	-6678
▁Formal	-6679
▁Markov	-6680
▁acting	-6681
▁arrang	-6682
▁chains	-6683
▁errors	-6684
▁flight	-6685
▁hydroc	-6686
▁mutual	-6687
▁notion	-6688
▁tailor	-6689
athering	-6690
junction	-6691
transfer	-6692
ysiology	-6693
▁Towards	-6694
▁angular	-6695
▁possess	-6696
precision	-6697
▁assessed	-6698
▁continue	-6699
▁invasive	-6700
▁repeated	-6701
▁synchron	-6702
mechanical	-6703
▁Knowledge	-6704
▁machinery	-6705
▁mammalian	-6706
▁reglering	-6707
▁reservoir	-6708
▁conductive	-6709
▁association	-6710
▁constrained	-6711
▁Biodiversity	-6712
▁alternatives	-6713
▁contaminants	-6714
▁facilitating	-6715
▁interstellar	-6716
▁intervention	-6717
▁trajectories	-6718
▁intermediates	-6719
PR	-6720
rä	-6721
ean	-6722
rie	-6723
usc	-6724
▁od	-6725
bryt	-6726
edom	-6727
mann	-6728
perm	-6729
such	-6730
ustr	-6731
▁Lag	-6732
▁Typ	-6733
▁cat	-6734
▁rhe	-6735
▁trä	-6736
iptic	-6737
metal	-6738
otopy	-6739
▁SARS	-6740
▁Vari	-6741
▁bird	-6742
▁gate	-6743
▁inac	-6744
eroids	-6745
mented	-6746
ometri	-6747
tonian	-6748
▁Small	-6749
▁enter	-6750
▁motif	-6751
▁rocks	-6752
▁sheet	-6753
arching	-6754
embrane	-6755
riguing	-6756
▁ancest	-6757
▁coding	-6758
▁organs	-6759
▁unveil	-6760
umptions	-6761
▁Imaging	-6762
▁ambient	-6763
▁attacks	-6764
▁cascade	-6765
▁century	-6766
▁engines	-6767
▁equival	-6768
▁folding	-6769
▁harness	-6770
▁reactor	-6771
▁recruit	-6772
▁shaping	-6773
▁thought	-6774
▁typical	-6775
apacitors	-6776
omography	-6777
▁scanning	-6778
abrication	-6779
ektroskopi	-6780
▁Currently	-6781
▁Nonlinear	-6782
▁automatic	-6783
▁biosphere	-6784
▁collision	-6785
▁encompass	-6786
▁förbättra	-6787
▁localized	-6788
▁scaffolds	-6789
▁Stochastic	-6790
▁correspond	-6791
▁precursors	-6792
▁sequential	-6793
▁vertebrate	-6794
▁exponential	-6795
▁overarching	-6796
▁polysacchar	-6797
▁restoration	-6798
▁astrophysical	-6799
▁piezoelectric	-6800
▁communications	-6801
CE	-6802
yd	-6803
Cas	-6804
CoV	-6805
niv	-6806
ods	-6807
oli	-6808
sub	-6809
ula	-6810
▁Cr	-6811
▁Cu	-6812
▁GH	-6813
▁ID	-6814
▁la	-6815
,000	-6816
amic	-6817
ened	-6818
fold	-6819
view	-6820
växt	-6821
▁AMR	-6822
▁haz	-6823
▁nem	-6824
arrow	-6825
mikro	-6826
nucle	-6827
▁biop	-6828
▁dots	-6829
▁ever	-6830
▁nerv	-6831
▁tune	-6832
▁zone	-6833
acking	-6834
ecraft	-6835
ektion	-6836
enotyp	-6837
graphs	-6838
ieties	-6839
imeter	-6840
lusion	-6841
rivial	-6842
ulates	-6843
▁Neuro	-6844
▁compl	-6845
▁count	-6846
orphism	-6847
surface	-6848
▁Observ	-6849
▁bottom	-6850
▁sector	-6851
▁switch	-6852
▁topics	-6853
emporary	-6854
otential	-6855
▁Genetic	-6856
▁compute	-6857
▁library	-6858
▁robotic	-6859
effective	-6860
▁explores	-6861
▁facility	-6862
▁feasible	-6863
▁modeller	-6864
▁intricate	-6865
▁invertebr	-6866
▁photonics	-6867
▁thickness	-6868
▁collisions	-6869
▁dispersion	-6870
▁interested	-6871
▁introduces	-6872
▁quantities	-6873
▁simplified	-6874
▁Fundamental	-6875
▁Interaction	-6876
▁Theoretical	-6877
▁generalized	-6878
▁transistors	-6879
▁Interactions	-6880
▁combinations	-6881
▁constructing	-6882
▁functionally	-6883
▁phytoplankton	-6884
▁characteristic	-6885
▁transportation	-6886
1-	-6887
4,	-6888
CL	-6889
Cs	-6890
En	-6891
FA	-6892
RA	-6893
ah	-6894
▁9	-6895
SiC	-6896
ems	-6897
ira	-6898
jud	-6899
nos	-6900
▁tv	-6901
anym	-6902
isph	-6903
olay	-6904
omyc	-6905
outh	-6906
rist	-6907
utin	-6908
över	-6909
▁ESS	-6910
▁Sem	-6911
▁Ver	-6912
▁eth	-6913
▁myc	-6914
▁pin	-6915
ihood	-6916
lived	-6917
▁Alge	-6918
▁Nano	-6919
▁Some	-6920
▁moun	-6921
▁myst	-6922
▁port	-6923
▁verk	-6924
celler	-6925
liquid	-6926
luding	-6927
matrix	-6928
▁Fluid	-6929
▁Ganym	-6930
▁bonds	-6931
▁defin	-6932
▁hotsp	-6933
▁route	-6934
▁shock	-6935
▁works	-6936
climate	-6937
ipheral	-6938
linical	-6939
▁Marine	-6940
▁afford	-6941
▁anatom	-6942
▁colour	-6943
▁refine	-6944
▁sparse	-6945
▁unlock	-6946
allation	-6947
▁General	-6948
▁adverse	-6949
▁hearing	-6950
▁hydroph	-6951
▁contains	-6952
▁elevated	-6953
▁extremes	-6954
▁harmonic	-6955
▁modulate	-6956
▁presents	-6957
▁proteome	-6958
produktion	-6959
▁dissolved	-6960
▁feedbacks	-6961
▁mortality	-6962
▁requiring	-6963
▁revealing	-6964
▁splitting	-6965
▁thousands	-6966
▁difference	-6967
▁regulators	-6968
▁restricted	-6969
▁telescopes	-6970
▁unexpected	-6971
▁biomolecular	-6972
▁considerable	-6973
▁dramatically	-6974
▁metabolomics	-6975
)-	-6976
3-	-6977
Ne	-6978
Ph	-6979
Wh	-6980
▁Å	-6981
eat	-6982
▁ax	-6983
▁mm	-6984
▁pa	-6985
elet	-6986
etyd	-6987
uppl	-6988
▁DFT	-6989
▁Lin	-6990
▁flö	-6991
Based	-6992
aktor	-6993
assic	-6994
depth	-6995
eless	-6996
estic	-6997
fysik	-6998
speed	-6999
utron	-7000
▁Star	-7001
▁auto	-7002
▁bund	-7003
▁cham	-7004
▁erup	-7005
▁room	-7006
omplet	-7007
upling	-7008
urpose	-7009
▁biore	-7010
▁delay	-7011
▁query	-7012
▁scope	-7013
▁upper	-7014
ressive	-7015
▁center	-7016
▁encoun	-7017
▁injury	-7018
▁prolif	-7019
▁timely	-7020
▁tuning	-7021
▁underp	-7022
elektron	-7023
▁Natural	-7024
▁gallium	-7025
otemporal	-7026
▁Material	-7027
▁engineer	-7028
▁pipeline	-7029
▁actuators	-7030
▁processer	-7031
▁confidence	-7032
▁extensions	-7033
▁Topological	-7034
▁assumptions	-7035
▁explainable	-7036
▁instability	-7037
▁Optimization	-7038
▁contemporary	-7039
▁explanations	-7040
▁intermediate	-7041
▁microfluidic	-7042
▁therapeutics	-7043
▁magnetization	-7044
▁visualization	-7045
▁predictability	-7046
3,	-7047
MD	-7048
Os	-7049
▁[	-7050
VID	-7051
enh	-7052
vet	-7053
▁4)	-7054
▁MR	-7055
inds	-7056
orec	-7057
path	-7058
pped	-7059
roke	-7060
ront	-7061
rown	-7062
▁Alg	-7063
▁And	-7064
▁Sec	-7065
▁exh	-7066
▁see	-7067
algae	-7068
anent	-7069
asion	-7070
relim	-7071
▁Also	-7072
▁Circ	-7073
▁Long	-7074
▁Path	-7075
▁acad	-7076
▁dens	-7077
▁fair	-7078
▁geom	-7079
▁graf	-7080
biosis	-7081
rystal	-7082
öntgen	-7083
▁Field	-7084
▁algal	-7085
▁allel	-7086
▁displ	-7087
▁extra	-7088
▁index	-7089
▁loads	-7090
▁never	-7091
▁plane	-7092
▁subun	-7093
eringar	-7094
faction	-7095
lusions	-7096
ologisk	-7097
rystals	-7098
thermal	-7099
▁accoun	-7100
▁använd	-7101
▁arrays	-7102
▁budget	-7103
▁dissip	-7104
▁finger	-7105
▁quarks	-7106
▁sialic	-7107
▁solved	-7108
oclimate	-7109
titative	-7110
▁decline	-7111
▁freedom	-7112
▁generic	-7113
▁removal	-7114
▁sorting	-7115
▁trained	-7116
▁Ganymede	-7117
▁Internet	-7118
▁Particle	-7119
▁breaking	-7120
▁covering	-7121
▁effekter	-7122
▁emergent	-7123
▁emphasis	-7124
▁indirect	-7125
▁lifetime	-7126
▁millions	-7127
▁released	-7128
▁wearable	-7129
reliminary	-7130
▁Dirichlet	-7131
▁exploited	-7132
▁locations	-7133
▁spacetime	-7134
▁competition	-7135
▁homological	-7136
▁pollination	-7137
▁biomolecules	-7138
▁hierarchical	-7139
▁configurations	-7140
▁generalization	-7141
▁methodological	-7142
▁functionalities	-7143
5%	-7144
CC	-7145
CI	-7146
LP	-7147
dW	-7148
EDs	-7149
cor	-7150
rit	-7151
upp	-7152
yle	-7153
▁(&	-7154
▁EM	-7155
▁MN	-7156
onon	-7157
▁Ick	-7158
▁Key	-7159
▁aud	-7160
▁lag	-7161
asons	-7162
atisk	-7163
ended	-7164
manif	-7165
matic	-7166
ously	-7167
ratic	-7168
width	-7169
▁Hall	-7170
▁loop	-7171
▁nich	-7172
▁onto	-7173
onucle	-7174
target	-7175
turell	-7176
▁check	-7177
▁efter	-7178
▁flame	-7179
▁melan	-7180
▁poses	-7181
▁seman	-7182
▁shows	-7183
biology	-7184
eningar	-7185
olymers	-7186
program	-7187
▁Ultras	-7188
▁Within	-7189
▁curves	-7190
▁deepen	-7191
▁female	-7192
▁mature	-7193
▁meteor	-7194
▁tensor	-7195
▁tumors	-7196
fidelity	-7197
ukturell	-7198
▁Mercury	-7199
▁clarify	-7200
▁convert	-7201
▁mångfal	-7202
▁serious	-7203
▁toolbox	-7204
odynamics	-7205
onsekvens	-7206
ophysical	-7207
▁Galactic	-7208
▁Language	-7209
▁controll	-7210
▁informed	-7211
▁inspired	-7212
▁intended	-7213
▁periodic	-7214
▁possibly	-7215
▁transmit	-7216
▁Bacterial	-7217
▁carbohydr	-7218
▁chromosome	-7219
▁dielectric	-7220
▁durability	-7221
▁occurrence	-7222
▁coordinated	-7223
▁geometrical	-7224
▁instruments	-7225
▁spintronics	-7226
▁associations	-7227
▁effectiveness	-7228
▁metamaterials	-7229
▁multicellular	-7230
▁implementations	-7231
▁reconstructions	-7232
DM	-7233
XS	-7234
bo	-7235
oe	-7236
ney	-7237
sea	-7238
▁CD	-7239
▁du	-7240
▁yt	-7241
aria	-7242
bion	-7243
ceed	-7244
omik	-7245
rosp	-7246
▁Hög	-7247
▁Its	-7248
▁ned	-7249
▁när	-7250
anium	-7251
erior	-7252
ermal	-7253
habil	-7254
oting	-7255
ploid	-7256
polar	-7257
ulomb	-7258
vices	-7259
öping	-7260
▁Chal	-7261
▁Dark	-7262
▁Land	-7263
▁Prof	-7264
▁Rand	-7265
▁dess	-7266
▁disl	-7267
▁easy	-7268
▁hars	-7269
▁jord	-7270
▁shor	-7271
ariate	-7272
erings	-7273
everal	-7274
irable	-7275
tility	-7276
▁Analy	-7277
▁Early	-7278
▁alone	-7279
▁artic	-7280
▁codes	-7281
▁holog	-7282
▁knock	-7283
▁rigid	-7284
▁telec	-7285
artlägg	-7286
erosion	-7287
imaging	-7288
instein	-7289
olecule	-7290
rangian	-7291
ulators	-7292
urfaces	-7293
vergång	-7294
▁adjust	-7295
▁allost	-7296
▁attach	-7297
▁disent	-7298
▁facing	-7299
▁hetero	-7300
▁person	-7301
▁qualit	-7302
oprotein	-7303
pectives	-7304
ransport	-7305
spectral	-7306
▁antenna	-7307
▁elusive	-7308
▁filters	-7309
▁pharmac	-7310
▁popular	-7311
▁surfact	-7312
▁vehicle	-7313
atibility	-7314
eleration	-7315
ikationer	-7316
▁Collabor	-7317
▁contacts	-7318
▁decipher	-7319
▁hundreds	-7320
▁uniquely	-7321
▁Ultrafast	-7322
▁correlate	-7323
▁energetic	-7324
▁iterative	-7325
▁recommend	-7326
▁standards	-7327
▁amplitudes	-7328
▁comparison	-7329
▁instrument	-7330
▁regression	-7331
▁remarkable	-7332
▁spacecraft	-7333
▁anisotropic	-7334
▁quantifying	-7335
▁synergistic	-7336
▁Applications	-7337
▁Differential	-7338
▁Mathematical	-7339
▁implementing	-7340
▁intersection	-7341
▁mitochondria	-7342
▁perturbations	-7343
▁bioinformatics	-7344
▁unconventional	-7345
Es	-7346
NF	-7347
OT	-7348
▁—	-7349
ALD	-7350
ads	-7351
aph	-7352
gly	-7353
ryo	-7354
seq	-7355
ull	-7356
▁ty	-7357
▁yo	-7358
epar	-7359
häll	-7360
onge	-7361
with	-7362
örel	-7363
▁Gra	-7364
▁Ham	-7365
▁Mot	-7366
▁flo	-7367
aptic	-7368
flies	-7369
oints	-7370
omere	-7371
posit	-7372
umann	-7373
▁Addi	-7374
▁Cons	-7375
▁Even	-7376
▁embr	-7377
▁fasc	-7378
▁hope	-7379
▁rear	-7380
▁seaw	-7381
▁trap	-7382
ceptor	-7383
illary	-7384
istisk	-7385
orecep	-7386
otroph	-7387
oxygen	-7388
ressed	-7389
▁Hyper	-7390
▁Ultra	-7391
▁elast	-7392
▁endoc	-7393
▁fixed	-7394
▁nanow	-7395
▁palae	-7396
▁ratio	-7397
▁share	-7398
▁sizes	-7399
▁steel	-7400
urrence	-7401
▁Africa	-7402
▁Future	-7403
▁custom	-7404
▁energi	-7405
▁modify	-7406
▁pherom	-7407
▁qubits	-7408
▁salmon	-7409
▁satisf	-7410
ationary	-7411
friendly	-7412
ogeneous	-7413
physical	-7414
▁Density	-7415
▁Program	-7416
▁absence	-7417
▁carbide	-7418
▁mission	-7419
▁outside	-7420
▁plasmas	-7421
▁protect	-7422
▁utility	-7423
ontaneous	-7424
▁Together	-7425
▁confined	-7426
▁counting	-7427
▁holistic	-7428
▁mediated	-7429
▁students	-7430
▁theorems	-7431
controlled	-7432
▁Parkinson	-7433
▁depending	-7434
▁extracted	-7435
▁Ultimately	-7436
▁consistent	-7437
▁constitute	-7438
▁parametric	-7439
▁vibrations	-7440
▁wastewater	-7441
▁Modellering	-7442
▁chloroplast	-7443
▁geochemical	-7444
▁groundwater	-7445
▁orientation	-7446
▁recombinant	-7447
▁incorporation	-7448
▁magnetosphere	-7449
▁photoelectron	-7450
▁proliferation	-7451
▁physicochemical	-7452
--	-7453
Hs	-7454
SF	-7455
Ss	-7456
any	-7457
esp	-7458
exp	-7459
ren	-7460
spr	-7461
uss	-7462
uzz	-7463
▁IT	-7464
▁Vä	-7465
ames	-7466
ilot	-7467
jälv	-7468
oron	-7469
seud	-7470
uras	-7471
▁Age	-7472
▁Aim	-7473
▁cam	-7474
▁che	-7475
▁din	-7476
▁fed	-7477
▁mag	-7478
▁oce	-7479
orthy	-7480
uster	-7481
▁Flow	-7482
▁cast	-7483
▁curv	-7484
▁devi	-7485
▁flav	-7486
▁germ	-7487
▁migr	-7488
▁mjuk	-7489
▁männ	-7490
▁norm	-7491
▁ring	-7492
▁tend	-7493
asitic	-7494
isture	-7495
ografi	-7496
oplasm	-7497
ouling	-7498
▁Local	-7499
▁annot	-7500
▁effek	-7501
▁grown	-7502
▁harsh	-7503
▁white	-7504
ectious	-7505
limatic	-7506
▁Determ	-7507
▁Robust	-7508
▁biopro	-7509
▁breast	-7510
▁butter	-7511
▁closed	-7512
▁drives	-7513
▁elucid	-7514
▁impair	-7515
▁latest	-7516
▁orders	-7517
▁return	-7518
▁Coulomb	-7519
▁reasons	-7520
▁stimuli	-7521
▁Computer	-7522
▁attribut	-7523
▁granular	-7524
▁multilay	-7525
conversion	-7526
▁Ecosystem	-7527
▁additives	-7528
▁bioactive	-7529
▁calculate	-7530
▁equipment	-7531
▁highlight	-7532
▁partition	-7533
▁principal	-7534
▁procedure	-7535
▁recruited	-7536
▁strengths	-7537
▁aggregates	-7538
▁avbildning	-7539
▁downstream	-7540
▁weathering	-7541
▁Preliminary	-7542
▁perspectives	-7543
4.	-7544
BP	-7545
HE	-7546
OP	-7547
RL	-7548
TA	-7549
kan	-7550
ptä	-7551
orrh	-7552
pens	-7553
rone	-7554
ryck	-7555
stim	-7556
ästa	-7557
▁PET	-7558
aware	-7559
elves	-7560
iella	-7561
iodic	-7562
kalig	-7563
otide	-7564
ulent	-7565
value	-7566
▁Free	-7567
▁Lign	-7568
▁Prob	-7569
▁dend	-7570
▁komb	-7571
▁lost	-7572
▁pine	-7573
actors	-7574
ahertz	-7575
romagn	-7576
▁Hydro	-7577
▁Reson	-7578
▁arter	-7579
▁remod	-7580
▁solub	-7581
▁video	-7582
▁walls	-7583
elihood	-7584
oppling	-7585
▁Random	-7586
▁anpass	-7587
▁burden	-7588
▁burial	-7589
▁confir	-7590
▁glycos	-7591
▁immedi	-7592
▁invers	-7593
▁moduli	-7594
▁oceans	-7595
▁partly	-7596
▁replic	-7597
▁solids	-7598
▁wounds	-7599
pressure	-7600
property	-7601
vandling	-7602
▁Algebra	-7603
▁Science	-7604
▁bandgap	-7605
▁changed	-7606
▁fission	-7607
▁lateral	-7608
▁micropl	-7609
▁orbital	-7610
▁package	-7611
▁verktyg	-7612
▁Chalmers	-7613
▁communic	-7614
▁diabetes	-7615
▁envision	-7616
▁friendly	-7617
▁reaching	-7618
▁robotics	-7619
▁Computing	-7620
▁capturing	-7621
▁formalism	-7622
▁situation	-7623
▁stressors	-7624
established	-7625
▁Integrated	-7626
▁biosensors	-7627
▁clinically	-7628
▁correction	-7629
▁infectious	-7630
▁intriguing	-7631
▁konsekvens	-7632
▁modalities	-7633
▁peripheral	-7634
▁prevention	-7635
▁recognized	-7636
förändringar	-7637
▁calibration	-7638
▁complemented	-7639
▁introduction	-7640
▁Communication	-7641
▁deterministic	-7642
▁intracellular	-7643
▁participating	-7644
▁spatiotemporal	-7645
Ch	-7646
SE	-7647
bl	-7648
▁β	-7649
TEM	-7650
ert	-7651
iob	-7652
rar	-7653
rog	-7654
▁18	-7655
▁MD	-7656
With	-7657
arth	-7658
ermi	-7659
holm	-7660
idae	-7661
iers	-7662
itor	-7663
ixed	-7664
ster	-7665
▁Den	-7666
▁PDE	-7667
▁Val	-7668
▁alk	-7669
▁amb	-7670
▁bak	-7671
▁cub	-7672
▁hav	-7673
▁mol	-7674
▁ped	-7675
cerol	-7676
earth	-7677
iotic	-7678
lines	-7679
rared	-7680
▁Drug	-7681
▁Post	-7682
▁blue	-7683
▁flat	-7684
▁frac	-7685
▁subt	-7686
atiska	-7687
inetic	-7688
values	-7689
änning	-7690
▁Euras	-7691
▁Smart	-7692
▁adequ	-7693
▁anaer	-7694
▁mekan	-7695
▁nanos	-7696
▁roots	-7697
▁rules	-7698
emental	-7699
trivial	-7700
turning	-7701
▁Genome	-7702
▁Visual	-7703
▁achiev	-7704
▁cavity	-7705
▁coming	-7706
▁guidel	-7707
▁indoor	-7708
▁policy	-7709
piration	-7710
relation	-7711
▁Atmosph	-7712
▁Metabol	-7713
▁Neutron	-7714
▁Optimal	-7715
▁Studies	-7716
▁epitaxy	-7717
▁mercury	-7718
▁minimum	-7719
▁nervous	-7720
▁ordered	-7721
▁threats	-7722
▁tremend	-7723
▁composed	-7724
▁criteria	-7725
▁deposits	-7726
▁emitters	-7727
▁spanning	-7728
containing	-7729
emperature	-7730
▁ambitious	-7731
▁curvature	-7732
▁engineers	-7733
▁organiska	-7734
▁proteiner	-7735
▁triggered	-7736
▁Lagrangian	-7737
▁bottleneck	-7738
▁guidelines	-7739
▁inhibition	-7740
▁mitigating	-7741
▁experienced	-7742
▁explanation	-7743
▁forecasting	-7744
▁respiratory	-7745
▁spontaneous	-7746
▁Evolutionary	-7747
▁Quantitative	-7748
▁biosynthesis	-7749
▁continuously	-7750
▁inflammation	-7751
▁oscillations	-7752
▁perturbation	-7753
▁photovoltaics	-7754
▁specification	-7755
▁groundbreaking	-7756
10	-7757
4-	-7758
DA	-7759
Re	-7760
ga	-7761
tr	-7762
BAR	-7763
alc	-7764
apl	-7765
irk	-7766
itz	-7767
occ	-7768
uly	-7769
vol	-7770
yrm	-7771
▁DA	-7772
▁Gl	-7773
▁PD	-7774
host	-7775
imal	-7776
obil	-7777
rick	-7778
rier	-7779
tids	-7780
▁Had	-7781
▁dog	-7782
▁rum	-7783
▁tit	-7784
ester	-7785
etary	-7786
hydro	-7787
ifier	-7788
inent	-7789
uries	-7790
▁Life	-7791
▁Pale	-7792
▁Pers	-7793
▁evol	-7794
▁grad	-7795
▁guid	-7796
▁keep	-7797
▁kern	-7798
▁mice	-7799
▁mild	-7800
▁moon	-7801
▁styr	-7802
▁åter	-7803
aktiva	-7804
escope	-7805
otrans	-7806
vatten	-7807
▁Galax	-7808
▁Polar	-7809
▁algae	-7810
▁boson	-7811
▁logic	-7812
▁quite	-7813
▁satur	-7814
▁tract	-7815
ristall	-7816
▁Magnet	-7817
▁drying	-7818
▁nanopl	-7819
▁pestic	-7820
▁pollen	-7821
▁retrie	-7822
▁warmer	-7823
etically	-7824
isations	-7825
rimental	-7826
▁Hilbert	-7827
▁Overall	-7828
▁Perovsk	-7829
▁Several	-7830
▁calcium	-7831
▁centers	-7832
▁erosion	-7833
▁harmful	-7834
▁layered	-7835
▁melting	-7836
▁options	-7837
▁printed	-7838
▁recover	-7839
▁running	-7840
functions	-7841
uleringar	-7842
▁hampered	-7843
▁independ	-7844
▁purposes	-7845
▁rotation	-7846
▁sections	-7847
ionization	-7848
▁Förbättra	-7849
▁Linköping	-7850
▁coherence	-7851
▁databases	-7852
▁desirable	-7853
▁distances	-7854
▁divergent	-7855
▁electroph	-7856
▁fragments	-7857
▁permanent	-7858
▁waveguide	-7859
▁Generative	-7860
▁antibodies	-7861
▁hyperbolic	-7862
▁likelihood	-7863
armaceutical	-7864
▁Distributed	-7865
▁compression	-7866
▁correctness	-7867
▁demographic	-7868
▁extensively	-7869
▁pathological	-7870
▁reconfigurable	-7871
▁microstructures	-7872
▁pharmaceuticals	-7873
▁superconductors	-7874
FE	-7875
FM	-7876
uv	-7877
aks	-7878
ekv	-7879
kod	-7880
rub	-7881
våg	-7882
▁30	-7883
▁Cy	-7884
▁ER	-7885
▁EU	-7886
▁SO	-7887
ager	-7888
fill	-7889
made	-7890
osel	-7891
rine	-7892
skal	-7893
▁Dom	-7894
▁Low	-7895
▁Mes	-7896
▁PRO	-7897
▁SVs	-7898
▁Sun	-7899
▁aug	-7900
▁did	-7901
▁erg	-7902
abled	-7903
eroid	-7904
fluor	-7905
ident	-7906
immun	-7907
pital	-7908
space	-7909
▁pain	-7910
▁sink	-7911
erving	-7912
integr	-7913
izable	-7914
ocytes	-7915
ondens	-7916
▁After	-7917
▁docum	-7918
▁metod	-7919
▁onset	-7920
▁posed	-7921
▁shell	-7922
▁stead	-7923
▁sympt	-7924
dynamic	-7925
portant	-7926
ropical	-7927
▁Behavi	-7928
▁arbitr	-7929
▁archae	-7930
▁chaper	-7931
▁costly	-7932
▁market	-7933
▁viable	-7934
cellular	-7935
läggande	-7936
▁Biology	-7937
▁Sensing	-7938
▁Stellar	-7939
▁billion	-7940
▁choices	-7941
▁glacial	-7942
▁magneto	-7943
▁metagen	-7944
▁mikrobi	-7945
▁opening	-7946
▁origins	-7947
▁service	-7948
▁solvent	-7949
▁treated	-7950
ativistic	-7951
electroly	-7952
otoxicity	-7953
▁Holocene	-7954
▁Northern	-7955
▁biocatal	-7956
▁guidance	-7957
▁kontroll	-7958
▁lineages	-7959
▁nanofibr	-7960
▁resonant	-7961
▁Telescope	-7962
▁according	-7963
▁carefully	-7964
▁observing	-7965
▁semantics	-7966
▁Population	-7967
▁fabricated	-7968
▁indicators	-7969
▁persistent	-7970
▁simulating	-7971
▁suggesting	-7972
akterisering	-7973
▁Statistical	-7974
▁consequence	-7975
▁detrimental	-7976
▁acceleration	-7977
▁biochemistry	-7978
▁neuroscience	-7979
▁instabilities	-7980
vo	-7981
GaN	-7982
lit	-7983
sek	-7984
▁0.	-7985
▁CT	-7986
▁HI	-7987
▁SW	-7988
▁pi	-7989
▁sn	-7990
ares	-7991
aust	-7992
loop	-7993
uell	-7994
▁ILs	-7995
▁IoT	-7996
▁mer	-7997
▁ram	-7998
antle	-7999
chain	-8000
ocial	-8001
parts	-8002
roids	-8003
▁Atom	-8004
▁Cont	-8005
▁Icke	-8006
▁deal	-8007
▁diag	-8008
▁ferm	-8009
▁lact	-8010
▁oste	-8011
▁trac	-8012
▁vess	-8013
ariant	-8014
domain	-8015
eptide	-8016
revers	-8017
ulsion	-8018
worthy	-8019
▁Hamil	-8020
▁MXene	-8021
▁doing	-8022
▁fruit	-8023
▁giant	-8024
▁impos	-8025
▁paper	-8026
▁pilot	-8027
pecific	-8028
▁Matter	-8029
▁Oxygen	-8030
▁Source	-8031
▁guided	-8032
▁motors	-8033
▁reconc	-8034
▁relate	-8035
▁senior	-8036
▁starts	-8037
relevant	-8038
▁Aerosol	-8039
▁Mapping	-8040
▁capital	-8041
▁emitted	-8042
▁encoded	-8043
▁nitride	-8044
including	-8045
▁doctoral	-8046
▁encoding	-8047
▁exosomes	-8048
▁genotype	-8049
▁included	-8050
▁isotopic	-8051
▁missions	-8052
▁nitrides	-8053
▁telomere	-8054
▁unstable	-8055
▁Formation	-8056
▁Microbial	-8057
▁abilities	-8058
▁footprint	-8059
▁incomplet	-8060
▁pathology	-8061
▁spreading	-8062
▁terahertz	-8063
▁virulence	-8064
artläggning	-8065
modellering	-8066
▁assemblies	-8067
▁frequently	-8068
▁guarantees	-8069
▁multilayer	-8070
▁proteoform	-8071
▁supervised	-8072
▁Unravelling	-8073
▁eigenvalues	-8074
▁fluorescent	-8075
▁foundations	-8076
▁disturbances	-8077
▁breakthroughs	-8078
▁photosynthetic	-8079
IL	-8080
kon	-8081
tek	-8082
uel	-8083
uum	-8084
▁Ny	-8085
▁Ob	-8086
ecks	-8087
ensk	-8088
ichi	-8089
imil	-8090
oxia	-8091
redi	-8092
ulär	-8093
zone	-8094
örer	-8095
▁1-2	-8096
▁Dep	-8097
▁cod	-8098
▁lim	-8099
▁pet	-8100
▁raw	-8101
arian	-8102
ataly	-8103
ativa	-8104
group	-8105
oichi	-8106
toler	-8107
umble	-8108
waves	-8109
▁Dise	-8110
▁char	-8111
▁grid	-8112
▁hall	-8113
▁marg	-8114
▁wing	-8115
antine	-8116
static	-8117
strain	-8118
uclide	-8119
▁Immun	-8120
▁Innov	-8121
▁Photo	-8122
▁Power	-8123
▁Thomp	-8124
▁alpha	-8125
▁donor	-8126
▁going	-8127
▁mater	-8128
▁storm	-8129
▁toxin	-8130
folding	-8131
ogenous	-8132
▁Compar	-8133
▁always	-8134
▁binary	-8135
▁comple	-8136
▁defici	-8137
▁easier	-8138
▁hazard	-8139
▁inputs	-8140
▁latent	-8141
▁masses	-8142
▁proofs	-8143
▁silica	-8144
▁ultral	-8145
inspired	-8146
▁assumed	-8147
▁guiding	-8148
▁located	-8149
▁quickly	-8150
▁reached	-8151
▁undergo	-8152
classical	-8153
coelastic	-8154
itization	-8155
manifolds	-8156
ompatible	-8157
resistant	-8158
sensitive	-8159
▁Collider	-8160
▁Graphene	-8161
▁Previous	-8162
▁adoption	-8163
▁although	-8164
▁believed	-8165
▁calculus	-8166
▁collapse	-8167
▁geometri	-8168
▁implicit	-8169
▁subjects	-8170
rinsically	-8171
▁analysing	-8172
▁asymmetry	-8173
▁dispersal	-8174
▁elemental	-8175
▁forecasts	-8176
▁specimens	-8177
▁Generation	-8178
▁Scandinavi	-8179
▁elementary	-8180
▁eventually	-8181
▁integrable	-8182
▁sputtering	-8183
▁strukturer	-8184
habilitation	-8185
ommunikation	-8186
▁accelerated	-8187
▁atmospheres	-8188
▁supervision	-8189
▁colonization	-8190
▁incorporated	-8191
▁transporters	-8192
▁universality	-8193
▁Investigating	-8194
▁Unfortunately	-8195
▁microfluidics	-8196
Ex	-8197
Hg	-8198
PD	-8199
ING	-8200
bur	-8201
gum	-8202
iab	-8203
ili	-8204
nal	-8205
ube	-8206
ägg	-8207
▁Mi	-8208
▁PL	-8209
▁SH	-8210
▁py	-8211
ifer	-8212
ithm	-8213
olet	-8214
osen	-8215
ptäc	-8216
▁(4)	-8217
▁Bor	-8218
▁CCT	-8219
▁Com	-8220
▁TEM	-8221
▁onc	-8222
▁ont	-8223
aktiv	-8224
initi	-8225
ionic	-8226
marks	-8227
ozoic	-8228
tiskt	-8229
toxic	-8230
urate	-8231
▁2025	-8232
▁Hard	-8233
▁Plan	-8234
▁Wave	-8235
▁beet	-8236
▁educ	-8237
▁farm	-8238
▁femt	-8239
▁iter	-8240
▁laun	-8241
▁synd	-8242
applic	-8243
efront	-8244
ennial	-8245
enomen	-8246
icking	-8247
imetry	-8248
ishing	-8249
▁Initi	-8250
▁Lipid	-8251
▁catch	-8252
▁kinem	-8253
▁lives	-8254
▁polyc	-8255
▁remed	-8256
▁seism	-8257
andemic	-8258
binding	-8259
lattice	-8260
plectic	-8261
tration	-8262
▁Health	-8263
▁Neurom	-8264
▁decays	-8265
▁discre	-8266
▁mantle	-8267
▁motifs	-8268
▁påverk	-8269
▁solver	-8270
▁tumour	-8271
▁versus	-8272
funktion	-8273
handling	-8274
informed	-8275
▁Diagnos	-8276
▁avenues	-8277
▁devoted	-8278
▁prepare	-8279
▁probing	-8280
▁readout	-8281
▁sectors	-8282
▁surveys	-8283
ufficient	-8284
▁Specific	-8285
▁actively	-8286
▁dominant	-8287
▁elliptic	-8288
▁equipped	-8289
▁floating	-8290
▁foraging	-8291
▁initiate	-8292
▁verified	-8293
utveckling	-8294
▁Detection	-8295
▁Processes	-8296
▁arbitrary	-8297
▁countries	-8298
▁densities	-8299
▁dominated	-8300
▁forefront	-8301
▁hydrogels	-8302
▁impacting	-8303
▁movements	-8304
▁multiplex	-8305
▁plasmonic	-8306
▁promoting	-8307
▁tailoring	-8308
▁clustering	-8309
▁condensate	-8310
▁critically	-8311
▁magnetiska	-8312
▁scheduling	-8313
▁unresolved	-8314
▁persistence	-8315
▁represented	-8316
▁transformed	-8317
▁transparent	-8318
▁Scandinavian	-8319
▁foundational	-8320
▁hydrological	-8321
▁biodegradable	-8322
▁interpretable	-8323
▁stabilization	-8324
▁functionalized	-8325
CA	-8326
oh	-8327
For	-8328
fol	-8329
ips	-8330
ita	-8331
lek	-8332
zon	-8333
▁1,	-8334
▁GR	-8335
aign	-8336
elin	-8337
fast	-8338
okas	-8339
plan	-8340
skap	-8341
uler	-8342
▁Air	-8343
▁Out	-8344
▁Vol	-8345
▁lok	-8346
▁pat	-8347
▁vor	-8348
agent	-8349
blems	-8350
ister	-8351
solid	-8352
▁Poly	-8353
▁RNAs	-8354
▁auth	-8355
▁camp	-8356
▁dose	-8357
▁ende	-8358
▁eyes	-8359
▁head	-8360
▁novo	-8361
▁once	-8362
▁quas	-8363
▁snow	-8364
▁twin	-8365
▁unus	-8366
otoxic	-8367
violet	-8368
ömning	-8369
▁Brain	-8370
▁adult	-8371
▁exped	-8372
▁mobil	-8373
▁reper	-8374
glacial	-8375
halogen	-8376
itherto	-8377
▁Analys	-8378
▁Finite	-8379
▁Hadron	-8380
▁Unlike	-8381
▁biotic	-8382
▁emerge	-8383
▁lifesp	-8384
▁potent	-8385
▁retain	-8386
▁scalar	-8387
▁select	-8388
▁summer	-8389
▁tandem	-8390
▁växter	-8391
otrophic	-8392
▁Instead	-8393
▁Neutrin	-8394
▁answers	-8395
▁diatoms	-8396
▁discipl	-8397
▁discrim	-8398
▁profile	-8399
▁proving	-8400
▁synergy	-8401
▁whereas	-8402
processer	-8403
represent	-8404
unktional	-8405
▁atmosfär	-8406
▁develops	-8407
▁effektiv	-8408
▁entirely	-8409
▁framtida	-8410
▁moisture	-8411
▁påverkan	-8412
▁referred	-8413
principles	-8414
▁Advancing	-8415
▁Dynamical	-8416
▁Framework	-8417
▁comprises	-8418
▁resilient	-8419
▁ribosomal	-8420
▁simulated	-8421
▁sometimes	-8422
▁Autonomous	-8423
▁Multimodal	-8424
▁generalize	-8425
▁generators	-8426
▁inherently	-8427
▁regularity	-8428
▁resonances	-8429
▁solubility	-8430
▁advancement	-8431
▁inheritance	-8432
▁integrative	-8433
▁biologically	-8434
▁descriptions	-8435
▁electrolysis	-8436
▁surprisingly	-8437
▁translational	-8438
▁homogenization	-8439
▁interconnected	-8440
▁nanocomposites	-8441
▁photocatalytic	-8442
▁infrastructures	-8443
HO	-8444
SL	-8445
ECT	-8446
ESS	-8447
III	-8448
cob	-8449
dge	-8450
ext	-8451
flö	-8452
low	-8453
▁50	-8454
▁GO	-8455
▁GU	-8456
▁NW	-8457
▁Of	-8458
fall	-8459
hane	-8460
hold	-8461
itiz	-8462
izer	-8463
ligt	-8464
oflu	-8465
rust	-8466
vled	-8467
▁Del	-8468
▁Hal	-8469
▁Ren	-8470
▁Saf	-8471
▁Sur	-8472
▁ask	-8473
▁kid	-8474
▁lot	-8475
avail	-8476
chang	-8477
erals	-8478
iable	-8479
ients	-8480
itary	-8481
model	-8482
sible	-8483
▁Each	-8484
▁acts	-8485
▁burn	-8486
▁evap	-8487
▁extr	-8488
▁gold	-8489
▁imag	-8490
▁mole	-8491
▁negl	-8492
▁skog	-8493
▁växt	-8494
föring	-8495
mental	-8496
ningen	-8497
omeres	-8498
source	-8499
tifici	-8500
▁Fluor	-8501
▁Gener	-8502
▁Lever	-8503
▁Solid	-8504
▁admin	-8505
▁diges	-8506
▁drift	-8507
▁metas	-8508
▁nodes	-8509
▁outer	-8510
ellulos	-8511
grained	-8512
ometers	-8513
parency	-8514
plement	-8515
▁adding	-8516
▁belong	-8517
▁corner	-8518
▁covari	-8519
▁dissem	-8520
▁famous	-8521
▁narrow	-8522
▁nearby	-8523
▁powder	-8524
▁propor	-8525
▁pursue	-8526
▁scarce	-8527
entioned	-8528
stablish	-8529
▁Neumann	-8530
▁ensures	-8531
▁exciton	-8532
▁implies	-8533
▁learned	-8534
▁notably	-8535
▁showing	-8536
component	-8537
electrics	-8538
producing	-8539
▁alkaline	-8540
▁attempts	-8541
▁branches	-8542
▁campaign	-8543
▁classify	-8544
▁directed	-8545
▁electrom	-8546
▁forestry	-8547
▁homotopy	-8548
▁humidity	-8549
▁minimize	-8550
▁necessit	-8551
▁obstacle	-8552
▁rearrang	-8553
▁symptoms	-8554
▁entangled	-8555
▁otherwise	-8556
▁phylogeny	-8557
▁resolving	-8558
▁societies	-8559
▁strategic	-8560
ochronology	-8561
ysiological	-8562
▁Developing	-8563
▁Laboratory	-8564
▁behaviours	-8565
▁equivalent	-8566
▁preventing	-8567
▁Hamiltonian	-8568
▁chromosomes	-8569
▁collaborate	-8570
▁dynamically	-8571
▁fascinating	-8572
▁innovations	-8573
▁Undersökning	-8574
▁inflammatory	-8575
▁konsekvenser	-8576
▁multivariate	-8577
▁neurological	-8578
▁compositional	-8579
▁fragmentation	-8580
▁optoelectronic	-8581
▁instrumentation	-8582
ME	-8583
jö	-8584
tw	-8585
ux	-8586
”.	-8587
ank	-8588
fly	-8589
gar	-8590
oly	-8591
sen	-8592
ser	-8593
▁Po	-8594
▁ul	-8595
Here	-8596
abel	-8597
cont	-8598
emia	-8599
magn	-8600
oppl	-8601
orit	-8602
ostr	-8603
pres	-8604
sten	-8605
thin	-8606
uous	-8607
▁Ark	-8608
▁Ent	-8609
▁Fer	-8610
▁Lor	-8611
▁aur	-8612
▁scr	-8613
▁två	-8614
▁upd	-8615
being	-8616
biome	-8617
induc	-8618
issue	-8619
tikel	-8620
▁AMOC	-8621
▁CMOS	-8622
▁arri	-8623
▁clay	-8624
▁cycl	-8625
▁dich	-8626
▁fost	-8627
▁stop	-8628
ecause	-8629
etting	-8630
onsequ	-8631
otropy	-8632
urance	-8633
▁Nanom	-8634
▁Silic	-8635
▁actin	-8636
▁epith	-8637
▁front	-8638
▁label	-8639
▁mucus	-8640
▁overl	-8641
▁stake	-8642
▁truly	-8643
ockholm	-8644
rinking	-8645
umblebe	-8646
▁Atomic	-8647
▁Stable	-8648
▁Stress	-8649
▁encaps	-8650
▁lifest	-8651
▁mating	-8652
▁potato	-8653
▁stjärn	-8654
▁suited	-8655
abilitet	-8656
analysis	-8657
articles	-8658
infrared	-8659
printing	-8660
▁abiotic	-8661
▁ammonia	-8662
▁assembl	-8663
▁backbon	-8664
▁extends	-8665
▁follows	-8666
▁lactose	-8667
▁mediate	-8668
▁motions	-8669
▁passive	-8670
▁readily	-8671
▁shorter	-8672
amination	-8673
astically	-8674
ontinuous	-8675
▁Algorith	-8676
▁assisted	-8677
▁computed	-8678
▁fragment	-8679
▁matching	-8680
▁policies	-8681
▁received	-8682
▁supports	-8683
rystalline	-8684
▁Architect	-8685
▁guarantee	-8686
▁obtaining	-8687
▁parabolic	-8688
▁vibration	-8689
▁viscosity	-8690
▁applicants	-8691
▁deployment	-8692
▁deviations	-8693
▁intestinal	-8694
▁microalgae	-8695
▁thresholds	-8696
▁alterations	-8697
▁dislocation	-8698
▁qualitative	-8699
▁astrophysics	-8700
▁inequalities	-8701
▁independently	-8702
electrochemical	-8703
..	-8704
30	-8705
BN	-8706
MP	-8707
OL	-8708
OX	-8709
ja	-8710
Syn	-8711
dik	-8712
ict	-8713
ley	-8714
rip	-8715
röd	-8716
una	-8717
▁15	-8718
▁25	-8719
▁CP	-8720
▁Er	-8721
▁HE	-8722
▁NH	-8723
▁Ni	-8724
▁Om	-8725
▁Ro	-8726
▁km	-8727
cost	-8728
heet	-8729
iton	-8730
last	-8731
ofil	-8732
okes	-8733
orus	-8734
rong	-8735
vivo	-8736
▁Jup	-8737
▁QFT	-8738
▁bes	-8739
▁dry	-8740
▁his	-8741
▁lös	-8742
▁unt	-8743
These	-8744
akers	-8745
anden	-8746
heter	-8747
orbit	-8748
ursor	-8749
▁BVOC	-8750
▁Ther	-8751
▁prey	-8752
▁puzz	-8753
barhet	-8754
ending	-8755
enthic	-8756
isting	-8757
onical	-8758
orrhiz	-8759
predic	-8760
rected	-8761
ulties	-8762
▁Estim	-8763
▁Fermi	-8764
▁adopt	-8765
▁antiv	-8766
▁bifur	-8767
▁comet	-8768
▁destr	-8769
▁flood	-8770
▁hired	-8771
▁kinds	-8772
▁labor	-8773
▁spray	-8774
▁thems	-8775
▁tough	-8776
▁tuned	-8777
▁valor	-8778
▁zones	-8779
Develop	-8780
concept	-8781
coupled	-8782
density	-8783
irality	-8784
princip	-8785
ymbolic	-8786
▁Oscill	-8787
▁biases	-8788
▁bodies	-8789
▁bright	-8790
▁interm	-8791
▁trials	-8792
artiklar	-8793
ifiering	-8794
lational	-8795
omorphic	-8796
wareness	-8797
▁Results	-8798
▁assimil	-8799
▁cations	-8800
▁heavily	-8801
▁isolate	-8802
▁modeled	-8803
▁refined	-8804
▁survive	-8805
▁tightly	-8806
▁Gaussian	-8807
▁Multiple	-8808
▁Thompson	-8809
▁compiler	-8810
▁conflict	-8811
▁consumer	-8812
▁epidemic	-8813
▁exposome	-8814
▁mutation	-8815
▁mångfald	-8816
▁pandemic	-8817
▁parasite	-8818
▁protocol	-8819
▁vertical	-8820
▁wildlife	-8821
fficiently	-8822
▁Transport	-8823
▁anaerobic	-8824
▁dynamiska	-8825
▁genetiska	-8826
▁läkemedel	-8827
▁peatlands	-8828
electrolyte	-8829
▁Mechanisms	-8830
▁Transition	-8831
▁asymptotic	-8832
▁disruption	-8833
▁fractional	-8834
▁mosquitoes	-8835
▁Intelligent	-8836
▁Traditional	-8837
▁amenability	-8838
▁calculation	-8839
▁collections	-8840
▁conclusions	-8841
▁constitutes	-8842
▁dissipation	-8843
▁hypergraphs	-8844
▁interaktion	-8845
▁respiration	-8846
▁selectively	-8847
▁transported	-8848
▁dependencies	-8849
▁permeability	-8850
▁photovoltaic	-8851
▁structurally	-8852
▁biomechanical	-8853
▁multicomponent	-8854
▁representative	-8855
):	-8856
18	-8857
2+	-8858
AG	-8859
BF	-8860
CR	-8861
Im	-8862
Ns	-8863
cy	-8864
ARP	-8865
FEL	-8866
las	-8867
opt	-8868
vex	-8869
▁3.	-8870
▁BS	-8871
▁CA	-8872
▁EC	-8873
▁PM	-8874
aily	-8875
beam	-8876
djur	-8877
ians	-8878
isen	-8879
loss	-8880
oses	-8881
rian	-8882
▁DBS	-8883
▁Gas	-8884
▁REE	-8885
▁Rem	-8886
▁Tun	-8887
▁fas	-8888
▁ign	-8889
▁kan	-8890
▁kor	-8891
anges	-8892
brain	-8893
iance	-8894
probe	-8895
rance	-8896
▁Gram	-8897
▁bugs	-8898
▁cult	-8899
▁kill	-8900
▁summ	-8901
avirus	-8902
embles	-8903
istent	-8904
lighet	-8905
▁Incre	-8906
▁Metam	-8907
▁Recon	-8908
▁State	-8909
▁assay	-8910
▁bands	-8911
▁cleav	-8912
▁daily	-8913
▁match	-8914
▁mesoc	-8915
▁paleo	-8916
▁prosp	-8917
▁splic	-8918
▁traum	-8919
aktorer	-8920
edicine	-8921
inflamm	-8922
iserade	-8923
istiska	-8924
itoring	-8925
odivers	-8926
problem	-8927
ulatory	-8928
▁Instit	-8929
▁Norway	-8930
▁Schröd	-8931
▁Search	-8932
▁Tissue	-8933
▁baryon	-8934
▁blooms	-8935
▁excess	-8936
▁leaves	-8937
▁mirror	-8938
▁remove	-8939
▁stroke	-8940
▁winter	-8941
centered	-8942
homology	-8943
inations	-8944
negative	-8945
ospheres	-8946
▁Consequ	-8947
▁Disease	-8948
▁allowed	-8949
▁coexist	-8950
▁embritt	-8951
▁epidemi	-8952
▁feeding	-8953
▁fibrils	-8954
▁glycine	-8955
▁katalys	-8956
▁vectors	-8957
astrophic	-8958
ostruktur	-8959
▁Improved	-8960
▁coverage	-8961
▁extremal	-8962
▁hitherto	-8963
▁rheology	-8964
▁salinity	-8965
▁scenario	-8966
criptomics	-8967
efficiency	-8968
▁Mitochond	-8969
▁alongside	-8970
▁analogues	-8971
▁analytics	-8972
▁awareness	-8973
▁molekylär	-8974
▁Electronic	-8975
▁Leveraging	-8976
▁biophysics	-8977
▁compatible	-8978
▁estimating	-8979
▁insulators	-8980
▁minimizing	-8981
▁themselves	-8982
▁competitive	-8983
▁decoherence	-8984
▁disentangle	-8985
▁dysfunction	-8986
▁essentially	-8987
▁influencing	-8988
▁numerically	-8989
▁observables	-8990
▁preferences	-8991
▁counterparts	-8992
▁demonstration	-8993
▁fertilization	-8994
▁hybridization	-8995
▁correspondence	-8996
▁transformative	-8997
▁Electrochemical	-8998
0,	-8999
BG	-9000
Fe	-9001
Is	-9002
OH	-9003
RE	-9004
no	-9005
ICs	-9006
amb	-9007
avy	-9008
isy	-9009
jon	-9010
kri	-9011
leg	-9012
ued	-9013
ämn	-9014
▁AS	-9015
▁Go	-9016
▁MS	-9017
▁OP	-9018
▁RE	-9019
bear	-9020
burg	-9021
isis	-9022
oody	-9023
phal	-9024
rema	-9025
▁Col	-9026
▁Dem	-9027
▁GPU	-9028
▁Now	-9029
▁Run	-9030
▁Sex	-9031
▁Use	-9032
▁psy	-9033
analy	-9034
ender	-9035
liest	-9036
uting	-9037
yntes	-9038
▁2022	-9039
▁Hist	-9040
▁gluc	-9041
▁knot	-9042
▁kärn	-9043
▁reef	-9044
▁sett	-9045
▁song	-9046
▁span	-9047
▁tids	-9048
amming	-9049
arbons	-9050
▁Found	-9051
▁acute	-9052
▁astro	-9053
▁cores	-9054
▁crypt	-9055
▁neigh	-9056
▁niche	-9057
▁shrub	-9058
▁sperm	-9059
conduct	-9060
enabled	-9061
iabatic	-9062
leading	-9063
olayers	-9064
orption	-9065
respons	-9066
rometer	-9067
theless	-9068
▁Altern	-9069
▁Domain	-9070
▁annual	-9071
▁approx	-9072
▁dinosa	-9073
▁filter	-9074
▁nearly	-9075
▁skills	-9076
▁spring	-9077
emission	-9078
ithmetic	-9079
ongevity	-9080
tolerant	-9081
▁Because	-9082
▁Element	-9083
▁broadly	-9084
▁cathode	-9085
▁jointly	-9086
▁moments	-9087
▁symbion	-9088
theoretic	-9089
unktioner	-9090
▁Additive	-9091
▁Genomics	-9092
▁Geometry	-9093
▁Operator	-9094
▁antennas	-9095
▁climates	-9096
▁enhances	-9097
▁entities	-9098
▁infected	-9099
▁matroids	-9100
▁minerals	-9101
▁mountain	-9102
▁nonlocal	-9103
▁ordinary	-9104
▁pinpoint	-9105
▁reliably	-9106
▁scaffold	-9107
▁striking	-9108
▁Synthetic	-9109
▁assembled	-9110
▁asteroids	-9111
▁biosensor	-9112
▁herbivory	-9113
▁insulator	-9114
▁intensive	-9115
▁microcirc	-9116
▁paradigms	-9117
▁quadratic	-9118
▁realizing	-9119
▁Mechanical	-9120
▁allosteric	-9121
▁conduction	-9122
▁impossible	-9123
▁ionization	-9124
▁motivation	-9125
▁recurrence	-9126
▁Explainable	-9127
▁Schrödinger	-9128
▁Simulations	-9129
▁genetically	-9130
▁surfactants	-9131
dimensionella	-9132
interaktioner	-9133
▁carbohydrate	-9134
▁insufficient	-9135
▁purification	-9136
▁regenerative	-9137
▁transparency	-9138
▁characterised	-9139
▁domestication	-9140
▁approximations	-9141
▁photocatalysis	-9142
▁susceptibility	-9143
▁Maskininlärning	-9144
MM	-9145
RT	-9146
xi	-9147
alt	-9148
ele	-9149
kom	-9150
ume	-9151
uth	-9152
▁(~	-9153
▁CR	-9154
▁LP	-9155
▁LU	-9156
▁ry	-9157
BEAM	-9158
ails	-9159
allo	-9160
head	-9161
hort	-9162
load	-9163
pled	-9164
rets	-9165
uced	-9166
ymph	-9167
▁Big	-9168
▁Cas	-9169
▁GHG	-9170
▁Mac	-9171
▁Sup	-9172
▁ark	-9173
▁jet	-9174
▁mys	-9175
▁mät	-9176
▁sin	-9177
▁thi	-9178
actor	-9179
astro	-9180
ergic	-9181
ethyl	-9182
leros	-9183
lined	-9184
opath	-9185
ritic	-9186
rivna	-9187
sized	-9188
where	-9189
▁MOFs	-9190
▁Phyt	-9191
▁Poll	-9192
▁Tera	-9193
▁aver	-9194
▁crow	-9195
▁piec	-9196
▁quen	-9197
▁resh	-9198
atomic	-9199
ernary	-9200
ipping	-9201
orient	-9202
örande	-9203
▁COVID	-9204
▁Dirac	-9205
▁Image	-9206
▁Techn	-9207
▁bakom	-9208
▁chaos	-9209
▁helps	-9210
▁inser	-9211
▁noisy	-9212
▁orbit	-9213
▁resol	-9214
▁shelf	-9215
▁skyrm	-9216
▁templ	-9217
However	-9218
ffektiv	-9219
identif	-9220
upplöst	-9221
▁Deciph	-9222
▁Forest	-9223
▁Impact	-9224
▁bifurc	-9225
▁brings	-9226
▁cation	-9227
▁chosen	-9228
▁coarse	-9229
▁export	-9230
▁feedst	-9231
▁funded	-9232
▁kidney	-9233
▁methyl	-9234
▁placed	-9235
▁played	-9236
▁sheets	-9237
▁shocks	-9238
▁showed	-9239
▁thanks	-9240
▁vacuum	-9241
cessible	-9242
embranes	-9243
ologists	-9244
tilizing	-9245
▁acquire	-9246
▁arising	-9247
▁chromat	-9248
▁diamond	-9249
▁exactly	-9250
▁females	-9251
▁happens	-9252
▁ingredi	-9253
▁maximum	-9254
▁stoichi	-9255
▁trapped	-9256
developed	-9257
▁Existing	-9258
▁Secondly	-9259
▁baserade	-9260
▁defining	-9261
▁discreti	-9262
▁drinking	-9263
▁homology	-9264
▁hållbara	-9265
▁lifespan	-9266
▁normally	-9267
▁peatland	-9268
▁recorded	-9269
▁semantic	-9270
▁severity	-9271
▁subunits	-9272
▁syndrome	-9273
omponenter	-9274
▁Important	-9275
▁Represent	-9276
▁Stockholm	-9277
▁balancing	-9278
▁colloidal	-9279
▁eliminate	-9280
▁explosion	-9281
▁generates	-9282
▁initially	-9283
▁inversion	-9284
▁parasitic	-9285
▁partially	-9286
▁programme	-9287
▁prominent	-9288
▁protected	-9289
▁regulates	-9290
▁remaining	-9291
▁separated	-9292
▁competence	-9293
▁explaining	-9294
▁herbivores	-9295
▁maintained	-9296
▁pollinator	-9297
▁tremendous	-9298
▁volumetric	-9299
▁Temperature	-9300
▁approximate	-9301
▁biomaterial	-9302
▁dissolution	-9303
▁nutritional	-9304
▁trustworthy	-9305
▁metamaterial	-9306
▁biocompatible	-9307
▁nanostructured	-9308
▁pharmacological	-9309
*-	-9310
15	-9311
IE	-9312
RD	-9313
RF	-9314
WE	-9315
eg	-9316
sn	-9317
ION	-9318
Rec	-9319
ada	-9320
api	-9321
err	-9322
etz	-9323
fam	-9324
kad	-9325
▁12	-9326
▁FT	-9327
▁LC	-9328
▁mt	-9329
Year	-9330
avia	-9331
coll	-9332
hard	-9333
phen	-9334
roch	-9335
ukle	-9336
▁Aqu	-9337
▁Dat	-9338
▁Mul	-9339
▁dot	-9340
▁häl	-9341
▁jaw	-9342
▁oil	-9343
▁små	-9344
There	-9345
antal	-9346
kning	-9347
limit	-9348
otive	-9349
▁Heat	-9350
▁That	-9351
▁bete	-9352
▁eDNA	-9353
▁enig	-9354
▁kont	-9355
▁rRNA	-9356
▁solv	-9357
abling	-9358
carbon	-9359
ittent	-9360
omeric	-9361
raphic	-9362
tified	-9363
▁Palae	-9364
▁amylo	-9365
▁brown	-9366
▁cereb	-9367
▁flies	-9368
▁horiz	-9369
▁night	-9370
▁plans	-9371
▁plaqu	-9372
▁plate	-9373
▁pores	-9374
▁stora	-9375
▁teori	-9376
atmosph	-9377
optical	-9378
oritmer	-9379
rinting	-9380
tifying	-9381
▁Förstå	-9382
▁HIBEAM	-9383
▁calibr	-9384
▁combat	-9385
▁crisis	-9386
▁driver	-9387
▁invent	-9388
▁leader	-9389
▁module	-9390
▁nanoph	-9391
▁neighb	-9392
▁neuron	-9393
▁survey	-9394
otically	-9395
strained	-9396
timatter	-9397
tivities	-9398
weighted	-9399
▁Polymer	-9400
▁Strateg	-9401
▁bundles	-9402
▁debated	-9403
▁distant	-9404
▁människ	-9405
▁reverse	-9406
▁zeolite	-9407
gregation	-9408
hållanden	-9409
otherapeu	-9410
▁Funktion	-9411
▁antibody	-9412
▁bringing	-9413
▁cornerst	-9414
▁deployed	-9415
▁elektrok	-9416
▁greatest	-9417
▁hindered	-9418
▁prototyp	-9419
▁tectonic	-9420
▁treating	-9421
▁upcoming	-9422
mikroskopi	-9423
▁Combining	-9424
▁Diffusion	-9425
▁Equations	-9426
▁Potential	-9427
▁Terahertz	-9428
▁antiviral	-9429
▁bandwidth	-9430
▁broadband	-9431
▁capillary	-9432
▁chemosens	-9433
▁competing	-9434
▁concerned	-9435
▁conformal	-9436
▁cosmology	-9437
▁demanding	-9438
▁education	-9439
▁eruptions	-9440
▁inelastic	-9441
▁latitudes	-9442
▁libraries	-9443
▁neutrinos	-9444
▁Spallation	-9445
▁arithmetic	-9446
▁constraint	-9447
▁microscale	-9448
▁protective	-9449
▁quantified	-9450
▁recordings	-9451
▁spintronic	-9452
▁Scandinavia	-9453
▁anticipated	-9454
▁lubrication	-9455
▁radioactive	-9456
▁replacement	-9457
▁strukturell	-9458
▁vibrational	-9459
▁difficulties	-9460
▁förändringar	-9461
▁acidification	-9462
▁rehabilitation	-9463
▁supersymmetric	-9464
▁biogeochemistry	-9465
▁microstructural	-9466
BD	-9467
Pl	-9468
TM	-9469
yg	-9470
öt	-9471
”,	-9472
PCR	-9473
cut	-9474
▁40	-9475
▁AB	-9476
▁LR	-9477
▁NO	-9478
▁Pr	-9479
▁TR	-9480
ALDI	-9481
data	-9482
jord	-9483
klar	-9484
nytt	-9485
opic	-9486
ovid	-9487
oxyl	-9488
prot	-9489
site	-9490
▁Kac	-9491
▁Leg	-9492
▁Nob	-9493
▁RIS	-9494
▁ROS	-9495
▁bil	-9496
▁dim	-9497
▁neg	-9498
▁sti	-9499
▁tin	-9500
alkyl	-9501
andet	-9502
anted	-9503
backs	-9504
cloud	-9505
elled	-9506
ensal	-9507
etics	-9508
ixing	-9509
izers	-9510
oders	-9511
ritis	-9512
stage	-9513
▁1000	-9514
▁ALMA	-9515
▁Diss	-9516
▁Germ	-9517
▁aden	-9518
▁asth	-9519
▁bigg	-9520
▁cord	-9521
▁larv	-9522
▁ster	-9523
▁taxa	-9524
agents	-9525
elines	-9526
formed	-9527
genome	-9528
linked	-9529
otides	-9530
prints	-9531
spring	-9532
uclein	-9533
▁Black	-9534
▁argum	-9535
▁betyd	-9536
▁breed	-9537
▁calor	-9538
▁doped	-9539
▁emuls	-9540
▁exerc	-9541
▁flera	-9542
▁gamma	-9543
▁house	-9544
▁inhom	-9545
▁nemat	-9546
▁paths	-9547
▁pseud	-9548
▁retro	-9549
▁salts	-9550
▁sharp	-9551
▁spent	-9552
alactic	-9553
atories	-9554
holders	-9555
illance	-9556
product	-9557
studied	-9558
▁Assess	-9559
▁Nature	-9560
▁alkali	-9561
▁invest	-9562
▁marina	-9563
▁mental	-9564
▁organo	-9565
▁outbre	-9566
▁paving	-9567
▁proxim	-9568
▁rivers	-9569
▁themes	-9570
magnetic	-9571
oplastic	-9572
othermal	-9573
periodic	-9574
projects	-9575
▁Inverse	-9576
▁Jupiter	-9577
▁cancers	-9578
▁cardiac	-9579
▁chemist	-9580
▁comprom	-9581
▁dietary	-9582
▁extrema	-9583
▁mixture	-9584
▁neurala	-9585
▁perfect	-9586
▁somatic	-9587
▁textile	-9588
▁volumes	-9589
eparation	-9590
transport	-9591
umination	-9592
▁Enhanced	-9593
▁Southern	-9594
▁bumblebe	-9595
▁captured	-9596
▁maximize	-9597
▁påverkar	-9598
▁southern	-9599
▁sunlight	-9600
ekvationer	-9601
elektriska	-9602
population	-9603
supervised	-9604
▁attracted	-9605
▁buildings	-9606
▁carbonate	-9607
▁execution	-9608
▁formulate	-9609
▁hierarchy	-9610
▁incidence	-9611
▁microscop	-9612
▁modulated	-9613
▁obstacles	-9614
▁offspring	-9615
▁reprogram	-9616
▁visualize	-9617
▁Biological	-9618
▁anisotropy	-9619
▁anticipate	-9620
▁asymmetric	-9621
▁completion	-9622
▁incomplete	-9623
▁inversions	-9624
▁optimering	-9625
▁relaxation	-9626
▁remodeling	-9627
▁saturation	-9628
▁trajectory	-9629
▁Atmospheric	-9630
▁coevolution	-9631
▁cooperative	-9632
▁cultivation	-9633
▁enhancement	-9634
▁excitations	-9635
▁recruitment	-9636
▁antagonistic	-9637
▁constituents	-9638
▁deformations	-9639
▁stakeholders	-9640
▁subsequently	-9641
▁transduction	-9642
▁embrittlement	-9643
▁intrinsically	-9644
/2	-9645
2:	-9646
CN	-9647
HR	-9648
My	-9649
TU	-9650
sa	-9651
▁=	-9652
▁q	-9653
▁α	-9654
AIR	-9655
AXS	-9656
dle	-9657
enk	-9658
iva	-9659
kam	-9660
non	-9661
que	-9662
sam	-9663
umn	-9664
▁ET	-9665
▁PP	-9666
▁SA	-9667
▁Ur	-9668
▁Ze	-9669
▁dy	-9670
▁nc	-9671
▁nu	-9672
▁ow	-9673
bral	-9674
drug	-9675
entz	-9676
hing	-9677
irds	-9678
jära	-9679
ligg	-9680
lood	-9681
odet	-9682
slöj	-9683
tity	-9684
used	-9685
warf	-9686
▁3-4	-9687
▁AAV	-9688
▁Ang	-9689
▁CFD	-9690
▁Def	-9691
▁EEG	-9692
▁Exp	-9693
▁Hem	-9694
▁bow	-9695
▁jon	-9696
▁kun	-9697
▁lam	-9698
▁möj	-9699
▁six	-9700
▁tro	-9701
▁vdW	-9702
▁von	-9703
Moody	-9704
arity	-9705
elsen	-9706
ernas	-9707
esium	-9708
odium	-9709
raled	-9710
ämnen	-9711
▁Kvan	-9712
▁Tree	-9713
▁cope	-9714
▁cour	-9715
▁nytt	-9716
▁resc	-9717
▁thaw	-9718
aliana	-9719
entary	-9720
normal	-9721
▁Chrom	-9722
▁anion	-9723
▁basal	-9724
▁combs	-9725
▁cyber	-9726
▁elong	-9727
▁hours	-9728
▁imped	-9729
▁nästa	-9730
▁oppos	-9731
▁safer	-9732
▁själv	-9733
▁suite	-9734
▁winds	-9735
▁young	-9736
armonic	-9737
balance	-9738
latitud	-9739
lerosis	-9740
linking	-9741
tivated	-9742
valence	-9743
äkerhet	-9744
▁Charge	-9745
▁Lignin	-9746
▁copper	-9747
▁encode	-9748
▁floral	-9749
▁fuller	-9750
▁grains	-9751
▁shaped	-9752
▁summar	-9753
▁tunnel	-9754
▁undert	-9755
emitting	-9756
molecule	-9757
ontinuum	-9758
orrhizal	-9759
▁appears	-9760
▁bounded	-9761
▁creates	-9762
▁gaining	-9763
▁malaria	-9764
▁nedbryt	-9765
▁obvious	-9766
▁pioneer	-9767
▁relying	-9768
▁reperto	-9769
diffusion	-9770
intensive	-9771
▁Einstein	-9772
▁Reactive	-9773
▁backbone	-9774
▁cavities	-9775
▁charging	-9776
▁dramatic	-9777
▁earliest	-9778
▁expanded	-9779
▁improves	-9780
▁industri	-9781
▁labeling	-9782
▁miniatur	-9783
▁neutrons	-9784
▁splicing	-9785
▁thaliana	-9786
behandling	-9787
ocatalysis	-9788
ocellulose	-9789
opulations	-9790
överföring	-9791
▁Constrain	-9792
▁Establish	-9793
▁ancestral	-9794
▁cognition	-9795
▁cytoplasm	-9796
▁decreased	-9797
▁endocrine	-9798
▁longevity	-9799
▁pheromone	-9800
▁precursor	-9801
▁processed	-9802
▁retention	-9803
▁violation	-9804
evertheless	-9805
▁Structures	-9806
▁difficulty	-9807
▁enrichment	-9808
▁meaningful	-9809
▁phosphorus	-9810
▁relativity	-9811
▁supernovae	-9812
▁topography	-9813
▁Deciphering	-9814
▁femtosecond	-9815
▁importantly	-9816
▁multilayers	-9817
▁oscillators	-9818
▁overturning	-9819
▁particulate	-9820
▁penetration	-9821
▁implantation	-9822
▁inaccessible	-9823
▁multiphysics	-9824
▁nanoplastics	-9825
▁polymorphism	-9826
▁sufficiently	-9827
▁viscoelastic	-9828
▁fractionation	-9829
▁transcriptome	-9830
▁transcriptomic	-9831
▁crystallization	-9832
▁karakterisering	-9833
;1	-9834
BI	-9835
DP	-9836
GS	-9837
TO	-9838
tb	-9839
THz	-9840
aim	-9841
ana	-9842
ano	-9843
eas	-9844
ett	-9845
nes	-9846
opy	-9847
rat	-9848
yll	-9849
ågl	-9850
▁CC	-9851
▁DL	-9852
▁MP	-9853
▁NP	-9854
▁OM	-9855
▁PR	-9856
▁SL	-9857
▁VL	-9858
Cube	-9859
aked	-9860
bach	-9861
bred	-9862
core	-9863
gels	-9864
hets	-9865
leag	-9866
tian	-9867
ught	-9868
wood	-9869
▁Bcl	-9870
▁DOM	-9871
▁Div	-9872
▁Har	-9873
▁QCD	-9874
▁ash	-9875
▁ded	-9876
▁dil	-9877
▁ect	-9878
▁men	-9879
▁ten	-9880
▁unw	-9881
attle	-9882
chann	-9883
elles	-9884
ember	-9885
ensus	-9886
entia	-9887
enzym	-9888
forms	-9889
orage	-9890
oskel	-9891
plied	-9892
titud	-9893
using	-9894
▁Diff	-9895
▁Edge	-9896
▁Open	-9897
▁Till	-9898
▁acet	-9899
▁dead	-9900
▁fold	-9901
▁hybr	-9902
▁jour	-9903
▁leap	-9904
▁lång	-9905
▁pulp	-9906
agring	-9907
cribed	-9908
elfare	-9909
factor	-9910
theory	-9911
transm	-9912
ålning	-9913
▁Austr	-9914
▁Cardi	-9915
▁Three	-9916
▁atten	-9917
▁bases	-9918
▁child	-9919
▁frame	-9920
▁mucin	-9921
▁nerve	-9922
▁prost	-9923
▁store	-9924
▁stret	-9925
▁twins	-9926
aktions	-9927
algebra	-9928
article	-9929
delning	-9930
oscopic	-9931
uration	-9932
▁Chiral	-9933
▁Indust	-9934
▁Proper	-9935
▁Target	-9936
▁bortom	-9937
▁broken	-9938
▁bubble	-9939
▁cities	-9940
▁curved	-9941
▁dating	-9942
▁deline	-9943
▁devise	-9944
▁elabor	-9945
▁hormon	-9946
▁larvae	-9947
▁myself	-9948
▁ranges	-9949
▁stands	-9950
▁steady	-9951
▁teknik	-9952
▁thermo	-9953
iability	-9954
itudinal	-9955
limation	-9956
ometrics	-9957
▁Archean	-9958
▁IceCube	-9959
▁Species	-9960
▁arthrop	-9961
▁compens	-9962
▁dissoci	-9963
▁fossils	-9964
▁homolog	-9965
▁illumin	-9966
▁immobil	-9967
▁instant	-9968
▁insulin	-9969
▁proxies	-9970
▁smartph	-9971
▁started	-9972
▁unusual	-9973
oplastics	-9974
▁Approach	-9975
▁Decision	-9976
▁Effektiv	-9977
▁Membrane	-9978
▁Neutrino	-9979
▁Proteins	-9980
▁interior	-9981
▁invasion	-9982
▁quantity	-9983
▁radicals	-9984
▁ribosome	-9985
▁severely	-9986
▁symbolic	-9987
▁turbines	-9988
▁turnover	-9989
atmosphere	-9990
▁Catalytic	-9991
▁Uncertain	-9992
▁commensal	-9993
▁multiplic	-9994
▁organoids	-9995
▁positions	-9996
▁presented	-9997
▁regulator	-9998
▁replacing	-9999
▁secretion	-10000
▁threshold	-10001
odiversitet	-10002
onstruction	-10003
ostrukturer	-10004
▁Epigenetic	-10005
▁Perovskite	-10006
▁Processing	-10007
▁Tomography	-10008
▁accounting	-10009
▁användning	-10010
▁biogenesis	-10011
▁explicitly	-10012
▁ultrasonic	-10013
▁Comparative	-10014
▁cooperation	-10015
▁cornerstone	-10016
▁drastically	-10017
▁experiences	-10018
▁problematic	-10019
▁zooplankton	-10020
▁Consequently	-10021
▁Nevertheless	-10022
▁paleoclimate	-10023
▁radiotherapy	-10024
▁surveillance	-10025
▁nanostructure	-10026
▁phenomenology	-10027
▁biodegradation	-10028
▁polymerization	-10029
.)	-10030
El	-10031
KA	-10032
Ni	-10033
▁`	-10034
ORM	-10035
Res	-10036
WST	-10037
bet	-10038
enz	-10039
gel	-10040
igt	-10041
mic	-10042
sky	-10043
▁AG	-10044
▁EG	-10045
▁FE	-10046
▁Ma	-10047
▁Mn	-10048
▁SD	-10049
▁ca	-10050
▁eg	-10051
▁är	-10052
Over	-10053
PFAS	-10054
anda	-10055
kala	-10056
oles	-10057
osyl	-10058
prop	-10059
text	-10060
värd	-10061
▁ALT	-10062
▁End	-10063
▁HEM	-10064
▁Lat	-10065
▁Mad	-10066
▁Pos	-10067
▁Rap	-10068
▁UCP	-10069
▁opt	-10070
▁orn	-10071
▁tet	-10072
▁åld	-10073
ailed	-10074
cells	-10075
estim	-10076
medel	-10077
osing	-10078
raphy	-10079
tryck	-10080
änder	-10081
▁2024	-10082
▁2026	-10083
▁Fast	-10084
▁Fenn	-10085
▁Fung	-10086
▁Prog	-10087
▁Resp	-10088
▁Sequ	-10089
▁ages	-10090
▁buff	-10091
▁glia	-10092
▁hydr	-10093
▁kvan	-10094
▁limb	-10095
▁tung	-10096
▁varm	-10097
batter	-10098
ektiva	-10099
etiska	-10100
riving	-10101
▁Among	-10102
▁Brown	-10103
▁Focus	-10104
▁Group	-10105
▁Ionic	-10106
▁Study	-10107
▁Synch	-10108
▁Third	-10109
▁avanc	-10110
▁bioch	-10111
▁dwarf	-10112
▁faces	-10113
▁foton	-10114
▁lacks	-10115
▁lymph	-10116
▁occup	-10117
▁prime	-10118
▁stiff	-10119
▁utfor	-10120
entropy	-10121
gravity	-10122
ismatch	-10123
obakter	-10124
systems	-10125
▁Compos	-10126
▁Fusion	-10127
▁arctic	-10128
▁assign	-10129
▁centre	-10130
▁extrac	-10131
▁happen	-10132
▁mimics	-10133
▁peptid	-10134
▁redund	-10135
▁serves	-10136
▁spinal	-10137
▁vävnad	-10138
ollowing	-10139
oriented	-10140
parallel	-10141
▁Amyloid	-10142
▁Biomass	-10143
▁Extreme	-10144
▁Lorentz	-10145
▁Problem	-10146
▁alleles	-10147
▁benthic	-10148
▁chamber	-10149
▁duality	-10150
▁latency	-10151
▁reduces	-10152
regulated	-10153
tifiering	-10154
▁Problems	-10155
▁Resonant	-10156
▁abstract	-10157
▁acceptor	-10158
▁decoding	-10159
▁eutectic	-10160
▁everyday	-10161
▁failures	-10162
▁fermions	-10163
▁fixation	-10164
▁graphite	-10165
▁manifest	-10166
▁modality	-10167
▁outflows	-10168
▁residues	-10169
▁suppress	-10170
▁unpredic	-10171
▁vaccines	-10172
structured	-10173
▁Catalysis	-10174
▁Cellulose	-10175
▁Precision	-10176
▁Turbulent	-10177
▁alignment	-10178
▁canonical	-10179
▁epitaxial	-10180
▁exoplanet	-10181
▁hazardous	-10182
▁inclusion	-10183
▁integrals	-10184
▁interacts	-10185
▁machining	-10186
▁neglected	-10187
▁pipelines	-10188
▁predation	-10189
▁projected	-10190
▁symbiosis	-10191
associative	-10192
onstruktion	-10193
▁Adaptation	-10194
▁Experiment	-10195
▁Molekylära	-10196
▁affordable	-10197
▁anpassning	-10198
▁bioprocess	-10199
▁cavitation	-10200
▁circumvent	-10201
▁conjugated	-10202
▁connecting	-10203
▁constantly	-10204
▁coordinate	-10205
▁determines	-10206
▁stabilitet	-10207
▁temperatur	-10208
▁thoroughly	-10209
▁transistor	-10210
▁underwater	-10211
▁university	-10212
▁Exploration	-10213
▁Utforskning	-10214
▁bottlenecks	-10215
▁butterflies	-10216
▁disciplines	-10217
▁oscillation	-10218
▁transferred	-10219
▁ultraviolet	-10220
▁accelerating	-10221
▁adaptability	-10222
▁catastrophic	-10223
▁condensation	-10224
▁organisation	-10225
▁postdoctoral	-10226
▁hydrogenation	-10227
▁invertebrates	-10228
▁microplastics	-10229
▁Identification	-10230
▁polysaccharide	-10231
▁stratification	-10232
60	-10233
EF	-10234
QC	-10235
Qs	-10236
:1)	-10237
DFT	-10238
New	-10239
PSC	-10240
cho	-10241
ekn	-10242
hab	-10243
iet	-10244
pus	-10245
rad	-10246
rek	-10247
vak	-10248
▁2,	-10249
▁GW	-10250
▁PG	-10251
▁SP	-10252
▁SS	-10253
▁UN	-10254
▁os	-10255
▁wr	-10256
PEAs	-10257
asma	-10258
elle	-10259
fält	-10260
hift	-10261
hist	-10262
iner	-10263
nivå	-10264
pole	-10265
rats	-10266
rädd	-10267
▁Aff	-10268
▁Fed	-10269
▁NAS	-10270
▁VOC	-10271
▁Web	-10272
▁Wol	-10273
▁ink	-10274
▁kem	-10275
▁mil	-10276
▁pig	-10277
▁rip	-10278
acent	-10279
aktär	-10280
atric	-10281
emory	-10282
ickel	-10283
illar	-10284
linna	-10285
reted	-10286
skaps	-10287
ställ	-10288
tiver	-10289
xiety	-10290
yclic	-10291
years	-10292
▁CNNs	-10293
▁Late	-10294
▁bear	-10295
▁bios	-10296
▁gels	-10297
▁left	-10298
▁oral	-10299
▁prem	-10300
▁rule	-10301
▁sess	-10302
▁värd	-10303
amples	-10304
itness	-10305
stabil	-10306
▁Beräk	-10307
▁Bound	-10308
▁Madag	-10309
▁Rapid	-10310
▁Still	-10311
▁Virus	-10312
▁absol	-10313
▁antif	-10314
▁edges	-10315
▁integ	-10316
▁magma	-10317
▁patch	-10318
arities	-10319
asoning	-10320
biologi	-10321
bounded	-10322
ceeding	-10323
ediment	-10324
eedback	-10325
omputer	-10326
perturb	-10327
umation	-10328
uscular	-10329
▁Batter	-10330
▁Liquid	-10331
▁Plants	-10332
▁attain	-10333
▁attenu	-10334
▁course	-10335
▁diodes	-10336
▁enanti	-10337
▁macrom	-10338
▁rescue	-10339
▁rising	-10340
acterium	-10341
ektioner	-10342
ensitive	-10343
formance	-10344
verkning	-10345
▁Central	-10346
▁Eurasia	-10347
▁Methane	-10348
▁Plasmon	-10349
▁Plastic	-10350
▁Testing	-10351
▁differs	-10352
▁durable	-10353
▁macroph	-10354
▁mutants	-10355
▁offered	-10356
▁version	-10357
inorganic	-10358
istically	-10359
▁Accurate	-10360
▁Approxim	-10361
▁Bacteria	-10362
▁Phylogen	-10363
▁Triassic	-10364
▁academic	-10365
▁accepted	-10366
▁adequate	-10367
▁amyloids	-10368
▁cleavage	-10369
▁cultural	-10370
▁division	-10371
▁exhibits	-10372
▁genetisk	-10373
▁governed	-10374
▁hotspots	-10375
▁photoper	-10376
▁plasmids	-10377
▁rigidity	-10378
▁surgical	-10379
▁versions	-10380
ographical	-10381
▁Institute	-10382
▁accretion	-10383
▁aluminium	-10384
▁biologisk	-10385
▁couplings	-10386
▁describes	-10387
▁embedding	-10388
▁federated	-10389
▁immediate	-10390
▁nanometer	-10391
▁optimised	-10392
▁polymeric	-10393
▁sjukdomar	-10394
▁stabilize	-10395
▁tectonics	-10396
▁translate	-10397
engineering	-10398
ophysiology	-10399
uminescence	-10400
▁abundances	-10401
▁allocation	-10402
▁attributed	-10403
▁biologiska	-10404
▁challenged	-10405
▁cohomology	-10406
▁comprising	-10407
▁deficiency	-10408
▁kinematics	-10409
▁physically	-10410
▁polymorphs	-10411
▁prevalence	-10412
▁reflection	-10413
▁respective	-10414
▁rotational	-10415
▁strengthen	-10416
▁uncovering	-10417
▁evaporation	-10418
▁facilitated	-10419
▁lightweight	-10420
▁metamorphic	-10421
▁remediation	-10422
▁wavelengths	-10423
armaceuticals	-10424
▁efficiencies	-10425
▁longitudinal	-10426
▁participants	-10427
▁restrictions	-10428
▁contamination	-10429
▁djupinlärning	-10430
▁establishment	-10431
▁mathematically	-10432
".	-10433
-)	-10434
80	-10435
DH	-10436
Or	-10437
TT	-10438
US	-10439
ISC	-10440
MHC	-10441
asp	-10442
aut	-10443
elt	-10444
ena	-10445
erb	-10446
erk	-10447
meå	-10448
nde	-10449
ocy	-10450
pot	-10451
tox	-10452
äss	-10453
äst	-10454
▁13	-10455
▁EB	-10456
▁MC	-10457
▁PA	-10458
▁Zr	-10459
achy	-10460
ipro	-10461
isel	-10462
iser	-10463
kraf	-10464
nath	-10465
otor	-10466
prey	-10467
ribu	-10468
rink	-10469
rupt	-10470
tera	-10471
tiga	-10472
tude	-10473
utsä	-10474
ycle	-10475
▁CNS	-10476
▁Der	-10477
▁ESA	-10478
▁Gly	-10479
▁Ste	-10480
▁XAI	-10481
▁cup	-10482
▁die	-10483
▁gla	-10484
▁let	-10485
▁mit	-10486
▁suc	-10487
▁til	-10488
▁vic	-10489
Elect	-10490
after	-10491
allic	-10492
amics	-10493
ausal	-10494
avier	-10495
charg	-10496
efsch	-10497
iling	-10498
iming	-10499
jande	-10500
ompan	-10501
optic	-10502
orier	-10503
uming	-10504
which	-10505
while	-10506
▁Cosm	-10507
▁Cryo	-10508
▁Disc	-10509
▁Djup	-10510
▁Mean	-10511
▁Work	-10512
▁XFEL	-10513
▁alve	-10514
▁cros	-10515
▁feat	-10516
▁goes	-10517
▁leaf	-10518
▁leak	-10519
▁merg	-10520
▁mesh	-10521
▁muse	-10522
▁orch	-10523
▁perc	-10524
▁scre	-10525
▁seem	-10526
▁skal	-10527
▁spik	-10528
▁tyre	-10529
▁vatt	-10530
Stokes	-10531
ancies	-10532
anthan	-10533
cancer	-10534
covery	-10535
dioxid	-10536
entity	-10537
entral	-10538
hesion	-10539
initio	-10540
ofluid	-10541
points	-10542
sprung	-10543
ärande	-10544
önster	-10545
▁Avanc	-10546
▁Cells	-10547
▁Cross	-10548
▁Euler	-10549
▁Major	-10550
▁Morph	-10551
▁avian	-10552
▁coral	-10553
▁deals	-10554
▁equiv	-10555
▁infil	-10556
▁ozone	-10557
▁river	-10558
▁seeds	-10559
▁south	-10560
▁theme	-10561
angling	-10562
inators	-10563
känning	-10564
nätverk	-10565
räddars	-10566
urgical	-10567
åverkan	-10568
▁Cooper	-10569
▁Galaxy	-10570
▁Growth	-10571
▁Social	-10572
▁Stream	-10573
▁Transm	-10574
▁bioref	-10575
▁branch	-10576
▁cattle	-10577
▁cement	-10578
▁fishes	-10579
▁introg	-10580
▁kemisk	-10581
▁probed	-10582
▁prompt	-10583
▁sulfur	-10584
▁travel	-10585
▁wealth	-10586
operando	-10587
ordinary	-10588
pathogen	-10589
unctions	-10590
▁Germany	-10591
▁baserad	-10592
▁burning	-10593
▁chaotic	-10594
▁confirm	-10595
▁degener	-10596
▁degrade	-10597
▁elektro	-10598
▁equally	-10599
▁microbe	-10600
▁mystery	-10601
▁nucleic	-10602
▁profess	-10603
▁protons	-10604
▁pursued	-10605
▁sampled	-10606
▁simpler	-10607
▁telecom	-10608
▁ternary	-10609
▁tracers	-10610
▁tracing	-10611
▁welfare	-10612
discharge	-10613
unctional	-10614
vergångar	-10615
▁Elektron	-10616
▁Physical	-10617
▁Spectral	-10618
▁Utforska	-10619
▁apparent	-10620
▁cascades	-10621
▁dementia	-10622
▁deterior	-10623
▁enriched	-10624
▁formally	-10625
▁frequent	-10626
▁glycerol	-10627
▁hypothal	-10628
▁inducing	-10629
▁kristall	-10630
▁mismatch	-10631
▁nanopore	-10632
▁photodet	-10633
▁remained	-10634
▁stronger	-10635
▁triggers	-10636
▁utilizes	-10637
capacitors	-10638
regulation	-10639
volutional	-10640
▁Geometric	-10641
▁Improving	-10642
▁Secondary	-10643
▁Stability	-10644
▁anomalous	-10645
▁beginning	-10646
▁consumers	-10647
▁ensembles	-10648
▁injection	-10649
▁inlärning	-10650
▁installed	-10651
▁lifetimes	-10652
▁multitude	-10653
▁nutrition	-10654
▁phosphory	-10655
▁pollutant	-10656
▁producers	-10657
▁proposing	-10658
▁recognize	-10659
▁reflected	-10660
▁roughness	-10661
▁searching	-10662
▁silencing	-10663
▁streaming	-10664
▁taxonomic	-10665
▁Combustion	-10666
▁Management	-10667
▁Microfluid	-10668
▁Monitoring	-10669
▁attributes	-10670
▁epithelial	-10671
▁formulated	-10672
▁geographic	-10673
▁oligonucle	-10674
▁oscillator	-10675
▁reservoirs	-10676
▁senescence	-10677
▁stationary	-10678
▁stimulated	-10679
▁triggering	-10680
▁undergoing	-10681
▁assemblages	-10682
▁backgrounds	-10683
▁elucidating	-10684
▁intelligens	-10685
▁practically	-10686
▁proteoforms	-10687
▁requirement	-10688
▁restriction	-10689
▁structuring	-10690
▁subcellular	-10691
▁Conventional	-10692
▁Neuromorphic	-10693
▁arrangements	-10694
▁controllable	-10695
▁instrumental	-10696
▁microbiology	-10697
▁pathogenesis	-10698
▁submanifolds	-10699
▁extraordinary	-10700
▁superalgebras	-10701
▁traditionally	-10702
▁dimensionality	-10703
▁polysaccharides	-10704
▁supercapacitors	-10705
40	-10706
5)	-10707
At	-10708
Cu	-10709
HD	-10710
MI	-10711
NO	-10712
PV	-10713
Si	-10714
mm	-10715
sv	-10716
Con	-10717
LHC	-10718
ban	-10719
dec	-10720
kta	-10721
min	-10722
ows	-10723
ugg	-10724
▁--	-10725
▁17	-10726
▁Ir	-10727
▁Zn	-10728
▁fs	-10729
balt	-10730
ergi	-10731
fatt	-10732
gran	-10733
ibly	-10734
kind	-10735
obot	-10736
osom	-10737
part	-10738
phot	-10739
romb	-10740
step	-10741
stär	-10742
ulph	-10743
umor	-10744
ydda	-10745
yles	-10746
▁ATP	-10747
▁Ama	-10748
▁EVs	-10749
▁Kon	-10750
▁Pen	-10751
▁SMC	-10752
▁ant	-10753
▁lev	-10754
▁rek	-10755
▁rod	-10756
▁swe	-10757
▁tac	-10758
▁war	-10759
atial	-10760
eller	-10761
enger	-10762
genic	-10763
ifies	-10764
reduc	-10765
ucoid	-10766
verks	-10767
ällor	-10768
▁2023	-10769
▁East	-10770
▁Host	-10771
▁Håll	-10772
▁ITER	-10773
▁Mill	-10774
▁Perm	-10775
▁RNAi	-10776
▁Radi	-10777
▁Spar	-10778
▁Thin	-10779
▁Umeå	-10780
▁bees	-10781
▁bygg	-10782
▁caps	-10783
▁hair	-10784
▁jets	-10785
▁pric	-10786
▁rank	-10787
▁tors	-10788
▁unch	-10789
assium	-10790
bachia	-10791
differ	-10792
ektral	-10793
facing	-10794
monary	-10795
ogener	-10796
olysis	-10797
olytic	-10798
oscill	-10799
ritten	-10800
scales	-10801
uronal	-10802
örelse	-10803
▁Astro	-10804
▁Covid	-10805
▁Embed	-10806
▁Grund	-10807
▁Stell	-10808
▁audio	-10809
▁clock	-10810
▁curve	-10811
▁grids	-10812
▁loops	-10813
▁males	-10814
▁natur	-10815
▁olika	-10816
▁panel	-10817
▁perce	-10818
▁pleth	-10819
▁stack	-10820
▁valve	-10821
▁wheat	-10822
genetic	-10823
ogaster	-10824
plastic	-10825
reening	-10826
▁Amazon	-10827
▁Animal	-10828
▁Change	-10829
▁Higher	-10830
▁Proton	-10831
▁Signal	-10832
▁camera	-10833
▁celler	-10834
▁cobalt	-10835
▁commut	-10836
▁corona	-10837
▁covers	-10838
▁entity	-10839
▁fibril	-10840
▁forese	-10841
▁former	-10842
▁hydrox	-10843
▁larval	-10844
▁legacy	-10845
▁manual	-10846
▁option	-10847
▁phonon	-10848
▁planar	-10849
▁porösa	-10850
▁predom	-10851
▁rarely	-10852
▁season	-10853
▁stored	-10854
▁studie	-10855
▁varied	-10856
efschetz	-10857
latitude	-10858
lärnings	-10859
piratory	-10860
proteins	-10861
▁Purpose	-10862
▁Reinfor	-10863
▁Studier	-10864
▁aligned	-10865
▁applies	-10866
▁biggest	-10867
▁cubical	-10868
▁dealing	-10869
▁halvled	-10870
▁hotspot	-10871
▁hybrids	-10872
▁hypoxia	-10873
▁kemiska	-10874
▁logical	-10875
▁paradox	-10876
▁samhäll	-10877
▁scatter	-10878
▁scrutin	-10879
▁vaccine	-10880
atalytisk	-10881
ocellulos	-10882
▁Struktur	-10883
▁adapting	-10884
▁examined	-10885
▁exercise	-10886
▁modelled	-10887
▁seawater	-10888
▁trapping	-10889
centration	-10890
omvandling	-10891
strukturer	-10892
▁Different	-10893
▁Following	-10894
▁Wolbachia	-10895
▁cryogenic	-10896
▁deposited	-10897
▁factories	-10898
▁heatwaves	-10899
▁hydrology	-10900
▁leverages	-10901
▁lifestyle	-10902
▁networked	-10903
▁packaging	-10904
▁signature	-10905
▁workflows	-10906
▁Algorithms	-10907
▁Department	-10908
▁appearance	-10909
▁counteract	-10910
▁definition	-10911
▁exhibiting	-10912
▁exoplanets	-10913
▁förbättrad	-10914
▁groundwork	-10915
▁perspektiv	-10916
▁preference	-10917
▁repertoire	-10918
▁similarity	-10919
▁validating	-10920
▁vulnerable	-10921
echnological	-10922
▁Electronics	-10923
▁Synchrotron	-10924
▁aerodynamic	-10925
▁calculating	-10926
▁conflicting	-10927
▁conjectures	-10928
▁destruction	-10929
▁differently	-10930
▁duplication	-10931
▁photosystem	-10932
▁regulations	-10933
▁Multiphysics	-10934
▁biomechanics	-10935
▁ecologically	-10936
▁funktionella	-10937
▁invertebrate	-10938
▁luminescence	-10939
▁manufactured	-10940
▁programmable	-10941
▁relativistic	-10942
▁consideration	-10943
▁explainability	-10944
▁mineralization	-10945
▁nanotechnology	-10946
▁nanofabrication	-10947
AA	-10948
PL	-10949
UV	-10950
kl	-10951
.).	-10952
ALS	-10953
Gen	-10954
NMR	-10955
One	-10956
fri	-10957
how	-10958
lik	-10959
phi	-10960
ply	-10961
rik	-10962
ärg	-10963
▁23	-10964
▁Ly	-10965
▁MI	-10966
▁RL	-10967
▁fo	-10968
LEDs	-10969
asal	-10970
case	-10971
city	-10972
elia	-10973
film	-10974
itis	-10975
mäss	-10976
olip	-10977
onas	-10978
oser	-10979
osym	-10980
oter	-10981
ounc	-10982
ulin	-10983
uple	-10984
▁20%	-10985
▁300	-10986
▁CAR	-10987
▁Cap	-10988
▁Hyp	-10989
▁ISM	-10990
▁MAT	-10991
▁Ret	-10992
▁SLC	-10993
▁USA	-10994
▁Why	-10995
▁agg	-10996
▁fol	-10997
▁hyg	-10998
▁les	-10999
▁tag	-11000
▁ven	-11001
▁våg	-11002
Using	-11003
aping	-11004
asure	-11005
avour	-11006
elian	-11007
elser	-11008
erich	-11009
fract	-11010
modal	-11011
nabba	-11012
skikt	-11013
snitt	-11014
stalk	-11015
terna	-11016
vitro	-11017
▁Bron	-11018
▁DNNs	-11019
▁Eluc	-11020
▁List	-11021
▁Medi	-11022
▁Olig	-11023
▁PCET	-11024
▁PSCs	-11025
▁Wind	-11026
▁bark	-11027
▁biok	-11028
▁blod	-11029
▁copy	-11030
▁dest	-11031
▁djur	-11032
▁doub	-11033
▁excl	-11034
▁gase	-11035
▁glut	-11036
▁livs	-11037
▁mess	-11038
▁pron	-11039
▁reds	-11040
▁seam	-11041
▁viol	-11042
▁zeta	-11043
Driven	-11044
anding	-11045
dition	-11046
fluoro	-11047
imetic	-11048
inates	-11049
iteter	-11050
oredox	-11051
ormone	-11052
ranial	-11053
steady	-11054
uality	-11055
urable	-11056
valued	-11057
▁Param	-11058
▁Radio	-11059
▁apopt	-11060
▁calls	-11061
▁charm	-11062
▁deple	-11063
▁eller	-11064
▁indis	-11065
▁ornam	-11066
▁sinks	-11067
▁spins	-11068
▁stark	-11069
▁stere	-11070
▁stors	-11071
adriven	-11072
erichia	-11073
inities	-11074
ospital	-11075
oustics	-11076
titativ	-11077
ucoidan	-11078
▁Graphs	-11079
▁Reveal	-11080
▁arises	-11081
▁confer	-11082
▁corpus	-11083
▁emphas	-11084
▁endoth	-11085
▁faults	-11086
▁indeed	-11087
▁kernel	-11088
▁manage	-11089
▁master	-11090
▁methan	-11091
▁mutant	-11092
▁posing	-11093
▁progen	-11094
▁ratios	-11095
▁setups	-11096
▁stokas	-11097
▁tempor	-11098
▁upptäc	-11099
adaptive	-11100
cription	-11101
distance	-11102
erskalig	-11103
▁Project	-11104
▁Success	-11105
▁Thermal	-11106
▁adopted	-11107
▁biochar	-11108
▁compass	-11109
▁fitting	-11110
▁gaseous	-11111
▁harvest	-11112
▁merging	-11113
▁residue	-11114
▁sulfate	-11115
▁texture	-11116
▁tropics	-11117
▁twisted	-11118
aktivitet	-11119
itability	-11120
tificiell	-11121
utational	-11122
▁Emerging	-11123
▁Enabling	-11124
▁Transfer	-11125
▁Tropical	-11126
▁Wireless	-11127
▁accompan	-11128
▁adhesive	-11129
▁articles	-11130
▁asteroid	-11131
▁descript	-11132
▁ensemble	-11133
▁excitons	-11134
▁filament	-11135
▁infinity	-11136
▁mesocosm	-11137
▁operated	-11138
▁plethora	-11139
▁prevents	-11140
▁properly	-11141
▁seamless	-11142
▁tillväxt	-11143
▁underpin	-11144
▁unwanted	-11145
▁validity	-11146
projective	-11147
scherichia	-11148
▁Reasoning	-11149
▁absorbing	-11150
▁branching	-11151
▁constants	-11152
▁converted	-11153
▁examining	-11154
▁explained	-11155
▁flowering	-11156
▁hindering	-11157
▁indicates	-11158
▁koldioxid	-11159
▁parasites	-11160
▁proximity	-11161
▁recurrent	-11162
▁sclerosis	-11163
▁simulator	-11164
▁supernova	-11165
▁theoretic	-11166
▁thermally	-11167
fluoroalkyl	-11168
▁Microscopy	-11169
▁Turbulence	-11170
▁capacities	-11171
▁converting	-11172
▁explosions	-11173
▁indicating	-11174
▁metabolite	-11175
▁refinement	-11176
▁translated	-11177
▁Alternative	-11178
▁Environment	-11179
▁Mechanistic	-11180
▁beräkningar	-11181
▁manipulated	-11182
▁manufacture	-11183
▁phenotyping	-11184
▁resolutions	-11185
▁suppression	-11186
▁susceptible	-11187
▁Verification	-11188
▁chemosensory	-11189
▁electrically	-11190
▁expectations	-11191
▁illumination	-11192
▁photoelectro	-11193
▁publications	-11194
▁compatibility	-11195
▁constructions	-11196
▁demonstrating	-11197
▁glycosylation	-11198
▁kommunikation	-11199
▁reprogramming	-11200
▁strengthening	-11201
▁vulnerability	-11202
▁asymptotically	-11203
▁chromatography	-11204
▁photochemistry	-11205
▁technologically	-11206
:-	-11207
BA	-11208
FL	-11209
GA	-11210
If	-11211
It	-11212
PM	-11213
Sn	-11214
ba	-11215
ij	-11216
åk	-11217
AlN	-11218
MAA	-11219
SCI	-11220
cel	-11221
imp	-11222
log	-11223
vik	-11224
öra	-11225
▁CS	-11226
▁Gu	-11227
▁Ln	-11228
▁TU	-11229
▁år	-11230
Time	-11231
acyl	-11232
answ	-11233
atil	-11234
bind	-11235
empl	-11236
eton	-11237
fire	-11238
icks	-11239
iped	-11240
kary	-11241
läpp	-11242
oped	-11243
oset	-11244
tail	-11245
valb	-11246
vara	-11247
▁Cre	-11248
▁DOC	-11249
▁ECM	-11250
▁Fil	-11251
▁MNL	-11252
▁SEM	-11253
▁TFs	-11254
▁Ter	-11255
▁Vir	-11256
▁adi	-11257
▁box	-11258
▁edd	-11259
▁gel	-11260
▁pay	-11261
abund	-11262
adays	-11263
aired	-11264
arted	-11265
ascar	-11266
asome	-11267
igand	-11268
ontal	-11269
othen	-11270
ourse	-11271
plain	-11272
ploys	-11273
tigen	-11274
▁FAIR	-11275
▁Grav	-11276
▁JWST	-11277
▁Lang	-11278
▁Lith	-11279
▁Oden	-11280
▁alco	-11281
▁alle	-11282
▁anch	-11283
▁cars	-11284
▁drag	-11285
▁komp	-11286
▁rays	-11287
▁said	-11288
▁silk	-11289
▁tell	-11290
anpass	-11291
atiles	-11292
drivna	-11293
effect	-11294
folded	-11295
iobate	-11296
itride	-11297
oreala	-11298
ounced	-11299
ynolds	-11300
ämning	-11301
▁Fiber	-11302
▁Redox	-11303
▁Trees	-11304
▁biome	-11305
▁boron	-11306
▁cheap	-11307
▁favor	-11308
▁fetal	-11309
▁grows	-11310
▁imply	-11311
▁insek	-11312
▁klass	-11313
▁kraft	-11314
▁lingu	-11315
▁lokal	-11316
▁mtDNA	-11317
▁phage	-11318
▁piezo	-11319
▁resis	-11320
▁socio	-11321
▁spans	-11322
▁stems	-11323
▁sulph	-11324
abolism	-11325
ambrian	-11326
charges	-11327
cycling	-11328
diagnos	-11329
erativa	-11330
ircraft	-11331
massive	-11332
nection	-11333
ochrome	-11334
olithic	-11335
omerase	-11336
ophilic	-11337
peratur	-11338
powered	-11339
purpose	-11340
raining	-11341
raktion	-11342
rinkage	-11343
▁Active	-11344
▁Bortom	-11345
▁Centre	-11346
▁Gothen	-11347
▁Hubble	-11348
▁Isotop	-11349
▁Safety	-11350
▁abrupt	-11351
▁advers	-11352
▁behave	-11353
▁belief	-11354
▁filmer	-11355
▁flames	-11356
▁gastro	-11357
▁haptic	-11358
▁hydrop	-11359
▁multim	-11360
▁places	-11361
▁purino	-11362
▁purity	-11363
▁shrubs	-11364
breeding	-11365
exchange	-11366
isenberg	-11367
pensions	-11368
standard	-11369
uclidean	-11370
utrients	-11371
▁Effects	-11372
▁Integra	-11373
▁Medical	-11374
▁Similar	-11375
▁charges	-11376
▁dissect	-11377
▁ergodic	-11378
▁finance	-11379
▁hållbar	-11380
▁imposed	-11381
▁jamming	-11382
▁lineage	-11383
▁looking	-11384
▁managed	-11385
▁outputs	-11386
▁prognos	-11387
▁relates	-11388
▁resting	-11389
▁röntgen	-11390
▁section	-11391
▁studera	-11392
▁witness	-11393
applicant	-11394
fficiency	-11395
oreningar	-11396
synuclein	-11397
▁Combined	-11398
▁Critical	-11399
▁Mediator	-11400
▁Nitrogen	-11401
▁Phenotyp	-11402
▁Robotics	-11403
▁administ	-11404
▁archives	-11405
▁bioavail	-11406
▁catalyze	-11407
▁cellulos	-11408
▁ceramics	-11409
▁chambers	-11410
▁compress	-11411
▁cracking	-11412
▁dominate	-11413
▁executed	-11414
▁grounded	-11415
▁memories	-11416
▁postdocs	-11417
▁predator	-11418
▁produces	-11419
▁publicly	-11420
▁titanium	-11421
▁upstream	-11422
elektronik	-11423
iconductor	-11424
intestinal	-11425
▁Mechanics	-11426
▁Renewable	-11427
▁Utilizing	-11428
▁amplitude	-11429
▁breakdown	-11430
▁chirality	-11431
▁colliders	-11432
▁considers	-11433
▁crosstalk	-11434
▁discharge	-11435
▁initiated	-11436
▁lightning	-11437
▁magnetron	-11438
▁modifying	-11439
▁nanopores	-11440
▁nanowires	-11441
▁nematodes	-11442
▁parametri	-11443
▁phosphate	-11444
▁polyploid	-11445
▁quenching	-11446
▁symmetric	-11447
▁tillstånd	-11448
▁Gothenburg	-11449
▁Madagascar	-11450
▁Regulation	-11451
▁amplifiers	-11452
▁arthropods	-11453
▁delivering	-11454
▁developers	-11455
▁diagnostik	-11456
▁disruptive	-11457
▁documented	-11458
▁eigenvalue	-11459
▁endogenous	-11460
▁envisioned	-11461
▁mathematic	-11462
▁pronounced	-11463
▁redundancy	-11464
▁remarkably	-11465
ompatibility	-11466
perturbative	-11467
▁Experiments	-11468
▁Uncertainty	-11469
▁approaching	-11470
▁automorphic	-11471
▁compartment	-11472
▁equivariant	-11473
▁facilitates	-11474
▁hydrophobic	-11475
▁interpreted	-11476
▁ionospheric	-11477
▁nanofibrils	-11478
▁Fluorescence	-11479
▁Kartläggning	-11480
▁Observations	-11481
▁Spectrometry	-11482
▁accomplished	-11483
▁concentrated	-11484
▁consequently	-11485
▁determinants	-11486
▁industrially	-11487
▁metasurfaces	-11488
▁substitution	-11489
▁transformers	-11490
▁valorization	-11491
▁Microfluidics	-11492
▁biotechnology	-11493
▁exceptionally	-11494
▁thermogenesis	-11495
▁triboelectric	-11496
▁unpredictable	-11497
▁Noncommutative	-11498
▁nonlinearities	-11499
▁rearrangements	-11500
▁recommendations	-11501
Cl	-11502
DD	-11503
IA	-11504
SW	-11505
TR	-11506
mi	-11507
tu	-11508
åd	-11509
-10	-11510
:1.	-11511
Des	-11512
TAC	-11513
ams	-11514
bro	-11515
ept	-11516
exc	-11517
fäl	-11518
hav	-11519
iae	-11520
idi	-11521
iré	-11522
isc	-11523
lad	-11524
pen	-11525
tra	-11526
▁1-	-11527
▁CL	-11528
▁IN	-11529
▁Ol	-11530
▁TS	-11531
▁ko	-11532
SIMS	-11533
Stud	-11534
ayer	-11535
bero	-11536
bror	-11537
diff	-11538
ellt	-11539
fram	-11540
grid	-11541
keln	-11542
oren	-11543
orse	-11544
osin	-11545
pack	-11546
pine	-11547
quis	-11548
ranc	-11549
shot	-11550
ulse	-11551
vary	-11552
vice	-11553
öntg	-11554
▁ALD	-11555
▁AdS	-11556
▁Are	-11557
▁Bre	-11558
▁CSF	-11559
▁GHz	-11560
▁Hel	-11561
▁INP	-11562
▁MHC	-11563
▁Mal	-11564
▁Mob	-11565
▁Not	-11566
▁Sum	-11567
▁Sym	-11568
▁bor	-11569
▁fir	-11570
▁mör	-11571
▁nät	-11572
▁rew	-11573
▁sav	-11574
▁sjö	-11575
▁vät	-11576
▁Öst	-11577
Earth	-11578
Under	-11579
ancre	-11580
ifers	-11581
inska	-11582
itekt	-11583
itism	-11584
itron	-11585
obots	-11586
reson	-11587
types	-11588
ättre	-11589
▁Bang	-11590
▁Fish	-11591
▁LLMs	-11592
▁LPMO	-11593
▁NASA	-11594
▁PARP	-11595
▁argu	-11596
▁epis	-11597
▁exac	-11598
▁meso	-11599
▁odor	-11600
▁pest	-11601
▁tang	-11602
▁tele	-11603
▁tons	-11604
▁vind	-11605
access	-11606
acting	-11607
assing	-11608
biased	-11609
enskap	-11610
family	-11611
ligand	-11612
ources	-11613
rogate	-11614
series	-11615
solids	-11616
vement	-11617
▁Cyber	-11618
▁Event	-11619
▁Svalb	-11620
▁anode	-11621
▁argue	-11622
▁arsen	-11623
▁biops	-11624
▁biota	-11625
▁cargo	-11626
▁djupa	-11627
▁inten	-11628
▁items	-11629
▁osteo	-11630
▁realm	-11631
▁reefs	-11632
▁tunna	-11633
alcogen	-11634
aterade	-11635
breaker	-11636
eptides	-11637
healing	-11638
implant	-11639
valitet	-11640
vinning	-11641
▁Enzyme	-11642
▁Mutual	-11643
▁Things	-11644
▁Vision	-11645
▁adsorb	-11646
▁allevi	-11647
▁alters	-11648
▁aurora	-11649
▁bursts	-11650
▁circle	-11651
▁compan	-11652
▁convex	-11653
▁devast	-11654
▁econom	-11655
▁flares	-11656
▁gender	-11657
▁grafer	-11658
▁instit	-11659
▁microt	-11660
▁neuros	-11661
▁pyroly	-11662
▁refers	-11663
▁report	-11664
▁review	-11665
▁sought	-11666
▁sounds	-11667
ontology	-11668
pensable	-11669
reatment	-11670
rospinal	-11671
▁Acceler	-11672
▁Dispers	-11673
▁Firstly	-11674
▁Komplex	-11675
▁Martian	-11676
▁Peptide	-11677
▁altitud	-11678
▁boreala	-11679
▁clearly	-11680
▁defence	-11681
▁discuss	-11682
▁employs	-11683
▁enteric	-11684
▁hundred	-11685
▁leakage	-11686
▁rainfor	-11687
▁ramverk	-11688
▁seaweed	-11689
▁sharing	-11690
▁soluble	-11691
▁stretch	-11692
▁tilting	-11693
▁transit	-11694
▁valence	-11695
▁vessels	-11696
▁written	-11697
ategories	-11698
dominated	-11699
ecosystem	-11700
ieffektiv	-11701
materials	-11702
ompositer	-11703
oproteins	-11704
▁Cellular	-11705
▁Feedback	-11706
▁Integral	-11707
▁Interpre	-11708
▁Personal	-11709
▁aluminum	-11710
▁aviation	-11711
▁cerebral	-11712
▁dinosaur	-11713
▁emitting	-11714
▁injuries	-11715
▁nanowire	-11716
▁protease	-11717
▁reagents	-11718
▁relating	-11719
▁robustly	-11720
▁straight	-11721
avbildning	-11722
obakterier	-11723
reaktioner	-11724
resistance	-11725
responsive	-11726
▁Algebraic	-11727
▁Automated	-11728
▁Euclidean	-11729
▁Molekylär	-11730
▁Revealing	-11731
▁anomalies	-11732
▁answering	-11733
▁bakterier	-11734
▁catchment	-11735
▁conflicts	-11736
▁depletion	-11737
▁extrinsic	-11738
▁feedstock	-11739
▁filaments	-11740
▁filtering	-11741
▁fluidized	-11742
▁pesticide	-11743
▁phenology	-11744
▁radically	-11745
▁reproduce	-11746
▁virtually	-11747
antineutron	-11748
▁Efficiency	-11749
▁Foundation	-11750
▁Interfaces	-11751
▁Simulation	-11752
▁automotive	-11753
▁decreasing	-11754
▁degradable	-11755
▁dehydrogen	-11756
▁discontinu	-11757
▁expansions	-11758
▁initiative	-11759
▁insulation	-11760
▁misfolding	-11761
▁multiphase	-11762
▁propulsion	-11763
▁responsive	-11764
▁simulering	-11765
▁spacetimes	-11766
▁tunability	-11767
generational	-11768
▁Escherichia	-11769
▁arrangement	-11770
▁biopolymers	-11771
▁devastating	-11772
▁implantable	-11773
▁informative	-11774
▁neurotransm	-11775
▁oscillatory	-11776
▁overlapping	-11777
▁percolation	-11778
▁singularity	-11779
▁termination	-11780
▁transporter	-11781
▁exploitation	-11782
▁habitability	-11783
▁laboratories	-11784
▁longstanding	-11785
▁reionization	-11786
▁segmentation	-11787
▁spectrometer	-11788
▁synchronized	-11789
▁Collaborative	-11790
▁Nanoparticles	-11791
▁Reinforcement	-11792
▁electrostatic	-11793
▁integrability	-11794
▁introgression	-11795
▁probabilities	-11796
▁photocatalysts	-11797
▁specifications	-11798
▁interpretations	-11799
▁physiologically	-11800
01	-11801
11	-11802
FB	-11803
GP	-11804
Li	-11805
Me	-11806
NE	-11807
Ob	-11808
TP	-11809
bä	-11810
sö	-11811
åt	-11812
Civ	-11813
ICE	-11814
eer	-11815
hiz	-11816
inn	-11817
kle	-11818
lop	-11819
sec	-11820
sup	-11821
uft	-11822
vey	-11823
ydd	-11824
▁16	-11825
▁AF	-11826
▁EL	-11827
▁Pi	-11828
▁RN	-11829
▁Ve	-11830
LAMS	-11831
alia	-11832
arom	-11833
bedo	-11834
chol	-11835
elag	-11836
from	-11837
gene	-11838
gets	-11839
here	-11840
idar	-11841
mode	-11842
ocyt	-11843
ozoa	-11844
rint	-11845
sign	-11846
strå	-11847
tekn	-11848
tify	-11849
tite	-11850
tium	-11851
uels	-11852
unar	-11853
vals	-11854
ytor	-11855
▁000	-11856
▁2-3	-11857
▁Aug	-11858
▁BAR	-11859
▁Bes	-11860
▁Kar	-11861
▁Mtb	-11862
▁Ric	-11863
▁SHP	-11864
▁SOA	-11865
▁Tid	-11866
▁Wik	-11867
▁ech	-11868
▁hep	-11869
▁jus	-11870
▁rym	-11871
▁try	-11872
abila	-11873
ampar	-11874
anter	-11875
arial	-11876
centr	-11877
human	-11878
ilver	-11879
ingar	-11880
lings	-11881
nanop	-11882
oving	-11883
rings	-11884
thora	-11885
utral	-11886
▁2017	-11887
▁Biot	-11888
▁Bone	-11889
▁Cere	-11890
▁Chem	-11891
▁Feyn	-11892
▁Lake	-11893
▁Much	-11894
▁Scal	-11895
▁Tail	-11896
▁Wood	-11897
▁aper	-11898
▁bism	-11899
▁gath	-11900
▁gram	-11901
▁intu	-11902
▁mask	-11903
▁moln	-11904
▁phon	-11905
▁runs	-11906
▁sand	-11907
atrans	-11908
depend	-11909
eeding	-11910
fields	-11911
ganese	-11912
iodism	-11913
istine	-11914
ofysik	-11915
permat	-11916
plasma	-11917
posure	-11918
specif	-11919
timate	-11920
ularly	-11921
▁Blood	-11922
▁China	-11923
▁Class	-11924
▁Limit	-11925
▁Mycob	-11926
▁Noise	-11927
▁Polyc	-11928
▁Scots	-11929
▁Urban	-11930
▁birth	-11931
▁equal	-11932
▁gains	-11933
▁mesop	-11934
▁naked	-11935
▁owing	-11936
▁redef	-11937
▁sheep	-11938
▁somet	-11939
▁spars	-11940
▁tokam	-11941
▁wings	-11942
▁words	-11943
Protein	-11944
complex	-11945
imetric	-11946
inetics	-11947
isphere	-11948
itektur	-11949
lingual	-11950
omotion	-11951
otonics	-11952
polymer	-11953
printed	-11954
ressing	-11955
ritiska	-11956
scaling	-11957
▁Boreal	-11958
▁Bronze	-11959
▁Clouds	-11960
▁Direct	-11961
▁actors	-11962
▁closer	-11963
▁debate	-11964
▁delays	-11965
▁dilute	-11966
▁fungus	-11967
▁hinder	-11968
▁kvants	-11969
▁marked	-11970
▁maskin	-11971
▁micron	-11972
▁myster	-11973
▁opened	-11974
▁predik	-11975
▁pulsed	-11976
▁raised	-11977
▁recycl	-11978
▁strand	-11979
▁utmost	-11980
▁vastly	-11981
▁weakly	-11982
addnings	-11983
agnetism	-11984
answered	-11985
calation	-11986
enhanced	-11987
gineered	-11988
plitting	-11989
roscopic	-11990
▁African	-11991
▁Aquatic	-11992
▁Conduct	-11993
▁Gallium	-11994
▁Kinetic	-11995
▁Partial	-11996
▁Solving	-11997
▁Special	-11998
▁Storage	-11999
▁Subsequ	-12000
▁adipose	-12001
▁archive	-12002
▁exacerb	-12003
▁hormone	-12004
▁imagery	-12005
▁meeting	-12006
▁players	-12007
▁shallow	-12008
▁sliding	-12009
▁whereby	-12010
adiabatic	-12011
arthritis	-12012
consuming	-12013
ilarities	-12014
ontroller	-12015
parameter	-12016
proteiner	-12017
▁Embedded	-12018
▁Hierarch	-12019
▁Insights	-12020
▁Reynolds	-12021
▁Studying	-12022
▁Svalbard	-12023
▁academia	-12024
▁actually	-12025
▁actuator	-12026
▁aligning	-12027
▁amenable	-12028
▁baseline	-12029
▁biogenic	-12030
▁biomassa	-12031
▁children	-12032
▁cultures	-12033
▁cytoskel	-12034
▁deriving	-12035
▁displays	-12036
▁endeavor	-12037
▁fidelity	-12038
▁interval	-12039
▁inverkan	-12040
▁ionizing	-12041
▁junction	-12042
▁launched	-12043
▁mekanism	-12044
▁optimise	-12045
▁priority	-12046
▁realised	-12047
▁recharge	-12048
▁regolith	-12049
▁replaced	-12050
▁sulfides	-12051
▁taxonomy	-12052
▁unsolved	-12053
▁urgently	-12054
adaptation	-12055
analytical	-12056
ansättning	-12057
▁Discovery	-12058
▁Electroly	-12059
▁Enhancing	-12060
▁Lefschetz	-12061
▁acceptors	-12062
▁accounted	-12063
▁betydelse	-12064
▁campaigns	-12065
▁centuries	-12066
▁compilers	-12067
▁completed	-12068
▁continued	-12069
▁molekyler	-12070
▁monitored	-12071
▁posterior	-12072
▁proteases	-12073
▁retrieval	-12074
▁ribosomes	-12075
▁shrinkage	-12076
▁something	-12077
abilization	-12078
information	-12079
istribution	-12080
▁Beräknings	-12081
▁Unraveling	-12082
▁anatomical	-12083
▁conjugates	-12084
▁constructs	-12085
▁discharges	-12086
▁encounters	-12087
▁exhumation	-12088
▁ionosphere	-12089
▁kombinator	-12090
▁läkemedels	-12091
▁modulating	-12092
▁monolayers	-12093
▁negatively	-12094
▁outperform	-12095
▁patterning	-12096
▁reflective	-12097
▁reinforced	-12098
▁subproject	-12099
▁transverse	-12100
aktärisering	-12101
▁Correlation	-12102
▁Importantly	-12103
▁Quantifying	-12104
▁abstraction	-12105
▁bifurcation	-12106
▁conjunction	-12107
▁eliminating	-12108
▁ingredients	-12109
▁pollinators	-12110
▁predictable	-12111
▁segregation	-12112
▁suspensions	-12113
environmental	-12114
otherapeutics	-12115
▁Localization	-12116
▁dissociation	-12117
▁hydrocarbons	-12118
▁infiltration	-12119
▁intermittent	-12120
▁nanomaterial	-12121
▁supermassive	-12122
▁transforming	-12123
▁upconversion	-12124
▁Probabilistic	-12125
▁grundläggande	-12126
▁immunotherapy	-12127
▁photochemical	-12128
▁Electromagnetic	-12129
▁experimentation	-12130
1:	-12131
:(	-12132
BB	-12133
Bi	-12134
FC	-12135
HA	-12136
NV	-12137
Na	-12138
PO	-12139
Se	-12140
TI	-12141
UC	-12142
Ws	-12143
▁.	-12144
▁ε	-12145
Bio	-12146
ERI	-12147
NFs	-12148
edd	-12149
ios	-12150
kor	-12151
lab	-12152
sem	-12153
ulo	-12154
upt	-12155
uro	-12156
väg	-12157
väx	-12158
▁11	-12159
▁AC	-12160
▁Ka	-12161
▁OR	-12162
▁TO	-12163
▁aS	-12164
▁wa	-12165
amma	-12166
anes	-12167
anks	-12168
bygg	-12169
iffr	-12170
ilda	-12171
ivid	-12172
otik	-12173
pekt	-12174
rose	-12175
skad	-12176
swit	-12177
uven	-12178
vide	-12179
well	-12180
änsk	-12181
▁10%	-12182
▁Bar	-12183
▁Erg	-12184
▁Jan	-12185
▁Mic	-12186
▁NIR	-12187
▁Pan	-12188
▁Pri	-12189
▁Sal	-12190
▁ble	-12191
▁emb	-12192
▁est	-12193
▁nod	-12194
▁oxy	-12195
▁son	-12196
▁unn	-12197
NNBAR	-12198
While	-12199
beräk	-12200
chrom	-12201
derly	-12202
ensic	-12203
eters	-12204
ibers	-12205
inear	-12206
itons	-12207
metod	-12208
oglob	-12209
oking	-12210
oside	-12211
silic	-12212
ssätt	-12213
ström	-12214
undra	-12215
vätsk	-12216
▁2018	-12217
▁Conc	-12218
▁Grön	-12219
▁LEDs	-12220
▁Last	-12221
▁Levi	-12222
▁Prin	-12223
▁Priv	-12224
▁Role	-12225
▁Very	-12226
▁away	-12227
▁brak	-12228
▁driv	-12229
▁hjär	-12230
▁koll	-12231
▁mind	-12232
▁moth	-12233
▁ophi	-12234
▁pace	-12235
▁peri	-12236
▁pool	-12237
▁remo	-12238
▁rend	-12239
▁samm	-12240
▁susp	-12241
▁tiny	-12242
Civita	-12243
agraph	-12244
compos	-12245
forest	-12246
förlit	-12247
grafer	-12248
icians	-12249
itamin	-12250
itrous	-12251
ologic	-12252
proton	-12253
steori	-12254
▁Alpha	-12255
▁Clust	-12256
▁Nobel	-12257
▁Resil	-12258
▁Sheet	-12259
▁Trust	-12260
▁Where	-12261
▁alkyl	-12262
▁chips	-12263
▁claim	-12264
▁decon	-12265
▁grass	-12266
▁hemic	-12267
▁inhal	-12268
▁kisel	-12269
▁older	-12270
▁sRNAs	-12271
▁tidig	-12272
▁women	-12273
Project	-12274
Through	-12275
echiffr	-12276
ematisk	-12277
katalys	-12278
keletal	-12279
kodning	-12280
limited	-12281
microbe	-12282
nathost	-12283
neutral	-12284
onomics	-12285
onstruk	-12286
scatter	-12287
strateg	-12288
trophic	-12289
utinely	-12290
▁Arktis	-12291
▁Indeed	-12292
▁Klimat	-12293
▁Linear	-12294
▁Modern	-12295
▁Navier	-12296
▁States	-12297
▁beetle	-12298
▁diverg	-12299
▁elasto	-12300
▁exceed	-12301
▁flavon	-12302
▁flöden	-12303
▁foster	-12304
▁freeze	-12305
▁föränd	-12306
▁graded	-12307
▁intest	-12308
▁milest	-12309
▁papers	-12310
▁permit	-12311
▁polyox	-12312
▁safegu	-12313
▁skelet	-12314
▁spores	-12315
▁subtle	-12316
▁thromb	-12317
▁vortex	-12318
bättring	-12319
coupling	-12320
directed	-12321
economic	-12322
ektering	-12323
harmonic	-12324
ificance	-12325
larative	-12326
omografi	-12327
ophysics	-12328
portance	-12329
▁Changes	-12330
▁Feynman	-12331
▁Massive	-12332
▁binders	-12333
▁budgets	-12334
▁colleag	-12335
▁diagram	-12336
▁droplet	-12337
▁earthqu	-12338
▁endosym	-12339
▁exchang	-12340
▁expands	-12341
▁flowers	-12342
▁fulfill	-12343
▁halogen	-12344
▁hinders	-12345
▁lanthan	-12346
▁leaving	-12347
▁mutagen	-12348
▁möjligg	-12349
▁optiska	-12350
▁percent	-12351
▁prokary	-12352
▁roughly	-12353
▁samband	-12354
▁screens	-12355
▁sheaves	-12356
▁soliton	-12357
▁surpass	-12358
▁tipping	-12359
▁turbine	-12360
▁varmare	-12361
▁wetting	-12362
dynamical	-12363
icksilver	-12364
particles	-12365
relations	-12366
▁Boundary	-12367
▁Cambrian	-12368
▁Compared	-12369
▁Division	-12370
▁Examples	-12371
▁Hospital	-12372
▁Starting	-12373
▁aircraft	-12374
▁analogue	-12375
▁backward	-12376
▁beteende	-12377
▁biobased	-12378
▁carrying	-12379
▁fairness	-12380
▁neurotox	-12381
▁opposite	-12382
▁ordering	-12383
▁plankton	-12384
▁probably	-12385
▁redshift	-12386
▁refining	-12387
▁resulted	-12388
▁shedding	-12389
▁sorption	-12390
▁swelling	-12391
▁thinking	-12392
▁transloc	-12393
ecological	-12394
mekanismer	-12395
oselective	-12396
processing	-12397
wavelength	-12398
▁According	-12399
▁Diversity	-12400
▁Magnetism	-12401
▁Microwave	-12402
▁Transient	-12403
▁consensus	-12404
▁correctly	-12405
▁dendritic	-12406
▁endometri	-12407
▁enigmatic	-12408
▁genotypes	-12409
▁hallmarks	-12410
▁misfolded	-12411
▁oligomers	-12412
▁oncogenic	-12413
▁perennial	-12414
▁potassium	-12415
▁presently	-12416
▁preserved	-12417
▁provision	-12418
▁routinely	-12419
▁stimulate	-12420
▁symbionts	-12421
▁viability	-12422
alcogenides	-12423
ramolecular	-12424
räddarsydda	-12425
▁Antibiotic	-12426
▁Estimation	-12427
▁Predictive	-12428
▁Proteomics	-12429
▁achievable	-12430
▁attachment	-12431
▁behandling	-12432
▁compliance	-12433
▁convection	-12434
▁covariance	-12435
▁elasticity	-12436
▁framtidens	-12437
▁maturation	-12438
▁observable	-12439
▁organelles	-12440
▁profoundly	-12441
▁protecting	-12442
▁randomized	-12443
▁smartphone	-12444
▁symplectic	-12445
▁transplant	-12446
▁unanswered	-12447
distribution	-12448
inflammation	-12449
▁capacitance	-12450
▁disturbance	-12451
▁endothelial	-12452
▁expressions	-12453
▁fluctuating	-12454
▁impairments	-12455
▁originating	-12456
▁predominant	-12457
▁subprojects	-12458
▁transmitted	-12459
oluminescence	-12460
▁biosynthetic	-12461
▁complexities	-12462
▁evolutionära	-12463
▁melanogaster	-12464
▁metagenomics	-12465
▁paramagnetic	-12466
▁performances	-12467
▁polarisation	-12468
▁synthesizing	-12469
▁undersökning	-12470
▁Investigation	-12471
▁Transcription	-12472
▁biodiversitet	-12473
▁collaborating	-12474
▁comprehension	-12475
▁geochronology	-12476
▁indispensable	-12477
▁discrimination	-12478
▁neutralization	-12479
▁revolutionized	-12480
▁thermochemical	-12481
▁internationally	-12482
▁vulnerabilities	-12483
.-	-12484
5.	-12485
AK	-12486
Ar	-12487
DL	-12488
EV	-12489
Ti	-12490
Un	-12491
xy	-12492
MSI	-12493
Net	-12494
cap	-12495
car	-12496
hel	-12497
lös	-12498
mät	-12499
nia	-12500
oes	-12501
ony	-12502
top	-12503
urn	-12504
vdW	-12505
vin	-12506
äck	-12507
åga	-12508
▁14	-12509
▁Bo	-12510
▁CF	-12511
▁HF	-12512
▁QD	-12513
▁RF	-12514
▁RI	-12515
▁TM	-12516
▁ic	-12517
▁vo	-12518
▁́,	-12519
ECTs	-12520
LLMs	-12521
Wave	-12522
What	-12523
akta	-12524
anck	-12525
apro	-12526
asks	-12527
biom	-12528
bruk	-12529
dMRI	-12530
even	-12531
ikal	-12532
imir	-12533
orms	-12534
pace	-12535
poly	-12536
rank	-12537
rath	-12538
real	-12539
ubes	-12540
vail	-12541
värm	-12542
▁197	-12543
▁199	-12544
▁50%	-12545
▁Aer	-12546
▁Ban	-12547
▁Bra	-12548
▁Cut	-12549
▁Cyt	-12550
▁Fac	-12551
▁Fot	-12552
▁GAB	-12553
▁GMC	-12554
▁HTS	-12555
▁Her	-12556
▁Kle	-12557
▁LTU	-12558
▁Lip	-12559
▁Log	-12560
▁MOF	-12561
▁Mag	-12562
▁NAC	-12563
▁TCR	-12564
▁aux	-12565
▁bra	-12566
▁emo	-12567
▁tal	-12568
▁var	-12569
Organ	-12570
accum	-12571
acrom	-12572
andia	-12573
ercul	-12574
ferro	-12575
ikter	-12576
nande	-12577
okond	-12578
onges	-12579
sense	-12580
thing	-12581
tiles	-12582
▁100%	-12583
▁Soil	-12584
▁axis	-12585
▁bubb	-12586
▁cure	-12587
▁dyes	-12588
▁fågl	-12589
▁heli	-12590
▁iner	-12591
▁kemi	-12592
▁milj	-12593
▁moss	-12594
▁pren	-12595
▁tann	-12596
▁tarm	-12597
▁unim	-12598
arming	-12599
ership	-12600
growth	-12601
indeer	-12602
jected	-12603
kaliga	-12604
knings	-12605
method	-12606
optics	-12607
porous	-12608
ussian	-12609
▁Betyd	-12610
▁Evalu	-12611
▁Exact	-12612
▁Manip	-12613
▁Mixed	-12614
▁Short	-12615
▁Spint	-12616
▁aktiv	-12617
▁appar	-12618
▁begin	-12619
▁drain	-12620
▁gates	-12621
▁hälsa	-12622
▁högre	-12623
▁psych	-12624
▁reuse	-12625
▁spinn	-12626
▁språk	-12627
▁teams	-12628
▁vätsk	-12629
ceptual	-12630
ditions	-12631
experim	-12632
history	-12633
inaural	-12634
ologous	-12635
onality	-12636
osphate	-12637
partite	-12638
steknik	-12639
terande	-12640
usiness	-12641
▁Asympt	-12642
▁Nordic	-12643
▁PROTAC	-12644
▁Remote	-12645
▁anions	-12646
▁assume	-12647
▁author	-12648
▁colors	-12649
▁column	-12650
▁couple	-12651
▁cracks	-12652
▁extant	-12653
▁fourth	-12654
▁immers	-12655
▁infest	-12656
▁kinase	-12657
▁meshes	-12658
▁neurop	-12659
▁pancre	-12660
▁pedest	-12661
▁radion	-12662
▁reform	-12663
▁repeat	-12664
▁sodium	-12665
▁tidiga	-12666
▁vessel	-12667
Building	-12668
acoustic	-12669
beroende	-12670
neuronal	-12671
ophthora	-12672
poration	-12673
vändning	-12674
▁Cluster	-12675
▁Coupled	-12676
▁Devices	-12677
▁Lattice	-12678
▁anatomy	-12679
▁anxiety	-12680
▁avoided	-12681
▁bacteri	-12682
▁beetles	-12683
▁brittle	-12684
▁conifer	-12685
▁convers	-12686
▁evolves	-12687
▁fenotyp	-12688
▁formula	-12689
▁globala	-12690
▁histone	-12691
▁kernels	-12692
▁miljöer	-12693
▁muscles	-12694
▁sputter	-12695
▁turning	-12696
▁vesicle	-12697
catalysis	-12698
erculosis	-12699
intensity	-12700
oreceptor	-12701
specially	-12702
▁Effekter	-12703
▁Identify	-12704
▁Resource	-12705
▁accommod	-12706
▁altering	-12707
▁assemble	-12708
▁astronom	-12709
▁autonomy	-12710
▁decompos	-12711
▁diameter	-12712
▁drilling	-12713
▁exploits	-12714
▁galactic	-12715
▁glaciers	-12716
▁hormones	-12717
▁identity	-12718
▁navigate	-12719
▁preserve	-12720
▁promotes	-12721
▁putative	-12722
▁scarcity	-12723
▁shifting	-12724
▁stacking	-12725
▁stations	-12726
▁terminal	-12727
▁thiamine	-12728
▁transkri	-12729
▁unbiased	-12730
▁unifying	-12731
▁vicinity	-12732
▁workflow	-12733
▁åldrande	-12734
inlärnings	-12735
paralleled	-12736
parametric	-12737
stransport	-12738
tilization	-12739
▁Australia	-12740
▁Behaviour	-12741
▁Designing	-12742
▁Dynamiska	-12743
▁Effective	-12744
▁Frequency	-12745
▁Metabolic	-12746
▁Transform	-12747
▁bumblebee	-12748
▁chaperone	-12749
▁crucially	-12750
▁digestion	-12751
▁discourse	-12752
▁elektroly	-12753
▁featuring	-12754
▁histories	-12755
▁induction	-12756
▁intervals	-12757
▁labelling	-12758
▁magnesium	-12759
▁meltwater	-12760
▁partiklar	-12761
▁reconcile	-12762
▁sequenced	-12763
▁spherical	-12764
▁symbiotic	-12765
▁synergies	-12766
▁telescope	-12767
▁ultraljud	-12768
▁volatiles	-12769
ronological	-12770
rophication	-12771
▁Förbättrad	-12772
▁Mekanismer	-12773
▁Speciation	-12774
▁Ultrasound	-12775
▁assumption	-12776
▁calculated	-12777
▁characters	-12778
▁colleagues	-12779
▁comprehens	-12780
▁contacting	-12781
▁creativity	-12782
▁deformable	-12783
▁hydropower	-12784
▁migrations	-12785
▁pesticides	-12786
▁produktion	-12787
▁satisfying	-12788
▁separately	-12789
▁uniqueness	-12790
organization	-12791
spektroskopi	-12792
▁Controlling	-12793
▁Observatory	-12794
▁Performance	-12795
▁bioreactors	-12796
▁contrasting	-12797
▁coronagraph	-12798
▁deciphering	-12799
▁encompasses	-12800
▁fingerprint	-12801
▁hydrophilic	-12802
▁inefficient	-12803
▁latitudinal	-12804
▁luminescent	-12805
▁mutagenesis	-12806
▁positioning	-12807
▁spectroscop	-12808
▁tomographic	-12809
computational	-12810
preprojective	-12811
translational	-12812
▁accelerators	-12813
▁assimilation	-12814
▁considerably	-12815
▁continuation	-12816
▁cosmological	-12817
▁displacement	-12818
▁epidemiology	-12819
▁heterogenous	-12820
▁minimization	-12821
▁nanocrystals	-12822
▁simuleringar	-12823
▁unparalleled	-12824
▁Antimicrobial	-12825
▁Grundläggande	-12826
▁Identifiering	-12827
▁bioinformatic	-12828
▁catalytically	-12829
▁differentiate	-12830
▁dissemination	-12831
▁multispectral	-12832
▁nanocellulose	-12833
▁pathogenicity	-12834
▁photophysical	-12835
▁Representation	-12836
▁archaeological	-12837
▁magnetospheres	-12838
▁electrodynamics	-12839
▁nucleosynthesis	-12840
▁polyfluoroalkyl	-12841
20	-12842
6,	-12843
AF	-12844
AO	-12845
Br	-12846
HF	-12847
HT	-12848
He	-12849
MT	-12850
Ma	-12851
Pb	-12852
SH	-12853
TL	-12854
ho	-12855
va	-12856
öl	-12857
▁”	-12858
CFT	-12859
DES	-12860
ENG	-12861
WPs	-12862
afe	-12863
arc	-12864
fas	-12865
ipp	-12866
ker	-12867
lam	-12868
oke	-12869
ums	-12870
yra	-12871
ård	-12872
▁Au	-12873
▁EF	-12874
▁Ko	-12875
▁Lo	-12876
▁Sl	-12877
▁Sv	-12878
▁US	-12879
▁Yo	-12880
▁ha	-12881
▁~1	-12882
IREE	-12883
MOFs	-12884
PCRs	-12885
eras	-12886
hole	-12887
illi	-12888
lets	-12889
meth	-12890
okus	-12891
osms	-12892
osol	-12893
psis	-12894
svar	-12895
user	-12896
weak	-12897
▁1-3	-12898
▁2).	-12899
▁30%	-12900
▁AFM	-12901
▁AND	-12902
▁Add	-12903
▁Bas	-12904
▁GPT	-12905
▁Gut	-12906
▁Kol	-12907
▁MPC	-12908
▁Ore	-12909
▁Ryd	-12910
▁SCR	-12911
▁Små	-12912
▁hub	-12913
▁mak	-12914
▁mik	-12915
▁peb	-12916
▁sky	-12917
▁väg	-12918
▁änd	-12919
ATION	-12920
adian	-12921
ament	-12922
anser	-12923
anten	-12924
atoms	-12925
axial	-12926
ayers	-12927
ellum	-12928
fälts	-12929
incre	-12930
isive	-12931
mekan	-12932
ofilm	-12933
ogena	-12934
orses	-12935
ortic	-12936
plane	-12937
ronch	-12938
rosis	-12939
råden	-12940
scape	-12941
ushes	-12942
vågor	-12943
ående	-12944
▁Does	-12945
▁Food	-12946
▁Prot	-12947
▁Wear	-12948
▁Weyl	-12949
▁dogs	-12950
▁exud	-12951
▁fält	-12952
▁iden	-12953
▁loci	-12954
▁vent	-12955
▁väte	-12956
aginal	-12957
agnose	-12958
alloys	-12959
cience	-12960
escens	-12961
graded	-12962
guided	-12963
ingdom	-12964
ipedia	-12965
ivirus	-12966
lining	-12967
ochrom	-12968
oiding	-12969
olayer	-12970
ovirus	-12971
ynthes	-12972
▁Anaer	-12973
▁Energ	-12974
▁Ferro	-12975
▁Heavy	-12976
▁Holog	-12977
▁MALDI	-12978
▁Nanot	-12979
▁belts	-12980
▁bival	-12981
▁coinc	-12982
▁diver	-12983
▁eight	-12984
▁exfol	-12985
▁fauna	-12986
▁foods	-12987
▁imper	-12988
▁lidar	-12989
▁lists	-12990
▁melts	-12991
▁music	-12992
▁overs	-12993
▁progn	-12994
▁prone	-12995
▁slump	-12996
▁ström	-12997
▁symbi	-12998
▁table	-12999
▁trend	-13000
▁trial	-13001
▁ulvan	-13002
acylgly	-13003
atility	-13004
centred	-13005
forward	-13006
ifiable	-13007
inergic	-13008
istatic	-13009
machine	-13010
neutron	-13011
nuclear	-13012
quisite	-13013
ulative	-13014
vakning	-13015
varying	-13016
ventive	-13017
zations	-13018
▁MXenes	-13019
▁String	-13020
▁albedo	-13021
▁bosons	-13022
▁breeds	-13023
▁canopy	-13024
▁cooper	-13025
▁copies	-13026
▁deaths	-13027
▁dipole	-13028
▁dispro	-13029
▁distor	-13030
▁effekt	-13031
▁exempl	-13032
▁extrap	-13033
▁första	-13034
▁joints	-13035
▁mammal	-13036
▁nickel	-13037
▁orbits	-13038
▁raises	-13039
▁retina	-13040
▁sepsis	-13041
▁shield	-13042
▁termed	-13043
▁traces	-13044
▁utveck	-13045
covering	-13046
explored	-13047
kontroll	-13048
lattices	-13049
okemiska	-13050
ontinuer	-13051
organism	-13052
orphisms	-13053
positive	-13054
reaching	-13055
symbolic	-13056
vergångs	-13057
▁Biosens	-13058
▁Casimir	-13059
▁DESIREE	-13060
▁Rydberg	-13061
▁analogs	-13062
▁anomaly	-13063
▁baryons	-13064
▁breakup	-13065
▁categor	-13066
▁centres	-13067
▁ceramic	-13068
▁cheaper	-13069
▁concert	-13070
▁crustal	-13071
▁damping	-13072
▁diffuse	-13073
▁elderly	-13074
▁execute	-13075
▁förklar	-13076
▁förutsä	-13077
▁handled	-13078
▁helping	-13079
▁ickelin	-13080
▁lengths	-13081
▁maximal	-13082
▁nematic	-13083
▁proceed	-13084
▁retreat	-13085
▁tension	-13086
▁tumours	-13087
▁viscous	-13088
▁weights	-13089
batterier	-13090
electrode	-13091
entitious	-13092
structing	-13093
▁Analytic	-13094
▁Brownian	-13095
▁Decoding	-13096
▁Electric	-13097
▁Reaction	-13098
▁Semantic	-13099
▁absolute	-13100
▁airborne	-13101
▁beamline	-13102
▁collider	-13103
▁declines	-13104
▁diagnose	-13105
▁fucoidan	-13106
▁functors	-13107
▁gathered	-13108
▁hardness	-13109
▁hospital	-13110
▁irrevers	-13111
▁lattices	-13112
▁occurred	-13113
▁outlined	-13114
▁partikel	-13115
▁secreted	-13116
▁silicate	-13117
▁systemic	-13118
▁ursprung	-13119
ainability	-13120
assembling	-13121
obacterial	-13122
ombination	-13123
permatozoa	-13124
preserving	-13125
▁Federated	-13126
▁Functions	-13127
▁Stellites	-13128
▁Wikipedia	-13129
▁aggregate	-13130
▁apoptosis	-13131
▁attribute	-13132
▁butterfly	-13133
▁delineate	-13134
▁delivered	-13135
▁exceeding	-13136
▁fertility	-13137
▁forskning	-13138
▁frontiers	-13139
▁impedance	-13140
▁infestans	-13141
▁mediating	-13142
▁mentioned	-13143
▁metatrans	-13144
▁monotonic	-13145
▁olfaction	-13146
▁polymerer	-13147
▁prevalent	-13148
▁processor	-13149
▁propagate	-13150
▁skyrmions	-13151
▁solceller	-13152
▁spridning	-13153
▁substance	-13154
▁suffering	-13155
▁unlocking	-13156
▁vacancies	-13157
integration	-13158
oxygenation	-13159
plikationer	-13160
tifications	-13161
▁Antarctica	-13162
▁Heisenberg	-13163
▁Phenotypic	-13164
▁Production	-13165
▁Scientific	-13166
▁accumulate	-13167
▁algoritmer	-13168
▁atmosfären	-13169
▁attraction	-13170
▁beräknings	-13171
▁continents	-13172
▁convergent	-13173
▁depression	-13174
▁derivation	-13175
▁elucidated	-13176
▁extracting	-13177
▁icebreaker	-13178
▁impairment	-13179
▁maximizing	-13180
▁microscope	-13181
▁nanoporous	-13182
▁overcoming	-13183
▁prescribed	-13184
▁prototypes	-13185
▁satellites	-13186
▁telecommun	-13187
▁velocities	-13188
▁Circulation	-13189
▁Identifying	-13190
▁Integrating	-13191
▁antifouling	-13192
▁coexistence	-13193
▁conditional	-13194
▁establishes	-13195
▁geomagnetic	-13196
▁holographic	-13197
▁hydrocarbon	-13198
▁immediately	-13199
▁involvement	-13200
▁plasticitet	-13201
▁stokastiska	-13202
▁Architecture	-13203
▁Hierarchical	-13204
▁constraining	-13205
▁cryptography	-13206
▁geographical	-13207
▁hydrodynamic	-13208
▁hypothalamic	-13209
▁magnetically	-13210
▁similarities	-13211
▁spektroskopi	-13212
▁underpinning	-13213
▁Mitochondrial	-13214
▁collisionless	-13215
▁exponentially	-13216
▁nanocomposite	-13217
▁nanopartiklar	-13218
▁nanophotonics	-13219
▁elektrokemiska	-13220
▁graphitization	-13221
▁quantitatively	-13222
▁bioavailability	-13223
▁electrification	-13224
▁generalizations	-13225
▁reproducibility	-13226
-0	-13227
3:	-13228
GD	-13229
GR	-13230
HG	-13231
HV	-13232
Hy	-13233
LU	-13234
MF	-13235
UM	-13236
ee	-13237
gn	-13238
ÖR	-13239
3).	-13240
4).	-13241
500	-13242
PES	-13243
bel	-13244
bit	-13245
cin	-13246
epl	-13247
ien	-13248
ige	-13249
jet	-13250
lag	-13251
oil	-13252
pes	-13253
rid	-13254
rof	-13255
sur	-13256
ämf	-13257
▁4.	-13258
▁BI	-13259
▁DC	-13260
▁FR	-13261
▁IL	-13262
▁LO	-13263
▁MY	-13264
▁NE	-13265
▁Pt	-13266
▁RP	-13267
▁``	-13268
▁cm	-13269
Cent	-13270
OCVD	-13271
adal	-13272
aped	-13273
both	-13274
comb	-13275
ders	-13276
hind	-13277
ifts	-13278
ihil	-13279
indi	-13280
lude	-13281
mill	-13282
nals	-13283
neum	-13284
odia	-13285
oidy	-13286
oltz	-13287
omod	-13288
pair	-13289
rikt	-13290
size	-13291
then	-13292
ylan	-13293
yzed	-13294
äkra	-13295
▁1.5	-13296
▁Hor	-13297
▁MSI	-13298
▁Mid	-13299
▁PNA	-13300
▁Pac	-13301
▁Rek	-13302
▁SNe	-13303
▁SPE	-13304
▁Sph	-13305
▁bee	-13306
▁dos	-13307
▁kvä	-13308
▁lie	-13309
▁mål	-13310
▁rev	-13311
▁sap	-13312
▁squ	-13313
▁wor	-13314
▁you	-13315
COVID	-13316
acian	-13317
adequ	-13318
adium	-13319
ander	-13320
block	-13321
cence	-13322
destr	-13323
ellow	-13324
enden	-13325
engue	-13326
flöde	-13327
igene	-13328
ingly	-13329
iques	-13330
isons	-13331
itely	-13332
ivity	-13333
lasov	-13334
lipid	-13335
metry	-13336
ogene	-13337
opper	-13338
posal	-13339
roism	-13340
udied	-13341
upers	-13342
vesic	-13343
wards	-13344
xture	-13345
▁Asia	-13346
▁BMAA	-13347
▁Body	-13348
▁Dual	-13349
▁Hear	-13350
▁INPH	-13351
▁Kerr	-13352
▁LLPS	-13353
▁Lapl	-13354
▁MeHg	-13355
▁Moun	-13356
▁RIXS	-13357
▁SAXS	-13358
▁Sver	-13359
▁Task	-13360
▁Tens	-13361
▁Type	-13362
▁VLQs	-13363
▁Wall	-13364
▁Webb	-13365
▁Wedd	-13366
▁agre	-13367
▁appe	-13368
▁apps	-13369
▁biob	-13370
▁cirk	-13371
▁exer	-13372
▁faun	-13373
▁grup	-13374
▁harb	-13375
▁inre	-13376
▁intr	-13377
▁järn	-13378
▁myel	-13379
▁rout	-13380
▁skap	-13381
▁soon	-13382
▁träd	-13383
▁week	-13384
▁zinc	-13385
▁Åter	-13386
Second	-13387
ateria	-13388
cephal	-13389
iatric	-13390
idable	-13391
ifting	-13392
iliary	-13393
immune	-13394
inance	-13395
iserad	-13396
ophyll	-13397
oprote	-13398
otiska	-13399
teknik	-13400
twined	-13401
▁Geant	-13402
▁Genom	-13403
▁Goren	-13404
▁HEMTs	-13405
▁Navig	-13406
▁Teore	-13407
▁aided	-13408
▁aspen	-13409
▁burst	-13410
▁conce	-13411
▁creep	-13412
▁crowd	-13413
▁domän	-13414
▁epoch	-13415
▁flöde	-13416
▁frust	-13417
▁joner	-13418
▁koppl	-13419
▁meets	-13420
▁metab	-13421
▁named	-13422
▁norra	-13423
▁peric	-13424
▁pests	-13425
▁piece	-13426
▁qubit	-13427
▁renew	-13428
▁revis	-13429
▁seals	-13430
▁signs	-13431
▁split	-13432
▁spots	-13433
▁stain	-13434
▁synte	-13435
▁taste	-13436
▁veget	-13437
▁venti	-13438
▁värld	-13439
▁zeros	-13440
centric	-13441
comings	-13442
enskapl	-13443
genital	-13444
ikalier	-13445
ilibria	-13446
itively	-13447
itizers	-13448
kinetic	-13449
odicity	-13450
omycete	-13451
ostatic	-13452
oxvirus	-13453
plicity	-13454
regular	-13455
student	-13456
ståndsk	-13457
usively	-13458
veiling	-13459
▁Eukary	-13460
▁Ground	-13461
▁Ligand	-13462
▁Matrix	-13463
▁Moduli	-13464
▁Synerg	-13465
▁Vinter	-13466
▁advent	-13467
▁became	-13468
▁breaks	-13469
▁engage	-13470
▁evapor	-13471
▁flexib	-13472
▁gating	-13473
▁glycan	-13474
▁harves	-13475
▁height	-13476
▁intras	-13477
▁kontin	-13478
▁loaded	-13479
▁mapped	-13480
▁micros	-13481
▁optisk	-13482
▁panels	-13483
▁plates	-13484
▁portal	-13485
▁purely	-13486
▁quasic	-13487
▁shells	-13488
▁simply	-13489
▁storms	-13490
▁things	-13491
▁tracks	-13492
▁transf	-13493
▁trauma	-13494
▁triang	-13495
abundant	-13496
atellite	-13497
itations	-13498
koppling	-13499
modellen	-13500
oltzmann	-13501
oscandia	-13502
positely	-13503
receptor	-13504
rometric	-13505
targeted	-13506
terozoic	-13507
urbation	-13508
▁Astroph	-13509
▁Besides	-13510
▁Conject	-13511
▁Contact	-13512
▁Enzymes	-13513
▁Neurode	-13514
▁Respons	-13515
▁Weddell	-13516
▁abelian	-13517
▁airways	-13518
▁average	-13519
▁damages	-13520
▁disrupt	-13521
▁emerges	-13522
▁filling	-13523
▁foramin	-13524
▁hitting	-13525
▁intends	-13526
▁ionized	-13527
▁lasting	-13528
▁minutes	-13529
▁oceanic	-13530
▁ordning	-13531
▁pushing	-13532
▁receive	-13533
▁removed	-13534
▁reports	-13535
▁runtime	-13536
▁satisfy	-13537
▁seeding	-13538
▁seismic	-13539
▁serving	-13540
▁spiders	-13541
▁sponges	-13542
▁subunit	-13543
▁summary	-13544
▁thereof	-13545
gradation	-13546
inducerad	-13547
kvationer	-13548
molecular	-13549
omagnetic	-13550
omorphism	-13551
phenotype	-13552
principle	-13553
värdering	-13554
▁Clinical	-13555
▁Function	-13556
▁Hardware	-13557
▁Photonic	-13558
▁Singular	-13559
▁adjacent	-13560
▁annually	-13561
▁automata	-13562
▁billions	-13563
▁diagrams	-13564
▁fluorine	-13565
▁impacted	-13566
▁knockout	-13567
▁koppling	-13568
▁lighting	-13569
▁mitokond	-13570
▁pressing	-13571
▁pristine	-13572
▁reacting	-13573
▁reconcil	-13574
▁segments	-13575
▁sexually	-13576
▁textures	-13577
▁transduc	-13578
▁tungsten	-13579
▁unsteady	-13580
consistent	-13581
legeringar	-13582
oreceptors	-13583
stationary	-13584
övergångar	-13585
▁Analytics	-13586
▁Increased	-13587
▁Initially	-13588
▁arguments	-13589
▁confirmed	-13590
▁continues	-13591
▁drawbacks	-13592
▁effektiva	-13593
▁ferromagn	-13594
▁histology	-13595
▁instances	-13596
▁mimicking	-13597
▁organiskt	-13598
▁paramount	-13599
▁pioneered	-13600
▁placement	-13601
▁polarized	-13602
▁replicate	-13603
▁selecting	-13604
▁stiffness	-13605
▁toughness	-13606
▁tractable	-13607
▁uniformly	-13608
aracterized	-13609
igenkänning	-13610
independent	-13611
oelektriska	-13612
▁Collective	-13613
▁Combinator	-13614
▁Electrical	-13615
▁Gorenstein	-13616
▁Lorentzian	-13617
▁adequately	-13618
▁collecting	-13619
▁comparable	-13620
▁elongation	-13621
▁equilibria	-13622
▁estimators	-13623
▁filtration	-13624
▁fullerenes	-13625
▁funktional	-13626
▁funktioner	-13627
▁generality	-13628
▁harnessing	-13629
▁horizontal	-13630
▁illuminate	-13631
▁inequality	-13632
▁mesoscopic	-13633
▁millimeter	-13634
▁pheromones	-13635
▁processors	-13636
▁proteasome	-13637
▁reasonable	-13638
▁rigorously	-13639
▁simulators	-13640
▁subsurface	-13641
▁undertaken	-13642
▁usefulness	-13643
figurational	-13644
förhållanden	-13645
itrification	-13646
rochronology	-13647
▁Spintronics	-13648
▁accelerator	-13649
▁adversarial	-13650
▁attenuation	-13651
▁bakteriella	-13652
▁communicate	-13653
▁conjugation	-13654
▁corresponds	-13655
▁elucidation	-13656
▁empirically	-13657
▁epitaxially	-13658
▁exfoliation	-13659
▁expeditions	-13660
▁indications	-13661
▁lithography	-13662
▁macrophages	-13663
▁molecularly	-13664
▁prototyping	-13665
▁reproducing	-13666
▁threatening	-13667
▁transferase	-13668
▁variational	-13669
Understanding	-13670
▁Fennoscandia	-13671
▁benchmarking	-13672
▁commercially	-13673
▁gasification	-13674
▁lithospheric	-13675
▁microplastic	-13676
▁miniaturized	-13677
▁morphologies	-13678
▁nonlinearity	-13679
▁rechargeable	-13680
▁reconnection	-13681
▁surroundings	-13682
▁transferring	-13683
▁tuberculosis	-13684
▁understudied	-13685
▁utvecklingen	-13686
▁Collaboration	-13687
▁Mycobacterium	-13688
▁amplification	-13689
▁approximately	-13690
▁conformations	-13691
▁distinguished	-13692
▁hemicellulose	-13693
▁intercalation	-13694
▁participation	-13695
▁reflectometry	-13696
▁toxicological	-13697
▁eutrophication	-13698
▁evolutionarily	-13699
▁mathematicians	-13700
▁micromembranes	-13701
▁osteoarthritis	-13702
▁photoperiodism	-13703
▁regularization	-13704
▁comprehensively	-13705
▁mechanistically	-13706
-/	-13707
0)	-13708
DT	-13709
GU	-13710
IF	-13711
PA	-13712
Sh	-13713
TF	-13714
mo	-13715
mp	-13716
DOM	-13717
EEG	-13718
MAX	-13719
MIC	-13720
NSE	-13721
PBF	-13722
SMC	-13723
ahl	-13724
col	-13725
don	-13726
duk	-13727
gat	-13728
has	-13729
iop	-13730
ius	-13731
ivå	-13732
kär	-13733
lot	-13734
map	-13735
ryl	-13736
seo	-13737
tia	-13738
uck	-13739
unt	-13740
uon	-13741
usk	-13742
öna	-13743
örj	-13744
▁CE	-13745
▁DG	-13746
▁DM	-13747
▁ES	-13748
▁Ho	-13749
▁OS	-13750
▁PV	-13751
▁Pb	-13752
▁SN	-13753
▁́t	-13754
Lapl	-13755
Spec	-13756
ette	-13757
fria	-13758
hyth	-13759
itiv	-13760
ixel	-13761
käns	-13762
lust	-13763
matt	-13764
ocon	-13765
osed	-13766
rary	-13767
road	-13768
scal	-13769
spin	-13770
uate	-13771
uleå	-13772
urip	-13773
vågs	-13774
▁(20	-13775
▁ADP	-13776
▁AMP	-13777
▁AlN	-13778
▁Bax	-13779
▁CAD	-13780
▁CPU	-13781
▁CVD	-13782
▁Cer	-13783
▁Eco	-13784
▁Ell	-13785
▁Exc	-13786
▁Flo	-13787
▁FÖR	-13788
▁HPC	-13789
▁Hyd	-13790
▁InN	-13791
▁Kan	-13792
▁NPs	-13793
▁SOM	-13794
▁XRD	-13795
▁egg	-13796
▁fal	-13797
▁meg	-13798
▁rol	-13799
▁rup	-13800
▁sig	-13801
▁tol	-13802
▁vap	-13803
ISCAT	-13804
Moser	-13805
Study	-13806
amman	-13807
appro	-13808
arter	-13809
atine	-13810
folds	-13811
idium	-13812
ierad	-13813
imple	-13814
inion	-13815
itory	-13816
joner	-13817
leist	-13818
multi	-13819
occus	-13820
ogero	-13821
ortex	-13822
oured	-13823
perme	-13824
ständ	-13825
uplex	-13826
vägar	-13827
▁2021	-13828
▁ARGs	-13829
▁Allo	-13830
▁Answ	-13831
▁Berg	-13832
▁Bran	-13833
▁Cogn	-13834
▁Conn	-13835
▁Iron	-13836
▁LHCb	-13837
▁Pati	-13838
▁Prom	-13839
▁Rare	-13840
▁Ring	-13841
▁Roll	-13842
▁Test	-13843
▁brow	-13844
▁chol	-13845
▁fore	-13846
▁inte	-13847
▁ljud	-13848
▁luft	-13849
▁obsc	-13850
▁outd	-13851
▁publ	-13852
▁traw	-13853
▁ytor	-13854
Planck	-13855
amhäll	-13856
aminar	-13857
ancers	-13858
ashion	-13859
bursts	-13860
fossil	-13861
ierark	-13862
istens	-13863
length	-13864
ocated	-13865
potato	-13866
rowing	-13867
usable	-13868
ökning	-13869
▁ALICE	-13870
▁Anten	-13871
▁Array	-13872
▁Birds	-13873
▁Explo	-13874
▁James	-13875
▁Luleå	-13876
▁RNase	-13877
▁Robot	-13878
▁alkyn	-13879
▁aware	-13880
▁bland	-13881
▁chick	-13882
▁codon	-13883
▁disks	-13884
▁enfor	-13885
▁entry	-13886
▁grand	-13887
▁impur	-13888
▁inexp	-13889
▁lifec	-13890
▁mjuka	-13891
▁north	-13892
▁nukle	-13893
▁opaqu	-13894
▁paves	-13895
▁phant	-13896
▁pneum	-13897
▁prere	-13898
▁scann	-13899
▁seems	-13900
▁sized	-13901
▁spill	-13902
▁sugar	-13903
▁surge	-13904
▁sweet	-13905
▁traff	-13906
▁unify	-13907
▁views	-13908
▁voice	-13909
bearbet	-13910
bearing	-13911
biotics	-13912
digital	-13913
driving	-13914
element	-13915
ergetic	-13916
feeding	-13917
idating	-13918
ineries	-13919
istance	-13920
istered	-13921
iteness	-13922
krafter	-13923
network	-13924
ococcus	-13925
onering	-13926
optimal	-13927
rometri	-13928
roughts	-13929
trained	-13930
tunable	-13931
ämpning	-13932
öntgens	-13933
▁Americ	-13934
▁Causal	-13935
▁Entang	-13936
▁Europa	-13937
▁Fossil	-13938
▁France	-13939
▁Patter	-13940
▁Photon	-13941
▁Porous	-13942
▁Silica	-13943
▁Vector	-13944
▁aligns	-13945
▁avslöj	-13946
▁barley	-13947
▁brachy	-13948
▁bättre	-13949
▁choose	-13950
▁deeply	-13951
▁filled	-13952
▁frames	-13953
▁horses	-13954
▁lenses	-13955
▁matris	-13956
▁nanode	-13957
▁ncRNAs	-13958
▁oldest	-13959
▁prosth	-13960
▁scaled	-13961
▁sinter	-13962
▁speeds	-13963
▁spider	-13964
▁stocks	-13965
▁strugg	-13966
▁timber	-13967
▁trying	-13968
▁viewed	-13969
▁överle	-13970
Einstein	-13971
Gaussian	-13972
aculture	-13973
apacitor	-13974
arcoding	-13975
aromatic	-13976
bredning	-13977
encoders	-13978
ethylene	-13979
igration	-13980
ocations	-13981
ocytosis	-13982
påverkan	-13983
ronchial	-13984
tivering	-13985
vascular	-13986
▁Silicon	-13987
▁annihil	-13988
▁bridges	-13989
▁careful	-13990
▁compile	-13991
▁deposit	-13992
▁fusions	-13993
▁glucose	-13994
▁glycans	-13995
▁inadequ	-13996
▁integer	-13997
▁knowing	-13998
▁labeled	-13999
▁materia	-14000
▁millenn	-14001
▁notable	-14002
▁partner	-14003
▁physico	-14004
▁placing	-14005
▁plaques	-14006
▁prolong	-14007
▁recipro	-14008
▁reposit	-14009
▁rupture	-14010
▁solutes	-14011
▁station	-14012
▁tokamak	-14013
▁windows	-14014
catalyzed	-14015
ontrolled	-14016
organiska	-14017
selective	-14018
▁Calogero	-14019
▁Detailed	-14020
▁Eurasian	-14021
▁Extremal	-14022
▁Medicine	-14023
▁Mountain	-14024
▁Sampling	-14025
▁alloying	-14026
▁alveolar	-14027
▁balanced	-14028
▁business	-14029
▁checking	-14030
▁consumed	-14031
▁crossing	-14032
▁diabetic	-14033
▁disposal	-14034
▁dopamine	-14035
▁effector	-14036
▁eruption	-14037
▁forensic	-14038
▁internet	-14039
▁isolates	-14040
▁journals	-14041
▁kritiska	-14042
▁managing	-14043
▁parental	-14044
▁polyoxon	-14045
▁portable	-14046
▁predicts	-14047
▁purified	-14048
▁reflects	-14049
▁regarded	-14050
▁revision	-14051
▁richness	-14052
Generation	-14053
accharides	-14054
activation	-14055
applicants	-14056
echiffrera	-14057
expression	-14058
optimering	-14059
technology	-14060
▁Inelastic	-14061
▁Langlands	-14062
▁Radiation	-14063
▁Selection	-14064
▁Selective	-14065
▁Typically	-14066
▁accessing	-14067
▁augmented	-14068
▁biologics	-14069
▁degrading	-14070
▁depolymer	-14071
▁distribut	-14072
▁exposures	-14073
▁fractures	-14074
▁grounding	-14075
▁intestine	-14076
▁manganese	-14077
▁massively	-14078
▁migratory	-14079
▁organelle	-14080
▁organised	-14081
▁preferred	-14082
▁prognosis	-14083
▁proteomic	-14084
▁pulmonary	-14085
▁telomeres	-14086
▁uncharted	-14087
▁wellbeing	-14088
▁withstand	-14089
▁övergångs	-14090
entifically	-14091
uloskeletal	-14092
▁Addressing	-14093
▁Complexity	-14094
▁Conducting	-14095
▁Conductive	-14096
▁Continuous	-14097
▁Conversion	-14098
▁Especially	-14099
▁Properties	-14100
▁Successful	-14101
▁alteration	-14102
▁annotation	-14103
▁atomically	-14104
▁avancerade	-14105
▁benchmarks	-14106
▁biologists	-14107
▁biopolymer	-14108
▁classified	-14109
▁congenital	-14110
▁correlates	-14111
▁dependency	-14112
▁desorption	-14113
▁ekologiska	-14114
▁formalisms	-14115
▁formidable	-14116
▁halvledare	-14117
▁implicated	-14118
▁impurities	-14119
▁insulating	-14120
▁iterations	-14121
▁metastasis	-14122
▁metastatic	-14123
▁precisions	-14124
▁preserving	-14125
▁preventive	-14126
▁rationally	-14127
▁recyclable	-14128
▁reductions	-14129
▁reversible	-14130
▁separating	-14131
▁strategier	-14132
▁telomerase	-14133
▁temporally	-14134
▁threatened	-14135
▁transgenic	-14136
▁Integration	-14137
▁Mathematics	-14138
▁Terrestrial	-14139
▁acclimation	-14140
▁accommodate	-14141
▁accompanied	-14142
▁artificiell	-14143
▁asymptotics	-14144
▁beamforming	-14145
▁chromosomal	-14146
▁correlative	-14147
▁definitions	-14148
▁descriptors	-14149
▁dimensioner	-14150
▁discovering	-14151
▁electroweak	-14152
▁fabricating	-14153
▁geophysical	-14154
▁holomorphic	-14155
▁komponenter	-14156
▁preclinical	-14157
▁trafficking	-14158
▁utforskning	-14159
▁versatility	-14160
▁Mitochondria	-14161
▁Phytophthora	-14162
▁Superconduct	-14163
▁abstractions	-14164
▁astronomical	-14165
▁autonomously	-14166
▁hydrothermal	-14167
▁interpreting	-14168
▁interrelated	-14169
▁mechanically	-14170
▁neuroimaging	-14171
▁preservation	-14172
▁tillverkning	-14173
seointegration	-14174
▁Heterogeneous	-14175
▁Metamaterials	-14176
▁applikationer	-14177
▁inhomogeneous	-14178
▁linearization	-14179
▁organohalogen	-14180
▁photoemission	-14181
▁statistically	-14182
▁supersymmetry	-14183
▁teleoperation	-14184
▁topologically	-14185
▁underexplored	-14186
▁Reconfigurable	-14187
▁discretization	-14188
▁heterojunction	-14189
▁macromolecular	-14190
▁specialization	-14191
▁spectroscopies	-14192
▁supramolecular	-14193
electrochemistry	-14194
▁optoelectronics	-14195
▁polycrystalline	-14196
▁thermoelectrics	-14197
+/	-14198
Ab	-14199
BL	-14200
FR	-14201
GF	-14202
Ox	-14203
TD	-14204
eb	-14205
äs	-14206
▁+	-14207
▁°	-14208
3),	-14209
BMs	-14210
Met	-14211
NSS	-14212
NVs	-14213
Par	-14214
ags	-14215
arv	-14216
dem	-14217
dol	-14218
fit	-14219
ger	-14220
hem	-14221
hyd	-14222
jör	-14223
kol	-14224
pat	-14225
pit	-14226
▁21	-14227
▁67	-14228
▁ED	-14229
▁EP	-14230
▁HT	-14231
▁Ha	-14232
▁MF	-14233
▁OF	-14234
▁QM	-14235
▁SU	-14236
▁SV	-14237
▁oc	-14238
PDEs	-14239
Sign	-14240
arks	-14241
arna	-14242
artz	-14243
bium	-14244
carb	-14245
gans	-14246
ilep	-14247
lers	-14248
måga	-14249
nade	-14250
olda	-14251
ombo	-14252
ondw	-14253
orib	-14254
orin	-14255
raul	-14256
roid	-14257
self	-14258
that	-14259
tida	-14260
tual	-14261
ucon	-14262
what	-14263
ätta	-14264
▁1-4	-14265
▁CMS	-14266
▁DEM	-14267
▁Dam	-14268
▁Fas	-14269
▁Fat	-14270
▁HER	-14271
▁IDH	-14272
▁Ide	-14273
▁Kal	-14274
▁Muc	-14275
▁PQC	-14276
▁Rig	-14277
▁bin	-14278
▁ele	-14279
▁hex	-14280
▁kom	-14281
▁lys	-14282
▁låg	-14283
▁nyc	-14284
▁oak	-14285
▁osm	-14286
▁pCO	-14287
▁sle	-14288
▁wol	-14289
-2026	-14290
Robot	-14291
Since	-14292
amate	-14293
amond	-14294
apses	-14295
atern	-14296
aters	-14297
cycle	-14298
deriv	-14299
dings	-14300
ducts	-14301
ekund	-14302
elium	-14303
enter	-14304
erate	-14305
eterm	-14306
etter	-14307
ibrot	-14308
ician	-14309
ifera	-14310
ivery	-14311
label	-14312
laser	-14313
noise	-14314
odied	-14315
oment	-14316
onoma	-14317
ostat	-14318
otail	-14319
ropps	-14320
sheet	-14321
[...]
