<unk>	0
<s>	0
</s>	0
er	-0
▁a	-1
in	-2
en	-3
ti	-4
▁s	-5
▁o	-6
▁t	-7
ar	-8
▁f	-9
an	-10
on	-11
▁m	-12
et	-13
es	-14
▁p	-15
▁d	-16
ll	-17
or	-18
om	-19
ing	-20
is	-21
al	-22
ch	-23
nd	-24
ed	-25
at	-26
▁b	-27
▁in	-28
ro	-29
▁th	-30
ör	-31
tion	-32
▁h	-33
▁k	-34
tt	-35
re	-36
▁v	-37
▁c	-38
li	-39
as	-40
▁i	-41
▁och	-42
▁the	-43
är	-44
▁u	-45
ka	-46
▁and	-47
▁e	-48
st	-49
de	-50
▁för	-51
▁of	-52
▁att	-53
▁w	-54
ra	-55
ent	-56
it	-57
▁g	-58
▁av	-59
ec	-60
▁n	-61
ation	-62
el	-63
▁st	-64
ur	-65
kt	-66
ic	-67
▁pro	-68
le	-69
ning	-70
▁to	-71
ter	-72
ol	-73
▁en	-74
na	-75
▁l	-76
ig	-77
▁som	-78
ver	-79
▁ti	-80
em	-81
▁r	-82
ell	-83
ul	-84
am	-85
▁vi	-86
▁an	-87
pp	-88
▁re	-89
ess	-90
era	-91
un	-92
▁for	-93
os	-94
▁T	-95
▁är	-96
▁de	-97
▁till	-98
▁med	-99
ud	-100
ut	-101
tiv	-102
lig	-103
ri	-104
▁be	-105
ta	-106
▁på	-107
and	-108
ens	-109
il	-110
sk	-111
og	-112
▁D	-113
ag	-114
us	-115
od	-116
ect	-117
▁S	-118
▁(	-119
▁ut	-120
▁det	-121
id	-122
ot	-123
tic	-124
mer	-125
ac	-126
▁ex	-127
ill	-128
te	-129
ers	-130
ande	-131
än	-132
ru	-133
op	-134
▁is	-135
▁Th	-136
▁kom	-137
oc	-138
ment	-139
ån	-140
▁I	-141
ff	-142
ce	-143
▁gen	-144
▁fr	-145
ekt	-146
▁stud	-147
eri	-148
änd	-149
▁proj	-150
▁A	-151
▁will	-152
ek	-153
ska	-154
ow	-155
▁res	-156
▁und	-157
ys	-158
▁con	-159
år	-160
all	-161
ab	-162
▁den	-163
▁kan	-164
▁om	-165
ts	-166
mp	-167
ith	-168
▁har	-169
ate	-170
▁M	-171
▁as	-172
kl	-173
ett	-174
are	-175
▁sam	-176
ir	-177
▁sp	-178
▁on	-179
iv	-180
för	-181
ätt	-182
▁P	-183
isk	-184
▁with	-185
ion	-186
ck	-187
▁mo	-188
den	-189
ans	-190
um	-191
▁sy	-192
olog	-193
th	-194
iska	-195
se	-196
ak	-197
ly	-198
▁E	-199
ad	-200
▁The	-201
het	-202
for	-203
äl	-204
▁kommer	-205
ati	-206
▁ett	-207
ga	-208
▁com	-209
▁di	-210
qu	-211
ist	-212
ik	-213
▁li	-214
▁met	-215
per	-216
▁C	-217
▁or	-218
▁inter	-219
▁under	-220
vel	-221
▁ne	-222
▁var	-223
ller	-224
im	-225
▁ö	-226
uc	-227
▁F	-228
ical	-229
ju	-230
▁sk	-231
der	-232
ear	-233
ity	-234
▁hur	-235
▁project	-236
▁ch	-237
est	-238
ant	-239
▁V	-240
tive	-241
ge	-242
▁su	-243
if	-244
▁are	-245
ier	-246
▁that	-247
ram	-248
▁upp	-249
stem	-250
tions	-251
▁exp	-252
av	-253
ations	-254
▁cell	-255
vec	-256
▁by	-257
▁ny	-258
veckl	-259
▁H	-260
ies	-261
ort	-262
form	-263
▁wh	-264
vänd	-265
ering	-266
▁mat	-267
▁eff	-268
▁tr	-269
da	-270
sp	-271
del	-272
▁så	-273
anc	-274
▁dess	-275
▁ar	-276
▁genom	-277
äm	-278
ial	-279
▁beh	-280
erna	-281
ure	-282
lika	-283
alys	-284
▁imp	-285
tif	-286
ven	-287
▁sig	-288
▁bi	-289
tig	-290
▁bet	-291
▁från	-292
ling	-293
▁B	-294
▁använd	-295
anis	-296
▁utveckl	-297
lic	-298
▁ac	-299
▁le	-300
▁Det	-301
▁te	-302
▁par	-303
ningar	-304
ss	-305
cess	-306
▁inte	-307
verk	-308
▁comp	-309
ress	-310
▁R	-311
liga	-312
ni	-313
ild	-314
ated	-315
inn	-316
äll	-317
juk	-318
▁N	-319
▁co	-320
▁kun	-321
▁all	-322
var	-323
▁pl	-324
▁al	-325
▁dat	-326
di	-327
▁this	-328
▁dis	-329
▁projekt	-330
▁vil	-331
und	-332
▁olika	-333
▁fun	-334
▁först	-335
eras	-336
itet	-337
iz	-338
ult	-339
▁1	-340
erial	-341
▁G	-342
ser	-343
äg	-344
velop	-345
▁W	-346
ble	-347
ok	-348
▁In	-349
▁pr	-350
ili	-351
▁kon	-352
akt	-353
mun	-354
ry	-355
dom	-356
erade	-357
tiska	-358
atient	-359
▁2	-360
▁po	-361
åg	-362
ål	-363
ma	-364
▁dessa	-365
ore	-366
skning	-367
▁analys	-368
▁reg	-369
▁int	-370
ine	-371
▁där	-372
▁develop	-373
▁we	-374
ade	-375
yp	-376
erar	-377
ass	-378
ång	-379
▁at	-380
▁inf	-381
▁app	-382
enska	-383
ast	-384
▁from	-385
▁system	-386
▁man	-387
ence	-388
▁ind	-389
▁j	-390
ds	-391
ring	-392
ella	-393
▁patient	-394
▁detta	-395
▁L	-396
fter	-397
ark	-398
att	-399
earch	-400
lo	-401
ft	-402
▁ska	-403
▁y	-404
ron	-405
igh	-406
▁fram	-407
▁hj	-408
jukdom	-409
▁eller	-410
▁vis	-411
ally	-412
ets	-413
ors	-414
ach	-415
▁soc	-416
ne	-417
▁se	-418
▁fl	-419
▁över	-420
▁ro	-421
ere	-422
▁us	-423
▁U	-424
ms	-425
▁mö	-426
pl	-427
▁trans	-428
▁me	-429
▁material	-430
▁del	-431
ct	-432
▁ad	-433
andling	-434
ty	-435
äk	-436
ersö	-437
▁iden	-438
▁data	-439
▁O	-440
sy	-441
▁inv	-442
ance	-443
ase	-444
▁research	-445
enti	-446
duc	-447
ala	-448
dig	-449
▁cont	-450
▁spec	-451
ular	-452
ap	-453
ktion	-454
▁inc	-455
▁forskning	-456
▁rel	-457
skap	-458
ork	-459
▁process	-460
ory	-461
io	-462
▁pre	-463
▁hav	-464
ancer	-465
tein	-466
▁vid	-467
▁undersö	-468
▁im	-469
rå	-470
gen	-471
▁nya	-472
ph	-473
▁how	-474
ilj	-475
▁ph	-476
ellan	-477
▁förstå	-478
▁stor	-479
ary	-480
▁Vi	-481
ov	-482
ind	-483
oder	-484
cell	-485
ligt	-486
ties	-487
▁mellan	-488
pro	-489
tim	-490
ie	-491
ningen	-492
▁ev	-493
▁identif	-494
▁study	-495
vis	-496
▁bl	-497
cks	-498
00	-499
▁gru	-500
ese	-501
ay	-502
▁vilk	-503
ution	-504
▁hos	-505
).	-506
▁qu	-507
▁diff	-508
yl	-509
tical	-510
ang	-511
▁gener	-512
tik	-513
▁inom	-514
pos	-515
▁ob	-516
▁have	-517
ual	-518
sa	-519
▁men	-520
jekt	-521
lin	-522
pt	-523
▁whi	-524
rou	-525
▁män	-526
▁möj	-527
ci	-528
▁model	-529
ektiv	-530
▁sjukdom	-531
led	-532
ific	-533
ve	-534
▁This	-535
ain	-536
ats	-537
act	-538
atur	-539
▁aim	-540
▁vä	-541
▁new	-542
åll	-543
▁can	-544
bet	-545
erg	-546
▁mot	-547
ide	-548
ased	-549
amm	-550
▁K	-551
sm	-552
een	-553
▁när	-554
▁my	-555
vers	-556
▁ele	-557
▁ins	-558
▁pers	-559
▁stru	-560
ckså	-561
▁tre	-562
▁org	-563
▁också	-564
▁bar	-565
som	-566
▁vik	-567
hod	-568
ib	-569
▁un	-570
▁protein	-571
ics	-572
bar	-573
gr	-574
▁underst	-575
ction	-576
erad	-577
▁sv	-578
▁samt	-579
xt	-580
▁hö	-581
lim	-582
▁risk	-583
▁str	-584
enc	-585
ivid	-586
▁andra	-587
ational	-588
▁experi	-589
res	-590
ost	-591
ish	-592
▁finn	-593
so	-594
gg	-595
▁which	-596
▁ab	-597
öd	-598
pon	-599
▁We	-600
NA	-601
now	-602
oth	-603
▁kv	-604
ikt	-605
ology	-606
▁behandling	-607
orer	-608
▁form	-609
able	-610
▁vår	-611
bin	-612
erm	-613
▁differ	-614
ia	-615
enom	-616
nas	-617
▁sh	-618
▁finns	-619
▁efter	-620
ust	-621
▁method	-622
▁påverk	-623
lighet	-624
▁cancer	-625
▁des	-626
ord	-627
ign	-628
▁individ	-629
▁ä	-630
wed	-631
tis	-632
lek	-633
rojekt	-634
▁ass	-635
ationer	-636
ull	-637
our	-638
▁social	-639
▁gör	-640
▁dem	-641
ents	-642
▁their	-643
uro	-644
▁min	-645
▁has	-646
stru	-647
▁inform	-648
▁kunskap	-649
gör	-650
▁these	-651
▁Detta	-652
▁understand	-653
▁projektet	-654
rä	-655
ility	-656
lex	-657
riv	-658
rib	-659
gh	-660
▁he	-661
▁Swed	-662
ip	-663
ath	-664
▁mode	-665
agn	-666
ock	-667
▁ver	-668
▁high	-669
ära	-670
▁En	-671
▁även	-672
▁vilket	-673
emp	-674
▁hjär	-675
par	-676
▁kunna	-677
sl	-678
ong	-679
vär	-680
▁per	-681
▁sign	-682
▁denna	-683
▁ge	-684
▁För	-685
▁op	-686
ub	-687
ects	-688
▁led	-689
▁immun	-690
tal	-691
ät	-692
▁Den	-693
tiva	-694
man	-695
),	-696
▁sub	-697
▁mer	-698
ments	-699
▁föränd	-700
▁no	-701
yd	-702
▁gene	-703
▁sin	-704
▁know	-705
me	-706
▁proble	-707
▁tra	-708
▁utveckling	-709
ekn	-710
▁vär	-711
ential	-712
▁sätt	-713
▁år	-714
ive	-715
cket	-716
ateg	-717
▁dise	-718
ånga	-719
rar	-720
äng	-721
tioner	-722
▁mech	-723
nam	-724
▁hög	-725
▁pot	-726
▁3	-727
▁tar	-728
▁å	-729
▁grund	-730
▁liv	-731
▁St	-732
ous	-733
alth	-734
▁prog	-735
ating	-736
estig	-737
else	-738
erap	-739
ulation	-740
▁ra	-741
ween	-742
nings	-743
ological	-744
▁bes	-745
out	-746
▁rec	-747
▁bid	-748
ynam	-749
ende	-750
ther	-751
▁between	-752
opp	-753
ely	-754
onom	-755
▁undersöka	-756
art	-757
håll	-758
bild	-759
▁sm	-760
▁infl	-761
olution	-762
▁bå	-763
▁also	-764
▁use	-765
lekyl	-766
▁energ	-767
▁mul	-768
▁tidig	-769
ktur	-770
▁ext	-771
age	-772
rom	-773
▁vara	-774
ogen	-775
▁studera	-776
▁investig	-777
▁mycket	-778
lev	-779
▁el	-780
▁viktig	-781
iljö	-782
ultat	-783
▁prov	-784
he	-785
eg	-786
itt	-787
▁development	-788
pa	-789
▁20	-790
▁ber	-791
ue	-792
end	-793
icro	-794
met	-795
▁förb	-796
▁appro	-797
tisk	-798
▁information	-799
edel	-800
▁typ	-801
▁studies	-802
acter	-803
▁pra	-804
▁hel	-805
▁eg	-806
▁it	-807
educ	-808
▁syn	-809
ack	-810
▁out	-811
tics	-812
▁–	-813
mo	-814
rojektet	-815
bl	-816
▁mechanis	-817
▁such	-818
▁hum	-819
ep	-820
▁poli	-821
▁ak	-822
▁tech	-823
▁work	-824
▁sc	-825
▁deras	-826
ism	-827
▁hist	-828
▁uni	-829
ates	-830
▁pos	-831
ringar	-832
häll	-833
oli	-834
▁utveckla	-835
ran	-836
▁health	-837
▁using	-838
▁komp	-839
ledge	-840
▁både	-841
tit	-842
lut	-843
▁effekt	-844
▁our	-845
rough	-846
▁vilka	-847
▁understanding	-848
oll	-849
▁öka	-850
▁De	-851
▁treat	-852
du	-853
▁studier	-854
agnos	-855
ace	-856
anismer	-857
sc	-858
▁sur	-859
▁tv	-860
▁different	-861
ogra	-862
▁hjäl	-863
äns	-864
ration	-865
ond	-866
ric	-867
ellt	-868
klar	-869
▁vari	-870
med	-871
till	-872
celler	-873
oner	-874
als	-875
▁Dess	-876
▁well	-877
▁funktion	-878
ika	-879
▁gra	-880
▁bli	-881
▁än	-882
enskap	-883
enskaper	-884
ins	-885
ved	-886
edan	-887
▁knowledge	-888
iskt	-889
ns	-890
vir	-891
▁inne	-892
▁rep	-893
ings	-894
ome	-895
▁-	-896
empel	-897
ral	-898
olec	-899
tro	-900
▁väl	-901
ator	-902
▁function	-903
▁methods	-904
ective	-905
▁experiment	-906
▁plan	-907
get	-908
▁import	-909
▁påverkar	-910
▁många	-911
ions	-912
sätt	-913
▁incl	-914
cept	-915
▁metoder	-916
▁cells	-917
aly	-918
of	-919
▁använda	-920
▁bas	-921
lob	-922
ex	-923
▁disease	-924
▁year	-925
▁over	-926
ligen	-927
▁approach	-928
kom	-929
stå	-930
ative	-931
gång	-932
ägg	-933
▁micro	-934
uring	-935
▁expl	-936
▁kall	-937
nan	-938
▁produc	-939
fatt	-940
ization	-941
▁tekn	-942
lar	-943
verig	-944
▁struct	-945
work	-946
bb	-947
▁propos	-948
ities	-949
ection	-950
ural	-951
lj	-952
ition	-953
▁männ	-954
tid	-955
▁molekyl	-956
ystem	-957
▁problem	-958
▁car	-959
▁br	-960
▁Sverig	-961
▁novel	-962
▁tum	-963
▁nan	-964
ämp	-965
ocus	-966
▁nu	-967
▁mek	-968
▁samhäll	-969
fer	-970
▁analysis	-971
erat	-972
utom	-973
▁strateg	-974
ks	-975
▁partic	-976
▁coll	-977
orm	-978
▁patienter	-979
ox	-980
aste	-981
▁et	-982
ologiska	-983
▁elekt	-984
jur	-985
▁dynam	-986
etenskap	-987
nad	-988
▁organ	-989
▁exempel	-990
fl	-991
ropp	-992
▁diagnos	-993
tiga	-994
▁design	-995
esta	-996
ital	-997
▁val	-998
▁mod	-999
ene	-1000
heter	-1001
▁dec	-1002
▁human	-1003
ree	-1004
▁förbätt	-1005
▁identifi	-1006
be	-1007
▁been	-1008
bi	-1009
▁cent	-1010
ail	-1011
ikro	-1012
ke	-1013
ste	-1014
▁läk	-1015
▁incre	-1016
▁två	-1017
▁́	-1018
ici	-1019
rel	-1020
ger	-1021
ons	-1022
str	-1023
▁not	-1024
okus	-1025
▁focus	-1026
▁miljö	-1027
▁tid	-1028
ected	-1029
▁mål	-1030
ality	-1031
arna	-1032
▁go	-1033
sak	-1034
▁potential	-1035
viron	-1036
▁models	-1037
▁pop	-1038
▁respon	-1039
dag	-1040
▁mark	-1041
ogni	-1042
▁sen	-1043
vä	-1044
val	-1045
▁häl	-1046
aus	-1047
ym	-1048
co	-1049
▁bety	-1050
lass	-1051
erv	-1052
▁used	-1053
dition	-1054
yr	-1055
▁glob	-1056
▁lär	-1057
▁effektiv	-1058
▁into	-1059
int	-1060
▁intern	-1061
▁ek	-1062
▁vill	-1063
åra	-1064
ences	-1065
gru	-1066
▁Sverige	-1067
her	-1068
▁ur	-1069
▁här	-1070
▁am	-1071
▁barn	-1072
▁tw	-1073
ung	-1074
▁biom	-1075
iel	-1076
▁få	-1077
ures	-1078
kar	-1079
ölj	-1080
▁bidra	-1081
ized	-1082
▁resul	-1083
eter	-1084
ases	-1085
ard	-1086
▁egenskaper	-1087
▁sch	-1088
ämn	-1089
ker	-1090
▁but	-1091
urr	-1092
tag	-1093
▁molec	-1094
sta	-1095
▁anti	-1096
vention	-1097
ound	-1098
▁treatment	-1099
▁utan	-1100
ater	-1101
ågor	-1102
▁förs	-1103
▁natur	-1104
▁er	-1105
▁sim	-1106
la	-1107
dan	-1108
▁människ	-1109
lement	-1110
▁through	-1111
ber	-1112
▁lig	-1113
▁arbet	-1114
ten	-1115
▁mechanisms	-1116
▁fokus	-1117
▁cons	-1118
▁applic	-1119
vs	-1120
▁patients	-1121
iss	-1122
ression	-1123
▁best	-1124
▁jäm	-1125
oci	-1126
▁pres	-1127
▁lar	-1128
emedel	-1129
lag	-1130
vens	-1131
▁stör	-1132
roup	-1133
rim	-1134
abor	-1135
ös	-1136
edic	-1137
▁interac	-1138
▁blod	-1139
les	-1140
▁fact	-1141
▁neuro	-1142
stud	-1143
ious	-1144
ingar	-1145
▁test	-1146
▁celler	-1147
örer	-1148
andet	-1149
▁sel	-1150
ange	-1151
▁char	-1152
▁its	-1153
ön	-1154
▁emp	-1155
▁då	-1156
▁oss	-1157
▁path	-1158
reg	-1159
råk	-1160
rain	-1161
▁resultat	-1162
ras	-1163
by	-1164
▁more	-1165
ris	-1166
▁both	-1167
▁Genom	-1168
atis	-1169
aktorer	-1170
▁time	-1171
iga	-1172
▁two	-1173
▁impro	-1174
ool	-1175
▁contro	-1176
▁pol	-1177
▁about	-1178
▁elect	-1179
▁förståelse	-1180
bildning	-1181
▁19	-1182
els	-1183
ien	-1184
▁Projektet	-1185
ement	-1186
ren	-1187
åga	-1188
▁stora	-1189
ivå	-1190
▁lear	-1191
▁sol	-1192
▁An	-1193
ativ	-1194
ld	-1195
▁betydel	-1196
atter	-1197
▁contrib	-1198
▁activ	-1199
▁bild	-1200
▁histor	-1201
▁def	-1202
▁någ	-1203
▁hjälp	-1204
▁aims	-1205
▁vad	-1206
▁multi	-1207
▁ep	-1208
org	-1209
▁psy	-1210
▁environ	-1211
▁role	-1212
▁flera	-1213
ability	-1214
skil	-1215
las	-1216
▁obser	-1217
▁Swedish	-1218
▁inflamm	-1219
▁aff	-1220
▁modell	-1221
akteri	-1222
▁systems	-1223
▁dig	-1224
iet	-1225
över	-1226
ental	-1227
▁educ	-1228
▁ty	-1229
▁alla	-1230
unt	-1231
tiskt	-1232
▁therap	-1233
▁clin	-1234
far	-1235
rid	-1236
▁long	-1237
▁möjlighet	-1238
ställ	-1239
fe	-1240
▁ha	-1241
▁other	-1242
▁läkemedel	-1243
▁Sweden	-1244
▁tidigare	-1245
▁fys	-1246
ever	-1247
▁important	-1248
▁syft	-1249
anter	-1250
arbet	-1251
▁sj	-1252
▁group	-1253
▁van	-1254
digt	-1255
ingen	-1256
▁väx	-1257
▁years	-1258
▁ta	-1259
The	-1260
ologi	-1261
▁effects	-1262
irst	-1263
▁during	-1264
▁förbättra	-1265
▁based	-1266
ättre	-1267
resent	-1268
tter	-1269
▁metab	-1270
uld	-1271
nader	-1272
▁ec	-1273
ature	-1274
▁there	-1275
one	-1276
agne	-1277
▁mikro	-1278
▁användas	-1279
▁metod	-1280
▁”	-1281
▁specific	-1282
▁investigate	-1283
▁How	-1284
▁lång	-1285
▁bättre	-1286
▁Dessa	-1287
stånd	-1288
its	-1289
▁kombin	-1290
limat	-1291
ute	-1292
ale	-1293
▁roll	-1294
▁individual	-1295
isering	-1296
▁phys	-1297
änt	-1298
▁sens	-1299
▁invol	-1300
ension	-1301
▁perform	-1302
▁modeller	-1303
▁fiel	-1304
▁identify	-1305
spro	-1306
inal	-1307
▁hyp	-1308
▁J	-1309
▁includ	-1310
ister	-1311
ently	-1312
▁persp	-1313
bas	-1314
ctic	-1315
▁grupp	-1316
▁signal	-1317
omet	-1318
▁dire	-1319
▁specif	-1320
▁ofta	-1321
▁program	-1322
▁struktur	-1323
iti	-1324
▁jämför	-1325
öm	-1326
▁character	-1327
enter	-1328
jor	-1329
▁pub	-1330
ja	-1331
▁skol	-1332
▁mak	-1333
eng	-1334
▁provide	-1335
▁dist	-1336
ster	-1337
▁aut	-1338
▁ans	-1339
▁organis	-1340
▁results	-1341
▁learning	-1342
esis	-1343
rip	-1344
▁områ	-1345
▁relev	-1346
▁exam	-1347
▁evolution	-1348
ible	-1349
▁do	-1350
▁åter	-1351
tain	-1352
aterial	-1353
▁combin	-1354
▁ger	-1355
▁därför	-1356
nar	-1357
▁prof	-1358
▁mus	-1359
▁förut	-1360
ize	-1361
ite	-1362
system	-1363
▁vir	-1364
emb	-1365
yt	-1366
based	-1367
▁kopp	-1368
▁teach	-1369
▁Pro	-1370
ori	-1371
ata	-1372
▁adv	-1373
▁end	-1374
▁gro	-1375
atory	-1376
▁fall	-1377
▁identifiera	-1378
▁sci	-1379
kning	-1380
▁materials	-1381
▁förändringar	-1382
20	-1383
-1	-1384
pport	-1385
▁peri	-1386
▁lead	-1387
itu	-1388
▁non	-1389
com	-1390
▁orsak	-1391
▁techn	-1392
ood	-1393
▁theory	-1394
ilit	-1395
▁chang	-1396
▁4	-1397
atten	-1398
▁proper	-1399
▁teknik	-1400
▁ques	-1401
ication	-1402
▁mekanismer	-1403
▁klimat	-1404
lägg	-1405
▁analy	-1406
tivitet	-1407
▁bland	-1408
▁DNA	-1409
älv	-1410
▁molecular	-1411
▁so	-1412
ose	-1413
▁besk	-1414
▁one	-1415
▁need	-1416
▁kol	-1417
▁three	-1418
▁ma	-1419
▁optim	-1420
▁må	-1421
▁sådan	-1422
▁rör	-1423
▁hand	-1424
förs	-1425
▁associ	-1426
▁processes	-1427
▁environment	-1428
verka	-1429
▁samman	-1430
cis	-1431
▁sec	-1432
▁integr	-1433
▁förm	-1434
ekvens	-1435
▁first	-1436
▁represent	-1437
▁första	-1438
▁betydelse	-1439
▁sedan	-1440
▁interv	-1441
▁em	-1442
▁201	-1443
ret	-1444
▁polic	-1445
▁"	-1446
terna	-1447
▁where	-1448
▁kem	-1449
▁clinical	-1450
fär	-1451
▁cor	-1452
▁commun	-1453
ied	-1454
mon	-1455
▁sjukdomar	-1456
▁lik	-1457
▁bakteri	-1458
▁main	-1459
▁klin	-1460
▁child	-1461
▁fe	-1462
▁meas	-1463
▁används	-1464
▁level	-1465
▁tillämp	-1466
▁studie	-1467
pass	-1468
▁fung	-1469
▁följ	-1470
▁complex	-1471
▁add	-1472
ays	-1473
fr	-1474
▁sär	-1475
ob	-1476
ants	-1477
alt	-1478
yg	-1479
ulle	-1480
▁school	-1481
▁dra	-1482
▁Med	-1483
nabb	-1484
je	-1485
▁själv	-1486
limate	-1487
▁lin	-1488
▁Al	-1489
etes	-1490
vår	-1491
anti	-1492
▁they	-1493
▁factors	-1494
grupp	-1495
▁predic	-1496
▁skulle	-1497
uk	-1498
▁life	-1499
▁syftar	-1500
elser	-1501
bio	-1502
▁fam	-1503
up	-1504
gräns	-1505
▁dock	-1506
atic	-1507
ograph	-1508
▁medic	-1509
emper	-1510
▁fund	-1511
▁kar	-1512
▁såsom	-1513
troll	-1514
mode	-1515
arly	-1516
▁large	-1517
▁dep	-1518
ulations	-1519
▁tool	-1520
▁may	-1521
versity	-1522
▁most	-1523
ues	-1524
▁blir	-1525
▁care	-1526
▁eng	-1527
▁forsk	-1528
etwork	-1529
fall	-1530
ler	-1531
onal	-1532
ask	-1533
oph	-1534
tä	-1535
abetes	-1536
que	-1537
det	-1538
▁properties	-1539
yn	-1540
▁kvinn	-1541
ök	-1542
▁håll	-1543
fun	-1544
▁viktiga	-1545
▁inn	-1546
utveckl	-1547
▁göra	-1548
alu	-1549
tiklar	-1550
▁caus	-1551
▁människor	-1552
rug	-1553
▁kra	-1554
▁implement	-1555
▁relation	-1556
oss	-1557
▁framti	-1558
rans	-1559
▁inkl	-1560
uv	-1561
cep	-1562
▁Res	-1563
▁idag	-1564
▁kropp	-1565
▁acc	-1566
▁For	-1567
▁våra	-1568
▁svenska	-1569
▁språk	-1570
▁produ	-1571
▁To	-1572
▁curr	-1573
▁snabb	-1574
▁bak	-1575
▁tur	-1576
ann	-1577
▁pur	-1578
▁behav	-1579
▁möjlig	-1580
▁komplex	-1581
▁Ch	-1582
och	-1583
ält	-1584
▁dag	-1585
▁kons	-1586
▁Denna	-1587
ey	-1588
▁control	-1589
▁svår	-1590
▁processer	-1591
▁bara	-1592
▁skapa	-1593
▁practic	-1594
ectiv	-1595
▁vilken	-1596
▁field	-1597
ple	-1598
▁chem	-1599
ärn	-1600
▁asp	-1601
red	-1602
▁intress	-1603
ically	-1604
▁chall	-1605
▁evalu	-1606
▁allt	-1607
▁ämn	-1608
äker	-1609
enomen	-1610
cent	-1611
▁mon	-1612
nat	-1613
▁eftersom	-1614
▁utman	-1615
▁assess	-1616
▁biomark	-1617
▁within	-1618
▁red	-1619
▁Sp	-1620
▁dom	-1621
▁lj	-1622
▁real	-1623
▁stress	-1624
▁prim	-1625
bara	-1626
▁education	-1627
anden	-1628
cipl	-1629
gra	-1630
ice	-1631
ditions	-1632
▁impact	-1633
land	-1634
▁what	-1635
▁sever	-1636
▁poss	-1637
ian	-1638
tom	-1639
äld	-1640
▁skill	-1641
ny	-1642
▁inneb	-1643
▁krä	-1644
▁visat	-1645
▁techni	-1646
▁pe	-1647
handling	-1648
▁ökad	-1649
▁använder	-1650
▁fil	-1651
oral	-1652
▁Stud	-1653
▁land	-1654
▁ål	-1655
eu	-1656
ttry	-1657
hol	-1658
▁leder	-1659
väg	-1660
▁public	-1661
▁resist	-1662
ider	-1663
▁change	-1664
▁target	-1665
▁mig	-1666
▁proteiner	-1667
ograf	-1668
▁antal	-1669
▁kommun	-1670
▁bygg	-1671
upp	-1672
▁frågor	-1673
erande	-1674
pose	-1675
▁minska	-1676
▁prot	-1677
▁network	-1678
ärl	-1679
skilt	-1680
▁including	-1681
▁es	-1682
▁5	-1683
▁fundam	-1684
tidigt	-1685
▁ag	-1686
▁plas	-1687
▁determ	-1688
oende	-1689
▁bef	-1690
▁changes	-1691
aging	-1692
bets	-1693
ymer	-1694
arm	-1695
▁prev	-1696
▁digital	-1697
▁styr	-1698
▁utvecklingen	-1699
▁Ett	-1700
ross	-1701
ight	-1702
▁vissa	-1703
▁leda	-1704
hip	-1705
▁signific	-1706
▁Att	-1707
▁viktigt	-1708
ätverk	-1709
000	-1710
▁influ	-1711
duct	-1712
▁utgör	-1713
▁Ar	-1714
▁drug	-1715
▁främ	-1716
▁address	-1717
▁loc	-1718
▁temper	-1719
▁global	-1720
▁via	-1721
full	-1722
▁cir	-1723
▁magne	-1724
▁bör	-1725
osystem	-1726
ekter	-1727
▁därmed	-1728
ze	-1729
the	-1730
▁part	-1731
emati	-1732
mit	-1733
uella	-1734
▁It	-1735
▁However	-1736
▁föres	-1737
▁kor	-1738
nder	-1739
asc	-1740
▁gr	-1741
ower	-1742
▁tro	-1743
▁kring	-1744
text	-1745
▁faktorer	-1746
urs	-1747
▁möjligt	-1748
▁cap	-1749
▁AI	-1750
▁psyk	-1751
▁Ne	-1752
▁conditions	-1753
▁climate	-1754
cke	-1755
anta	-1756
port	-1757
▁sjuk	-1758
kter	-1759
▁show	-1760
ekom	-1761
▁nerv	-1762
very	-1763
änder	-1764
ollow	-1765
▁beskriv	-1766
▁begräns	-1767
ktyg	-1768
▁period	-1769
▁grow	-1770
▁́s	-1771
varande	-1772
▁svar	-1773
uture	-1774
▁genomför	-1775
▁observ	-1776
angu	-1777
▁brain	-1778
▁compar	-1779
▁present	-1780
reen	-1781
cy	-1782
▁energy	-1783
ationen	-1784
otyp	-1785
olk	-1786
▁beräk	-1787
cer	-1788
▁fin	-1789
ness	-1790
▁virus	-1791
inary	-1792
aser	-1793
▁stort	-1794
▁indust	-1795
▁sak	-1796
pe	-1797
▁ned	-1798
ques	-1799
äller	-1800
▁sociala	-1801
▁cult	-1802
▁regl	-1803
▁key	-1804
▁genetic	-1805
gor	-1806
▁state	-1807
▁elektron	-1808
▁förv	-1809
▁får	-1810
lla	-1811
▁prom	-1812
▁oper	-1813
▁post	-1814
▁prak	-1815
▁möjliggör	-1816
▁situ	-1817
▁upptä	-1818
por	-1819
▁Euro	-1820
oid	-1821
▁diabetes	-1822
ces	-1823
▁vetenskap	-1824
ument	-1825
▁“	-1826
▁typer	-1827
establ	-1828
▁nytt	-1829
establish	-1830
▁ser	-1831
▁hjärt	-1832
ise	-1833
▁future	-1834
▁off	-1835
vetenskap	-1836
▁hjärn	-1837
▁senaste	-1838
▁Wh	-1839
▁djur	-1840
▁arbets	-1841
odern	-1842
▁norm	-1843
▁follow	-1844
eller	-1845
▁disc	-1846
▁Ex	-1847
▁jag	-1848
ationella	-1849
des	-1850
▁ox	-1851
▁respons	-1852
▁RNA	-1853
sam	-1854
▁bel	-1855
▁Our	-1856
rin	-1857
▁personer	-1858
▁enz	-1859
ws	-1860
▁sl	-1861
▁särskilt	-1862
▁energi	-1863
▁cri	-1864
ht	-1865
▁tumör	-1866
fore	-1867
▁central	-1868
▁spel	-1869
▁mäng	-1870
▁developed	-1871
▁ada	-1872
▁mut	-1873
ful	-1874
▁samma	-1875
▁nor	-1876
embran	-1877
▁atom	-1878
växt	-1879
rial	-1880
▁förh	-1881
▁små	-1882
▁interactions	-1883
▁dynamics	-1884
▁effekter	-1885
▁early	-1886
repp	-1887
▁wor	-1888
▁rätt	-1889
▁visar	-1890
heten	-1891
kel	-1892
▁kän	-1893
▁policy	-1894
▁theore	-1895
▁avgör	-1896
RNA	-1897
scop	-1898
uvud	-1899
▁structure	-1900
rit	-1901
▁ide	-1902
▁neur	-1903
tiver	-1904
▁societ	-1905
▁vatten	-1906
mär	-1907
▁find	-1908
▁proposed	-1909
▁matemati	-1910
▁population	-1911
tific	-1912
▁måste	-1913
▁beteen	-1914
nande	-1915
▁precis	-1916
▁analysera	-1917
▁rob	-1918
▁students	-1919
▁icke	-1920
▁cre	-1921
äst	-1922
▁class	-1923
ående	-1924
iteten	-1925
▁up	-1926
ner	-1927
▁strategies	-1928
bry	-1929
▁empir	-1930
▁bidrar	-1931
ium	-1932
▁purpose	-1933
▁establish	-1934
▁regul	-1935
▁region	-1936
▁many	-1937
▁contribute	-1938
ines	-1939
kon	-1940
▁värl	-1941
▁Vår	-1942
▁vet	-1943
▁children	-1944
ices	-1945
▁major	-1946
▁förekom	-1947
▁order	-1948
▁metabol	-1949
▁utvär	-1950
dar	-1951
▁rikt	-1952
▁Inter	-1953
▁forsknings	-1954
▁innov	-1955
▁sex	-1956
▁helt	-1957
iat	-1958
RI	-1959
föränd	-1960
▁lös	-1961
▁effici	-1962
▁allow	-1963
▁Ph	-1964
▁techniques	-1965
igt	-1966
▁interak	-1967
▁samb	-1968
osis	-1969
mar	-1970
▁improve	-1971
▁anpass	-1972
▁slut	-1973
▁lag	-1974
sequ	-1975
▁kontroll	-1976
▁support	-1977
▁;	-1978
▁relations	-1979
▁particular	-1980
▁individer	-1981
▁collabor	-1982
▁påverka	-1983
▁bil	-1984
▁bec	-1985
▁general	-1986
▁fy	-1987
▁hitt	-1988
▁aktivitet	-1989
▁univers	-1990
ency	-1991
▁fler	-1992
ession	-1993
▁explore	-1994
tili	-1995
▁fundamental	-1996
▁lok	-1997
ights	-1998
ulering	-1999
▁cl	-2000
▁upptäc	-2001
ned	-2002
▁langu	-2003
räck	-2004
▁mu	-2005
▁flu	-2006
olic	-2007
▁statis	-2008
▁väv	-2009
▁innebär	-2010
ösa	-2011
ile	-2012
▁ul	-2013
▁ter	-2014
▁fort	-2015
▁kult	-2016
▁initi	-2017
▁spect	-2018
▁trä	-2019
▁mind	-2020
▁tiss	-2021
▁resp	-2022
▁nivå	-2023
▁sing	-2024
▁(1	-2025
▁Hur	-2026
▁bu	-2027
▁star	-2028
ågan	-2029
▁änd	-2030
▁omfatt	-2031
▁inflammation	-2032
omen	-2033
▁före	-2034
urther	-2035
▁kvinnor	-2036
▁hjärnan	-2037
min	-2038
▁mest	-2039
ily	-2040
▁åt	-2041
▁mass	-2042
▁ljus	-2043
▁större	-2044
▁stöd	-2045
▁sådana	-2046
ould	-2047
▁hälsa	-2048
▁teore	-2049
face	-2050
ving	-2051
▁sina	-2052
ftet	-2053
pid	-2054
usion	-2055
▁akt	-2056
rån	-2057
istic	-2058
▁full	-2059
▁ing	-2060
▁specifika	-2061
Det	-2062
▁kost	-2063
utions	-2064
▁bed	-2065
ken	-2066
anced	-2067
▁förhåll	-2068
▁potenti	-2069
atta	-2070
round	-2071
▁tools	-2072
▁only	-2073
ydro	-2074
▁disk	-2075
▁functional	-2076
▁bro	-2077
öj	-2078
verkan	-2079
tes	-2080
▁significant	-2081
ages	-2082
▁if	-2083
syn	-2084
▁ekonom	-2085
atser	-2086
▁vård	-2087
ject	-2088
▁applications	-2089
rem	-2090
▁second	-2091
ou	-2092
sten	-2093
▁verktyg	-2094
▁nätverk	-2095
con	-2096
lär	-2097
▁when	-2098
▁lever	-2099
▁hanter	-2100
▁exist	-2101
ump	-2102
antum	-2103
▁num	-2104
▁questions	-2105
▁four	-2106
ektion	-2107
▁immune	-2108
▁intervention	-2109
alj	-2110
titution	-2111
▁förl	-2112
ronic	-2113
▁theoretical	-2114
men	-2115
ammans	-2116
ople	-2117
▁reduc	-2118
▁På	-2119
▁equ	-2120
ix	-2121
yc	-2122
▁behöver	-2123
▁valid	-2124
andom	-2125
rum	-2126
▁lä	-2127
spec	-2128
kor	-2129
uss	-2130
▁tradition	-2131
▁hy	-2132
▁lung	-2133
▁These	-2134
behandling	-2135
▁kart	-2136
▁mä	-2137
▁karakt	-2138
▁tak	-2139
läggande	-2140
▁who	-2141
▁mindre	-2142
▁than	-2143
▁CO	-2144
▁current	-2145
▁förklar	-2146
▁beslut	-2147
▁Sy	-2148
åller	-2149
ctions	-2150
vid	-2151
▁heter	-2152
▁challeng	-2153
▁exper	-2154
naden	-2155
▁Uni	-2156
ission	-2157
gram	-2158
▁behand	-2159
hib	-2160
▁Under	-2161
▁comput	-2162
jup	-2163
▁diseases	-2164
reat	-2165
▁behov	-2166
giv	-2167
▁framtida	-2168
analys	-2169
mos	-2170
▁perspektiv	-2171
baserade	-2172
▁recept	-2173
▁related	-2174
iner	-2175
▁sett	-2176
▁sker	-2177
▁response	-2178
▁bio	-2179
▁extra	-2180
sättning	-2181
▁frame	-2182
▁fib	-2183
▁klass	-2184
▁neut	-2185
▁fungerar	-2186
▁dev	-2187
▁Met	-2188
sjukdom	-2189
ards	-2190
▁Där	-2191
▁Men	-2192
imer	-2193
▁effect	-2194
▁annat	-2195
▁delar	-2196
▁uttry	-2197
sen	-2198
▁detalj	-2199
▁interaction	-2200
inter	-2201
ensive	-2202
▁algor	-2203
gande	-2204
elsen	-2205
ades	-2206
ination	-2207
▁områden	-2208
▁sym	-2209
▁proteins	-2210
alit	-2211
▁radi	-2212
▁elever	-2213
gener	-2214
▁utför	-2215
▁unique	-2216
▁grundläggande	-2217
▁forskare	-2218
lik	-2219
▁dri	-2220
▁people	-2221
▁act	-2222
▁konsekvens	-2223
bil	-2224
riska	-2225
▁associated	-2226
▁limit	-2227
▁mänsk	-2228
▁hypoth	-2229
▁samarbet	-2230
ining	-2231
skop	-2232
cancer	-2233
▁bakom	-2234
▁relevant	-2235
▁super	-2236
▁förmåga	-2237
gif	-2238
▁undersöker	-2239
▁samtidigt	-2240
▁huvud	-2241
studier	-2242
▁utvecklas	-2243
ligare	-2244
▁goal	-2245
▁Com	-2246
gäng	-2247
▁genetiska	-2248
▁modern	-2249
ema	-2250
▁posi	-2251
▁undervis	-2252
▁högre	-2253
▁person	-2254
▁gäller	-2255
ikal	-2256
▁vårt	-2257
▁kallas	-2258
▁molekyler	-2259
▁prin	-2260
▁ben	-2261
▁Ut	-2262
▁local	-2263
jud	-2264
▁antibio	-2265
vit	-2266
ester	-2267
öst	-2268
▁AD	-2269
ologisk	-2270
▁väg	-2271
▁conduct	-2272
▁avanc	-2273
SC	-2274
inu	-2275
▁mät	-2276
▁provid	-2277
uter	-2278
▁requ	-2279
▁inklud	-2280
▁political	-2281
▁vit	-2282
▁behavi	-2283
▁measure	-2284
▁experimental	-2285
farande	-2286
▁world	-2287
▁reak	-2288
▁problems	-2289
amet	-2290
acc	-2291
▁liter	-2292
▁Dessutom	-2293
rig	-2294
▁världen	-2295
▁geomet	-2296
ire	-2297
förändringar	-2298
▁intervie	-2299
ators	-2300
modeller	-2301
▁säker	-2302
ources	-2303
van	-2304
▁beg	-2305
smet	-2306
▁Ä	-2307
orts	-2308
läg	-2309
ulin	-2310
▁environmental	-2311
lade	-2312
▁after	-2313
mark	-2314
▁utbildning	-2315
iken	-2316
lying	-2317
▁stat	-2318
▁sequ	-2319
tra	-2320
ii	-2321
▁transport	-2322
▁top	-2323
▁By	-2324
asing	-2325
väl	-2326
tivt	-2327
▁desc	-2328
▁obj	-2329
▁hela	-2330
▁kallade	-2331
▁framework	-2332
struktur	-2333
▁low	-2334
ined	-2335
▁particip	-2336
kta	-2337
▁fly	-2338
nytt	-2339
antita	-2340
cc	-2341
▁Con	-2342
ända	-2343
▁among	-2344
produ	-2345
öv	-2346
ps	-2347
funktion	-2348
▁species	-2349
▁fortfarande	-2350
▁alterna	-2351
rag	-2352
ucle	-2353
abl	-2354
▁nega	-2355
2)	-2356
▁utfor	-2357
dep	-2358
▁further	-2359
▁cogni	-2360
▁Om	-2361
▁ast	-2362
▁kogni	-2363
▁Mo	-2364
▁förvänt	-2365
▁evid	-2366
nivå	-2367
talet	-2368
▁common	-2369
imension	-2370
▁fre	-2371
bra	-2372
bygg	-2373
▁groups	-2374
▁varit	-2375
aces	-2376
▁several	-2377
gi	-2378
▁pathw	-2379
unkt	-2380
mande	-2381
nads	-2382
comes	-2383
▁hållbar	-2384
▁kvant	-2385
▁går	-2386
▁lu	-2387
nos	-2388
▁language	-2389
ningarna	-2390
ories	-2391
▁due	-2392
▁1)	-2393
rat	-2394
▁hem	-2395
utveckling	-2396
▁6	-2397
kade	-2398
▁komplexa	-2399
▁technology	-2400
▁2)	-2401
mptom	-2402
▁yt	-2403
▁atmos	-2404
just	-2405
stain	-2406
▁random	-2407
▁tills	-2408
SA	-2409
elf	-2410
▁activity	-2411
▁single	-2412
▁Re	-2413
orn	-2414
▁läng	-2415
▁sustain	-2416
▁fem	-2417
year	-2418
▁ytter	-2419
scopy	-2420
▁sem	-2421
▁imaging	-2422
▁Q	-2423
▁verk	-2424
bon	-2425
onomic	-2426
orb	-2427
▁labor	-2428
ists	-2429
▁temperatur	-2430
▁distrib	-2431
aterade	-2432
▁light	-2433
ascular	-2434
▁bacter	-2435
▁ord	-2436
▁conf	-2437
▁bakterier	-2438
▁formation	-2439
eff	-2440
▁avgörande	-2441
oring	-2442
▁membran	-2443
▁better	-2444
▁critical	-2445
verse	-2446
▁medicin	-2447
▁magn	-2448
chie	-2449
▁ökar	-2450
▁sjukdoms	-2451
istry	-2452
▁profession	-2453
▁reac	-2454
▁them	-2455
lood	-2456
▁ök	-2457
▁möjligheter	-2458
äga	-2459
▁growth	-2460
▁tissue	-2461
loy	-2462
rots	-2463
material	-2464
▁stim	-2465
▁jord	-2466
▁stand	-2467
gga	-2468
▁international	-2469
▁relig	-2470
▁arter	-2471
▁individuals	-2472
▁rad	-2473
ativa	-2474
▁phot	-2475
▁senare	-2476
▁molekylära	-2477
ologies	-2478
▁skyd	-2479
▁previous	-2480
▁intell	-2481
br	-2482
net	-2483
oxid	-2484
otes	-2485
atalys	-2486
▁outcomes	-2487
▁hitta	-2488
▁tex	-2489
ksam	-2490
ections	-2491
▁gl	-2492
▁increase	-2493
▁quality	-2494
▁affect	-2495
▁therapy	-2496
▁samhället	-2497
ules	-2498
▁speci	-2499
▁power	-2500
liggande	-2501
▁politiska	-2502
0-	-2503
▁achie	-2504
ux	-2505
▁fac	-2506
▁therapeu	-2507
▁redan	-2508
▁society	-2509
formation	-2510
▁very	-2511
term	-2512
▁giv	-2513
▁mång	-2514
▁rum	-2515
likationer	-2516
▁terap	-2517
▁transl	-2518
ott	-2519
agement	-2520
▁quantum	-2521
rop	-2522
risk	-2523
▁varje	-2524
▁arbete	-2525
▁påverkas	-2526
▁approaches	-2527
▁tillstånd	-2528
faktorer	-2529
▁history	-2530
andra	-2531
▁experiments	-2532
ban	-2533
▁production	-2534
▁science	-2535
▁variation	-2536
bru	-2537
ude	-2538
▁psych	-2539
▁ly	-2540
▁teachers	-2541
ries	-2542
▁allm	-2543
▁studien	-2544
ktions	-2545
▁fas	-2546
▁agg	-2547
▁number	-2548
▁Y	-2549
▁åld	-2550
▁tillgäng	-2551
▁Vid	-2552
▁eth	-2553
▁deb	-2554
▁forskningsp	-2555
▁suc	-2556
ilities	-2557
▁milj	-2558
▁national	-2559
▁result	-2560
atorer	-2561
▁prote	-2562
▁age	-2563
▁some	-2564
ick	-2565
▁relativ	-2566
▁interven	-2567
▁rema	-2568
▁fördel	-2569
ough	-2570
ikation	-2571
volution	-2572
▁context	-2573
acy	-2574
day	-2575
▁art	-2576
omics	-2577
ety	-2578
▁media	-2579
▁possible	-2580
äss	-2581
▁vidare	-2582
▁såväl	-2583
▁hal	-2584
ataly	-2585
▁could	-2586
▁hydro	-2587
struct	-2588
▁stab	-2589
▁identifier	-2590
▁bre	-2591
orter	-2592
ired	-2593
alitet	-2594
▁enh	-2595
put	-2596
häl	-2597
ples	-2598
ores	-2599
▁mar	-2600
usive	-2601
ulär	-2602
til	-2603
▁often	-2604
står	-2605
▁proposal	-2606
ogene	-2607
▁samband	-2608
vård	-2609
▁låg	-2610
▁physical	-2611
▁bestäm	-2612
ances	-2613
går	-2614
iscipl	-2615
peri	-2616
▁across	-2617
▁kliniska	-2618
▁består	-2619
grund	-2620
▁Till	-2621
▁emer	-2622
come	-2623
▁direct	-2624
▁subst	-2625
tning	-2626
▁avse	-2627
rikt	-2628
hether	-2629
▁föruts	-2630
istor	-2631
▁Europe	-2632
fte	-2633
▁women	-2634
faren	-2635
AS	-2636
lös	-2637
▁familj	-2638
▁importance	-2639
AR	-2640
▁special	-2641
▁increasing	-2642
ored	-2643
vo	-2644
Th	-2645
ocial	-2646
read	-2647
▁interviews	-2648
urser	-2649
▁spati	-2650
igene	-2651
▁concept	-2652
xim	-2653
tivity	-2654
vet	-2655
zed	-2656
enotyp	-2657
enta	-2658
▁grupper	-2659
▁performance	-2660
▁varandra	-2661
hets	-2662
skal	-2663
▁analyses	-2664
▁chemical	-2665
▁way	-2666
▁fot	-2667
skol	-2668
gration	-2669
▁insights	-2670
▁conn	-2671
▁betyd	-2672
▁gu	-2673
lit	-2674
ody	-2675
ulära	-2676
ars	-2677
ätta	-2678
▁dim	-2679
▁structures	-2680
▁practices	-2681
▁användning	-2682
▁developing	-2683
ech	-2684
bility	-2685
▁increased	-2686
Vi	-2687
▁äld	-2688
▁various	-2689
rast	-2690
▁whether	-2691
go	-2692
▁socio	-2693
isera	-2694
lications	-2695
▁tal	-2696
eställ	-2697
▁found	-2698
▁varför	-2699
line	-2700
sprocess	-2701
▁resistance	-2702
lärning	-2703
▁utnytt	-2704
▁kri	-2705
▁dels	-2706
▁forskningen	-2707
▁gång	-2708
osom	-2709
amin	-2710
▁direkt	-2711
heimer	-2712
▁ligger	-2713
0%	-2714
spel	-2715
▁något	-2716
▁symptom	-2717
ET	-2718
zheimer	-2719
vara	-2720
▁circ	-2721
▁transc	-2722
▁was	-2723
▁praktik	-2724
tifrån	-2725
▁lack	-2726
▁effektiva	-2727
▁Sam	-2728
▁avail	-2729
▁tow	-2730
cial	-2731
▁metall	-2732
▁arch	-2733
▁consequ	-2734
tex	-2735
skar	-2736
▁known	-2737
▁god	-2738
ilitet	-2739
▁partiklar	-2740
▁skap	-2741
cker	-2742
▁screen	-2743
▁bygger	-2744
▁uppn	-2745
inst	-2746
▁make	-2747
nu	-2748
ision	-2749
▁Syftet	-2750
ests	-2751
▁determine	-2752
▁anim	-2753
entific	-2754
kärl	-2755
▁autom	-2756
▁modif	-2757
▁levels	-2758
▁teor	-2759
old	-2760
▁link	-2761
▁build	-2762
▁kompon	-2763
tional	-2764
sh	-2765
jär	-2766
pers	-2767
▁biologiska	-2768
let	-2769
▁success	-2770
▁question	-2771
ålet	-2772
▁föreslag	-2773
▁sitt	-2774
▁Alzheimer	-2775
ray	-2776
ves	-2777
▁addition	-2778
ibility	-2779
Projektet	-2780
▁Trots	-2781
▁water	-2782
mic	-2783
håller	-2784
▁fär	-2785
▁relationship	-2786
▁fri	-2787
▁vivo	-2788
ina	-2789
ultaten	-2790
▁register	-2791
▁fenomen	-2792
▁deltag	-2793
eck	-2794
▁driv	-2795
▁flow	-2796
▁tumor	-2797
▁blood	-2798
▁math	-2799
▁202	-2800
▁expression	-2801
▁small	-2802
▁text	-2803
fil	-2804
▁There	-2805
▁skad	-2806
▁mask	-2807
▁skillnader	-2808
▁student	-2809
▁gap	-2810
oh	-2811
▁undersök	-2812
▁iss	-2813
to	-2814
eringen	-2815
öka	-2816
In	-2817
fal	-2818
▁intro	-2819
▁biomarkers	-2820
▁sprid	-2821
▁electro	-2822
▁cardi	-2823
▁mäta	-2824
▁disco	-2825
▁numer	-2826
▁vanlig	-2827
▁adapt	-2828
encing	-2829
▁therapeutic	-2830
▁patter	-2831
ography	-2832
orna	-2833
▁influence	-2834
▁pat	-2835
▁networks	-2836
▁beteende	-2837
sts	-2838
▁När	-2839
▁type	-2840
▁tillämpningar	-2841
use	-2842
blem	-2843
▁institution	-2844
▁studied	-2845
▁gender	-2846
▁erfaren	-2847
mi	-2848
▁term	-2849
▁occ	-2850
data	-2851
▁self	-2852
protein	-2853
related	-2854
ektioner	-2855
▁18	-2856
▁tillsammans	-2857
▁studeras	-2858
▁interest	-2859
▁genes	-2860
produc	-2861
orders	-2862
▁cognitive	-2863
▁uppnå	-2864
skilda	-2865
level	-2866
▁predict	-2867
▁död	-2868
▁globala	-2869
atiska	-2870
▁drabb	-2871
emical	-2872
ura	-2873
▁funktioner	-2874
▁recent	-2875
▁djup	-2876
▁exempelvis	-2877
▁Efter	-2878
▁induc	-2879
anda	-2880
▁ang	-2881
▁Ny	-2882
▁ret	-2883
ival	-2884
hang	-2885
gets	-2886
▁coh	-2887
▁surface	-2888
▁polymer	-2889
ruct	-2890
nal	-2891
edag	-2892
systemet	-2893
dera	-2894
▁inhib	-2895
rong	-2896
▁några	-2897
▁vux	-2898
▁count	-2899
ef	-2900
▁cru	-2901
▁just	-2902
thesis	-2903
▁svens	-2904
▁öpp	-2905
▁far	-2906
▁fält	-2907
-19	-2908
▁äldre	-2909
▁vacc	-2910
▁aktiver	-2911
▁instru	-2912
lopp	-2913
etag	-2914
▁isol	-2915
bart	-2916
edagog	-2917
ource	-2918
opar	-2919
antif	-2920
▁ref	-2921
iker	-2922
▁case	-2923
▁compos	-2924
ästa	-2925
▁challenges	-2926
▁behandlingar	-2927
okra	-2928
▁gover	-2929
former	-2930
ape	-2931
▁fast	-2932
▁expos	-2933
▁risken	-2934
▁auto	-2935
▁underlying	-2936
.,	-2937
ros	-2938
▁start	-2939
ured	-2940
▁separ	-2941
▁åren	-2942
▁University	-2943
▁etabl	-2944
▁avser	-2945
ately	-2946
lägga	-2947
▁beroende	-2948
▁concer	-2949
▁Pre	-2950
▁lev	-2951
▁paramet	-2952
raft	-2953
▁koll	-2954
äpp	-2955
ssätt	-2956
▁insikt	-2957
▁överg	-2958
▁spelar	-2959
jer	-2960
▁kemiska	-2961
▁generation	-2962
itud	-2963
▁intervju	-2964
▁annan	-2965
baserad	-2966
▁scientific	-2967
▁tillväxt	-2968
flamm	-2969
▁regard	-2970
ER	-2971
▁mathema	-2972
▁konsekvenser	-2973
rep	-2974
▁strategier	-2975
ocra	-2976
▁nog	-2977
▁ram	-2978
ave	-2979
▁si	-2980
▁pred	-2981
▁still	-2982
▁påverkan	-2983
▁Forskning	-2984
▁oxid	-2985
▁bra	-2986
ced	-2987
▁börj	-2988
▁princi	-2989
järn	-2990
sättningar	-2991
▁steg	-2992
▁överlev	-2993
▁syfte	-2994
log	-2995
▁thus	-2996
▁targets	-2997
▁abs	-2998
▁examine	-2999
▁Man	-3000
process	-3001
▁Sk	-3002
▁Ö	-3003
▁detail	-3004
ying	-3005
▁nyligen	-3006
▁tillgång	-3007
▁while	-3008
▁employ	-3009
ila	-3010
▁dys	-3011
▁access	-3012
▁sugg	-3013
▁prognos	-3014
▁emerg	-3015
▁konstru	-3016
▁omfattande	-3017
▁gas	-3018
▁host	-3019
achine	-3020
▁primary	-3021
rott	-3022
▁ställ	-3023
enef	-3024
kan	-3025
▁allmän	-3026
▁advanced	-3027
▁As	-3028
▁highly	-3029
▁behandlings	-3030
▁aga	-3031
▁identified	-3032
▁krävs	-3033
▁lärare	-3034
erats	-3035
▁utform	-3036
forskning	-3037
▁minn	-3038
▁ämnen	-3039
▁integration	-3040
roke	-3041
▁plat	-3042
grupper	-3043
▁endast	-3044
lan	-3045
▁defin	-3046
ited	-3047
▁luft	-3048
▁help	-3049
bjud	-3050
vin	-3051
▁id	-3052
▁epigene	-3053
▁flesta	-3054
▁combination	-3055
isation	-3056
ripande	-3057
amp	-3058
▁precision	-3059
orph	-3060
fri	-3061
elekt	-3062
inder	-3063
▁fet	-3064
▁handlar	-3065
uce	-3066
inf	-3067
roppar	-3068
▁practice	-3069
▁insulin	-3070
övs	-3071
▁mem	-3072
▁extrem	-3073
zation	-3074
▁former	-3075
urella	-3076
sområ	-3077
▁hälso	-3078
▁Bi	-3079
▁structural	-3080
hör	-3081
▁each	-3082
▁electron	-3083
▁leg	-3084
▁fören	-3085
ares	-3086
ode	-3087
▁disorders	-3088
isciplinary	-3089
▁tas	-3090
▁describ	-3091
▁biological	-3092
▁ytterligare	-3093
▁kont	-3094
▁include	-3095
▁controll	-3096
▁höga	-3097
▁mal	-3098
▁propose	-3099
▁efficient	-3100
▁natural	-3101
▁intellig	-3102
vikt	-3103
tande	-3104
tteratur	-3105
▁Fin	-3106
▁lärande	-3107
▁någon	-3108
▁carbon	-3109
andid	-3110
▁tox	-3111
▁functions	-3112
▁3)	-3113
▁perspective	-3114
▁involved	-3115
ättning	-3116
▁grad	-3117
▁types	-3118
▁medan	-3119
▁kultur	-3120
scale	-3121
▁behövs	-3122
▁200	-3123
▁allvar	-3124
▁areas	-3125
▁klar	-3126
▁tids	-3127
-2	-3128
▁fokuserar	-3129
▁X	-3130
▁benef	-3131
▁begrepp	-3132
iva	-3133
▁uppkom	-3134
▁samhälle	-3135
▁häls	-3136
atoriska	-3137
ställa	-3138
▁regulation	-3139
▁communication	-3140
modell	-3141
CT	-3142
3)	-3143
▁länder	-3144
▁strong	-3145
▁exc	-3146
För	-3147
tar	-3148
ript	-3149
iera	-3150
tigt	-3151
▁ess	-3152
▁evaluate	-3153
änk	-3154
▁kron	-3155
▁pathways	-3156
▁visual	-3157
▁skilj	-3158
▁intens	-3159
atiskt	-3160
▁Di	-3161
ising	-3162
iserade	-3163
dimension	-3164
▁researchers	-3165
▁snabbt	-3166
esp	-3167
▁strukturer	-3168
erative	-3169
▁surve	-3170
jän	-3171
▁Un	-3172
▁estim	-3173
▁available	-3174
▁utili	-3175
smetoder	-3176
▁against	-3177
▁dagens	-3178
▁findings	-3179
▁bind	-3180
▁kräver	-3181
bland	-3182
▁sammanhang	-3183
▁tekniker	-3184
▁evidence	-3185
▁saknas	-3186
rätt	-3187
▁undervisning	-3188
▁framgång	-3189
ites	-3190
▁erbjud	-3191
▁towards	-3192
▁collaboration	-3193
▁tim	-3194
mental	-3195
▁modelling	-3196
▁lab	-3197
▁phase	-3198
aren	-3199
cle	-3200
▁internation	-3201
▁ekosystem	-3202
▁utifrån	-3203
▁testa	-3204
▁avancerade	-3205
studie	-3206
vement	-3207
oma	-3208
▁orsakar	-3209
itala	-3210
vari	-3211
▁nucle	-3212
aking	-3213
▁inför	-3214
agerar	-3215
▁carri	-3216
▁bred	-3217
▁ännu	-3218
ener	-3219
▁föreslagna	-3220
reh	-3221
roph	-3222
▁phenomen	-3223
iering	-3224
▁same	-3225
▁elektro	-3226
rala	-3227
▁hypotes	-3228
▁serv	-3229
▁svårt	-3230
▁vikt	-3231
▁pep	-3232
▁käns	-3233
▁magnetic	-3234
loid	-3235
▁orig	-3236
▁mechanism	-3237
▁set	-3238
▁engine	-3239
▁physics	-3240
kn	-3241
▁7	-3242
▁magnet	-3243
▁själva	-3244
▁responses	-3245
▁metabolism	-3246
▁consequences	-3247
▁Därför	-3248
▁ent	-3249
alog	-3250
▁teori	-3251
▁uts	-3252
▁förståelsen	-3253
igheter	-3254
▁cyt	-3255
▁förändra	-3256
EM	-3257
▁were	-3258
▁enable	-3259
▁cry	-3260
▁upptäckt	-3261
▁Ad	-3262
▁värde	-3263
▁personal	-3264
▁deep	-3265
förm	-3266
amma	-3267
▁algorith	-3268
▁demon	-3269
▁higher	-3270
▁Ind	-3271
tically	-3272
▁teaching	-3273
▁föräld	-3274
▁ålder	-3275
▁utforska	-3276
▁doc	-3277
▁hjälpa	-3278
▁interventions	-3279
▁ung	-3280
▁populations	-3281
▁studerar	-3282
åt	-3283
▁lo	-3284
II	-3285
ont	-3286
ification	-3287
ength	-3288
endent	-3289
▁crucial	-3290
▁mångfal	-3291
bruk	-3292
ödvänd	-3293
▁utvärdera	-3294
▁kombination	-3295
▁tol	-3296
▁behavior	-3297
This	-3298
pec	-3299
tika	-3300
▁‘	-3301
▁fel	-3302
▁would	-3303
▁rå	-3304
aktor	-3305
▁musk	-3306
▁longitud	-3307
▁migration	-3308
▁beror	-3309
▁cellular	-3310
AT	-3311
▁Nor	-3312
▁samhälls	-3313
▁skall	-3314
▁sjukdomen	-3315
lem	-3316
▁vitro	-3317
▁mänskliga	-3318
▁omgiv	-3319
air	-3320
empor	-3321
följ	-3322
▁bal	-3323
over	-3324
▁application	-3325
▁dvs	-3326
rista	-3327
▁vanligt	-3328
▁förändring	-3329
asis	-3330
izing	-3331
▁uppstår	-3332
▁effekten	-3333
anding	-3334
spr	-3335
▁cultural	-3336
hålla	-3337
▁samples	-3338
▁compon	-3339
▁väldigt	-3340
▁biology	-3341
▁overall	-3342
väv	-3343
▁utmaningar	-3344
▁största	-3345
▁multiple	-3346
▁resultaten	-3347
ew	-3348
elect	-3349
▁seri	-3350
▁läg	-3351
▁kroppen	-3352
▁omv	-3353
dande	-3354
▁kraft	-3355
▁tred	-3356
ised	-3357
▁förväntas	-3358
▁analyser	-3359
ich	-3360
slag	-3361
▁existing	-3362
▁samarbete	-3363
ements	-3364
hov	-3365
▁standard	-3366
▁övergripande	-3367
ärt	-3368
▁surv	-3369
▁normal	-3370
▁like	-3371
▁kunskapen	-3372
AD	-3373
ectives	-3374
ane	-3375
ink	-3376
▁play	-3377
▁batter	-3378
▁innehåller	-3379
▁effective	-3380
▁vol	-3381
▁mängd	-3382
▁kl	-3383
ware	-3384
▁performed	-3385
app	-3386
sing	-3387
▁Par	-3388
gär	-3389
▁back	-3390
▁mental	-3391
▁hantera	-3392
▁kö	-3393
▁deli	-3394
▁effektivt	-3395
▁fyra	-3396
eler	-3397
▁pri	-3398
fält	-3399
▁alge	-3400
▁outcome	-3401
▁nödvänd	-3402
order	-3403
▁mots	-3404
▁miss	-3405
ografi	-3406
▁dessutom	-3407
ierar	-3408
▁Trans	-3409
▁priv	-3410
▁comb	-3411
▁växt	-3412
▁parall	-3413
We	-3414
▁cal	-3415
försvar	-3416
▁stroke	-3417
mans	-3418
▁ner	-3419
MS	-3420
▁mit	-3421
▁teoretiska	-3422
▁reson	-3423
▁koppling	-3424
▁Även	-3425
▁ability	-3426
ighet	-3427
▁obtain	-3428
ES	-3429
▁käll	-3430
▁konst	-3431
zing	-3432
cellerna	-3433
▁introduc	-3434
pher	-3435
▁förd	-3436
▁kartlägga	-3437
▁open	-3438
tity	-3439
▁plant	-3440
▁management	-3441
▁soli	-3442
▁recently	-3443
▁uppfatt	-3444
tills	-3445
▁dimension	-3446
▁leading	-3447
▁företag	-3448
▁contribut	-3449
▁10	-3450
▁demokra	-3451
▁aspects	-3452
ligheten	-3453
▁being	-3454
▁dö	-3455
stekn	-3456
▁neurode	-3457
▁kommunikation	-3458
▁konf	-3459
mek	-3460
▁Mul	-3461
▁ingen	-3462
▁pedagog	-3463
50	-3464
▁Spec	-3465
▁since	-3466
▁gem	-3467
▁utvärder	-3468
▁read	-3469
▁devices	-3470
▁space	-3471
▁range	-3472
mod	-3473
▁appli	-3474
atisk	-3475
▁datab	-3476
▁improved	-3477
rik	-3478
uell	-3479
▁cyc	-3480
▁sö	-3481
▁strål	-3482
▁metabolic	-3483
00-	-3484
▁patterns	-3485
▁uppgif	-3486
▁ecosystem	-3487
ffektiv	-3488
ekonom	-3489
ruktur	-3490
▁inklusive	-3491
▁great	-3492
ops	-3493
▁expected	-3494
▁hopp	-3495
▁vetenskapliga	-3496
▁Upp	-3497
▁col	-3498
▁spatial	-3499
▁resulter	-3500
▁fett	-3501
▁toget	-3502
lat	-3503
▁together	-3504
af	-3505
▁bort	-3506
grad	-3507
▁bildas	-3508
istiska	-3509
ank	-3510
gående	-3511
ckel	-3512
bes	-3513
▁enskilda	-3514
▁atmosfär	-3515
▁svensk	-3516
▁screening	-3517
aniska	-3518
▁framför	-3519
▁phenotyp	-3520
▁arg	-3521
▁fra	-3522
pportun	-3523
ters	-3524
▁vät	-3525
strateg	-3526
▁produktion	-3527
▁längre	-3528
▁(1)	-3529
trans	-3530
▁värld	-3531
▁digitala	-3532
edi	-3533
▁(2)	-3534
▁mechan	-3535
▁analyze	-3536
bial	-3537
mäss	-3538
dri	-3539
▁forts	-3540
▁ok	-3541
inlärning	-3542
aw	-3543
▁Im	-3544
skaper	-3545
▁parti	-3546
▁karaktär	-3547
▁internationella	-3548
▁&	-3549
ription	-3550
▁govern	-3551
▁nature	-3552
▁län	-3553
specific	-3554
▁computational	-3555
▁differenti	-3556
▁yr	-3557
▁betydande	-3558
atures	-3559
▁specifikt	-3560
▁event	-3561
ssystem	-3562
▁storlek	-3563
bul	-3564
under	-3565
▁interaktion	-3566
ari	-3567
▁kr	-3568
▁lipid	-3569
▁bo	-3570
▁conducted	-3571
▁plasma	-3572
oint	-3573
limin	-3574
▁opportun	-3575
borg	-3576
ulera	-3577
ention	-3578
eros	-3579
ID	-3580
ered	-3581
▁ill	-3582
▁tarm	-3583
▁belys	-3584
▁consider	-3585
▁ark	-3586
atienter	-3587
▁supp	-3588
▁synthesis	-3589
▁therm	-3590
▁Eftersom	-3591
▁EU	-3592
▁tyd	-3593
▁folk	-3594
▁compreh	-3595
vän	-3596
▁unika	-3597
ope	-3598
▁element	-3599
▁limited	-3600
▁Jag	-3601
▁nanopar	-3602
▁förändras	-3603
▁Resultaten	-3604
▁sid	-3605
områ	-3606
▁behavio	-3607
▁kombinera	-3608
▁ren	-3609
▁reli	-3610
▁robust	-3611
▁cause	-3612
▁unga	-3613
▁8	-3614
▁democra	-3615
ause	-3616
irur	-3617
▁ant	-3618
ukem	-3619
iserad	-3620
▁literature	-3621
ockhol	-3622
▁educational	-3623
▁domin	-3624
nade	-3625
▁enzym	-3626
-20	-3627
time	-3628
▁tun	-3629
▁visa	-3630
▁hypothesis	-3631
▁then	-3632
▁empirical	-3633
▁events	-3634
▁those	-3635
▁sammans	-3636
▁mekanismerna	-3637
▁technologies	-3638
▁bry	-3639
ires	-3640
antitative	-3641
ands	-3642
rande	-3643
▁With	-3644
ittills	-3645
▁offent	-3646
▁inst	-3647
ndrom	-3648
önt	-3649
mare	-3650
rust	-3651
ially	-3652
▁monit	-3653
▁molecules	-3654
äd	-3655
▁historical	-3656
▁emo	-3657
PR	-3658
hus	-3659
▁sustainable	-3660
▁ca	-3661
stra	-3662
▁mekanis	-3663
▁experience	-3664
ption	-3665
▁föresl	-3666
▁stem	-3667
▁involver	-3668
▁horm	-3669
▁Or	-3670
▁gain	-3671
produktion	-3672
anska	-3673
▁motiv	-3674
▁robot	-3675
▁demonstr	-3676
uti	-3677
▁He	-3678
▁differences	-3679
ogenic	-3680
induc	-3681
terap	-3682
▁gran	-3683
ället	-3684
▁shown	-3685
▁samspel	-3686
ierna	-3687
▁reve	-3688
▁befolk	-3689
▁loss	-3690
ulate	-3691
▁Rec	-3692
yloid	-3693
▁nar	-3694
chool	-3695
▁fer	-3696
tida	-3697
▁orsa	-3698
typ	-3699
oung	-3700
plet	-3701
▁exakt	-3702
▁beskriva	-3703
ora	-3704
▁utbild	-3705
▁immunförsvar	-3706
▁möjliggöra	-3707
▁idé	-3708
ounds	-3709
▁generate	-3710
know	-3711
▁avseende	-3712
tade	-3713
▁drugs	-3714
släpp	-3715
▁depression	-3716
▁metal	-3717
▁Så	-3718
▁reas	-3719
▁states	-3720
▁jämfört	-3721
add	-3722
▁team	-3723
▁modeling	-3724
▁aspekter	-3725
ulated	-3726
ole	-3727
▁qualit	-3728
▁antik	-3729
sv	-3730
osc	-3731
▁ways	-3732
▁liknande	-3733
▁Stockhol	-3734
▁enab	-3735
▁position	-3736
▁signaling	-3737
etens	-3738
▁last	-3739
▁vardag	-3740
▁infection	-3741
▁progression	-3742
ilar	-3743
ote	-3744
▁nära	-3745
▁karakter	-3746
care	-3747
▁activities	-3748
plant	-3749
▁egen	-3750
▁processing	-3751
▁countries	-3752
▁established	-3753
▁dator	-3754
▁machine	-3755
esc	-3756
▁Su	-3757
▁broad	-3758
▁subj	-3759
▁lokala	-3760
▁hom	-3761
ographic	-3762
position	-3763
▁effekterna	-3764
▁transform	-3765
▁främst	-3766
▁utvecklar	-3767
▁läkemedels	-3768
ningsm	-3769
okument	-3770
ansk	-3771
▁acco	-3772
▁issues	-3773
▁universitet	-3774
NS	-3775
Ps	-3776
▁politik	-3777
▁understood	-3778
▁platform	-3779
▁viss	-3780
▁polar	-3781
▁profil	-3782
▁brist	-3783
▁noggr	-3784
▁plats	-3785
▁spectro	-3786
▁centrala	-3787
▁economic	-3788
tekn	-3789
▁My	-3790
▁prest	-3791
▁urspr	-3792
stad	-3793
▁uppmär	-3794
▁civ	-3795
ception	-3796
▁klinisk	-3797
▁schools	-3798
▁simulations	-3799
▁förhållanden	-3800
▁mi	-3801
▁aggreg	-3802
▁regarding	-3803
mission	-3804
▁applied	-3805
alled	-3806
▁Målet	-3807
▁today	-3808
▁litteratur	-3809
▁sequencing	-3810
bed	-3811
▁press	-3812
plex	-3813
▁maskin	-3814
function	-3815
rier	-3816
ått	-3817
▁nuvarande	-3818
eringar	-3819
▁observer	-3820
▁tillverk	-3821
pret	-3822
ulos	-3823
▁treatments	-3824
MR	-3825
rogen	-3826
▁blivit	-3827
▁hyper	-3828
▁fields	-3829
plan	-3830
istics	-3831
▁transfer	-3832
▁sensi	-3833
▁jämföra	-3834
miljö	-3835
bel	-3836
▁ovan	-3837
ämnen	-3838
▁förhind	-3839
▁receptor	-3840
▁Imp	-3841
skopi	-3842
▁häm	-3843
▁able	-3844
inflamm	-3845
gas	-3846
▁tri	-3847
▁poor	-3848
eli	-3849
icult	-3850
▁lösa	-3851
ysi	-3852
immun	-3853
IV	-3854
enge	-3855
stat	-3856
▁konk	-3857
oden	-3858
▁reduce	-3859
▁sources	-3860
▁intervjuer	-3861
▁lite	-3862
▁inhibit	-3863
gl	-3864
▁should	-3865
▁diss	-3866
▁therefore	-3867
▁komponenter	-3868
idemi	-3869
▁mean	-3870
▁kallad	-3871
▁intresse	-3872
▁nation	-3873
använd	-3874
▁parad	-3875
▁family	-3876
pop	-3877
OS	-3878
▁utst	-3879
▁block	-3880
▁gly	-3881
▁suggest	-3882
▁Park	-3883
▁area	-3884
otherap	-3885
▁står	-3886
▁basis	-3887
▁reveal	-3888
▁transition	-3889
ils	-3890
▁mön	-3891
astic	-3892
▁lämp	-3893
▁fråga	-3894
▁observations	-3895
▁tillräck	-3896
▁Vil	-3897
eställningar	-3898
enden	-3899
▁expon	-3900
▁scale	-3901
▁verksam	-3902
▁hyb	-3903
▁ungdom	-3904
▁växter	-3905
▁Data	-3906
▁dens	-3907
▁stam	-3908
▁målet	-3909
▁create	-3910
oper	-3911
tet	-3912
dioxid	-3913
▁place	-3914
▁relativt	-3915
▁tidigt	-3916
räckning	-3917
ovascular	-3918
▁prevention	-3919
▁moderna	-3920
▁Ins	-3921
▁behandlingen	-3922
IS	-3923
▁wide	-3924
▁neural	-3925
organis	-3926
ocy	-3927
▁sikt	-3928
▁bygga	-3929
▁insikter	-3930
known	-3931
▁stad	-3932
rojektets	-3933
tillstånd	-3934
try	-3935
▁explain	-3936
▁pain	-3937
▁framtiden	-3938
▁qualitative	-3939
▁essential	-3940
va	-3941
djur	-3942
dade	-3943
equ	-3944
▁skapar	-3945
▁Reg	-3946
iktiga	-3947
medi	-3948
▁sty	-3949
▁gemens	-3950
▁compared	-3951
▁simulering	-3952
räd	-3953
ually	-3954
▁carried	-3955
▁manip	-3956
▁memory	-3957
▁challenge	-3958
▁ist	-3959
▁spekt	-3960
▁materi	-3961
▁alter	-3962
▁vanligaste	-3963
▁lika	-3964
▁rest	-3965
ingu	-3966
anser	-3967
▁What	-3968
▁made	-3969
▁continu	-3970
ständ	-3971
▁medicine	-3972
▁soft	-3973
▁now	-3974
river	-3975
tighet	-3976
▁minim	-3977
ury	-3978
▁tel	-3979
econd	-3980
▁kort	-3981
▁needed	-3982
▁z	-3983
▁tiden	-3984
▁Parkins	-3985
▁facilit	-3986
onic	-3987
▁fail	-3988
▁scal	-3989
▁medical	-3990
respon	-3991
▁långs	-3992
▁kap	-3993
rak	-3994
ults	-3995
▁pass	-3996
program	-3997
▁indic	-3998
▁community	-3999
▁experiences	-4000
enn	-4001
▁her	-4002
▁foss	-4003
▁organic	-4004
▁förklara	-4005
▁utsträckning	-4006
▁ban	-4007
▁food	-4008
▁analyseras	-4009
▁terms	-4010
▁ansvar	-4011
▁biomarkörer	-4012
▁konta	-4013
▁lätt	-4014
▁strä	-4015
hood	-4016
▁cases	-4017
▁objekt	-4018
▁adap	-4019
valitet	-4020
▁experimentella	-4021
▁spe	-4022
gärder	-4023
ygen	-4024
▁cross	-4025
ologiskt	-4026
romet	-4027
▁combined	-4028
▁istället	-4029
▁nationella	-4030
▁tidiga	-4031
▁chronic	-4032
▁etc	-4033
▁point	-4034
▁making	-4035
▁skog	-4036
▁young	-4037
▁become	-4038
▁resurser	-4039
▁område	-4040
▁active	-4041
▁besluts	-4042
faces	-4043
▁näst	-4044
▁following	-4045
arth	-4046
▁tvär	-4047
mering	-4048
▁baserade	-4049
▁quantitative	-4050
kopp	-4051
▁Vidare	-4052
part	-4053
disciplinary	-4054
▁kontro	-4055
▁step	-4056
▁antalet	-4057
IC	-4058
▁stra	-4059
ird	-4060
fulla	-4061
lever	-4062
▁lay	-4063
kvens	-4064
▁animal	-4065
▁assessment	-4066
skad	-4067
steg	-4068
▁bek	-4069
molekyl	-4070
olitik	-4071
▁trots	-4072
▁bilder	-4073
▁without	-4074
idig	-4075
▁hot	-4076
tså	-4077
▁take	-4078
▁genomföra	-4079
▁interaktioner	-4080
▁MS	-4081
▁composition	-4082
▁miljöer	-4083
uls	-4084
▁ethn	-4085
▁Sc	-4086
▁cellerna	-4087
▁PD	-4088
▁förutsäga	-4089
kes	-4090
ids	-4091
▁diagnosis	-4092
▁ol	-4093
▁rapid	-4094
ektive	-4095
▁hud	-4096
eness	-4097
ground	-4098
▁leukem	-4099
▁innan	-4100
▁status	-4101
ners	-4102
▁möjliga	-4103
relaterade	-4104
▁kunskaper	-4105
▁huvudsak	-4106
PC	-4107
ioner	-4108
▁innehåll	-4109
rör	-4110
wide	-4111
▁implications	-4112
▁skiljer	-4113
▁dop	-4114
▁larg	-4115
▁forms	-4116
Detta	-4117
Den	-4118
▁refer	-4119
▁nivåer	-4120
▁identit	-4121
oren	-4122
▁genome	-4123
▁funktions	-4124
förmåga	-4125
▁enkel	-4126
▁market	-4127
#2	-4128
önster	-4129
▁livet	-4130
▁utmaning	-4131
ges	-4132
alax	-4133
brott	-4134
▁sann	-4135
▁desig	-4136
ogenesis	-4137
▁measurements	-4138
HD	-4139
▁factor	-4140
▁detection	-4141
▁bedöm	-4142
▁frequ	-4143
▁intra	-4144
▁respektive	-4145
▁avsl	-4146
▁resources	-4147
▁infektioner	-4148
▁log	-4149
▁bakgrund	-4150
▁theories	-4151
▁complet	-4152
▁föräldrar	-4153
▁9	-4154
▁ens	-4155
▁Using	-4156
▁distribution	-4157
spunkt	-4158
tifici	-4159
▁uttryck	-4160
fy	-4161
serv	-4162
▁näm	-4163
▁aktörer	-4164
▁urban	-4165
▁industri	-4166
▁livsk	-4167
▁området	-4168
AM	-4169
▁prevent	-4170
▁lösningar	-4171
LE	-4172
▁kvalit	-4173
▁shif	-4174
▁working	-4175
▁even	-4176
▁spin	-4177
▁express	-4178
therm	-4179
▁injur	-4180
ax	-4181
▁yet	-4182
▁controlled	-4183
ucid	-4184
▁mix	-4185
aler	-4186
▁PhD	-4187
▁engineering	-4188
▁utvecklat	-4189
▁algorithms	-4190
rad	-4191
▁interpret	-4192
änsl	-4193
omer	-4194
emporary	-4195
▁implementation	-4196
▁materialet	-4197
atin	-4198
▁poll	-4199
▁culture	-4200
▁runt	-4201
▁hör	-4202
▁Vårt	-4203
▁cataly	-4204
ygg	-4205
▁kvar	-4206
resist	-4207
itmer	-4208
ödda	-4209
▁algebra	-4210
▁händ	-4211
tikel	-4212
▁vanliga	-4213
▁AL	-4214
▁hän	-4215
▁film	-4216
▁flex	-4217
▁lärar	-4218
▁skriv	-4219
▁utföra	-4220
▁ursprung	-4221
▁currently	-4222
▁Z	-4223
▁More	-4224
▁hund	-4225
▁kärl	-4226
▁At	-4227
▁cer	-4228
▁gravid	-4229
dens	-4230
▁behandla	-4231
odi	-4232
tids	-4233
▁temperature	-4234
▁sek	-4235
igenom	-4236
uellt	-4237
▁vuxna	-4238
hälsa	-4239
▁köns	-4240
▁deri	-4241
▁Social	-4242
▁medför	-4243
▁medi	-4244
▁plac	-4245
▁skolan	-4246
▁hear	-4247
▁short	-4248
▁diagnostic	-4249
▁investigated	-4250
▁ekonomiska	-4251
play	-4252
▁koldioxid	-4253
utri	-4254
▁alltså	-4255
liv	-4256
▁hoppas	-4257
▁historia	-4258
sel	-4259
▁bidrag	-4260
AI	-4261
ather	-4262
ticles	-4263
verkar	-4264
från	-4265
▁Car	-4266
▁etn	-4267
vården	-4268
▁laser	-4269
cl	-4270
▁gam	-4271
iting	-4272
▁unik	-4273
▁minst	-4274
▁capac	-4275
▁progress	-4276
EC	-4277
▁cost	-4278
visa	-4279
emporal	-4280
cellular	-4281
▁matematik	-4282
-3	-4283
▁nyckel	-4284
▁katalys	-4285
ske	-4286
emiska	-4287
▁naturliga	-4288
AL	-4289
▁starkt	-4290
standing	-4291
▁båda	-4292
▁physi	-4293
▁vävnad	-4294
unskap	-4295
▁ström	-4296
erings	-4297
▁medel	-4298
▁15	-4299
▁reproduc	-4300
PS	-4301
ffer	-4302
▁less	-4303
▁relat	-4304
metoder	-4305
▁nå	-4306
osph	-4307
äder	-4308
fact	-4309
▁igen	-4310
iatric	-4311
▁molekylär	-4312
▁death	-4313
iseras	-4314
▁diversity	-4315
▁achieve	-4316
hab	-4317
▁drabbas	-4318
▁hjärnans	-4319
▁cryst	-4320
▁lokal	-4321
▁framgångs	-4322
▁begränsad	-4323
▁förutsättningar	-4324
▁motor	-4325
▁fysisk	-4326
▁görs	-4327
▁prior	-4328
▁decision	-4329
bo	-4330
▁infektion	-4331
own	-4332
▁por	-4333
▁before	-4334
▁friska	-4335
▁plastic	-4336
uman	-4337
▁domain	-4338
▁svåra	-4339
▁mort	-4340
▁given	-4341
▁chemistry	-4342
▁body	-4343
ida	-4344
ancy	-4345
▁quantif	-4346
▁obes	-4347
gn	-4348
▁cle	-4349
▁vål	-4350
▁mill	-4351
▁bacteria	-4352
▁fysik	-4353
▁cy	-4354
▁variab	-4355
AP	-4356
rest	-4357
▁past	-4358
▁matter	-4359
▁systematic	-4360
▁erfarenheter	-4361
tta	-4362
åter	-4363
ko	-4364
lant	-4365
▁bone	-4366
▁möss	-4367
generation	-4368
▁organismer	-4369
odies	-4370
rof	-4371
▁enkl	-4372
▁fokusera	-4373
▁discover	-4374
▁extend	-4375
▁ökat	-4376
▁känsl	-4377
”.	-4378
▁remains	-4379
uttry	-4380
▁speciellt	-4381
▁relationer	-4382
▁tillför	-4383
▁selection	-4384
▁optimal	-4385
▁mouse	-4386
▁Stockholm	-4387
▁konfli	-4388
▁includes	-4389
▁much	-4390
▁matematiska	-4391
▁199	-4392
▁ground	-4393
▁sannoli	-4394
▁infrast	-4395
▁100	-4396
histor	-4397
▁utgång	-4398
▁antibiotika	-4399
▁environments	-4400
▁teorier	-4401
▁detailed	-4402
ule	-4403
▁säga	-4404
▁mönster	-4405
ror	-4406
▁verkar	-4407
▁similar	-4408
▁egna	-4409
▁följa	-4410
▁fak	-4411
▁os	-4412
ends	-4413
▁comprehensive	-4414
▁feed	-4415
▁const	-4416
sjukdomar	-4417
driven	-4418
▁försö	-4419
▁fungera	-4420
▁acceler	-4421
▁collected	-4422
▁components	-4423
alities	-4424
▁action	-4425
▁infections	-4426
olved	-4427
▁every	-4428
▁hittills	-4429
▁prac	-4430
▁komma	-4431
▁therapies	-4432
▁alternativ	-4433
▁systemet	-4434
▁extre	-4435
▁reaktioner	-4436
▁upphov	-4437
▁laborator	-4438
ersp	-4439
▁acade	-4440
spekt	-4441
▁lära	-4442
▁betydelsen	-4443
▁000	-4444
▁dynamic	-4445
▁metast	-4446
▁content	-4447
▁survival	-4448
back	-4449
▁European	-4450
flu	-4451
uster	-4452
ecess	-4453
▁relevanta	-4454
▁means	-4455
▁fö	-4456
ream	-4457
▁Vad	-4458
▁moral	-4459
AC	-4460
▁förk	-4461
tering	-4462
▁mac	-4463
psy	-4464
▁läs	-4465
▁size	-4466
▁recon	-4467
▁frågan	-4468
mig	-4469
jäm	-4470
yond	-4471
▁teacher	-4472
▁stark	-4473
▁turbul	-4474
arbete	-4475
mend	-4476
▁around	-4477
▁Develop	-4478
▁run	-4479
▁bröst	-4480
rations	-4481
▁forskar	-4482
▁generera	-4483
▁air	-4484
▁viktigaste	-4485
row	-4486
nitt	-4487
urell	-4488
▁elucid	-4489
▁autonom	-4490
▁mångfald	-4491
▁humans	-4492
▁stjärn	-4493
▁healthcare	-4494
▁sexual	-4495
▁bacterial	-4496
▁any	-4497
icient	-4498
▁espec	-4499
▁activation	-4500
attform	-4501
▁example	-4502
▁answ	-4503
aff	-4504
pre	-4505
▁beyond	-4506
▁kvalitet	-4507
▁bor	-4508
▁od	-4509
▁correl	-4510
▁närings	-4511
▁ih	-4512
osyn	-4513
▁narra	-4514
▁hypothes	-4515
St	-4516
thetic	-4517
▁detect	-4518
riär	-4519
▁upptäcka	-4520
▁inverkan	-4521
▁especially	-4522
oster	-4523
▁statistical	-4524
▁antib	-4525
▁because	-4526
▁measures	-4527
orf	-4528
▁miljön	-4529
ectively	-4530
▁discour	-4531
▁Co	-4532
▁bound	-4533
▁magnetiska	-4534
▁unknown	-4535
projekt	-4536
öntgen	-4537
▁akade	-4538
▁mice	-4539
pporter	-4540
▁exposure	-4541
▁utvecklats	-4542
ae	-4543
▁förf	-4544
pol	-4545
otherapy	-4546
▁spectroscopy	-4547
En	-4548
going	-4549
▁smär	-4550
urtherm	-4551
tise	-4552
tificial	-4553
▁tag	-4554
▁kraf	-4555
▁spän	-4556
▁graph	-4557
urthermore	-4558
frågor	-4559
▁affected	-4560
periment	-4561
dependent	-4562
▁njur	-4563
▁studying	-4564
▁Å	-4565
gery	-4566
▁inflammatory	-4567
▁home	-4568
▁training	-4569
▁delen	-4570
▁advance	-4571
ografiska	-4572
▁Cell	-4573
▁säll	-4574
▁utnyttj	-4575
▁cohort	-4576
finn	-4577
häm	-4578
▁needs	-4579
▁map	-4580
▁litt	-4581
▁tillgängliga	-4582
abol	-4583
opro	-4584
▁nedbry	-4585
▁seek	-4586
blast	-4587
▁veri	-4588
▁minskar	-4589
▁efficiency	-4590
&#2	-4591
strategier	-4592
▁New	-4593
▁dä	-4594
väx	-4595
amling	-4596
ektiva	-4597
▁pharm	-4598
2-	-4599
▁inkluderar	-4600
”,	-4601
▁few	-4602
▁fråg	-4603
▁Samtidigt	-4604
▁characterize	-4605
▁livs	-4606
▁mätningar	-4607
▁mobil	-4608
▁Alzheimers	-4609
▁Analys	-4610
▁handling	-4611
trä	-4612
▁cardiovascular	-4613
▁identification	-4614
liminary	-4615
▁utnyttja	-4616
▁solutions	-4617
▁enhance	-4618
▁heterogene	-4619
▁bär	-4620
▁framtid	-4621
▁(3)	-4622
▁extent	-4623
▁severe	-4624
▁diet	-4625
▁baserat	-4626
▁combining	-4627
äs	-4628
▁ön	-4629
▁orsaka	-4630
lly	-4631
▁uppsk	-4632
▁amyloid	-4633
matic	-4634
▁calc	-4635
föring	-4636
hal	-4637
irus	-4638
▁lov	-4639
▁affects	-4640
▁perm	-4641
▁targeted	-4642
▁El	-4643
ristall	-4644
▁Europa	-4645
uli	-4646
▁behind	-4647
ones	-4648
ture	-4649
ilt	-4650
▁kön	-4651
▁genetisk	-4652
otic	-4653
äget	-4654
▁vers	-4655
▁System	-4656
nap	-4657
ocyt	-4658
▁beskriver	-4659
sprogram	-4660
▁kopplade	-4661
▁kompetens	-4662
orbid	-4663
▁spri	-4664
▁apply	-4665
▁neutron	-4666
terapi	-4667
▁galax	-4668
förhåll	-4669
ktioner	-4670
ochemical	-4671
ither	-4672
▁concep	-4673
▁conta	-4674
dentif	-4675
▁focusing	-4676
▁nervceller	-4677
örj	-4678
▁Många	-4679
▁historiska	-4680
▁nästan	-4681
atal	-4682
yper	-4683
▁cho	-4684
▁muscle	-4685
ake	-4686
ultur	-4687
▁muskel	-4688
▁aller	-4689
▁previously	-4690
ously	-4691
itions	-4692
ready	-4693
▁producera	-4694
▁microscopy	-4695
dynam	-4696
▁trial	-4697
▁however	-4698
ching	-4699
▁particularly	-4700
outh	-4701
▁organiz	-4702
▁undersökning	-4703
ög	-4704
▁Ep	-4705
▁yrkes	-4706
▁conflic	-4707
▁fysiska	-4708
▁stability	-4709
iter	-4710
▁dam	-4711
▁mathematical	-4712
▁bur	-4713
AN	-4714
▁mis	-4715
▁gräns	-4716
ime	-4717
▁origin	-4718
▁bestämma	-4719
▁främja	-4720
▁%	-4721
osof	-4722
▁does	-4723
▁storskal	-4724
▁compounds	-4725
cells	-4726
▁innovative	-4727
▁Fl	-4728
▁toxic	-4729
▁försäm	-4730
▁markers	-4731
▁miljoner	-4732
vas	-4733
▁regions	-4734
▁interact	-4735
itect	-4736
▁compet	-4737
▁methodology	-4738
▁evolutionary	-4739
▁Te	-4740
emang	-4741
▁akut	-4742
▁gjor	-4743
▁resolution	-4744
▁Kar	-4745
▁kända	-4746
▁Var	-4747
andin	-4748
▁strukt	-4749
▁discuss	-4750
);	-4751
▁Qu	-4752
▁soci	-4753
▁nytta	-4754
tigheter	-4755
▁organiska	-4756
2.	-4757
HC	-4758
struction	-4759
▁secondary	-4760
▁sekvens	-4761
▁utfall	-4762
barhet	-4763
▁Studien	-4764
agång	-4765
patienter	-4766
▁artifici	-4767
▁targeting	-4768
allt	-4769
▁vide	-4770
▁ow	-4771
▁mel	-4772
▁länge	-4773
▁produce	-4774
fäll	-4775
▁distin	-4776
▁require	-4777
ender	-4778
▁egenskaperna	-4779
▁beslutsfatt	-4780
▁Be	-4781
▁One	-4782
▁paras	-4783
▁expertise	-4784
▁kontroller	-4785
ttag	-4786
tider	-4787
▁Våra	-4788
▁befint	-4789
▁necess	-4790
▁slag	-4791
▁invas	-4792
▁vul	-4793
▁antag	-4794
olecular	-4795
▁känt	-4796
▁växel	-4797
andinav	-4798
ensions	-4799
▁scen	-4800
▁kognitiva	-4801
▁situation	-4802
▁simp	-4803
ulating	-4804
byggande	-4805
▁revolution	-4806
▁Nya	-4807
▁jon	-4808
▁refl	-4809
▁nano	-4810
▁why	-4811
▁sedi	-4812
refter	-4813
▁genomförs	-4814
espite	-4815
certain	-4816
▁rate	-4817
tiden	-4818
ulationer	-4819
▁transpor	-4820
▁contemporary	-4821
▁reason	-4822
vägagång	-4823
▁capacity	-4824
▁närvarande	-4825
▁did	-4826
▁grän	-4827
▁syre	-4828
tel	-4829
▁undv	-4830
▁value	-4831
lutligen	-4832
värt	-4833
▁infer	-4834
ekanismer	-4835
▁strategy	-4836
inner	-4837
▁ultra	-4838
IN	-4839
▁beli	-4840
▁möjligheten	-4841
▁Eff	-4842
▁Finally	-4843
▁mängder	-4844
▁econom	-4845
minist	-4846
▁åtgärder	-4847
▁diagnostik	-4848
▁funktionella	-4849
▁cellen	-4850
▁provides	-4851
▁mortality	-4852
▁skal	-4853
▁already	-4854
-,	-4855
PD	-4856
▁ljud	-4857
organ	-4858
▁account	-4859
VD	-4860
▁Ac	-4861
acts	-4862
rekt	-4863
▁disorder	-4864
▁try	-4865
▁befolkningen	-4866
▁sår	-4867
▁done	-4868
▁testing	-4869
▁ihop	-4870
bred	-4871
▁negativa	-4872
▁online	-4873
▁constit	-4874
▁enzymer	-4875
▁healthy	-4876
▁syftet	-4877
▁providing	-4878
▁datas	-4879
▁evaluation	-4880
pping	-4881
▁features	-4882
▁sensor	-4883
▁focuses	-4884
▁kontakt	-4885
▁kontext	-4886
▁Sådan	-4887
▁All	-4888
▁While	-4889
▁characteristics	-4890
gs	-4891
▁exister	-4892
▁offer	-4893
▁epidemi	-4894
▁rö	-4895
▁mikrobi	-4896
▁dy	-4897
ansen	-4898
state	-4899
bli	-4900
▁terapeu	-4901
inform	-4902
▁thereby	-4903
rect	-4904
▁neurodegen	-4905
▁oft	-4906
▁adaptation	-4907
▁hybrid	-4908
▁fått	-4909
▁kärn	-4910
▁arbetar	-4911
▁rik	-4912
▁åldrande	-4913
vie	-4914
▁tror	-4915
▁actors	-4916
▁Furthermore	-4917
like	-4918
▁hår	-4919
▁source	-4920
▁planerar	-4921
äv	-4922
▁syndrom	-4923
▁människa	-4924
▁reactions	-4925
GF	-4926
▁complement	-4927
▁modellering	-4928
▁accur	-4929
▁medier	-4930
▁lovande	-4931
▁nutri	-4932
▁membrane	-4933
▁linked	-4934
texts	-4935
▁toler	-4936
▁saknar	-4937
▁surgery	-4938
▁patogen	-4939
▁princip	-4940
▁Inom	-4941
▁observationer	-4942
▁aktiva	-4943
ths	-4944
▁ult	-4945
▁tumörer	-4946
specif	-4947
▁solar	-4948
▁paradig	-4949
▁förbättrad	-4950
▁ladd	-4951
▁Despite	-4952
ting	-4953
▁detekt	-4954
▁significantly	-4955
utt	-4956
uted	-4957
▁omvand	-4958
▁kunskaps	-4959
atom	-4960
skon	-4961
▁solid	-4962
orption	-4963
▁survey	-4964
▁undersöks	-4965
vägagångssätt	-4966
▁hänsyn	-4967
▁combine	-4968
ceiv	-4969
▁give	-4970
ologier	-4971
▁ramverk	-4972
lats	-4973
▁nit	-4974
ots	-4975
▁ion	-4976
▁tredje	-4977
national	-4978
▁Research	-4979
ilos	-4980
▁enk	-4981
isions	-4982
▁Neuro	-4983
▁uppmärksam	-4984
▁differential	-4985
▁tän	-4986
▁ko	-4987
enced	-4988
▁longitudinal	-4989
greg	-4990
▁Som	-4991
▁discipl	-4992
▁particles	-4993
▁little	-4994
äck	-4995
▁markörer	-4996
▁Thus	-4997
ologin	-4998
▁parameters	-4999
▁communities	-5000
▁auth	-5001
▁rörelse	-5002
ernas	-5003
energ	-5004
▁total	-5005
▁enzy	-5006
▁professional	-5007
▁Av	-5008
ST	-5009
▁Här	-5010
▁next	-5011
åd	-5012
▁optical	-5013
ED	-5014
ängd	-5015
idigare	-5016
▁kontinu	-5017
jukdomar	-5018
▁prediction	-5019
▁mRNA	-5020
▁fluid	-5021
▁välfär	-5022
mål	-5023
▁barns	-5024
▁besvara	-5025
▁vatt	-5026
▁gli	-5027
▁kund	-5028
▁instrument	-5029
▁medborg	-5030
▁objective	-5031
▁Multi	-5032
▁Cancer	-5033
▁kvantita	-5034
▁spridning	-5035
▁individuella	-5036
typer	-5037
▁phenomena	-5038
förhållanden	-5039
▁specifically	-5040
▁arv	-5041
▁ökande	-5042
▁recogni	-5043
ding	-5044
inska	-5045
▁reglering	-5046
▁successful	-5047
▁tillräckligt	-5048
▁utgångspunkt	-5049
▁writ	-5050
▁comparative	-5051
urope	-5052
gå	-5053
▁sal	-5054
▁dokument	-5055
▁kognitiv	-5056
kör	-5057
▁tan	-5058
arnas	-5059
▁motstånd	-5060
▁transcript	-5061
▁föreslår	-5062
eti	-5063
ished	-5064
▁analyse	-5065
▁förhindra	-5066
▁skapas	-5067
▁PI	-5068
inne	-5069
cka	-5070
▁designed	-5071
▁societal	-5072
▁attention	-5073
▁ultim	-5074
▁contexts	-5075
▁lägre	-5076
▁construct	-5077
ging	-5078
▁gut	-5079
onial	-5080
▁Here	-5081
▁reda	-5082
▁allvarliga	-5083
▁miner	-5084
▁pågående	-5085
▁strength	-5086
▁policies	-5087
▁potentiella	-5088
▁skel	-5089
verkningar	-5090
vetenskapliga	-5091
▁view	-5092
mu	-5093
▁biof	-5094
▁förekommer	-5095
▁behaviour	-5096
rant	-5097
ledes	-5098
mikro	-5099
▁utanför	-5100
▁relaterade	-5101
▁övergång	-5102
▁potentially	-5103
▁characterized	-5104
▁RA	-5105
▁isot	-5106
▁krav	-5107
mitt	-5108
▁överlevnad	-5109
▁cour	-5110
▁turn	-5111
centration	-5112
äkt	-5113
▁promising	-5114
▁patienterna	-5115
▁smärta	-5116
▁mechanical	-5117
▁lyck	-5118
▁viol	-5119
urity	-5120
▁hade	-5121
▁candid	-5122
▁således	-5123
vak	-5124
▁certain	-5125
licit	-5126
▁interagerar	-5127
▁kn	-5128
▁nanom	-5129
19	-5130
▁cur	-5131
▁prosp	-5132
induced	-5133
OM	-5134
juka	-5135
▁Pol	-5136
▁halv	-5137
▁framsteg	-5138
▁sjukvård	-5139
▁optimization	-5140
lad	-5141
▁reach	-5142
▁expect	-5143
▁avancerad	-5144
ides	-5145
▁värd	-5146
▁Utveckl	-5147
aka	-5148
▁approxim	-5149
ilosoph	-5150
utbildning	-5151
▁AM	-5152
▁ST	-5153
▁landsc	-5154
orden	-5155
▁Nan	-5156
▁långt	-5157
assa	-5158
▁slump	-5159
▁växande	-5160
▁berätt	-5161
ikaliska	-5162
▁signals	-5163
▁lö	-5164
itets	-5165
▁traditionella	-5166
raf	-5167
läggning	-5168
organismer	-5169
skri	-5170
▁fu	-5171
▁possib	-5172
igen	-5173
▁concepts	-5174
▁electronic	-5175
▁du	-5176
itiz	-5177
visar	-5178
▁kirur	-5179
romagne	-5180
▁träning	-5181
emi	-5182
göra	-5183
kol	-5184
▁våg	-5185
▁software	-5186
▁chrom	-5187
eth	-5188
aster	-5189
▁komplic	-5190
OC	-5191
ymnas	-5192
vävnad	-5193
▁manif	-5194
▁whole	-5195
▁underl	-5196
▁graf	-5197
▁sidan	-5198
▁demens	-5199
ellertid	-5200
▁förhållande	-5201
▁prop	-5202
unction	-5203
▁record	-5204
▁symptoms	-5205
▁x	-5206
▁(20	-5207
▁bru	-5208
▁Nord	-5209
▁stär	-5210
▁integrated	-5211
bur	-5212
rän	-5213
▁ämnes	-5214
▁liksom	-5215
▁computer	-5216
▁bedö	-5217
ochond	-5218
▁nam	-5219
▁opti	-5220
▁Slutligen	-5221
DNA	-5222
▁göras	-5223
▁finans	-5224
▁mutationer	-5225
though	-5226
▁Vilka	-5227
▁symtom	-5228
▁rygg	-5229
▁explo	-5230
▁multid	-5231
▁kronisk	-5232
▁High	-5233
▁följd	-5234
▁planet	-5235
▁underliggande	-5236
▁äg	-5237
▁numerical	-5238
tryck	-5239
elfare	-5240
▁engag	-5241
▁signaler	-5242
ktor	-5243
▁verif	-5244
▁ann	-5245
▁belysa	-5246
cean	-5247
▁dram	-5248
▁akadem	-5249
sområden	-5250
▁architect	-5251
▁representation	-5252
▁maskininlärning	-5253
▁liten	-5254
▁antingen	-5255
regl	-5256
▁ämnar	-5257
▁socialt	-5258
sala	-5259
▁människors	-5260
▁enbart	-5261
▁neurolog	-5262
▁Projektets	-5263
ionen	-5264
pr	-5265
▁deltagande	-5266
ented	-5267
oding	-5268
issions	-5269
▁pil	-5270
▁metaboli	-5271
mph	-5272
char	-5273
sliga	-5274
▁acqu	-5275
▁1.	-5276
▁civil	-5277
emistry	-5278
▁remain	-5279
▁ed	-5280
▁ses	-5281
▁uncertain	-5282
▁TB	-5283
skor	-5284
▁legal	-5285
▁injury	-5286
▁metoden	-5287
odynam	-5288
▁diverse	-5289
▁causes	-5290
▁investigation	-5291
▁relationships	-5292
▁coun	-5293
▁betra	-5294
▁pande	-5295
▁aktuella	-5296
▁background	-5297
SD	-5298
▁Second	-5299
▁baserad	-5300
2,	-5301
▁bästa	-5302
▁Int	-5303
anpass	-5304
▁consist	-5305
▁HIV	-5306
▁lat	-5307
▁perspectives	-5308
▁roles	-5309
indust	-5310
▁search	-5311
omp	-5312
▁And	-5313
su	-5314
▁Op	-5315
▁symmet	-5316
▁förstär	-5317
▁autoimmun	-5318
▁difficult	-5319
▁Tra	-5320
▁kunde	-5321
▁century	-5322
▁processen	-5323
▁parts	-5324
▁multim	-5325
▁administ	-5326
▁parallel	-5327
unkter	-5328
▁genomföras	-5329
▁mutations	-5330
språk	-5331
▁tekniska	-5332
rix	-5333
vägar	-5334
▁preval	-5335
▁psykisk	-5336
ouse	-5337
▁2.	-5338
lösning	-5339
ningsvis	-5340
▁good	-5341
▁oste	-5342
umption	-5343
uttryck	-5344
▁Identif	-5345
▁services	-5346
▁industrial	-5347
▁Sta	-5348
ignal	-5349
▁fetma	-5350
▁On	-5351
▁biodi	-5352
▁ökade	-5353
▁extensive	-5354
▁grunden	-5355
BT	-5356
ening	-5357
light	-5358
▁rehab	-5359
Genom	-5360
▁simulation	-5361
▁hol	-5362
ieras	-5363
linear	-5364
▁Micro	-5365
bund	-5366
verg	-5367
▁Health	-5368
sprocessen	-5369
▁discovery	-5370
asta	-5371
▁substr	-5372
▁goals	-5373
▁growing	-5374
sikt	-5375
biota	-5376
ysical	-5377
linical	-5378
▁decenn	-5379
▁contribution	-5380
▁mag	-5381
▁ves	-5382
▁exer	-5383
kap	-5384
tera	-5385
▁naturen	-5386
mat	-5387
▁ög	-5388
▁rem	-5389
▁meaning	-5390
▁gå	-5391
▁lys	-5392
ierade	-5393
itation	-5394
▁famili	-5395
uge	-5396
ield	-5397
ancing	-5398
▁rates	-5399
▁tyder	-5400
EN	-5401
okond	-5402
ställning	-5403
strukturer	-5404
▁förutsäg	-5405
▁upplevel	-5406
▁allows	-5407
▁breast	-5408
▁elements	-5409
kal	-5410
▁resistens	-5411
▁practical	-5412
▁nanost	-5413
dant	-5414
▁Immun	-5415
▁basic	-5416
vationer	-5417
▁gyn	-5418
ciples	-5419
▁livss	-5420
▁academic	-5421
▁offentliga	-5422
▁rele	-5423
elektron	-5424
▁försöka	-5425
▁mathematics	-5426
▁öv	-5427
vements	-5428
▁kontrollera	-5429
▁collection	-5430
▁PC	-5431
▁Dis	-5432
kän	-5433
▁Gene	-5434
▁reglerar	-5435
▁säkerhet	-5436
▁shap	-5437
jänster	-5438
▁meth	-5439
itable	-5440
▁projects	-5441
▁osäker	-5442
▁dysfunction	-5443
iction	-5444
ås	-5445
▁jour	-5446
diagnos	-5447
▁skador	-5448
▁röntgen	-5449
öden	-5450
▁vars	-5451
▁förny	-5452
▁indi	-5453
▁utbildnings	-5454
Sy	-5455
▁migran	-5456
▁traditional	-5457
undervis	-5458
▁obesity	-5459
▁contributes	-5460
▁bir	-5461
▁elevers	-5462
▁neurons	-5463
▁directly	-5464
▁identity	-5465
sprocesser	-5466
▁undersökningar	-5467
OR	-5468
ancers	-5469
▁tor	-5470
▁formal	-5471
▁kroppens	-5472
has	-5473
▁genus	-5474
jort	-5475
▁aging	-5476
▁försök	-5477
▁regulatory	-5478
▁significance	-5479
tide	-5480
▁faktor	-5481
▁koncept	-5482
▁Model	-5483
▁expand	-5484
▁Uppsala	-5485
▁beräkning	-5486
▁largely	-5487
▁microbial	-5488
ng	-5489
punkt	-5490
▁potentiellt	-5491
▁law	-5492
förlopp	-5493
ructure	-5494
▁snabba	-5495
▁ecological	-5496
ordin	-5497
ventional	-5498
▁emerging	-5499
▁17	-5500
▁heart	-5501
konstru	-5502
▁ohälsa	-5503
▁traum	-5504
▁mes	-5505
▁mixed	-5506
delning	-5507
▁instit	-5508
smode	-5509
ted	-5510
gefär	-5511
tiker	-5512
▁beräkningar	-5513
Hz	-5514
recept	-5515
▁patienten	-5516
▁snabbare	-5517
▁line	-5518
▁particle	-5519
▁bin	-5520
▁års	-5521
▁elucidate	-5522
▁saf	-5523
▁epigenetic	-5524
versitet	-5525
▁radio	-5526
▁monitoring	-5527
▁organisationer	-5528
▁ers	-5529
▁inequ	-5530
bor	-5531
eget	-5532
▁later	-5533
▁platser	-5534
▁tillförlit	-5535
▁tests	-5536
ulf	-5537
▁kin	-5538
erades	-5539
▁rät	-5540
▁krig	-5541
▁synner	-5542
To	-5543
▁syntes	-5544
nera	-5545
ament	-5546
▁algoritmer	-5547
▁enda	-5548
thet	-5549
virus	-5550
utvecklingen	-5551
▁värme	-5552
1)	-5553
Vår	-5554
reak	-5555
▁händer	-5556
▁transk	-5557
▁mechanistic	-5558
nit	-5559
osm	-5560
▁fysi	-5561
▁livskvalitet	-5562
▁Idag	-5563
▁upprätt	-5564
▁generated	-5565
▁relevance	-5566
ming	-5567
icacy	-5568
▁regional	-5569
▁technique	-5570
uvida	-5571
▁evol	-5572
cience	-5573
▁values	-5574
▁livsm	-5575
▁baseras	-5576
▁image	-5577
▁evaluated	-5578
▁rapporter	-5579
▁aktiviteter	-5580
▁participation	-5581
▁utsläpp	-5582
▁core	-5583
▁binder	-5584
▁behandlas	-5585
▁trig	-5586
▁called	-5587
erosol	-5588
▁shape	-5589
bol	-5590
kohol	-5591
lerosis	-5592
▁delivery	-5593
▁kulturella	-5594
pled	-5595
MD	-5596
tice	-5597
▁mainly	-5598
▁kostnader	-5599
på	-5600
ritis	-5601
tives	-5602
▁arbetsmark	-5603
▁translation	-5604
ocal	-5605
take	-5606
skild	-5607
▁nord	-5608
▁MR	-5609
cover	-5610
▁Lund	-5611
▁lingu	-5612
▁occur	-5613
acka	-5614
▁Tidigare	-5615
▁sediment	-5616
▁undersökas	-5617
▁Le	-5618
arily	-5619
kraft	-5620
OL	-5621
ector	-5622
▁feedback	-5623
▁dynamiska	-5624
varo	-5625
▁andel	-5626
▁kanske	-5627
liminära	-5628
dimensional	-5629
▁contin	-5630
▁obtained	-5631
▁våld	-5632
ledning	-5633
▁adults	-5634
▁prover	-5635
fin	-5636
▁kod	-5637
▁pul	-5638
▁resili	-5639
▁förskol	-5640
rog	-5641
▁ideal	-5642
▁atmosfären	-5643
ereb	-5644
proteiner	-5645
▁skillnad	-5646
▁identifying	-5647
▁Study	-5648
▁elektriska	-5649
fas	-5650
▁30	-5651
ward	-5652
utism	-5653
▁högt	-5654
ferens	-5655
▁sådant	-5656
▁adi	-5657
▁frag	-5658
▁preliminary	-5659
▁riskfaktorer	-5660
iella	-5661
making	-5662
▁along	-5663
▁intelligens	-5664
styr	-5665
▁Vis	-5666
▁rym	-5667
skriv	-5668
▁synte	-5669
▁damage	-5670
▁industry	-5671
economic	-5672
▁arbetet	-5673
▁convers	-5674
▁reaction	-5675
▁complexity	-5676
▁cancerceller	-5677
cip	-5678
▁makt	-5679
▁delvis	-5680
▁jorden	-5681
▁subject	-5682
▁increasingly	-5683
▁morph	-5684
▁considered	-5685
▁biok	-5686
▁brott	-5687
hav	-5688
▁deg	-5689
skador	-5690
▁femin	-5691
▁kvä	-5692
amman	-5693
▁insp	-5694
▁gymnas	-5695
▁induced	-5696
utbild	-5697
▁driver	-5698
▁inrikt	-5699
▁programs	-5700
mas	-5701
vik	-5702
▁religion	-5703
other	-5704
▁Dig	-5705
teras	-5706
▁prob	-5707
▁enkelt	-5708
▁blodpro	-5709
▁förmågan	-5710
▁internationellt	-5711
skade	-5712
▁bring	-5713
PV	-5714
▁hind	-5715
▁medicinska	-5716
▁minor	-5717
▁organisation	-5718
▁aud	-5719
▁necessary	-5720
Cs	-5721
▁AT	-5722
oxic	-5723
▁ges	-5724
erativa	-5725
bal	-5726
way	-5727
ecting	-5728
problem	-5729
▁konkurr	-5730
sättningen	-5731
▁12	-5732
▁analytical	-5733
▁ibland	-5734
▁tested	-5735
▁operation	-5736
echn	-5737
lekt	-5738
▁might	-5739
▁Moreover	-5740
▁applicant	-5741
bör	-5742
urb	-5743
aling	-5744
▁gånger	-5745
lands	-5746
ameter	-5747
▁close	-5748
▁degrad	-5749
▁consists	-5750
▁snar	-5751
4)	-5752
▁Org	-5753
▁building	-5754
▁uppgifter	-5755
▁vävnader	-5756
▁mun	-5757
▁consid	-5758
▁försöker	-5759
RIS	-5760
ymf	-5761
stör	-5762
▁USA	-5763
▁Sh	-5764
▁agen	-5765
▁enligt	-5766
▁analyzed	-5767
▁observed	-5768
▁ske	-5769
▁exter	-5770
▁describe	-5771
▁samhällen	-5772
▁befintliga	-5773
▁randomized	-5774
▁sus	-5775
entala	-5776
▁projektets	-5777
▁biverkningar	-5778
nipp	-5779
▁pathway	-5780
▁argument	-5781
▁prestanda	-5782
bbar	-5783
▁free	-5784
▁insatser	-5785
kv	-5786
VID	-5787
▁reduced	-5788
▁paradigm	-5789
▁identitet	-5790
dem	-5791
▁tänk	-5792
▁sites	-5793
▁kombinerar	-5794
SS	-5795
iness	-5796
▁recom	-5797
▁Sådana	-5798
abilities	-5799
▁neuronal	-5800
▁opportunities	-5801
aves	-5802
▁cover	-5803
▁blodet	-5804
▁skills	-5805
▁frekvens	-5806
▁ojäm	-5807
▁writing	-5808
plantation	-5809
ager	-5810
▁suff	-5811
▁reform	-5812
▁tillhör	-5813
▁liqu	-5814
▁filosof	-5815
▁mängden	-5816
undersö	-5817
▁Specific	-5818
▁alternative	-5819
▁inflammatoriska	-5820
vatten	-5821
▁upplev	-5822
▁mått	-5823
▁vaccin	-5824
▁användningen	-5825
▁efforts	-5826
▁focused	-5827
▁praktiker	-5828
▁antim	-5829
▁promote	-5830
ctive	-5831
▁impacts	-5832
▁förekommande	-5833
strål	-5834
▁publ	-5835
▁third	-5836
▁plants	-5837
▁storage	-5838
▁erbjuder	-5839
1.	-5840
▁Ty	-5841
ison	-5842
orpor	-5843
▁globalt	-5844
▁traits	-5845
▁extremt	-5846
▁blodkärl	-5847
▁facilitate	-5848
▁söm	-5849
▁vascular	-5850
▁Therefore	-5851
itekt	-5852
▁hard	-5853
▁resource	-5854
▁tillverka	-5855
▁198	-5856
▁acid	-5857
▁låga	-5858
▁reaktion	-5859
▁substanti	-5860
▁starka	-5861
▁No	-5862
ategor	-5863
▁veget	-5864
▁oftast	-5865
▁Through	-5866
▁selected	-5867
▁prepar	-5868
▁welfare	-5869
▁preschool	-5870
▁amo	-5871
▁musik	-5872
▁compare	-5873
▁produced	-5874
we	-5875
etal	-5876
▁First	-5877
▁levande	-5878
▁pilot	-5879
▁nästa	-5880
▁bearbet	-5881
▁kemikal	-5882
▁resulting	-5883
▁own	-5884
▁synap	-5885
▁mjuk	-5886
▁makes	-5887
▁enheter	-5888
▁philosoph	-5889
▁kontinuer	-5890
▁antikroppar	-5891
30	-5892
▁Fr	-5893
▁ze	-5894
aries	-5895
▁virt	-5896
▁Protein	-5897
▁politisk	-5898
▁rörelser	-5899
▁organization	-5900
▁sn	-5901
seffektiv	-5902
▁pröv	-5903
▁därigenom	-5904
rats	-5905
udes	-5906
▁197	-5907
▁tail	-5908
▁microbi	-5909
▁bröstcancer	-5910
De	-5911
erier	-5912
▁regener	-5913
▁ungdomar	-5914
▁naturligt	-5915
▁skolor	-5916
▁ongoing	-5917
▁followed	-5918
▁failure	-5919
rika	-5920
bygga	-5921
▁Cent	-5922
▁glyc	-5923
användning	-5924
oration	-5925
▁required	-5926
▁Inte	-5927
ökan	-5928
▁alltid	-5929
▁planned	-5930
▁huruvida	-5931
▁strukturen	-5932
fattar	-5933
▁hab	-5934
▁bevis	-5935
▁fisk	-5936
▁fluores	-5937
oreningar	-5938
▁involves	-5939
▁ice	-5940
▁Such	-5941
vision	-5942
▁stamceller	-5943
▁förekomsten	-5944
▁participants	-5945
jupa	-5946
▁bildar	-5947
▁aggress	-5948
AB	-5949
▁decre	-5950
▁green	-5951
▁recru	-5952
beroende	-5953
▁vulnera	-5954
▁conceptual	-5955
▁styra	-5956
▁expans	-5957
▁korrel	-5958
▁density	-5959
▁komplet	-5960
skada	-5961
EL	-5962
▁lif	-5963
▁muse	-5964
▁känner	-5965
▁djupare	-5966
▁solution	-5967
▁temporal	-5968
ints	-5969
▁inters	-5970
▁religi	-5971
▁uppvisar	-5972
▁långsiktiga	-5973
▁anses	-5974
▁drabbar	-5975
▁långvar	-5976
set	-5977
▁Se	-5978
komst	-5979
▁/	-5980
omy	-5981
▁citiz	-5982
▁though	-5983
vande	-5984
▁elektroner	-5985
▁stabilitet	-5986
▁investigating	-5987
▁CD	-5988
▁liver	-5989
▁kritiska	-5990
▁music	-5991
▁define	-5992
▁principles	-5993
▁pregn	-5994
▁döds	-5995
▁arbeta	-5996
▁proced	-5997
▁animals	-5998
▁följande	-5999
▁sustainability	-6000
band	-6001
rang	-6002
▁svara	-6003
▁diskuss	-6004
▁specifik	-6005
ften	-6006
▁war	-6007
design	-6008
▁peptid	-6009
▁Material	-6010
sätts	-6011
▁prec	-6012
▁kostnad	-6013
▁strategi	-6014
ckor	-6015
kton	-6016
▁skin	-6017
▁utred	-6018
▁försvar	-6019
▁beta	-6020
▁tasks	-6021
häls	-6022
enhet	-6023
▁living	-6024
räddar	-6025
▁report	-6026
▁dynamik	-6027
▁reading	-6028
▁condition	-6029
▁cirk	-6030
▁ifrån	-6031
▁older	-6032
nda	-6033
associ	-6034
ceived	-6035
▁immunförsvaret	-6036
▁livsl	-6037
ultural	-6038
bri	-6039
remot	-6040
▁upon	-6041
▁socioekonom	-6042
rimin	-6043
acitet	-6044
▁händelser	-6045
lif	-6046
tum	-6047
ällor	-6048
▁ingår	-6049
jö	-6050
▁tillb	-6051
▁interplay	-6052
▁erfarenhet	-6053
▁down	-6054
▁långa	-6055
▁16	-6056
emål	-6057
▁parents	-6058
▁challenging	-6059
▁situationer	-6060
rot	-6061
hand	-6062
▁Human	-6063
▁either	-6064
▁lösning	-6065
▁kommunic	-6066
entia	-6067
▁here	-6068
▁innovation	-6069
▁Understanding	-6070
▁receptors	-6071
läk	-6072
▁cirka	-6073
▁Dä	-6074
lling	-6075
▁Fram	-6076
▁months	-6077
▁mikroskop	-6078
molekyler	-6079
▁intressanta	-6080
▁decades	-6081
▁statistiska	-6082
▁viral	-6083
▁beteenden	-6084
▁aktiv	-6085
▁mitokond	-6086
▁nämligen	-6087
▁’	-6088
▁Då	-6089
▁bill	-6090
▁clos	-6091
processer	-6092
▁accurate	-6093
▁landskap	-6094
▁modellen	-6095
▁transmission	-6096
▁ADHD	-6097
istisk	-6098
▁benefit	-6099
▁constrain	-6100
▁enzymes	-6101
▁biologisk	-6102
▁institutions	-6103
eds	-6104
▁allerg	-6105
chemical	-6106
▁changing	-6107
▁laboratory	-6108
drag	-6109
odal	-6110
▁krom	-6111
▁tillverkning	-6112
iral	-6113
resultat	-6114
▁överför	-6115
▁immig	-6116
▁kunnat	-6117
▁komplikationer	-6118
cise	-6119
▁Lear	-6120
▁intend	-6121
▁geometry	-6122
▁pressure	-6123
ON	-6124
active	-6125
▁association	-6126
ånd	-6127
being	-6128
▁sample	-6129
▁nuclear	-6130
▁livsstil	-6131
▁improving	-6132
▁resurs	-6133
▁hjälper	-6134
▁mitochond	-6135
▁mikroorganismer	-6136
▁costs	-6137
gruppen	-6138
▁positiva	-6139
▁produceras	-6140
ectivity	-6141
▁villkor	-6142
▁gemensam	-6143
Stud	-6144
▁gäll	-6145
▁varierar	-6146
▁teoretisk	-6147
▁une	-6148
Syftet	-6149
▁utgår	-6150
centr	-6151
thers	-6152
▁krets	-6153
▁plattform	-6154
▁synnerhet	-6155
▁universum	-6156
▁cou	-6157
▁Elect	-6158
▁normala	-6159
▁settings	-6160
▁ecosystems	-6161
▁milit	-6162
▁binding	-6163
▁video	-6164
▁maintain	-6165
▁discourse	-6166
▁lymf	-6167
ultane	-6168
▁answer	-6169
▁tj	-6170
ovsk	-6171
▁cycle	-6172
▁oxygen	-6173
▁förknipp	-6174
room	-6175
ug	-6176
uments	-6177
▁incid	-6178
▁effektivitet	-6179
skat	-6180
▁decisions	-6181
värm	-6182
▁Mer	-6183
▁minskad	-6184
▁subjects	-6185
oment	-6186
▁equations	-6187
födda	-6188
▁detaljerad	-6189
inos	-6190
svar	-6191
▁mid	-6192
▁cris	-6193
▁järn	-6194
▁maxim	-6195
▁Si	-6196
▁kristall	-6197
▁implemented	-6198
▁ori	-6199
▁betrakt	-6200
▁kine	-6201
▁document	-6202
▁hållbara	-6203
▁immunceller	-6204
ista	-6205
pital	-6206
▁hjärna	-6207
▁likely	-6208
▁sensitivity	-6209
osens	-6210
▁matrix	-6211
▁förebyggande	-6212
medel	-6213
▁politics	-6214
omic	-6215
▁kväve	-6216
▁kemisk	-6217
▁förebygga	-6218
▁komponent	-6219
▁tä	-6220
▁sjukhus	-6221
▁3-	-6222
▁safety	-6223
loud	-6224
teori	-6225
▁2020	-6226
attering	-6227
mers	-6228
▁dos	-6229
▁flöd	-6230
▁arvsm	-6231
▁anpassa	-6232
▁omfattar	-6233
▁informations	-6234
utes	-6235
▁insight	-6236
▁korrekt	-6237
▁pharmac	-6238
28	-6239
▁Glob	-6240
aktivitet	-6241
▁regel	-6242
mässiga	-6243
▁communic	-6244
▁välbe	-6245
▁faktiskt	-6246
bit	-6247
▁course	-6248
▁genomic	-6249
▁presence	-6250
▁2-	-6251
rade	-6252
▁ytt	-6253
brist	-6254
olkning	-6255
▁band	-6256
▁svarar	-6257
▁alkohol	-6258
fram	-6259
▁Ass	-6260
▁ear	-6261
▁ytan	-6262
▁adaptive	-6263
stående	-6264
▁funktionen	-6265
RA	-6266
▁bränsl	-6267
▁rights	-6268
▁aerosol	-6269
▁studenter	-6270
ior	-6271
tire	-6272
▁landscape	-6273
▁investigates	-6274
hods	-6275
ysik	-6276
▁fakt	-6277
▁spinn	-6278
▁texter	-6279
▁uppfölj	-6280
PA	-6281
steori	-6282
▁värden	-6283
icial	-6284
▁rekom	-6285
▁respond	-6286
ense	-6287
thus	-6288
▁gram	-6289
▁Bio	-6290
1-	-6291
ses	-6292
depth	-6293
ieties	-6294
▁hinder	-6295
▁inga	-6296
▁europe	-6297
▁artificial	-6298
▁producerar	-6299
▁framförallt	-6300
▁yta	-6301
▁kommunika	-6302
diga	-6303
linjer	-6304
▁skada	-6305
FT	-6306
emed	-6307
▁196	-6308
▁radiation	-6309
▁SC	-6310
▁ång	-6311
arter	-6312
▁impair	-6313
▁efficacy	-6314
pheric	-6315
▁öppna	-6316
▁Learning	-6317
▁samspelet	-6318
▁ideas	-6319
▁MRI	-6320
▁valu	-6321
▁applikationer	-6322
▁sammansättning	-6323
▁diskuter	-6324
▁institutional	-6325
ibr	-6326
▁idéer	-6327
▁planning	-6328
oton	-6329
uber	-6330
områden	-6331
partiklar	-6332
▁sjö	-6333
▁förhopp	-6334
▁seman	-6335
smekanismer	-6336
fac	-6337
▁movement	-6338
▁uppmärksamhet	-6339
▁dest	-6340
▁kännet	-6341
▁50	-6342
▁ap	-6343
▁ste	-6344
▁transformation	-6345
▁Earth	-6346
environ	-6347
▁värder	-6348
▁skräddar	-6349
▁clear	-6350
ove	-6351
rich	-6352
▁must	-6353
▁mynd	-6354
iteter	-6355
sproblem	-6356
uts	-6357
▁If	-6358
▁ax	-6359
värr	-6360
▁svag	-6361
▁tissues	-6362
▁differentiation	-6363
▁Nu	-6364
▁sat	-6365
▁2018	-6366
▁bilda	-6367
▁utbred	-6368
▁noggrann	-6369
▁positive	-6370
▁variants	-6371
ectiveness	-6372
▁don	-6373
▁texts	-6374
▁infekt	-6375
▁emellertid	-6376
▁terapeutiska	-6377
ström	-6378
▁want	-6379
▁Sveriges	-6380
▁heterogen	-6381
▁Dock	-6382
▁fiber	-6383
▁mol	-6384
likhet	-6385
▁embry	-6386
▁packa	-6387
▁rättigheter	-6388
abric	-6389
▁haft	-6390
▁lower	-6391
▁schol	-6392
ektions	-6393
▁amp	-6394
▁adop	-6395
ient	-6396
invas	-6397
▁ir	-6398
länd	-6399
estic	-6400
▁normer	-6401
▁behovet	-6402
▁myel	-6403
urrent	-6404
▁fully	-6405
▁fossil	-6406
▁partikel	-6407
verktyg	-6408
▁spaces	-6409
▁intressant	-6410
▁Development	-6411
CM	-6412
▁kvantif	-6413
kod	-6414
▁risks	-6415
▁democratic	-6416
▁Kon	-6417
▁poorly	-6418
▁scales	-6419
▁samtida	-6420
▁kraftigt	-6421
olekyl	-6422
▁others	-6423
iseringen	-6424
▁optimera	-6425
▁II	-6426
▁regist	-6427
elial	-6428
estinal	-6429
▁norms	-6430
▁hållbarhet	-6431
inflammation	-6432
▁useful	-6433
ified	-6434
▁incorpor	-6435
▁urval	-6436
▁problemet	-6437
rö	-6438
▁elev	-6439
▁circu	-6440
eroende	-6441
▁stödja	-6442
▁microbiota	-6443
▁lign	-6444
▁cellens	-6445
▁lymph	-6446
▁undvika	-6447
ologically	-6448
▁rek	-6449
▁hus	-6450
▁goda	-6451
▁cohorts	-6452
▁optiska	-6453
▁everyday	-6454
rym	-6455
▁Bar	-6456
▁tolk	-6457
rometry	-6458
▁ungefär	-6459
▁mekaniska	-6460
handa	-6461
▁meet	-6462
rins	-6463
▁involverade	-6464
▁stable	-6465
imulering	-6466
▁emission	-6467
▁produkter	-6468
▁complications	-6469
speri	-6470
▁attra	-6471
▁longitudin	-6472
▁tus	-6473
▁coup	-6474
▁Patient	-6475
▁intensiv	-6476
▁cellulära	-6477
▁kal	-6478
umtion	-6479
▁Arctic	-6480
rical	-6481
scopic	-6482
▁negative	-6483
▁tillbaka	-6484
▁physiological	-6485
gt	-6486
vent	-6487
likation	-6488
▁spread	-6489
▁Internet	-6490
▁nanopartiklar	-6491
avig	-6492
fullt	-6493
▁explored	-6494
▁fysikaliska	-6495
▁Biom	-6496
▁strukturella	-6497
▁Af	-6498
▁Per	-6499
▁säk	-6500
▁mänsklig	-6501
▁gjorts	-6502
▁computing	-6503
▁governance	-6504
kall	-6505
▁lett	-6506
▁side	-6507
▁During	-6508
▁hjärts	-6509
▁rather	-6510
▁skydda	-6511
ätter	-6512
genskaper	-6513
psis	-6514
▁App	-6515
oelect	-6516
▁enorm	-6517
▁ledande	-6518
▁sambandet	-6519
▁organizations	-6520
kad	-6521
▁Bal	-6522
▁störningar	-6523
CH	-6524
omik	-6525
▁muc	-6526
▁spår	-6527
▁betyder	-6528
▁NK	-6529
table	-6530
▁bedöma	-6531
▁regioner	-6532
hold	-6533
ärare	-6534
CD	-6535
dhet	-6536
odes	-6537
▁five	-6538
itektur	-6539
▁malign	-6540
▁teorin	-6541
▁väs	-6542
▁COVID	-6543
▁mineral	-6544
▁tryck	-6545
▁responsible	-6546
öde	-6547
▁rib	-6548
▁families	-6549
▁kliniskt	-6550
kärlsjukdom	-6551
▁artificiell	-6552
▁observation	-6553
▁sömn	-6554
▁Instit	-6555
▁upplever	-6556
▁empiriska	-6557
RISPR	-6558
▁gluc	-6559
▁samla	-6560
▁enabling	-6561
oman	-6562
▁flertal	-6563
▁requires	-6564
▁Parkinson	-6565
▁medicinsk	-6566
▁internationell	-6567
fta	-6568
anna	-6569
▁gre	-6570
EG	-6571
▁ytor	-6572
▁series	-6573
▁joint	-6574
▁caused	-6575
▁vetenskaplig	-6576
MA	-6577
▁25	-6578
▁biodiversity	-6579
esign	-6580
icles	-6581
▁betydligt	-6582
▁tillhanda	-6583
▁sjukvården	-6584
▁Ge	-6585
istem	-6586
atorisk	-6587
▁undersökt	-6588
▁tax	-6589
gitim	-6590
throp	-6591
▁Educ	-6592
▁försk	-6593
▁times	-6594
1,	-6595
▁4-	-6596
▁assist	-6597
▁gravit	-6598
▁predik	-6599
▁cancers	-6600
▁växthus	-6601
▁controls	-6602
▁substanser	-6603
▁possibility	-6604
isel	-6605
usions	-6606
▁agents	-6607
▁tumors	-6608
▁alltmer	-6609
▁vävnads	-6610
▁diagnostics	-6611
▁Kom	-6612
▁uppskatt	-6613
▁föreningar	-6614
▁relationen	-6615
pris	-6616
sför	-6617
▁Mode	-6618
▁ekonomisk	-6619
orld	-6620
▁tom	-6621
skraft	-6622
skapande	-6623
▁funktionsned	-6624
orin	-6625
ogens	-6626
▁ocean	-6627
▁author	-6628
▁surfaces	-6629
▁snarare	-6630
▁världens	-6631
▁parametrar	-6632
▁Sur	-6633
▁jud	-6634
ohort	-6635
▁had	-6636
fre	-6637
▁ham	-6638
opath	-6639
satt	-6640
▁inre	-6641
▁Dynam	-6642
For	-6643
▁mamm	-6644
▁enkla	-6645
▁indik	-6646
▁början	-6647
orbidity	-6648
▁products	-6649
▁simultane	-6650
CS	-6651
▁bäst	-6652
▁engel	-6653
▁infly	-6654
vetenskaplig	-6655
▁populationer	-6656
MI	-6657
▁Ul	-6658
▁fertili	-6659
▁determin	-6660
ena	-6661
eman	-6662
samma	-6663
▁vare	-6664
▁kardi	-6665
duktion	-6666
▁stimul	-6667
▁allmänhet	-6668
▁involving	-6669
leep	-6670
▁causal	-6671
ktivitet	-6672
ticip	-6673
▁fallet	-6674
▁väsent	-6675
▁internet	-6676
ckt	-6677
eln	-6678
▁shar	-6679
oplas	-6680
▁chann	-6681
Vs	-6682
imp	-6683
fully	-6684
▁memb	-6685
ording	-6686
▁legitim	-6687
▁Parkinsons	-6688
15	-6689
▁konvention	-6690
▁generations	-6691
▁tillgänglig	-6692
ättningen	-6693
▁Although	-6694
18	-6695
▁kemikalier	-6696
ince	-6697
▁Dem	-6698
▁skydd	-6699
▁poly	-6700
▁excit	-6701
▁opportunity	-6702
▁mör	-6703
▁Forskningen	-6704
▁possibilities	-6705
lia	-6706
▁växer	-6707
▁källor	-6708
▁immunity	-6709
▁attack	-6710
▁uncover	-6711
▁tillämpning	-6712
▁Am	-6713
▁fill	-6714
▁issue	-6715
▁appear	-6716
▁förläng	-6717
eknik	-6718
▁Coll	-6719
tively	-6720
▁violence	-6721
▁IL	-6722
skilj	-6723
▁mottag	-6724
▁sepsis	-6725
atalysis	-6726
riptions	-6727
▁teoretiskt	-6728
▁2019	-6729
▁seen	-6730
itness	-6731
▁ansökan	-6732
▁Molecular	-6733
▁nedbrytning	-6734
▁adult	-6735
gerande	-6736
▁materia	-6737
▁security	-6738
▁conventional	-6739
▁sum	-6740
▁contain	-6741
▁biob	-6742
ndersö	-6743
▁fördjup	-6744
▁citizens	-6745
när	-6746
▁cereb	-6747
▁leads	-6748
vakning	-6749
▁Kunskap	-6750
▁orsaken	-6751
▁consumption	-6752
livet	-6753
▁epile	-6754
not	-6755
▁dör	-6756
▁feas	-6757
▁mitt	-6758
▁psykiat	-6759
▁thermal	-6760
▁dementia	-6761
ylation	-6762
aria	-6763
▁accum	-6764
▁melan	-6765
terande	-6766
▁stages	-6767
▁antig	-6768
▁Digital	-6769
specifika	-6770
▁jordbruk	-6771
▁fat	-6772
▁uses	-6773
nätverk	-6774
▁sensing	-6775
hem	-6776
plac	-6777
▁sup	-6778
▁2016	-6779
koppling	-6780
▁halvled	-6781
▁diffusion	-6782
BD	-6783
mut	-6784
ampar	-6785
▁acute	-6786
TH	-6787
▁fynd	-6788
▁implant	-6789
".	-6790
skikt	-6791
▁shed	-6792
therosc	-6793
▁trials	-6794
▁initial	-6795
▁reagerar	-6796
▁newly	-6797
▁gällande	-6798
▁praktiska	-6799
▁principer	-6800
au	-6801
etydel	-6802
▁CRISPR	-6803
▁Aut	-6804
▁buk	-6805
▁lim	-6806
▁moder	-6807
▁concerning	-6808
rab	-6809
▁kemi	-6810
▁kris	-6811
▁resulterar	-6812
▁bakomliggande	-6813
▁träd	-6814
▁regim	-6815
▁uppvärm	-6816
▁frequency	-6817
▁välbefinn	-6818
▁ii	-6819
▁gjort	-6820
10	-6821
▁emissions	-6822
▁ekologiska	-6823
arder	-6824
▁2000	-6825
▁biog	-6826
▁autism	-6827
operation	-6828
▁begränsade	-6829
dat	-6830
▁smart	-6831
▁vital	-6832
▁bekämp	-6833
▁suitable	-6834
▁representations	-6835
bind	-6836
ämne	-6837
▁utgöra	-6838
▁konflikt	-6839
▁skräddarsy	-6840
point	-6841
SCs	-6842
side	-6843
▁resid	-6844
▁achieved	-6845
MP	-6846
grän	-6847
lösa	-6848
▁web	-6849
scill	-6850
▁navig	-6851
▁primär	-6852
undervisning	-6853
BS	-6854
▁(2	-6855
istens	-6856
▁minnes	-6857
▁concerns	-6858
▁bot	-6859
andel	-6860
▁inlärning	-6861
▁inhibitors	-6862
IP	-6863
önd	-6864
▁Öst	-6865
▁addresses	-6866
ify	-6867
▁medvet	-6868
▁multic	-6869
▁defined	-6870
▁quantify	-6871
ame	-6872
faktor	-6873
delar	-6874
▁shift	-6875
▁dialog	-6876
▁classroom	-6877
▁Typ	-6878
ecken	-6879
atives	-6880
▁think	-6881
▁förlor	-6882
▁setting	-6883
▁identifierat	-6884
entals	-6885
▁atomer	-6886
▁phases	-6887
▁plasticity	-6888
▁kvalitativa	-6889
▁sök	-6890
▁tack	-6891
▁deliver	-6892
▁hydrogen	-6893
▁device	-6894
▁β	-6895
▁distinct	-6896
▁mik	-6897
▁heat	-6898
arming	-6899
beteen	-6900
roskopi	-6901
oids	-6902
edicin	-6903
▁input	-6904
▁contact	-6905
▁närmare	-6906
▁partners	-6907
MRI	-6908
seff	-6909
anism	-6910
▁mapping	-6911
▁demokrati	-6912
nov	-6913
▁Kan	-6914
change	-6915
▁ständ	-6916
ructures	-6917
▁Studier	-6918
ulose	-6919
ysics	-6920
▁guid	-6921
▁börjar	-6922
▁känneteck	-6923
quit	-6924
▁biofil	-6925
▁följer	-6926
▁mobility	-6927
▁antibiotic	-6928
▁soil	-6929
▁söker	-6930
▁praktiken	-6931
amine	-6932
splan	-6933
▁traject	-6934
hes	-6935
lam	-6936
▁AN	-6937
▁gif	-6938
▁flexib	-6939
▁preven	-6940
▁bedömning	-6941
▁described	-6942
▁metoderna	-6943
▁predictive	-6944
▁storskaliga	-6945
mö	-6946
▁bott	-6947
▁stage	-6948
▁capture	-6949
doc	-6950
lys	-6951
braf	-6952
onen	-6953
▁räk	-6954
▁load	-6955
▁okända	-6956
▁predictions	-6957
▁simuleringar	-6958
▁Min	-6959
ticle	-6960
▁oral	-6961
▁contrast	-6962
IR	-6963
ammar	-6964
▁kropps	-6965
▁testas	-6966
▁Climate	-6967
▁jordens	-6968
▁exercise	-6969
▁vanligtvis	-6970
▁Sch	-6971
▁stö	-6972
▁Poli	-6973
▁exploring	-6974
▁sw	-6975
sekvens	-6976
▁organisms	-6977
▁objectives	-6978
most	-6979
hålls	-6980
▁Från	-6981
ocytes	-6982
▁finna	-6983
▁kunskapsl	-6984
▁languages	-6985
▁degradation	-6986
▁föreställningar	-6987
pri	-6988
▁2015	-6989
▁Anti	-6990
▁fusion	-6991
▁Non	-6992
▁linguistic	-6993
▁scattering	-6994
rukt	-6995
▁mas	-6996
stead	-6997
▁images	-6998
▁kvantmek	-6999
rete	-7000
astning	-7001
▁motverka	-7002
▁childhood	-7003
ektivt	-7004
▁final	-7005
▁städer	-7006
icon	-7007
▁glac	-7008
lication	-7009
▁jämförelse	-7010
▁belie	-7011
▁världs	-7012
infektioner	-7013
▁anpassning	-7014
▁They	-7015
▁vården	-7016
▁Studies	-7017
▁objects	-7018
▁genetics	-7019
Att	-7020
RNAs	-7021
ises	-7022
▁Del	-7023
▁familjer	-7024
rh	-7025
deri	-7026
umin	-7027
▁Dec	-7028
retion	-7029
vänts	-7030
▁subs	-7031
▁propag	-7032
▁sa	-7033
▁forest	-7034
▁evidens	-7035
▁utvecklade	-7036
▁manu	-7037
▁unex	-7038
▁becom	-7039
▁begränsningar	-7040
iii	-7041
▁inj	-7042
-202	-7043
icip	-7044
▁säg	-7045
▁Based	-7046
▁aspekt	-7047
▁förloss	-7048
eria	-7049
▁fir	-7050
itive	-7051
▁From	-7052
olinska	-7053
▁balans	-7054
▁avstånd	-7055
▁derived	-7056
▁utföras	-7057
▁complete	-7058
▁worldwide	-7059
pling	-7060
lation	-7061
▁livsmedel	-7062
▁exponering	-7063
▁ena	-7064
▁teknologi	-7065
▁nödvändigt	-7066
fråg	-7067
herent	-7068
▁carry	-7069
▁förstås	-7070
▁verksamhet	-7071
▁skala	-7072
▁driven	-7073
CO	-7074
▁Ext	-7075
▁let	-7076
▁bost	-7077
▁track	-7078
▁använts	-7079
▁members	-7080
▁validated	-7081
hma	-7082
nen	-7083
▁Mal	-7084
▁rise	-7085
▁task	-7086
▁förmed	-7087
brytande	-7088
▁expansion	-7089
död	-7090
pair	-7091
▁charge	-7092
▁proteomics	-7093
IT	-7094
kam	-7095
ålder	-7096
▁macro	-7097
▁terapi	-7098
▁uppbygg	-7099
▁temperaturer	-7100
ktiv	-7101
▁match	-7102
▁avgöra	-7103
▁fluoresc	-7104
▁utvecklings	-7105
yle	-7106
▁3.	-7107
berg	-7108
eper	-7109
best	-7110
▁unikt	-7111
▁larger	-7112
▁ålders	-7113
▁variety	-7114
▁external	-7115
▁translational	-7116
▁känslor	-7117
▁normalt	-7118
▁primarily	-7119
As	-7120
ively	-7121
IL	-7122
tism	-7123
▁bud	-7124
ukary	-7125
▁fragment	-7126
▁motivation	-7127
▁berg	-7128
▁attit	-7129
▁designa	-7130
▁preliminära	-7131
",	-7132
off	-7133
▁measured	-7134
▁gemensamma	-7135
iens	-7136
▁rare	-7137
ometry	-7138
ängder	-7139
steknik	-7140
▁samlas	-7141
▁advances	-7142
▁sannolik	-7143
▁utvärdering	-7144
▁pup	-7145
membran	-7146
gifter	-7147
uration	-7148
▁bioinform	-7149
▁perception	-7150
▁2017	-7151
▁ald	-7152
▁generellt	-7153
▁varianter	-7154
▁Aim	-7155
▁norma	-7156
▁lägg	-7157
abolism	-7158
▁strålning	-7159
3.	-7160
ah	-7161
▁Tw	-7162
▁Mon	-7163
▁anten	-7164
▁sense	-7165
akterier	-7166
▁analyzing	-7167
▁studerats	-7168
▁välbefinnande	-7169
oler	-7170
▁ton	-7171
▁astma	-7172
▁transcription	-7173
opo	-7174
▁kisel	-7175
▁tillämpas	-7176
▁spectrometry	-7177
kring	-7178
ference	-7179
▁electric	-7180
▁literary	-7181
▁förekomst	-7182
▁interface	-7183
▁reduction	-7184
▁ask	-7185
▁wind	-7186
▁enkät	-7187
ierande	-7188
eh	-7189
öp	-7190
nivåer	-7191
▁benefits	-7192
▁stjärnor	-7193
▁personalized	-7194
assan	-7195
ativt	-7196
▁Expl	-7197
▁blev	-7198
▁dödlighet	-7199
▁PET	-7200
▁Alla	-7201
▁birth	-7202
▁konsekvenserna	-7203
vju	-7204
▁adol	-7205
▁försv	-7206
▁föremål	-7207
▁Ob	-7208
▁fjär	-7209
vestig	-7210
▁enter	-7211
▁mening	-7212
tillväxt	-7213
▁validate	-7214
▁investigations	-7215
Hur	-7216
oting	-7217
kultur	-7218
hyd	-7219
akgrund	-7220
▁release	-7221
▁tekniken	-7222
tas	-7223
cing	-7224
sorg	-7225
▁amb	-7226
▁stärka	-7227
▁counter	-7228
▁avsevärt	-7229
iety	-7230
wing	-7231
embly	-7232
water	-7233
▁multif	-7234
▁orient	-7235
tr	-7236
▁Afric	-7237
▁least	-7238
▁erbjuda	-7239
ending	-7240
modellen	-7241
▁innefattar	-7242
▁existerande	-7243
don	-7244
aper	-7245
▁månader	-7246
raled	-7247
tiken	-7248
▁strävar	-7249
situ	-7250
utin	-7251
▁marg	-7252
▁bevar	-7253
▁neutrin	-7254
▁skadliga	-7255
▁uppkomsten	-7256
atik	-7257
▁persist	-7258
▁proteinet	-7259
▁nervsystemet	-7260
infar	-7261
klart	-7262
uracy	-7263
samhäll	-7264
▁hormon	-7265
▁därefter	-7266
▁bestående	-7267
▁Karolinska	-7268
▁behavioral	-7269
▁optimering	-7270
ymmet	-7271
▁ecology	-7272
dimensionella	-7273
thes	-7274
▁Syn	-7275
elling	-7276
▁guide	-7277
▁actions	-7278
funktioner	-7279
pat	-7280
▁Gra	-7281
▁Pers	-7282
amhäll	-7283
▁correspon	-7284
▁religious	-7285
▁elektronik	-7286
▁människans	-7287
unda	-7288
▁assa	-7289
▁subsequ	-7290
▁Li	-7291
▁kär	-7292
▁analysed	-7293
▁genuttryck	-7294
▁underlätta	-7295
gent	-7296
▁relevans	-7297
▁systematiskt	-7298
ols	-7299
▁phosph	-7300
▁intelligence	-7301
▁Since	-7302
▁Nordic	-7303
▁mekanism	-7304
▁analyserar	-7305
▁säkerställa	-7306
▁epigenetiska	-7307
kra	-7308
▁väte	-7309
▁motiver	-7310
▁explores	-7311
▁omgivning	-7312
▁sensitive	-7313
wh	-7314
▁fos	-7315
▁semi	-7316
▁oscill	-7317
▁wall	-7318
öja	-7319
stor	-7320
▁fris	-7321
▁redox	-7322
▁upper	-7323
▁hypothesize	-7324
0.	-7325
▁elimin	-7326
▁bakterie	-7327
▁nanot	-7328
▁popular	-7329
▁typen	-7330
▁åstad	-7331
eding	-7332
▁sleep	-7333
▁coupled	-7334
▁extreme	-7335
▁geometri	-7336
▁speciella	-7337
information	-7338
interak	-7339
▁atomic	-7340
▁förlust	-7341
▁oberoende	-7342
,000	-7343
ristaller	-7344
46	-7345
OD	-7346
▁IV	-7347
▁stabila	-7348
stekniker	-7349
▁åstadkom	-7350
▁heterogeneity	-7351
ivån	-7352
ancial	-7353
▁inbland	-7354
▁microbiome	-7355
ev	-7356
gar	-7357
plas	-7358
▁cannot	-7359
▁sannolikt	-7360
▁befolkning	-7361
▁discovered	-7362
▁Hos	-7363
▁vision	-7364
▁känsliga	-7365
LP	-7366
▁Pl	-7367
rotron	-7368
smetod	-7369
▁avbildning	-7370
flöd	-7371
iconduct	-7372
▁conflict	-7373
ton	-7374
▁Sol	-7375
antage	-7376
▁tanke	-7377
▁orsaker	-7378
▁rekry	-7379
▁schem	-7380
▁fabric	-7381
▁liquid	-7382
▁neuron	-7383
▁klimatet	-7384
▁orsakerna	-7385
råd	-7386
▁WP	-7387
▁near	-7388
▁ögon	-7389
▁pathogenesis	-7390
▁virul	-7391
osocial	-7392
▁balance	-7393
▁fördelar	-7394
▁additional	-7395
▁flux	-7396
▁riktade	-7397
▁tillfäll	-7398
abolic	-7399
utting	-7400
▁assays	-7401
▁risker	-7402
▁kopplas	-7403
▁tydligt	-7404
▁examines	-7405
▁politiskt	-7406
rare	-7407
xiety	-7408
▁gaps	-7409
▁aktivt	-7410
förl	-7411
opor	-7412
▁olig	-7413
teknik	-7414
ligheter	-7415
▁tillämpa	-7416
▁förbättrade	-7417
inte	-7418
politik	-7419
▁Exempel	-7420
▁live	-7421
biologi	-7422
sområde	-7423
▁analog	-7424
▁aktivering	-7425
▁matematisk	-7426
▁phenomenon	-7427
▁utvärderas	-7428
▁architecture	-7429
▁psychological	-7430
aps	-7431
▁allowing	-7432
▁flykt	-7433
▁främj	-7434
▁deeper	-7435
▁degree	-7436
▁samtal	-7437
▁journal	-7438
▁persons	-7439
▁solceller	-7440
▁collective	-7441
▁immunsystemet	-7442
▁forma	-7443
▁vägar	-7444
▁democracy	-7445
ians	-7446
aktiva	-7447
arskap	-7448
▁vän	-7449
vät	-7450
unts	-7451
▁pan	-7452
ulosa	-7453
iciency	-7454
▁regler	-7455
▁leaders	-7456
▁questionna	-7457
▁psychiatric	-7458
ipp	-7459
ords	-7460
▁berör	-7461
▁formed	-7462
▁integrating	-7463
▁measurement	-7464
17	-7465
▁Sub	-7466
▁enco	-7467
dynamik	-7468
infarkt	-7469
▁powerful	-7470
▁Ark	-7471
▁kat	-7472
▁Comp	-7473
▁absorb	-7474
▁perovsk	-7475
▁PR	-7476
▁atherosc	-7477
▁published	-7478
▁Kv	-7479
▁jur	-7480
▁enzyme	-7481
▁nedsatt	-7482
▁begreppet	-7483
▁pathogens	-7484
olds	-7485
▁colon	-7486
▁schiz	-7487
▁trust	-7488
▁ändra	-7489
▁mitig	-7490
▁förändrade	-7491
▁lines	-7492
▁coupling	-7493
▁huvudsakliga	-7494
▁interventioner	-7495
agera	-7496
bile	-7497
▁brid	-7498
▁films	-7499
▁förslag	-7500
▁Prof	-7501
▁arkiv	-7502
▁Bl	-7503
▁Ec	-7504
aceu	-7505
▁wave	-7506
andard	-7507
▁bredare	-7508
echnology	-7509
▁biomarker	-7510
▁methodological	-7511
abe	-7512
jon	-7513
▁attity	-7514
▁stabil	-7515
▁förstår	-7516
▁accuracy	-7517
stag	-7518
tala	-7519
▁aid	-7520
▁vind	-7521
mönster	-7522
▁Specifically	-7523
OX	-7524
▁jus	-7525
▁farm	-7526
▁sked	-7527
▁speech	-7528
▁Bå	-7529
▁eas	-7530
phere	-7531
▁ration	-7532
▁orsakas	-7533
▁etablera	-7534
mekanismer	-7535
▁So	-7536
ynom	-7537
place	-7538
▁habit	-7539
▁connected	-7540
anning	-7541
▁associations	-7542
sprid	-7543
fältet	-7544
zo	-7545
▁AR	-7546
▁mob	-7547
ancre	-7548
group	-7549
▁look	-7550
▁slags	-7551
▁invand	-7552
▁extrema	-7553
▁byggsten	-7554
resolution	-7555
▁nationell	-7556
omb	-7557
▁CH	-7558
▁Sm	-7559
▁hål	-7560
▁färdig	-7561
▁satell	-7562
▁reliable	-7563
nosis	-7564
▁late	-7565
▁sensorer	-7566
environment	-7567
▁right	-7568
▁protoc	-7569
erspektiv	-7570
▁människan	-7571
▁nanoparticles	-7572
▁säm	-7573
▁adverse	-7574
▁separation	-7575
▁elektroniska	-7576
▁THz	-7577
▁präg	-7578
▁känna	-7579
▁enables	-7580
▁informationen	-7581
cts	-7582
erman	-7583
overy	-7584
▁aldrig	-7585
▁threat	-7586
unctional	-7587
▁ack	-7588
▁ramen	-7589
▁prevalence	-7590
orma	-7591
▁sekund	-7592
▁municip	-7593
▁reducing	-7594
jära	-7595
itter	-7596
▁tunn	-7597
samhet	-7598
▁tumour	-7599
▁beräkna	-7600
▁starting	-7601
▁Eng	-7602
▁Mus	-7603
▁brett	-7604
resistens	-7605
▁mitokondri	-7606
▁ambi	-7607
▁above	-7608
▁eukary	-7609
▁modul	-7610
▁Quantum	-7611
▁Yet	-7612
▁dub	-7613
▁pregnancy	-7614
▁cloud	-7615
▁foster	-7616
ritt	-7617
▁Psy	-7618
▁tråd	-7619
▁Organ	-7620
iration	-7621
▁marine	-7622
agen	-7623
aterad	-7624
▁förhöj	-7625
▁database	-7626
▁valuable	-7627
▁mitochondrial	-7628
less	-7629
▁rig	-7630
osome	-7631
▁förvän	-7632
▁lyckas	-7633
icrobial	-7634
▁manifest	-7635
▁psykiska	-7636
▁regleras	-7637
▁prognosis	-7638
▁addressing	-7639
lier	-7640
▁havs	-7641
▁stimuli	-7642
ume	-7643
umat	-7644
▁flytt	-7645
▁learn	-7646
▁uppstå	-7647
▁Is	-7648
orsak	-7649
▁spar	-7650
ocyter	-7651
▁exhib	-7652
▁fånga	-7653
▁egenskap	-7654
▁regeneration	-7655
▁CVD	-7656
ellar	-7657
ophysi	-7658
▁cytok	-7659
▁sluts	-7660
▁combines	-7661
Med	-7662
▁fatt	-7663
▁trop	-7664
historia	-7665
▁barrier	-7666
▁Utveckling	-7667
▁involve	-7668
▁internal	-7669
▁4)	-7670
▁Ig	-7671
▁abund	-7672
▁entire	-7673
smodeller	-7674
40	-7675
▁gången	-7676
analyser	-7677
▁affecting	-7678
ocker	-7679
▁fract	-7680
▁rapidly	-7681
▁fix	-7682
▁fli	-7683
cohol	-7684
▁uppfy	-7685
▁Global	-7686
▁kritisk	-7687
▁utsätts	-7688
▁dimensions	-7689
3,	-7690
änn	-7691
▁rot	-7692
derived	-7693
▁metasta	-7694
▁motsvarande	-7695
eline	-7696
frågan	-7697
▁choice	-7698
▁lacking	-7699
▁complexes	-7700
IM	-7701
Our	-7702
ugh	-7703
xis	-7704
ringen	-7705
▁utilize	-7706
industrin	-7707
reglering	-7708
▁konflikter	-7709
▁biochemical	-7710
▁limitations	-7711
king	-7712
life	-7713
▁pic	-7714
fatta	-7715
▁neutral	-7716
▁styrning	-7717
▁selective	-7718
▁idea	-7719
▁upprep	-7720
▁allmänna	-7721
▁construction	-7722
▁representerar	-7723
cre	-7724
området	-7725
▁skelett	-7726
▁terapier	-7727
▁situations	-7728
▁växelverkan	-7729
occ	-7730
ilda	-7731
▁get	-7732
▁utförs	-7733
kommande	-7734
▁prostat	-7735
▁hon	-7736
▁accom	-7737
▁sällan	-7738
▁domains	-7739
▁beskrivs	-7740
egenskaper	-7741
▁rekonstru	-7742
▁processerna	-7743
Res	-7744
arge	-7745
▁utt	-7746
▁Sedan	-7747
▁lifest	-7748
▁multimodal	-7749
imet	-7750
ublic	-7751
▁sällsyn	-7752
▁kommunikations	-7753
▁Mech	-7754
▁gradi	-7755
tningen	-7756
▁precise	-7757
IF	-7758
kleros	-7759
abilitet	-7760
▁service	-7761
▁tillåter	-7762
▁immunsvar	-7763
▁bul	-7764
▁vitt	-7765
▁inuti	-7766
cies	-7767
itage	-7768
▁biops	-7769
▁calculations	-7770
beg	-7771
▁skikt	-7772
▁assessed	-7773
▁ultimately	-7774
encies	-7775
▁offers	-7776
▁tester	-7777
▁uncertainty	-7778
▁developments	-7779
lor	-7780
▁ägg	-7781
metod	-7782
studien	-7783
▁motion	-7784
▁driving	-7785
▁kopplat	-7786
▁resonance	-7787
▁comparison	-7788
▁foundation	-7789
▁nödvändiga	-7790
▁demokratiska	-7791
▁fåg	-7792
ormal	-7793
▁thin	-7794
▁taking	-7795
▁addressed	-7796
▁föd	-7797
▁möta	-7798
▁sämre	-7799
▁systemic	-7800
▁classical	-7801
▁deltagare	-7802
▁jämförande	-7803
▁extracellular	-7804
ardi	-7805
▁avoid	-7806
▁pågår	-7807
▁competi	-7808
▁studierna	-7809
▁experimentell	-7810
skill	-7811
▁förbrän	-7812
▁attitudes	-7813
▁candidate	-7814
LA	-7815
öva	-7816
▁Ur	-7817
ophag	-7818
▁clar	-7819
▁segreg	-7820
▁zebraf	-7821
ochastic	-7822
▁arbetsp	-7823
pan	-7824
åta	-7825
▁aqu	-7826
▁rich	-7827
▁perioden	-7828
▁protection	-7829
▁avslöja	-7830
▁neurala	-7831
▁tumören	-7832
ded	-7833
▁CT	-7834
▁III	-7835
▁competence	-7836
▁variability	-7837
agens	-7838
▁youth	-7839
strukturen	-7840
▁receptorer	-7841
tious	-7842
osomer	-7843
▁insam	-7844
▁ligga	-7845
▁kroniska	-7846
▁regulate	-7847
▁elektrisk	-7848
cin	-7849
laim	-7850
▁totala	-7851
▁befinner	-7852
▁fokuserat	-7853
▁upplösning	-7854
ovid	-7855
▁fylla	-7856
▁expressed	-7857
▁synthetic	-7858
▁variationer	-7859
▁site	-7860
iserar	-7861
liknande	-7862
▁Further	-7863
▁Undersö	-7864
▁homeost	-7865
▁verkliga	-7866
▁karakterisera	-7867
kop	-7868
yth	-7869
enew	-7870
esting	-7871
▁moment	-7872
rate	-7873
ocell	-7874
estern	-7875
▁1900-	-7876
▁etablerade	-7877
▁resilience	-7878
▁evolutionära	-7879
ads	-7880
fam	-7881
▁put	-7882
▁asthma	-7883
▁female	-7884
▁enhanced	-7885
▁antibiotik	-7886
▁decennierna	-7887
▁(19	-7888
▁omvandling	-7889
emin	-7890
▁välja	-7891
▁ethical	-7892
ilitation	-7893
infektion	-7894
▁National	-7895
▁europeiska	-7896
idel	-7897
stam	-7898
jande	-7899
▁medie	-7900
▁emotion	-7901
vänt	-7902
▁metan	-7903
▁explicit	-7904
▁lämpliga	-7905
▁svårigheter	-7906
▁institutioner	-7907
▁conc	-7908
utsläpp	-7909
▁förvär	-7910
ney	-7911
ula	-7912
örs	-7913
oblast	-7914
▁explan	-7915
▁manufact	-7916
▁skola	-7917
▁humana	-7918
▁drabbade	-7919
▁kvinnors	-7920
▁interesting	-7921
enz	-7922
cium	-7923
otor	-7924
coding	-7925
▁minne	-7926
▁serve	-7927
ked	-7928
▁1,	-7929
emat	-7930
▁conversion	-7931
▁technological	-7932
▁silic	-7933
▁integra	-7934
▁advantage	-7935
▁omgivande	-7936
▁konstruera	-7937
poli	-7938
▁oro	-7939
▁vin	-7940
▁Förutom	-7941
▁noise	-7942
▁jämställ	-7943
RC	-7944
▁trade	-7945
nalling	-7946
pus	-7947
▁övr	-7948
cepti	-7949
▁allo	-7950
▁exchange	-7951
▁Education	-7952
byg	-7953
sök	-7954
▁burden	-7955
▁genera	-7956
▁energik	-7957
▁sampling	-7958
▁movements	-7959
▁katalysatorer	-7960
ander	-7961
▁grafen	-7962
▁synerg	-7963
▁integrera	-7964
inity	-7965
thern	-7966
processen	-7967
▁dependent	-7968
▁ALS	-7969
▁söka	-7970
▁takt	-7971
▁Energ	-7972
▁släkt	-7973
▁celltyper	-7974
▁connection	-7975
▁sjukdomsförlopp	-7976
▁ju	-7977
ransk	-7978
▁tend	-7979
▁bioge	-7980
▁stratif	-7981
▁component	-7982
▁clinically	-7983
▁recognition	-7984
terar	-7985
texter	-7986
▁seeks	-7987
▁kandid	-7988
▁perman	-7989
▁analysen	-7990
▁crystall	-7991
▁identifieras	-7992
▁jo	-7993
vious	-7994
▁crisis	-7995
▁cardiac	-7996
▁economy	-7997
▁veta	-7998
cision	-7999
kontroll	-8000
personal	-8001
▁million	-8002
▁fullständ	-8003
▁cop	-8004
▁recovery	-8005
▁alternativa	-8006
▁transitions	-8007
def	-8008
ekten	-8009
valit	-8010
▁Child	-8011
▁enhet	-8012
▁koppla	-8013
▁labour	-8014
▁konkret	-8015
▁omkring	-8016
▁klassiska	-8017
ged	-8018
sens	-8019
▁compris	-8020
▁utforma	-8021
▁användbara	-8022
blemet	-8023
▁abstra	-8024
▁bortom	-8025
▁uppkommer	-8026
az	-8027
▁40	-8028
▁epit	-8029
iratory	-8030
▁points	-8031
▁uppgift	-8032
▁infrastruktur	-8033
free	-8034
etter	-8035
▁gent	-8036
▁kommers	-8037
▁nonlinear	-8038
▁framtidens	-8039
PP	-8040
view	-8041
▁base	-8042
▁mekan	-8043
mässigt	-8044
▁fossila	-8045
▁boundary	-8046
▁kritiskt	-8047
▁cognition	-8048
▁demonstrated	-8049
▁utmär	-8050
usiness	-8051
innehåll	-8052
▁correct	-8053
▁antibodies	-8054
▁hjärtinfarkt	-8055
pel	-8056
▁CS	-8057
otek	-8058
▁han	-8059
lunda	-8060
osfär	-8061
acancer	-8062
▁repair	-8063
▁patientens	-8064
▁riktlinjer	-8065
▁skäl	-8066
▁Theory	-8067
▁skolans	-8068
▁oxidation	-8069
▁innovativa	-8070
▁spela	-8071
▁historiskt	-8072
▁distributed	-8073
▁djurmodeller	-8074
räff	-8075
▁bok	-8076
▁repe	-8077
energi	-8078
▁tarmen	-8079
▁ångest	-8080
antag	-8081
▁vuxen	-8082
aktiver	-8083
▁reglera	-8084
▁influences	-8085
▁kvantitativa	-8086
asi	-8087
cient	-8088
vårds	-8089
▁wild	-8090
osomes	-8091
▁pupils	-8092
▁decline	-8093
▁kirurgi	-8094
▁old	-8095
ontal	-8096
▁utsönd	-8097
▁öppnar	-8098
ografisk	-8099
▁datorer	-8100
▁epistem	-8101
▁engelska	-8102
ife	-8103
▁Fe	-8104
ales	-8105
▁gast	-8106
▁speg	-8107
▁stig	-8108
tisera	-8109
▁avvik	-8110
▁fasta	-8111
▁profiling	-8112
▁detaljerade	-8113
tium	-8114
ektorn	-8115
▁disru	-8116
ognitive	-8117
▁adolesc	-8118
▁anxiety	-8119
▁luftväg	-8120
▁Analysis	-8121
▁literacy	-8122
▁resultera	-8123
▁dimensioner	-8124
▁upplevelser	-8125
PT	-8126
Ett	-8127
▁samverkar	-8128
▁disability	-8129
▁kolon	-8130
▁smitt	-8131
▁angrepp	-8132
▁uttrycks	-8133
▁effectiveness	-8134
LD	-8135
▁SM	-8136
▁dagsl	-8137
▁numeriska	-8138
ationerna	-8139
ditionally	-8140
28;	-8141
▁NMR	-8142
▁smärt	-8143
▁synch	-8144
▁simple	-8145
▁ställer	-8146
▁ständigt	-8147
isot	-8148
▁layer	-8149
kningar	-8150
▁Recent	-8151
▁accept	-8152
▁aktiveras	-8153
PE	-8154
▁lives	-8155
▁increases	-8156
▁Bas	-8157
▁ärft	-8158
▁biomass	-8159
▁created	-8160
▁glucose	-8161
▁teknologier	-8162
5%	-8163
ket	-8164
▁waves	-8165
▁strongly	-8166
▁Evolution	-8167
▁kontrollerad	-8168
▁meta	-8169
▁sets	-8170
▁välk	-8171
▁delta	-8172
evolution	-8173
ilitering	-8174
associated	-8175
▁miljarder	-8176
▁pathology	-8177
▁flyg	-8178
▁Novel	-8179
▁divid	-8180
▁Design	-8181
▁syndrome	-8182
▁attityder	-8183
▁kombineras	-8184
pite	-8185
sett	-8186
uppl	-8187
ärer	-8188
▁bedriv	-8189
▁funnit	-8190
▁isotop	-8191
▁financial	-8192
▁agr	-8193
▁lager	-8194
▁förutsp	-8195
▁språkliga	-8196
jord	-8197
▁lignin	-8198
▁outfor	-8199
▁Scandinav	-8200
▁inkludera	-8201
▁kartläggning	-8202
arta	-8203
vjuer	-8204
▁categ	-8205
▁dataset	-8206
▁employed	-8207
▁uppkomst	-8208
▁developmental	-8209
▁PF	-8210
goti	-8211
▁opp	-8212
ceive	-8213
▁lidande	-8214
▁sequence	-8215
▁parameter	-8216
▁reasoning	-8217
▁Sv	-8218
▁gruppen	-8219
▁provided	-8220
▁klassific	-8221
sf	-8222
▁rä	-8223
▁biop	-8224
▁färg	-8225
ssnitt	-8226
▁yttre	-8227
▁rörels	-8228
ceptions	-8229
▁förväntar	-8230
▁konkurrens	-8231
▁semiconduct	-8232
tu	-8233
plored	-8234
▁articles	-8235
▁expertis	-8236
yror	-8237
körtel	-8238
▁divers	-8239
▁guidel	-8240
▁regular	-8241
▁graviditet	-8242
▁atmospheric	-8243
▁demonstrate	-8244
storlek	-8245
▁despite	-8246
ifications	-8247
▁heterogeneous	-8248
▁Vä	-8249
änger	-8250
▁mild	-8251
▁datam	-8252
riminal	-8253
▁debate	-8254
▁framåt	-8255
▁ljuset	-8256
▁sensory	-8257
ochemistry	-8258
▁prospective	-8259
▁warming	-8260
▁cultures	-8261
▁effektivare	-8262
▁Over	-8263
▁hård	-8264
skolan	-8265
▁Gener	-8266
▁repar	-8267
▁exakta	-8268
▁termer	-8269
effekter	-8270
▁infektions	-8271
▁transplantation	-8272
kri	-8273
▁SLE	-8274
▁kam	-8275
▁växa	-8276
▁variations	-8277
▁Hig	-8278
▁arke	-8279
dering	-8280
antering	-8281
▁databas	-8282
▁samling	-8283
▁förlängningen	-8284
otal	-8285
▁känd	-8286
▁restric	-8287
▁profiles	-8288
▁förutsätt	-8289
▁associerade	-8290
▁forskargrupp	-8291
flor	-8292
▁Mar	-8293
akers	-8294
▁felak	-8295
▁förlopp	-8296
▁samverkan	-8297
jus	-8298
våg	-8299
▁brom	-8300
▁skär	-8301
▁finnas	-8302
▁stream	-8303
▁återfall	-8304
▁framställ	-8305
▁inflytande	-8306
irel	-8307
trol	-8308
▁ras	-8309
kompon	-8310
▁plast	-8311
▁amount	-8312
▁exposed	-8313
▁metaller	-8314
▁inclusion	-8315
▁opt	-8316
▁broader	-8317
▁optimize	-8318
CC	-8319
amål	-8320
▁este	-8321
▁taken	-8322
▁tunna	-8323
▁profess	-8324
▁riskerar	-8325
▁contributions	-8326
izes	-8327
ngre	-8328
▁visade	-8329
▁Finland	-8330
tav	-8331
skare	-8332
▁genotyp	-8333
▁kapacitet	-8334
lid	-8335
aired	-8336
▁suscepti	-8337
▁highlight	-8338
▁phenotype	-8339
▁ade	-8340
▁proof	-8341
▁trauma	-8342
▁tumörceller	-8343
NP	-8344
Met	-8345
ifik	-8346
▁Gen	-8347
▁pen	-8348
klass	-8349
vinna	-8350
ireless	-8351
▁weight	-8352
▁utsatta	-8353
▁graphene	-8354
▁deposition	-8355
▁vec	-8356
oplan	-8357
▁takes	-8358
licated	-8359
▁fysiologiska	-8360
▁identifiering	-8361
▁inde	-8362
▁prem	-8363
▁skogs	-8364
▁återhäm	-8365
▁creating	-8366
▁included	-8367
▁genererar	-8368
▁industriella	-8369
NT	-8370
bilder	-8371
▁stake	-8372
▁substantial	-8373
▁contributing	-8374
Co	-8375
aged	-8376
eder	-8377
▁länd	-8378
▁expert	-8379
▁negoti	-8380
▁biologi	-8381
▁defects	-8382
▁menings	-8383
▁Resultat	-8384
▁interfaces	-8385
én	-8386
ivt	-8387
aden	-8388
▁embed	-8389
▁sjuka	-8390
astiska	-8391
▁omsorg	-8392
▁genomgår	-8393
ographical	-8394
▁topological	-8395
▁pek	-8396
▁dras	-8397
frågas	-8398
ustain	-8399
antaget	-8400
komplex	-8401
▁polynom	-8402
▁elektrok	-8403
▁intestinal	-8404
uth	-8405
stöd	-8406
trop	-8407
utet	-8408
ways	-8409
▁perf	-8410
▁1800-	-8411
▁entrep	-8412
▁ekonomi	-8413
▁surveys	-8414
bers	-8415
burg	-8416
▁sound	-8417
aterials	-8418
▁experts	-8419
▁treated	-8420
▁emotional	-8421
▁beslutsfattande	-8422
BM	-8423
skas	-8424
▁claim	-8425
▁archae	-8426
called	-8427
▁beslutsfattare	-8428
ably	-8429
▁mast	-8430
▁fundamentala	-8431
dels	-8432
värl	-8433
iellt	-8434
▁fish	-8435
▁cutting	-8436
▁behaviors	-8437
AX	-8438
▁bos	-8439
▁vem	-8440
▁bore	-8441
▁accep	-8442
▁mater	-8443
▁förmågor	-8444
▁bildandet	-8445
▁beskrivning	-8446
▁astro	-8447
▁alcohol	-8448
▁robotar	-8449
Forskning	-8450
lu	-8451
▁compan	-8452
▁Emp	-8453
▁kulturell	-8454
▁fastställa	-8455
driv	-8456
fast	-8457
skel	-8458
▁Mat	-8459
▁oklart	-8460
▁marginal	-8461
akes	-8462
▁Rel	-8463
▁tuber	-8464
▁pancre	-8465
▁förenkl	-8466
▁domestic	-8467
▁trajectories	-8468
glish	-8469
▁invester	-8470
▁neuropsy	-8471
▁supercon	-8472
▁tolerance	-8473
▁gest	-8474
▁Early	-8475
▁Vissa	-8476
▁constru	-8477
▁scholars	-8478
▁Ab	-8479
▁End	-8480
▁excl	-8481
▁lider	-8482
▁leukemi	-8483
▁delprojekt	-8484
▁kry	-8485
ogena	-8486
▁Östers	-8487
tisering	-8488
▁tailored	-8489
▁beräknings	-8490
▁[	-8491
ovask	-8492
▁välfärd	-8493
▁appropri	-8494
▁narratives	-8495
änsle	-8496
▁reprodu	-8497
ammantaget	-8498
▁dynamiken	-8499
▁lifestyle	-8500
▁validation	-8501
▁independent	-8502
16	-8503
len	-8504
▁Och	-8505
genom	-8506
ravel	-8507
riskt	-8508
▁biot	-8509
▁clust	-8510
▁mäter	-8511
▁documents	-8512
▁eventuella	-8513
snitt	-8514
▁ändras	-8515
▁hållbart	-8516
överföring	-8517
Aim	-8518
▁hope	-8519
ilding	-8520
▁adress	-8521
▁conduc	-8522
▁curric	-8523
▁diskurs	-8524
▁monitor	-8525
▁catalytic	-8526
▁signalling	-8527
▁framgångsrikt	-8528
▁menar	-8529
▁motsvar	-8530
▁eleverna	-8531
▁batterier	-8532
▁banbrytande	-8533
▁huvudsakligen	-8534
OF	-8535
dda	-8536
chem	-8537
▁But	-8538
gaser	-8539
▁onset	-8540
▁oxide	-8541
▁innate	-8542
▁relate	-8543
▁examined	-8544
▁societies	-8545
▁möjligheterna	-8546
▁gamla	-8547
▁resol	-8548
▁classes	-8549
▁dopamin	-8550
▁elevernas	-8551
▁modellera	-8552
▁ethnographic	-8553
öcker	-8554
▁läro	-8555
▁urin	-8556
▁aiming	-8557
▁eti	-8558
eslut	-8559
▁capital	-8560
▁variables	-8561
▁uppfattningar	-8562
▁undervisningen	-8563
edge	-8564
▁ads	-8565
ektor	-8566
▁sätta	-8567
agnetic	-8568
▁proton	-8569
▁ryggmär	-8570
▁viruses	-8571
▁bränslen	-8572
▁produktionen	-8573
fik	-8574
otyper	-8575
▁estimate	-8576
▁relative	-8577
munikation	-8578
▁electrical	-8579
▁engagemang	-8580
tan	-8581
▁Me	-8582
frika	-8583
inent	-8584
▁Baltic	-8585
▁Därmed	-8586
▁insjuk	-8587
▁metabola	-8588
▁systematically	-8589
▁puls	-8590
▁ökning	-8591
▁känslighet	-8592
▁infrastructure	-8593
elves	-8594
ritten	-8595
diabetes	-8596
▁surround	-8597
29	-8598
▁HPV	-8599
antly	-8600
jänst	-8601
▁Hist	-8602
▁guidelines	-8603
4.	-8604
▁MD	-8605
lägs	-8606
▁hålla	-8607
▁sista	-8608
▁titta	-8609
▁avslut	-8610
▁deltar	-8611
▁ensure	-8612
▁sensors	-8613
3-	-8614
fluid	-8615
metall	-8616
stream	-8617
▁främsta	-8618
▁respect	-8619
▁integrate	-8620
▁resultatet	-8621
BC	-8622
RE	-8623
▁seem	-8624
tities	-8625
▁rätts	-8626
▁linear	-8627
ferenser	-8628
▁English	-8629
▁pathophysi	-8630
▁kvantifiera	-8631
▁komplicerade	-8632
▁ey	-8633
▁la	-8634
urrence	-8635
▁lättare	-8636
▁Investig	-8637
▁spectrum	-8638
▁determined	-8639
▁engagement	-8640
▁ultras	-8641
▁peptides	-8642
▁recommend	-8643
bre	-8644
vity	-8645
▁joner	-8646
▁hörsel	-8647
▁transpar	-8648
ekvationer	-8649
öra	-8650
itual	-8651
kande	-8652
▁Risk	-8653
▁flows	-8654
▁makro	-8655
▁akademiska	-8656
▁myndigheter	-8657
avel	-8658
▁Rad	-8659
▁Large	-8660
▁tecken	-8661
▁collect	-8662
▁Plas	-8663
▁chain	-8664
mediated	-8665
▁pathogenic	-8666
▁phenotypes	-8667
vol	-8668
samt	-8669
▁pert	-8670
aceutical	-8671
operative	-8672
▁fortsätta	-8673
▁Ga	-8674
▁ej	-8675
abil	-8676
type	-8677
▁punkt	-8678
ferences	-8679
▁another	-8680
.)	-8681
SM	-8682
jug	-8683
▁ER	-8684
stif	-8685
▁dual	-8686
▁appar	-8687
▁Tyvärr	-8688
▁ageing	-8689
▁Machine	-8690
▁kopplingen	-8691
▁näringsämnen	-8692
das	-8693
dle	-8694
▁fore	-8695
▁angel	-8696
▁sector	-8697
▁vävnaden	-8698
▁controlling	-8699
OT	-8700
oted	-8701
▁Mål	-8702
valda	-8703
▁skri	-8704
▁enorma	-8705
▁kategor	-8706
▁förändrats	-8707
rådar	-8708
▁heav	-8709
▁levnads	-8710
▁regulated	-8711
sperspektiv	-8712
▁Em	-8713
▁Long	-8714
ängden	-8715
▁lands	-8716
▁Betydel	-8717
▁Inflamm	-8718
▁genereras	-8719
▁constraints	-8720
▁roller	-8721
▁berättelser	-8722
horm	-8723
rosp	-8724
esian	-8725
▁ions	-8726
▁medium	-8727
▁conserv	-8728
▁osäkerhet	-8729
▁religiösa	-8730
barn	-8731
skrifter	-8732
▁simulera	-8733
▁utmanande	-8734
imuleringar	-8735
exp	-8736
fib	-8737
tor	-8738
muna	-8739
▁korta	-8740
▁tydlig	-8741
▁equality	-8742
keln	-8743
▁mär	-8744
▁vag	-8745
riers	-8746
▁coli	-8747
▁kind	-8748
▁moln	-8749
▁jurid	-8750
through	-8751
▁dynamical	-8752
▁Pop	-8753
▁norra	-8754
partment	-8755
▁noggrant	-8756
centrations	-8757
▁IC	-8758
▁VR	-8759
prin	-8760
▁weak	-8761
▁domän	-8762
▁fältet	-8763
▁kommit	-8764
▁private	-8765
▁peripher	-8766
▁organized	-8767
▁vegetation	-8768
▁signalering	-8769
psi	-8770
klin	-8771
▁Many	-8772
▁Mark	-8773
▁styrs	-8774
▁Science	-8775
glia	-8776
▁sea	-8777
vågor	-8778
▁waste	-8779
▁mobile	-8780
▁diagnostiska	-8781
Wh	-8782
▁eli	-8783
sland	-8784
▁bulk	-8785
▁stri	-8786
▁shows	-8787
▁Intell	-8788
▁organs	-8789
ätningar	-8790
▁fitness	-8791
▁definiera	-8792
▁Str	-8793
▁vie	-8794
▁omöj	-8795
▁Comput	-8796
▁malaria	-8797
▁innebära	-8798
▁generella	-8799
▁interaktionen	-8800
sex	-8801
▁au	-8802
▁face	-8803
talets	-8804
▁Natur	-8805
▁lägga	-8806
▁polymers	-8807
▁socioeconomic	-8808
▁Gö	-8809
skif	-8810
stal	-8811
▁carb	-8812
▁users	-8813
ledande	-8814
▁jämföras	-8815
▁kartlägg	-8816
▁continuous	-8817
▁description	-8818
beräk	-8819
sträng	-8820
▁break	-8821
▁otill	-8822
▁thems	-8823
▁ganska	-8824
▁hypotheses	-8825
vill	-8826
wave	-8827
rationer	-8828
▁dispers	-8829
▁hanterar	-8830
▁klargöra	-8831
▁catalysts	-8832
▁Russ	-8833
▁unpre	-8834
▁förval	-8835
▁changed	-8836
▁intrins	-8837
▁ändamål	-8838
▁fördjupa	-8839
▁dagsläget	-8840
▁hjärtsvikt	-8841
▁functioning	-8842
▁reproductive	-8843
valu	-8844
▁force	-8845
▁visats	-8846
▁extended	-8847
▁leukemia	-8848
▁themselves	-8849
clear	-8850
ensen	-8851
uleras	-8852
▁vågor	-8853
▁works	-8854
▁produkt	-8855
▁utnyttjas	-8856
▁mekanismen	-8857
▁IT	-8858
käns	-8859
ppar	-8860
derly	-8861
▁utby	-8862
▁plays	-8863
▁peptide	-8864
represent	-8865
▁individanpass	-8866
seq	-8867
endence	-8868
▁genetiskt	-8869
▁vidareutveckl	-8870
▁Cor	-8871
▁fibri	-8872
▁stopp	-8873
punkter	-8874
▁propor	-8875
hund	-8876
blick	-8877
lifer	-8878
▁aimed	-8879
▁hemat	-8880
scancer	-8881
▁limits	-8882
atically	-8883
▁continue	-8884
▁allvarlig	-8885
▁government	-8886
ria	-8887
▁vo	-8888
▁frig	-8889
ophagy	-8890
▁rational	-8891
▁nödvändig	-8892
▁materialen	-8893
▁randomiserad	-8894
▁collaborative	-8895
▁utvid	-8896
umatoid	-8897
riptional	-8898
▁tusentals	-8899
▁throughout	-8900
värden	-8901
▁nitrogen	-8902
AF	-8903
–20	-8904
▁Är	-8905
slut	-8906
bedöm	-8907
▁filmer	-8908
▁altered	-8909
▁betraktas	-8910
▁emergence	-8911
▁kopplingar	-8912
skott	-8913
▁length	-8914
ostnader	-8915
▁indicate	-8916
▁förklaring	-8917
meric	-8918
▁beam	-8919
▁glut	-8920
prover	-8921
cellulära	-8922
▁organism	-8923
▁unpreced	-8924
ls	-8925
flöden	-8926
▁staff	-8927
▁mikrom	-8928
▁Network	-8929
▁däremot	-8930
▁välfärds	-8931
Es	-8932
po	-8933
▁vs	-8934
▁tau	-8935
ylering	-8936
▁barnet	-8937
▁lärares	-8938
▁scenari	-8939
▁sciences	-8940
▁alterations	-8941
osyntes	-8942
▁almost	-8943
▁hälsos	-8944
▁applying	-8945
▁negativt	-8946
▁suggests	-8947
▁fördjupad	-8948
▁regulating	-8949
ives	-8950
▁user	-8951
▁inner	-8952
▁spont	-8953
▁Systems	-8954
▁concern	-8955
▁reported	-8956
▁supraled	-8957
▁utnyttjar	-8958
▁absorption	-8959
▁experimentally	-8960
▁erhåll	-8961
▁uptake	-8962
▁according	-8963
▁morbidity	-8964
▁tredimension	-8965
▁simultaneously	-8966
fel	-8967
▁gar	-8968
gical	-8969
idney	-8970
▁Link	-8971
▁exec	-8972
▁liber	-8973
▁metals	-8974
▁finding	-8975
▁populär	-8976
▁underlag	-8977
▁individen	-8978
▁suggested	-8979
▁phenotypic	-8980
mor	-8981
rets	-8982
▁morf	-8983
▁ämne	-8984
försök	-8985
▁angri	-8986
▁bryta	-8987
▁links	-8988
▁formar	-8989
acterial	-8990
▁Environ	-8991
▁unclear	-8992
▁variabler	-8993
▁förbättras	-8994
vetenskapligt	-8995
ubst	-8996
▁Age	-8997
rävande	-8998
▁vitamin	-8999
▁Flera	-9000
▁behandlar	-9001
▁prognostic	-9002
uble	-9003
▁ont	-9004
▁earlier	-9005
▁uppföljning	-9006
▁unprecedented	-9007
så	-9008
▁13	-9009
▁oför	-9010
▁lagring	-9011
▁heritage	-9012
▁antibiotics	-9013
istik	-9014
▁Dise	-9015
▁utöka	-9016
▁läkare	-9017
▁Därefter	-9018
▁original	-9019
▁peptider	-9020
▁examining	-9021
▁socioekonomiska	-9022
apse	-9023
▁iii	-9024
house	-9025
▁skilda	-9026
▁antigen	-9027
▁terrest	-9028
vå	-9029
lies	-9030
▁kyl	-9031
▁polis	-9032
▁primära	-9033
▁stället	-9034
▁spektrum	-9035
▁Additionally	-9036
urally	-9037
▁drive	-9038
▁dagliga	-9039
▁mutation	-9040
▁samtliga	-9041
▁involverar	-9042
▁relatively	-9043
iden	-9044
▁Two	-9045
▁kre	-9046
▁Bland	-9047
▁beton	-9048
▁binda	-9049
påverkan	-9050
▁beskrivas	-9051
alen	-9052
givare	-9053
▁anatom	-9054
▁sorter	-9055
▁allmänt	-9056
experiment	-9057
▁Acc	-9058
▁big	-9059
endet	-9060
▁fenotyp	-9061
ino	-9062
▁CNS	-9063
▁lip	-9064
sprak	-9065
▁coron	-9066
anguage	-9067
arching	-9068
▁kataly	-9069
▁lokalt	-9070
▁svampar	-9071
▁beter	-9072
▁sjöar	-9073
▁anställ	-9074
▁kommande	-9075
..	-9076
▁•	-9077
ött	-9078
▁fost	-9079
▁etiska	-9080
▁invest	-9081
▁output	-9082
▁metastas	-9083
▁polymerer	-9084
▁rekommend	-9085
jut	-9086
▁14	-9087
erativ	-9088
▁brukar	-9089
▁sällsynta	-9090
▁antibiotikares	-9091
PCR	-9092
osa	-9093
algor	-9094
▁beakt	-9095
sammans	-9096
▁German	-9097
▁layers	-9098
▁scenar	-9099
▁shifts	-9100
rukturer	-9101
emperatur	-9102
▁prostate	-9103
▁turbulent	-9104
▁inequality	-9105
▁komplexitet	-9106
lyc	-9107
ulum	-9108
▁Bay	-9109
▁cat	-9110
▁mån	-9111
regist	-9112
▁having	-9113
▁riktning	-9114
▁arkitektur	-9115
▁atmosphere	-9116
▁förbättrar	-9117
Pro	-9118
pha	-9119
body	-9120
edes	-9121
▁aes	-9122
▁ethnic	-9123
▁Process	-9124
▁prostatacancer	-9125
MT	-9126
ero	-9127
▁div	-9128
hydro	-9129
▁regime	-9130
▁divided	-9131
▁platforms	-9132
▁implementering	-9133
aily	-9134
skyd	-9135
ocation	-9136
▁believe	-9137
▁läkemed	-9138
▁overcome	-9139
▁atherosclerosis	-9140
oT	-9141
▁assoc	-9142
tagande	-9143
▁crystal	-9144
▁tjänster	-9145
▁professionals	-9146
oks	-9147
ergic	-9148
▁kaus	-9149
▁neon	-9150
▁sättet	-9151
▁långvarig	-9152
▁slutligen	-9153
▁technical	-9154
▁rehabilitation	-9155
▁his	-9156
inting	-9157
istrib	-9158
▁längs	-9159
▁synthes	-9160
litteratur	-9161
▁TR	-9162
gment	-9163
▁Över	-9164
ressive	-9165
▁håller	-9166
▁largest	-9167
▁requirements	-9168
smål	-9169
iserat	-9170
▁steps	-9171
isciplin	-9172
▁intermedi	-9173
▁capabilities	-9174
uff	-9175
öts	-9176
▁2,	-9177
atit	-9178
roll	-9179
skom	-9180
ätts	-9181
▁renew	-9182
▁utgörs	-9183
46;	-9184
cir	-9185
▁Pr	-9186
path	-9187
prof	-9188
▁sil	-9189
taget	-9190
▁önsk	-9191
▁School	-9192
▁rörande	-9193
▁genomics	-9194
▁organiskt	-9195
▁philosophy	-9196
▁Covid	-9197
▁registr	-9198
▁packages	-9199
föroreningar	-9200
ynd	-9201
asts	-9202
tile	-9203
atics	-9204
▁opin	-9205
▁solve	-9206
▁ansats	-9207
▁finite	-9208
▁litter	-9209
▁country	-9210
▁vetenskapligt	-9211
Cas	-9212
▁fa	-9213
ches	-9214
▁närm	-9215
▁rely	-9216
äkerhet	-9217
▁pattern	-9218
relaterad	-9219
spektromet	-9220
▁stochastic	-9221
▁subsequent	-9222
ningsförmåga	-9223
bly	-9224
▁iter	-9225
▁blodk	-9226
▁tolka	-9227
▁induce	-9228
▁majority	-9229
▁considera	-9230
▁incidence	-9231
▁experienced	-9232
car	-9233
fold	-9234
▁until	-9235
▁genomg	-9236
▁centralt	-9237
▁miljövän	-9238
pråk	-9239
▁era	-9240
bestäm	-9241
nowledge	-9242
▁candidates	-9243
▁computation	-9244
▁interpretation	-9245
ierat	-9246
agring	-9247
ilibri	-9248
frekvens	-9249
▁Do	-9250
▁demand	-9251
tigheten	-9252
▁långsik	-9253
▁uppskatta	-9254
▁effektiviteten	-9255
olekyler	-9256
▁beteendet	-9257
▁homeostasis	-9258
▁litteraturen	-9259
An	-9260
hinn	-9261
världen	-9262
▁slutet	-9263
▁ersätta	-9264
▁business	-9265
speg	-9266
▁Sea	-9267
▁draw	-9268
unktion	-9269
äggdjur	-9270
▁belief	-9271
▁praxis	-9272
▁ordning	-9273
▁agricult	-9274
▁resistant	-9275
▁typically	-9276
▁fo	-9277
▁Gru	-9278
▁Arab	-9279
▁hous	-9280
lemmar	-9281
örjning	-9282
▁marina	-9283
▁Biomark	-9284
▁varierande	-9285
jäl	-9286
anob	-9287
ucka	-9288
▁Both	-9289
▁Post	-9290
▁When	-9291
▁half	-9292
anical	-9293
▁okänd	-9294
▁toxicity	-9295
thritis	-9296
▁ingenj	-9297
▁widely	-9298
▁övriga	-9299
vandling	-9300
▁instead	-9301
▁circuits	-9302
▁klassrum	-9303
▁ekv	-9304
olicy	-9305
tability	-9306
▁extremely	-9307
▁konventionella	-9308
kle	-9309
leda	-9310
ether	-9311
▁utom	-9312
▁knock	-9313
orlunda	-9314
▁Utöver	-9315
▁gränser	-9316
SP	-9317
▁Experi	-9318
▁skilja	-9319
▁anthrop	-9320
▁postdoc	-9321
▁förändrar	-9322
▁methodologies	-9323
▁Br	-9324
▁mm	-9325
▁fasc	-9326
▁foton	-9327
▁besvär	-9328
mikroskopi	-9329
▁historisk	-9330
▁experimentellt	-9331
▁Ma	-9332
▁ke	-9333
▁påvis	-9334
▁rural	-9335
▁impairment	-9336
▁inhibition	-9337
▁omgivningen	-9338
▁värderingar	-9339
▁manipulation	-9340
▁transcriptomics	-9341
rics	-9342
raljud	-9343
▁antiv	-9344
▁daily	-9345
▁stere	-9346
▁elderly	-9347
▁positiv	-9348
intervjuer	-9349
▁delstudier	-9350
▁modellerna	-9351
▁samhällets	-9352
eor	-9353
sch	-9354
rater	-9355
alterna	-9356
uilding	-9357
▁krafter	-9358
▁registers	-9359
▁scenarios	-9360
▁ekvationer	-9361
▁kontinuerligt	-9362
gue	-9363
▁60	-9364
ytan	-9365
▁iron	-9366
▁rang	-9367
irurgi	-9368
▁Varje	-9369
▁fibro	-9370
▁kirurg	-9371
▁empiriskt	-9372
▁fallstudier	-9373
▁professionella	-9374
DM	-9375
▁heller	-9376
HO	-9377
▁24	-9378
tage	-9379
älla	-9380
▁Sim	-9381
▁kvan	-9382
aching	-9383
produkter	-9384
▁studerat	-9385
▁uppmärks	-9386
▁nanometer	-9387
förändringarna	-9388
rav	-9389
▁IR	-9390
rants	-9391
▁oppos	-9392
▁yield	-9393
▁arrang	-9394
▁bekämpa	-9395
▁begränsar	-9396
▁potentialen	-9397
▁Giv	-9398
▁Mod	-9399
persp	-9400
▁bibe	-9401
▁uppnås	-9402
spolitik	-9403
komp	-9404
okrat	-9405
▁call	-9406
▁fuel	-9407
▁acids	-9408
▁utvalda	-9409
▁workers	-9410
ieffektiv	-9411
▁migrants	-9412
▁molecule	-9413
▁tillhandahålla	-9414
5.	-9415
posit	-9416
åriga	-9417
▁autoimmune	-9418
▁involvement	-9419
▁upprätthålla	-9420
▁dro	-9421
▁döda	-9422
▁emot	-9423
▁leva	-9424
▁illust	-9425
▁hospital	-9426
▁assessments	-9427
▁intersection	-9428
ukle	-9429
▁ovar	-9430
▁drivers	-9431
▁enklare	-9432
▁thinking	-9433
▁medborgare	-9434
▁overarching	-9435
ryck	-9436
▁faser	-9437
raction	-9438
▁gained	-9439
▁rollen	-9440
▁written	-9441
DA	-9442
–19	-9443
biquit	-9444
▁barnd	-9445
▁utrust	-9446
▁respiratory	-9447
▁NO	-9448
iklar	-9449
spott	-9450
▁synk	-9451
▁polym	-9452
▁faktum	-9453
▁främjar	-9454
▁arvsmassan	-9455
▁university	-9456
▁aggregation	-9457
▁electrochemical	-9458
11	-9459
dis	-9460
▁NP	-9461
kriv	-9462
▁drag	-9463
▁epith	-9464
▁acquis	-9465
▁liknar	-9466
▁skyddar	-9467
▁dödsfall	-9468
▁mediated	-9469
▁comparing	-9470
▁inference	-9471
▁utforskar	-9472
▁Ca	-9473
▁dju	-9474
ocyte	-9475
gången	-9476
▁topic	-9477
▁Molekyl	-9478
▁electronics	-9479
▁feasibility	-9480
▁Skol	-9481
▁pris	-9482
otential	-9483
▁generally	-9484
▁annorlunda	-9485
0,	-9486
cul	-9487
fro	-9488
bätt	-9489
▁mach	-9490
▁havet	-9491
▁utrym	-9492
▁direkta	-9493
▁automatis	-9494
▁swit	-9495
följande	-9496
▁demands	-9497
▁offentlig	-9498
▁skyddande	-9499
kärn	-9500
▁onc	-9501
▁adhes	-9502
▁dålig	-9503
▁worksh	-9504
▁Sustain	-9505
▁ancient	-9506
▁reflekt	-9507
▁folkhäls	-9508
▁antimicrobial	-9509
▁sän	-9510
▁aspect	-9511
▁förbli	-9512
▁påverkade	-9513
▁genombrott	-9514
▁slutsatser	-9515
▁övervakning	-9516
▁öst	-9517
ronics	-9518
▁saker	-9519
organic	-9520
▁aminos	-9521
▁itself	-9522
▁Program	-9523
▁insekter	-9524
▁särskilda	-9525
▁pedagogiska	-9526
östa	-9527
▁see	-9528
▁ändå	-9529
▁svamp	-9530
▁formen	-9531
▁options	-9532
▁hanteras	-9533
▁immunsystem	-9534
▁complementary	-9535
▁Neut	-9536
▁fåtal	-9537
erspråk	-9538
▁marken	-9539
▁realtid	-9540
▁reasons	-9541
edom	-9542
enni	-9543
sked	-9544
ukos	-9545
▁skif	-9546
▁egent	-9547
▁plack	-9548
▁bilden	-9549
resurser	-9550
▁spännande	-9551
▁availability	-9552
bär	-9553
usc	-9554
▁list	-9555
derför	-9556
smiljö	-9557
▁tagit	-9558
▁Enligt	-9559
▁avlägs	-9560
▁profile	-9561
▁särskild	-9562
▁signatures	-9563
▁BC	-9564
tian	-9565
▁Can	-9566
▁fick	-9567
▁probe	-9568
▁kretsar	-9569
▁svårare	-9570
▁trigger	-9571
förändring	-9572
▁regleringen	-9573
▁organisations	-9574
ismen	-9575
oscale	-9576
▁Medan	-9577
▁födda	-9578
▁talar	-9579
▁serious	-9580
▁prolifer	-9581
▁unexplored	-9582
▁connections	-9583
itar	-9584
▁job	-9585
▁läm	-9586
stock	-9587
▁Hence	-9588
miljöer	-9589
▁symbol	-9590
fts	-9591
okal	-9592
▁Eth	-9593
▁pla	-9594
▁inget	-9595
ignific	-9596
▁Varför	-9597
▁fåglar	-9598
▁sprids	-9599
reatment	-9600
▁hälften	-9601
▁tänkande	-9602
▁kännetecknas	-9603
▁α	-9604
bud	-9605
rer	-9606
▁når	-9607
▁phyl	-9608
▁vita	-9609
batter	-9610
▁agent	-9611
▁allra	-9612
idak	-9613
▁Mig	-9614
▁radical	-9615
▁detektera	-9616
▁pollution	-9617
▁modulation	-9618
▁åstadkomma	-9619
dra	-9620
aten	-9621
▁las	-9622
baserat	-9623
herence	-9624
Projektets	-9625
▁deformation	-9626
NF	-9627
PI	-9628
fly	-9629
▁Gre	-9630
▁Har	-9631
▁Mikro	-9632
▁traff	-9633
▁nervous	-9634
▁ämnesom	-9635
gene	-9636
▁Cont	-9637
ometri	-9638
▁näring	-9639
▁anpassade	-9640
▁International	-9641
LT	-9642
ssam	-9643
▁Rep	-9644
▁Tur	-9645
aving	-9646
joner	-9647
stone	-9648
▁bias	-9649
holders	-9650
▁causing	-9651
▁författ	-9652
insamling	-9653
ningsmedel	-9654
▁forces	-9655
▁väljer	-9656
▁årtion	-9657
vergence	-9658
▁scienti	-9659
▁datasets	-9660
▁kardiovask	-9661
)-	-9662
▁PT	-9663
bott	-9664
▁LHC	-9665
akter	-9666
▁doktor	-9667
▁vaccine	-9668
▁peripheral	-9669
▁structured	-9670
oly	-9671
ttar	-9672
ktiva	-9673
icians	-9674
▁bibli	-9675
▁ethics	-9676
▁kohort	-9677
elektriska	-9678
itis	-9679
vatt	-9680
▁tru	-9681
▁Optim	-9682
▁signifik	-9683
▁antikropp	-9684
lyck	-9685
oday	-9686
ödning	-9687
vinning	-9688
▁invari	-9689
▁trends	-9690
▁patogener	-9691
▁magnetfält	-9692
▁generationer	-9693
▁intresserade	-9694
▁kur	-9695
▁rhe	-9696
▁sperm	-9697
▁farmak	-9698
▁longer	-9699
▁parent	-9700
▁shared	-9701
▁influenced	-9702
&#246;	-9703
▁explos	-9704
▁revers	-9705
▁erhålla	-9706
▁maternal	-9707
▁cellernas	-9708
▁kognition	-9709
WP	-9710
itor	-9711
neur	-9712
actic	-9713
▁pump	-9714
▁rums	-9715
tagning	-9716
kopplade	-9717
▁förutse	-9718
▁fortsatt	-9719
▁analytiska	-9720
▁empirically	-9721
▁elektromagne	-9722
▁AF	-9723
kiat	-9724
▁lukt	-9725
ologer	-9726
osphere	-9727
▁prototyp	-9728
▁spectral	-9729
▁Hög	-9730
▁six	-9731
▁Sing	-9732
▁addi	-9733
▁pion	-9734
action	-9735
▁thought	-9736
▁unravel	-9737
▁fortsätter	-9738
▁grö	-9739
▁1000	-9740
▁bekrä	-9741
▁astron	-9742
▁builds	-9743
▁closely	-9744
▁privata	-9745
▁Standard	-9746
▁modified	-9747
▁kraftfulla	-9748
▁procedures	-9749
▁Universitet	-9750
▁förhållandet	-9751
tun	-9752
▁SS	-9753
sjuk	-9754
▁come	-9755
▁nanof	-9756
▁sprida	-9757
▁utilizing	-9758
▁accumulation	-9759
ern	-9760
ättar	-9761
▁week	-9762
ectual	-9763
▁Higgs	-9764
▁glaci	-9765
▁barnen	-9766
▁synlig	-9767
▁Individ	-9768
öjligheter	-9769
▁geografiska	-9770
vi	-9771
läs	-9772
▁Inf	-9773
▁cam	-9774
opoli	-9775
▁driva	-9776
▁pålit	-9777
▁släpp	-9778
▁manner	-9779
▁wireless	-9780
▁funktionell	-9781
▁implementera	-9782
▁ML	-9783
▁nät	-9784
▁nich	-9785
immuna	-9786
ulerar	-9787
▁attrib	-9788
▁endoth	-9789
▁inblandade	-9790
▁morphology	-9791
iem	-9792
ubbl	-9793
ilibrium	-9794
▁capable	-9795
forskningen	-9796
▁discourses	-9797
▁konstruktion	-9798
▁temperatures	-9799
zes	-9800
▁ASD	-9801
▁Sci	-9802
▁code	-9803
▁Africa	-9804
▁strains	-9805
▁metastasis	-9806
▁ojämlikhet	-9807
TR	-9808
ococc	-9809
▁date	-9810
▁imag	-9811
▁vägen	-9812
▁kidney	-9813
▁makrof	-9814
▁occurs	-9815
▁värdefull	-9816
▁värdefulla	-9817
▁Lik	-9818
▁concl	-9819
paramet	-9820
▁researcher	-9821
4,	-9822
LC	-9823
cyt	-9824
neum	-9825
▁slow	-9826
▁välj	-9827
illing	-9828
▁metam	-9829
▁Statis	-9830
▁priorit	-9831
▁recruit	-9832
▁Intellig	-9833
▁blodtryck	-9834
▁gemensamt	-9835
▁livslängd	-9836
▁perceptions	-9837
▁functionality	-9838
▁manufacturing	-9839
AG	-9840
gränsa	-9841
▁kopplad	-9842
efficient	-9843
▁cellulose	-9844
▁conflicts	-9845
▁constitute	-9846
▁metabolites	-9847
▁samhälleliga	-9848
IG	-9849
▁repres	-9850
smedicin	-9851
▁Artificial	-9852
▁introduced	-9853
jön	-9854
▁catalysis	-9855
▁chromatin	-9856
▁permanent	-9857
▁supported	-9858
▁personliga	-9859
▁energieffektiv	-9860
Ns	-9861
▁Hyp	-9862
atorn	-9863
finns	-9864
ectors	-9865
▁möter	-9866
▁occup	-9867
▁vätgas	-9868
▁centrum	-9869
▁praktiskt	-9870
▁storskalig	-9871
▁acquisition	-9872
▁bero	-9873
▁suic	-9874
osomal	-9875
▁Cardi	-9876
▁extract	-9877
▁forward	-9878
▁närvaro	-9879
▁nutrient	-9880
▁mechanics	-9881
▁beneficial	-9882
▁boundaries	-9883
fat	-9884
nät	-9885
uctu	-9886
▁bem	-9887
&#228;	-9888
intens	-9889
signal	-9890
▁frisk	-9891
▁okänt	-9892
▁Bayesian	-9893
▁globally	-9894
sprojektet	-9895
▁transformations	-9896
tio	-9897
▁Work	-9898
modern	-9899
otoxic	-9900
teborg	-9901
▁tycks	-9902
ståelse	-9903
▁infrar	-9904
▁slutänd	-9905
▁experter	-9906
▁byggstenar	-9907
▁statistics	-9908
Vårt	-9909
▁lad	-9910
antik	-9911
▁artiklar	-9912
▁perceived	-9913
▁stimulation	-9914
▁koncentration	-9915
män	-9916
▁AML	-9917
▁oav	-9918
flöde	-9919
oxide	-9920
stein	-9921
▁fång	-9922
▁vågl	-9923
▁Americ	-9924
resolved	-9925
▁barriär	-9926
▁debates	-9927
▁completely	-9928
▁inequalities	-9929
ya	-9930
vägg	-9931
▁Mars	-9932
▁built	-9933
tivation	-9934
▁Diabetes	-9935
▁estimation	-9936
▁programming	-9937
Ms	-9938
▁wid	-9939
ading	-9940
▁sent	-9941
omografi	-9942
oproblem	-9943
▁barriers	-9944
fria	-9945
▁Mot	-9946
gency	-9947
study	-9948
▁kallar	-9949
▁riktar	-9950
ulerande	-9951
▁däggdjur	-9952
▁represents	-9953
▁respectively	-9954
sur	-9955
▁dark	-9956
▁kval	-9957
▁ämnet	-9958
eningar	-9959
▁Disease	-9960
▁impaired	-9961
▁systematisk	-9962
ofag	-9963
öter	-9964
▁Val	-9965
▁kop	-9966
▁veh	-9967
▁dela	-9968
▁kosm	-9969
▁wood	-9970
▁array	-9971
▁Histor	-9972
rif	-9973
kons	-9974
▁stars	-9975
ifiering	-9976
ssystemet	-9977
structure	-9978
▁hydrolog	-9979
inflammatory	-9980
DS	-9981
Ds	-9982
omal	-9983
▁säger	-9984
▁börjat	-9985
▁illness	-9986
▁mätning	-9987
▁cooperation	-9988
▁partiklarna	-9989
70	-9990
▁olj	-9991
relev	-9992
staka	-9993
▁föds	-9994
▁uppen	-9995
▁fordon	-9996
▁clarify	-9997
▁programm	-9998
▁pharmacological	-9999
tz	-10000
omers	-10001
utfall	-10002
▁foreign	-10003
▁hundrat	-10004
▁outside	-10005
▁records	-10006
▁distribu	-10007
▁relaterar	-10008
▁improvement	-10009
▁psykiatriska	-10010
▁modifications	-10011
OP	-10012
aph	-10013
filer	-10014
ingly	-10015
▁port	-10016
▁andras	-10017
▁dåligt	-10018
▁språket	-10019
▁presented	-10020
▁psykologiska	-10021
Os	-10022
sty	-10023
▁UV	-10024
▁vast	-10025
floran	-10026
ledare	-10027
▁skatt	-10028
▁effort	-10029
▁urgent	-10030
▁framträ	-10031
spridning	-10032
▁påverkat	-10033
▁övervikt	-10034
romagnetic	-10035
▁indikerar	-10036
▁reference	-10037
▁miljöfaktorer	-10038
asp	-10039
box	-10040
inna	-10041
osin	-10042
▁Sål	-10043
▁fan	-10044
▁mim	-10045
cellen	-10046
▁absol	-10047
▁dators	-10048
▁museum	-10049
▁emotions	-10050
▁nordiska	-10051
▁Knowledge	-10052
▁geometriska	-10053
▁concentration	-10054
80	-10055
rac	-10056
▁Goth	-10057
inning	-10058
▁proven	-10059
▁bukspott	-10060
sson	-10061
Målet	-10062
▁Arch	-10063
▁exact	-10064
▁pekar	-10065
▁surviv	-10066
▁applicable	-10067
▁mångfalden	-10068
osen	-10069
pres	-10070
▁actual	-10071
▁benmär	-10072
▁feature	-10073
▁förflut	-10074
▁vattend	-10075
▁ultimate	-10076
▁observera	-10077
▁correlation	-10078
▁uppsättning	-10079
dd	-10080
infor	-10081
oider	-10082
▁rigor	-10083
elektro	-10084
▁anticip	-10085
▁periods	-10086
▁assembly	-10087
▁methylation	-10088
folk	-10089
oter	-10090
▁nat	-10091
▁kust	-10092
▁theor	-10093
ritical	-10094
▁smarta	-10095
izations	-10096
ammanfatt	-10097
▁omvandla	-10098
▁tidpunkt	-10099
▁arthritis	-10100
▁arbetsmarknaden	-10101
sid	-10102
▁AC	-10103
▁Adv	-10104
▁Super	-10105
▁vibra	-10106
duction	-10107
▁Commun	-10108
▁handel	-10109
▁barnets	-10110
▁metodik	-10111
perspektiv	-10112
▁biokemiska	-10113
▁segregation	-10114
▁vaccination	-10115
oked	-10116
▁pale	-10117
▁nukle	-10118
förlust	-10119
▁adapted	-10120
▁hjärtat	-10121
▁biomassa	-10122
▁decennier	-10123
▁förändringarna	-10124
HE	-10125
onti	-10126
otel	-10127
▁plasm	-10128
▁landsbyg	-10129
biologiska	-10130
▁discussions	-10131
▁uppfattning	-10132
▁chol	-10133
▁scar	-10134
▁black	-10135
esterol	-10136
känning	-10137
ilization	-10138
▁ambition	-10139
▁rumsliga	-10140
▁tidsperi	-10141
funktionen	-10142
▁planerade	-10143
▁determinants	-10144
▁neurologiska	-10145
ete	-10146
meå	-10147
gnos	-10148
▁50%	-10149
▁Tar	-10150
▁Prim	-10151
flödet	-10152
inrikt	-10153
▁serum	-10154
▁supply	-10155
bination	-10156
▁preventive	-10157
föd	-10158
nära	-10159
▁hor	-10160
otion	-10161
▁tree	-10162
▁livsh	-10163
ierarch	-10164
tenance	-10165
▁commonly	-10166
▁anledning	-10167
▁operations	-10168
merik	-10169
dighet	-10170
▁hypox	-10171
▁negativ	-10172
delningen	-10173
prot	-10174
toral	-10175
▁Deep	-10176
ökning	-10177
▁commer	-10178
▁dubbel	-10179
▁inträff	-10180
▁embedded	-10181
▁överleva	-10182
alternativ	-10183
▁direction	-10184
▁befolknings	-10185
▁theoretically	-10186
▁peer	-10187
▁sats	-10188
▁realistic	-10189
▁regionala	-10190
▁secretion	-10191
▁Functional	-10192
▁deltagarna	-10193
▁kvalitativ	-10194
▁stakeholders	-10195
▁framgångsrika	-10196
AV	-10197
änga	-10198
▁Svenska	-10199
▁aquatic	-10200
▁battery	-10201
pper	-10202
rays	-10203
▁safe	-10204
ogenes	-10205
▁säkra	-10206
respons	-10207
▁förmod	-10208
▁sönder	-10209
▁energin	-10210
▁modellsystem	-10211
▁växthusgaser	-10212
ING	-10213
▁rent	-10214
seende	-10215
▁Today	-10216
▁color	-10217
barriär	-10218
▁avsikt	-10219
▁socker	-10220
▁överens	-10221
▁kommuner	-10222
▁neuroblast	-10223
▁kommunicera	-10224
igura	-10225
▁fria	-10226
familj	-10227
monary	-10228
▁kallat	-10229
▁hypoteser	-10230
▁narrative	-10231
ofren	-10232
okoll	-10233
▁dilem	-10234
invasive	-10235
▁verkligen	-10236
▁förbränning	-10237
▁transnational	-10238
▁reconstruction	-10239
ML	-10240
29;	-10241
skan	-10242
smark	-10243
sätta	-10244
▁emph	-10245
▁längd	-10246
beteende	-10247
▁biopsies	-10248
▁optimala	-10249
▁appropriate	-10250
▁inkluderande	-10251
▁transcriptional	-10252
How	-10253
ben	-10254
jan	-10255
omin	-10256
phic	-10257
avirus	-10258
järnan	-10259
skilja	-10260
▁enskild	-10261
▁greater	-10262
▁picture	-10263
▁Recently	-10264
▁omvandlas	-10265
▁reaktions	-10266
litt	-10267
▁IBD	-10268
ifika	-10269
▁harm	-10270
▁pair	-10271
▁länderna	-10272
▁physiology	-10273
▁färdigheter	-10274
▁5-	-10275
tebr	-10276
Denna	-10277
▁skett	-10278
▁trend	-10279
▁orsakade	-10280
▁automated	-10281
▁strukturell	-10282
likt	-10283
▁GAB	-10284
▁höj	-10285
▁obst	-10286
▁slem	-10287
rought	-10288
▁ställa	-10289
reaktioner	-10290
▁frameworks	-10291
▁.	-10292
nes	-10293
▁kyr	-10294
skala	-10295
▁året	-10296
ustion	-10297
▁ackum	-10298
▁coordin	-10299
▁healing	-10300
▁migrant	-10301
▁examples	-10302
▁batteries	-10303
▁dominerande	-10304
zon	-10305
▁Metoden	-10306
▁defekter	-10307
▁användbar	-10308
▁handlingar	-10309
▁bakterierna	-10310
▁classification	-10311
arv	-10312
▁Cl	-10313
brain	-10314
emisk	-10315
ogenetic	-10316
▁enstaka	-10317
icul	-10318
▁Cir	-10319
åldern	-10320
▁färre	-10321
enderar	-10322
▁Arktis	-10323
▁pancreatic	-10324
▁aktiviteten	-10325
TI	-10326
▁pathogen	-10327
▁migrations	-10328
▁mikrobiella	-10329
▁dog	-10330
▁conver	-10331
▁Methods	-10332
▁åderför	-10333
▁transgen	-10334
▁vesicles	-10335
▁Sammantaget	-10336
▁exploration	-10337
BP	-10338
dvs	-10339
▁500	-10340
▁KTH	-10341
▁tio	-10342
▁glas	-10343
▁svarta	-10344
▁brister	-10345
▁display	-10346
▁existence	-10347
▁promoting	-10348
▁återfinns	-10349
▁uppmärksamm	-10350
▁~	-10351
amt	-10352
bid	-10353
▁nm	-10354
conn	-10355
rine	-10356
▁mog	-10357
▁ster	-10358
▁Energy	-10359
▁Nyligen	-10360
ophysical	-10361
▁bildning	-10362
▁pandemic	-10363
▁speciell	-10364
ota	-10365
▁dry	-10366
tidens	-10367
uktion	-10368
▁timing	-10369
▁bestånd	-10370
▁justice	-10371
▁förbered	-10372
▁medfödda	-10373
▁naturlig	-10374
▁organizational	-10375
types	-10376
▁väder	-10377
sområdet	-10378
▁Göteborg	-10379
▁instance	-10380
▁flerspråk	-10381
▁föreställ	-10382
▁migranter	-10383
▁vulnerable	-10384
cal	-10385
ägna	-10386
▁cli	-10387
▁eget	-10388
▁pros	-10389
▁Spect	-10390
▁misst	-10391
▁yngre	-10392
acteria	-10393
▁vikten	-10394
▁macroph	-10395
▁efterlik	-10396
▁reactive	-10397
▁diskrimin	-10398
▁politiker	-10399
▁proteinerna	-10400
▁förutsättning	-10401
▁concentrations	-10402
iell	-10403
enburg	-10404
▁Andra	-10405
▁agency	-10406
strålning	-10407
▁synaptic	-10408
osynthesis	-10409
▁laddnings	-10410
▁protocols	-10411
rosion	-10412
▁inher	-10413
▁Public	-10414
▁matris	-10415
▁marknads	-10416
▁upprepade	-10417
▁Brain	-10418
▁blods	-10419
▁alloys	-10420
▁fluctu	-10421
▁reserv	-10422
▁lagstif	-10423
▁ubiquit	-10424
▁sequences	-10425
▁pedagogical	-10426
▁inflammatorisk	-10427
kas	-10428
▁Umeå	-10429
▁nerve	-10430
ektorer	-10431
▁neurom	-10432
▁choices	-10433
▁collaborations	-10434
5)	-10435
gjor	-10436
råga	-10437
mafro	-10438
spers	-10439
unting	-10440
▁Fokus	-10441
▁drift	-10442
▁träff	-10443
▁biosens	-10444
▁likheter	-10445
▁användare	-10446
▁autophagy	-10447
esh	-10448
▁eye	-10449
▁huden	-10450
▁krist	-10451
kningen	-10452
kalkning	-10453
▁channels	-10454
▁generating	-10455
▁maintenance	-10456
▁föroreningar	-10457
▁administration	-10458
cale	-10459
▁tac	-10460
ortic	-10461
▁nack	-10462
ogenous	-10463
▁vanligare	-10464
▁biologiskt	-10465
▁individers	-10466
▁sulf	-10467
▁cities	-10468
▁estimates	-10469
▁recruited	-10470
▁egentligen	-10471
▁determining	-10472
4).	-10473
ece	-10474
växten	-10475
▁hybri	-10476
▁popul	-10477
▁kontra	-10478
▁refuge	-10479
▁fiction	-10480
▁shaping	-10481
▁konstnär	-10482
▁fungerande	-10483
▁neurological	-10484
▁registerdata	-10485
gap	-10486
plom	-10487
▁börja	-10488
▁house	-10489
▁speed	-10490
▁ifrågas	-10491
▁paradox	-10492
▁cellulär	-10493
läkt	-10494
▁stok	-10495
&#229;	-10496
▁whose	-10497
▁dietary	-10498
valiteten	-10499
▁repeated	-10500
▁vess	-10501
▁biobank	-10502
throughput	-10503
▁hypotesen	-10504
▁autoimmuna	-10505
▁komplement	-10506
▁Först	-10507
▁aktör	-10508
▁emitt	-10509
▁partial	-10510
▁reality	-10511
seffekter	-10512
▁chemicals	-10513
▁critically	-10514
inger	-10515
vanor	-10516
kamera	-10517
skalor	-10518
▁Language	-10519
▁duration	-10520
▁membranes	-10521
spektrometri	-10522
HT	-10523
kyl	-10524
tarm	-10525
▁194	-10526
▁sten	-10527
▁delas	-10528
ignaler	-10529
växande	-10530
▁idrott	-10531
ematiskt	-10532
▁regimes	-10533
▁producing	-10534
▁slutändan	-10535
III	-10536
▁day	-10537
▁bryts	-10538
ordning	-10539
▁fosfor	-10540
▁photon	-10541
▁tänker	-10542
▁antibody	-10543
▁property	-10544
▁designing	-10545
▁geometric	-10546
▁metastatic	-10547
▁rehabilitering	-10548
rekta	-10549
▁PFAS	-10550
▁male	-10551
▁källa	-10552
▁tänka	-10553
lingual	-10554
sökande	-10555
▁cyanob	-10556
▁stater	-10557
▁aktivera	-10558
▁referens	-10559
▁utbredning	-10560
▁pathological	-10561
▁Sex	-10562
ännisk	-10563
imaging	-10564
registret	-10565
▁adolescents	-10566
▁utmaningarna	-10567
60	-10568
åld	-10569
▁aw	-10570
flow	-10571
▁Lär	-10572
ierad	-10573
stället	-10574
▁creation	-10575
▁frågorna	-10576
▁isolated	-10577
▁assessing	-10578
▁intrinsic	-10579
▁operators	-10580
▁scientists	-10581
seud	-10582
umer	-10583
äter	-10584
▁KOL	-10585
▁mic	-10586
▁didak	-10587
▁givet	-10588
▁biofilm	-10589
▁parties	-10590
hantering	-10591
▁begränsa	-10592
▁beräknas	-10593
▁viktigare	-10594
Ga	-10595
▁ga	-10596
bras	-10597
down	-10598
prov	-10599
▁Tum	-10600
patient	-10601
▁ställs	-10602
▁emerged	-10603
stamceller	-10604
▁surrounding	-10605
▁collaborators	-10606
DL	-10607
iver	-10608
▁syr	-10609
jects	-10610
▁Malmö	-10611
▁Linköp	-10612
▁multis	-10613
▁stimulera	-10614
▁Technology	-10615
▁sekvensering	-10616
ush	-10617
ract	-10618
hrough	-10619
▁Elekt	-10620
▁Green	-10621
▁predicting	-10622
▁specificity	-10623
▁universities	-10624
▁förutsägelser	-10625
▁pharmaceutical	-10626
▁1-	-10627
▁happ	-10628
▁modes	-10629
▁behöva	-10630
▁varying	-10631
utbildningen	-10632
▁kvantitativ	-10633
▁corresponding	-10634
uch	-10635
▁PS	-10636
tiser	-10637
▁tros	-10638
arbetet	-10639
▁amerik	-10640
▁housing	-10641
▁flexible	-10642
▁analysing	-10643
▁förklarar	-10644
▁otillräck	-10645
▁lies	-10646
orphic	-10647
ässiga	-10648
▁auktor	-10649
ponering	-10650
receptor	-10651
▁uppvärmning	-10652
long	-10653
stäm	-10654
▁bund	-10655
▁kamp	-10656
skande	-10657
▁grant	-10658
▁index	-10659
▁bryter	-10660
▁engage	-10661
▁excell	-10662
▁coating	-10663
▁empirisk	-10664
▁Skandinav	-10665
▁problemen	-10666
▁Also	-10667
orient	-10668
▁react	-10669
▁Modern	-10670
▁porous	-10671
akthrough	-10672
▁Precision	-10673
▁implantat	-10674
▁uttrycker	-10675
skola	-10676
lingar	-10677
▁South	-10678
▁check	-10679
▁visst	-10680
▁overlo	-10681
▁infants	-10682
handlingar	-10683
▁behavioural	-10684
▁förbättring	-10685
▁karakterisering	-10686
TE	-10687
fa	-10688
100	-10689
nars	-10690
▁Ast	-10691
erapi	-10692
model	-10693
tility	-10694
ogether	-10695
▁fibros	-10696
▁Previous	-10697
▁decrease	-10698
▁estimated	-10699
▁protective	-10700
▁itu	-10701
▁rout	-10702
▁riktad	-10703
▁product	-10704
▁hastighet	-10705
▁ultraljud	-10706
ignificance	-10707
▁conservation	-10708
▁=	-10709
pul	-10710
ropy	-10711
▁she	-10712
▁mediat	-10713
▁perturb	-10714
▁constructed	-10715
lay	-10716
▁Dat	-10717
ancies	-10718
▁Huvud	-10719
▁front	-10720
▁ionic	-10721
▁löper	-10722
istiskt	-10723
▁circum	-10724
▁fascin	-10725
▁Således	-10726
▁neonatal	-10727
bildningen	-10728
▁Institutet	-10729
▁les	-10730
▁voc	-10731
▁grön	-10732
▁tjoc	-10733
ofreni	-10734
▁reper	-10735
▁spric	-10736
▁Bakgrund	-10737
skillnader	-10738
▁kvinnliga	-10739
▁Gothenburg	-10740
▁omfattning	-10741
▁statistisk	-10742
röj	-10743
napp	-10744
oval	-10745
test	-10746
ensus	-10747
▁kors	-10748
▁rymd	-10749
▁fullt	-10750
▁Integr	-10751
▁algebraic	-10752
askin	-10753
▁högst	-10754
▁hänger	-10755
▁multiv	-10756
▁genetik	-10757
▁försämrad	-10758
▁optimized	-10759
sproduktion	-10760
▁forskningsfält	-10761
▁tu	-10762
▁ped	-10763
▁impl	-10764
▁mera	-10765
▁sort	-10766
▁diabe	-10767
▁views	-10768
▁essenti	-10769
▁minskning	-10770
▁situationen	-10771
▁identifierade	-10772
lets	-10773
iring	-10774
▁blom	-10775
gångar	-10776
project	-10777
▁avfall	-10778
▁replac	-10779
▁History	-10780
▁missing	-10781
▁omständ	-10782
▁rättvisa	-10783
ordination	-10784
▁förflutna	-10785
▁proliferation	-10786
yro	-10787
olar	-10788
radi	-10789
▁CAR	-10790
▁Ram	-10791
anger	-10792
eries	-10793
▁papp	-10794
verket	-10795
▁målen	-10796
▁energil	-10797
ulationen	-10798
▁Clinical	-10799
▁digitalisering	-10800
▁War	-10801
▁antas	-10802
▁depth	-10803
ectious	-10804
illance	-10805
▁debatt	-10806
▁encoun	-10807
likheter	-10808
▁vardags	-10809
▁autonoma	-10810
▁mekanisk	-10811
▁kvantmekan	-10812
xy	-10813
LAS	-10814
hopp	-10815
▁Två	-10816
▁lämn	-10817
▁stats	-10818
▁Använd	-10819
▁laddning	-10820
▁selektiv	-10821
▁utformas	-10822
▁suffering	-10823
segenskaper	-10824
▁correlated	-10825
▁interacting	-10826
gel	-10827
itm	-10828
etts	-10829
▁rim	-10830
ifying	-10831
▁bakteriella	-10832
interaktioner	-10833
▁jämställdhet	-10834
▁utvecklandet	-10835
pep	-10836
emot	-10837
lext	-10838
▁SAR	-10839
▁Prote	-10840
elserna	-10841
enheter	-10842
▁latter	-10843
▁externa	-10844
▁numbers	-10845
▁mediciner	-10846
▁planering	-10847
▁definition	-10848
undersökning	-10849
biom	-10850
bodies	-10851
väggen	-10852
▁landet	-10853
▁Epigene	-10854
▁exploit	-10855
▁förskole	-10856
▁magnetism	-10857
▁strålbehandling	-10858
▁ID	-10859
▁Både	-10860
▁symp	-10861
▁decom	-10862
▁peace	-10863
ickness	-10864
▁inside	-10865
omvandling	-10866
EV	-10867
ele	-10868
▁(3	-10869
disk	-10870
▁Impro	-10871
▁fetts	-10872
▁hence	-10873
▁photo	-10874
▁pneum	-10875
▁Vilken	-10876
▁Central	-10877
▁optimer	-10878
▁emphasis	-10879
▁algorithm	-10880
▁regelbund	-10881
▁statistik	-10882
▁framställa	-10883
EF	-10884
Ut	-10885
ict	-10886
comp	-10887
▁crit	-10888
▁lind	-10889
▁klara	-10890
▁perme	-10891
oterapi	-10892
▁hematopo	-10893
▁Tradition	-10894
▁evolutionen	-10895
ozo	-10896
▁fal	-10897
▁gall	-10898
ovirus	-10899
▁Medic	-10900
▁belyser	-10901
▁radikal	-10902
▁fraction	-10903
▁conducting	-10904
▁regression	-10905
▁återkommande	-10906
ljus	-10907
physi	-10908
teros	-10909
miljön	-10910
▁Däremot	-10911
▁kontexter	-10912
▁livsstils	-10913
▁measuring	-10914
aker	-10915
fron	-10916
▁Liv	-10917
▁est	-10918
▁angi	-10919
letion	-10920
▁fungi	-10921
▁neder	-10922
iculties	-10923
vävnaden	-10924
▁genomet	-10925
▁ytterst	-10926
▁familjen	-10927
▁komplext	-10928
▁northern	-10929
▁tomography	-10930
CR	-10931
dö	-10932
’,	-10933
▁Char	-10934
asting	-10935
▁fatty	-10936
▁rymden	-10937
▁singular	-10938
▁visuella	-10939
▁companies	-10940
▁circulation	-10941
pit	-10942
aket	-10943
▁(4)	-10944
▁Bre	-10945
▁råd	-10946
▁seas	-10947
▁sinn	-10948
▁object	-10949
▁skriva	-10950
▁Sjukdom	-10951
▁belastning	-10952
kärlsjukdomar	-10953
▁intellectual	-10954
hög	-10955
▁kly	-10956
bilda	-10957
▁topp	-10958
▁comes	-10959
▁hushåll	-10960
▁minskade	-10961
rimination	-10962
▁activated	-10963
▁gränssnitt	-10964
▁diskussioner	-10965
rål	-10966
ödra	-10967
analy	-10968
▁Phot	-10969
▁ones	-10970
▁besvar	-10971
▁directed	-10972
▁existerar	-10973
▁blodkroppar	-10974
▁breakthrough	-10975
▁immunologiska	-10976
25	-10977
ktu	-10978
▁Ox	-10979
film	-10980
alian	-10981
▁massa	-10982
lagring	-10983
▁årligen	-10984
▁electroly	-10985
▁vardagliga	-10986
kär	-10987
domar	-10988
world	-10989
ardial	-10990
▁Arbet	-10991
▁flytande	-10992
▁offering	-10993
▁konsumtion	-10994
▁susceptibility	-10995
god	-10996
▁Life	-10997
▁maps	-10998
ishing	-10999
ländska	-11000
▁bridge	-11001
▁deepen	-11002
▁helhet	-11003
▁evaluating	-11004
▁intracellular	-11005
ana	-11006
▁ye	-11007
▁Barn	-11008
▁anhör	-11009
▁borde	-11010
▁harmon	-11011
▁variant	-11012
▁Mechanis	-11013
algoritmer	-11014
▁Östersjön	-11015
behandlingar	-11016
CA	-11017
▁Pe	-11018
atial	-11019
▁Back	-11020
▁Time	-11021
▁Year	-11022
krafter	-11023
▁strain	-11024
ledningen	-11025
▁hierarch	-11026
▁vesiklar	-11027
▁bestämmer	-11028
▁connectivity	-11029
bs	-11030
▁låter	-11031
▁adjust	-11032
▁confir	-11033
▁kolhyd	-11034
▁fritids	-11035
▁debatten	-11036
▁identifierar	-11037
▁responsibility	-11038
ash	-11039
krig	-11040
tros	-11041
▁Chris	-11042
igheten	-11043
▁ischem	-11044
▁notion	-11045
förmågan	-11046
▁accessible	-11047
▁ry	-11048
apes	-11049
enth	-11050
rene	-11051
delen	-11052
skatt	-11053
▁gett	-11054
▁intim	-11055
quality	-11056
ärskilt	-11057
ologists	-11058
▁develops	-11059
▁curriculum	-11060
▁initiation	-11061
▁polarization	-11062
erika	-11063
värda	-11064
▁bota	-11065
länder	-11066
skland	-11067
▁genre	-11068
▁clusters	-11069
▁hardware	-11070
▁invasion	-11071
▁praktisk	-11072
▁difficulties	-11073
bla	-11074
▁AS	-11075
▁Tekn	-11076
▁adip	-11077
▁jäst	-11078
▁mäts	-11079
aktighet	-11080
tization	-11081
▁evolved	-11082
▁pension	-11083
▁perioder	-11084
▁profound	-11085
▁enhancing	-11086
▁contextual	-11087
▁difference	-11088
▁thermodynam	-11089
▁framgångsrik	-11090
▁förväntningar	-11091
▁pH	-11092
▁fav	-11093
▁salt	-11094
otiska	-11095
▁tenderar	-11096
▁Behandling	-11097
▁Information	-11098
▁bedömningar	-11099
▁terrestrial	-11100
sub	-11101
▁Dr	-11102
beta	-11103
agnet	-11104
▁vålds	-11105
▁Differ	-11106
▁artrit	-11107
▁deform	-11108
▁handle	-11109
▁igenom	-11110
▁minimal	-11111
▁partner	-11112
▁supernov	-11113
▁abilities	-11114
GB	-11115
järt	-11116
▁scaff	-11117
▁sorts	-11118
centrationer	-11119
▁inkludering	-11120
▁noggrannhet	-11121
▁variationen	-11122
▁metabolomics	-11123
▁modification	-11124
▁observational	-11125
▁ana	-11126
insatser	-11127
▁reflect	-11128
▁demokrat	-11129
▁administra	-11130
▁ekonomiskt	-11131
▁leadership	-11132
▁endothelial	-11133
▁återkoppling	-11134
By	-11135
oms	-11136
▁dyg	-11137
▁asyl	-11138
▁negl	-11139
▁susp	-11140
biotic	-11141
▁World	-11142
▁Compar	-11143
rörelser	-11144
▁koordin	-11145
▁debatter	-11146
▁integreras	-11147
▁questionnaires	-11148
▁move	-11149
▁röst	-11150
rivill	-11151
▁retur	-11152
▁lyckats	-11153
▁kinetics	-11154
▁tillgången	-11155
stim	-11156
▁Most	-11157
knings	-11158
▁kalla	-11159
▁öppen	-11160
smodell	-11161
▁Gender	-11162
▁robusta	-11163
UN	-11164
▁ps	-11165
▁too	-11166
medic	-11167
▁bana	-11168
▁mätas	-11169
▁advanc	-11170
skopiska	-11171
▁Project	-11172
▁bränsle	-11173
▁habitat	-11174
▁inkomst	-11175
▁solving	-11176
▁förhindrar	-11177
▁GABA	-11178
ätning	-11179
▁serie	-11180
▁units	-11181
▁styrka	-11182
▁genomes	-11183
▁procent	-11184
receptorer	-11185
▁positions	-11186
▁autonomous	-11187
▁participate	-11188
▁HF	-11189
▁Ber	-11190
yndrom	-11191
odeller	-11192
▁använt	-11193
▁högsta	-11194
▁hormone	-11195
▁mjukvar	-11196
▁gradient	-11197
resultaten	-11198
▁renewable	-11199
▁resistenta	-11200
▁angreppssätt	-11201
▁distributions	-11202
▁vidareutveckla	-11203
ember	-11204
▁Four	-11205
▁väst	-11206
▁wider	-11207
▁flöden	-11208
▁shaped	-11209
▁metaboliter	-11210
▁mikroskopiska	-11211
sym	-11212
röna	-11213
urip	-11214
derna	-11215
▁Math	-11216
▁true	-11217
ighets	-11218
ontals	-11219
tumörer	-11220
▁karriär	-11221
smaterial	-11222
▁Exempelvis	-11223
▁syntetiska	-11224
”)	-11225
empt	-11226
▁alig	-11227
▁jobb	-11228
eceller	-11229
▁spinal	-11230
▁Current	-11231
▁giftiga	-11232
▁uppdrag	-11233
läkemedel	-11234
▁sexuella	-11235
▁subgroup	-11236
▁isolation	-11237
▁antaganden	-11238
▁övergången	-11239
▁transkriptions	-11240
US	-11241
▁fol	-11242
▁thor	-11243
reppet	-11244
strans	-11245
urpose	-11246
▁tempor	-11247
▁minskat	-11248
▁mission	-11249
organiska	-11250
uppgifter	-11251
störningar	-11252
▁bristande	-11253
▁förhåller	-11254
brid	-11255
emia	-11256
initi	-11257
▁Mass	-11258
icitet	-11259
▁blocks	-11260
▁utöver	-11261
▁Baserat	-11262
▁tydliga	-11263
▁generell	-11264
▁supporting	-11265
▁mörk	-11266
▁rules	-11267
ligtvis	-11268
▁annars	-11269
varianter	-11270
▁energiför	-11271
▁efficiently	-11272
▁superconduct	-11273
edical	-11274
▁coast	-11275
▁Theore	-11276
▁bostad	-11277
formance	-11278
ocardial	-11279
▁föränder	-11280
▁skeletal	-11281
▁surgical	-11282
▁consisting	-11283
spektroskopi	-11284
▁utvecklades	-11285
son	-11286
tad	-11287
spar	-11288
▁MAX	-11289
▁cykl	-11290
▁Psych	-11291
▁territ	-11292
▁diagnosed	-11293
▁categories	-11294
▁Environmental	-11295
▁kombinationer	-11296
▁vulnerability	-11297
ocamp	-11298
polar	-11299
▁bond	-11300
▁Metod	-11301
▁North	-11302
▁Sever	-11303
▁crime	-11304
▁channel	-11305
▁usually	-11306
metabolism	-11307
▁proportion	-11308
sekvensering	-11309
▁spridningen	-11310
åge	-11311
▁Hol	-11312
hjärn	-11313
▁djupa	-11314
▁share	-11315
mafrost	-11316
cultural	-11317
▁becomes	-11318
emination	-11319
▁läroplan	-11320
▁received	-11321
undersökningar	-11322
Ar	-11323
mus	-11324
▁Her	-11325
poses	-11326
företag	-11327
▁depend	-11328
▁parasit	-11329
▁osteopor	-11330
▁identities	-11331
▁kontrollerar	-11332
chen	-11333
▁gramm	-11334
levande	-11335
elet	-11336
fera	-11337
▁Ital	-11338
▁fred	-11339
▁ring	-11340
formen	-11341
▁drivs	-11342
▁Dagens	-11343
▁fysiken	-11344
▁laddade	-11345
oelectric	-11346
föreningar	-11347
▁virulence	-11348
Al	-11349
▁Någ	-11350
▁häv	-11351
▁fant	-11352
tiseras	-11353
▁destru	-11354
▁förfly	-11355
▁trafik	-11356
brukning	-11357
ippocamp	-11358
▁absence	-11359
▁familje	-11360
relationer	-11361
▁competition	-11362
iala	-11363
▁säkert	-11364
▁politic	-11365
▁integrity	-11366
▁uppfattas	-11367
komponenter	-11368
▁innovations	-11369
▁establishing	-11370
▁therapeutics	-11371
▁recommendations	-11372
främ	-11373
lande	-11374
▁head	-11375
ierark	-11376
syntes	-11377
ulture	-11378
▁firms	-11379
▁trace	-11380
ineering	-11381
▁Istället	-11382
▁elektroly	-11383
▁förskolan	-11384
▁Tillsammans	-11385
▁identifierats	-11386
obic	-11387
▁195	-11388
utive	-11389
▁röra	-11390
▁forec	-11391
▁råder	-11392
▁attrak	-11393
▁exists	-11394
▁glukos	-11395
▁substrat	-11396
▁Exploring	-11397
▁Betydelsen	-11398
▁implementeras	-11399
strä	-11400
Under	-11401
fysik	-11402
▁throm	-11403
areness	-11404
▁Afrika	-11405
▁fluxes	-11406
▁cycling	-11407
▁hindrar	-11408
nationella	-11409
▁förklaras	-11410
▁combinator	-11411
▁FN	-11412
▁rh	-11413
▁Bet	-11414
▁Lit	-11415
uripot	-11416
▁antis	-11417
▁pione	-11418
kallande	-11419
▁designs	-11420
▁leverera	-11421
▁mikrober	-11422
▁återskap	-11423
▁konsument	-11424
institution	-11425
▁combustion	-11426
▁definieras	-11427
▁traditionell	-11428
nien	-11429
▁Rob	-11430
▁Sens	-11431
▁låta	-11432
▁uttal	-11433
itioner	-11434
ometric	-11435
ranskärl	-11436
▁kortare	-11437
▁galaxies	-11438
▁variable	-11439
▁uttrycket	-11440
▁psychology	-11441
▁väsentligt	-11442
aran	-11443
mass	-11444
▁hyd	-11445
didak	-11446
ested	-11447
▁arts	-11448
moderna	-11449
▁Random	-11450
▁belägg	-11451
▁corpor	-11452
▁robots	-11453
ransport	-11454
▁resolve	-11455
▁commercial	-11456
▁containing	-11457
▁materialets	-11458
▁pap	-11459
▁vic	-11460
bolic	-11461
▁ever	-11462
▁Olika	-11463
▁never	-11464
▁tjock	-11465
▁belong	-11466
iserande	-11467
▁privacy	-11468
▁sträcker	-11469
▁Resultatet	-11470
▁nationellt	-11471
▁fluorescence	-11472
’.	-11473
urer	-11474
äkra	-11475
phase	-11476
▁Aust	-11477
▁wear	-11478
ophren	-11479
▁satis	-11480
culosis	-11481
▁becoming	-11482
▁informed	-11483
▁modifier	-11484
▁utformning	-11485
▁tillförlitliga	-11486
GR	-11487
juv	-11488
▁CP	-11489
▁Nob	-11490
▁aer	-11491
▁alls	-11492
▁cust	-11493
▁fate	-11494
▁lagra	-11495
ulatory	-11496
▁quanti	-11497
▁långtids	-11498
regulation	-11499
▁4.	-11500
empl	-11501
rarna	-11502
▁gives	-11503
reening	-11504
▁namely	-11505
▁galaxer	-11506
▁greatly	-11507
▁anpassar	-11508
▁ansträng	-11509
▁tracking	-11510
▁bibliotek	-11511
▁årtionden	-11512
▁facilities	-11513
▁immigrants	-11514
▁signalvägar	-11515
▁PA	-11516
naps	-11517
▁Isl	-11518
▁Care	-11519
▁chip	-11520
▁Target	-11521
▁hundra	-11522
▁severity	-11523
▁individens	-11524
▁katalytiska	-11525
▁propagation	-11526
▁topologiska	-11527
▁betydelsefull	-11528
▁UN	-11529
rept	-11530
▁Ver	-11531
ekterna	-11532
▁subtypes	-11533
▁forskarna	-11534
▁förändrad	-11535
▁oxidative	-11536
▁programmet	-11537
▁infekterade	-11538
▁immunotherapy	-11539
lagt	-11540
▁fik	-11541
oustic	-11542
▁epide	-11543
▁Utifrån	-11544
▁beliefs	-11545
▁reports	-11546
▁criteria	-11547
sprogrammet	-11548
▁mikroskopi	-11549
▁inflammations	-11550
▁undervisnings	-11551
▁Ly	-11552
▁suffer	-11553
▁terror	-11554
▁överty	-11555
▁energis	-11556
▁virtual	-11557
iguration	-11558
▁interventionen	-11559
TB	-11560
atile	-11561
flora	-11562
lings	-11563
▁hans	-11564
nation	-11565
▁antrop	-11566
▁förank	-11567
bildande	-11568
ografiskt	-11569
▁acquired	-11570
▁parental	-11571
▁förväntade	-11572
▁upptäckter	-11573
▁dysfunktion	-11574
▁Gr	-11575
defin	-11576
▁fanns	-11577
▁gröna	-11578
▁infar	-11579
▁mesta	-11580
▁Import	-11581
▁studiet	-11582
▁fracture	-11583
▁invasive	-11584
skostnader	-11585
▁eventuellt	-11586
▁målsättning	-11587
▁considerable	-11588
▁transporteras	-11589
CL	-11590
▁Def	-11591
ställer	-11592
▁ligand	-11593
▁tillit	-11594
▁decenni	-11595
▁reducera	-11596
▁separate	-11597
▁hantering	-11598
▁normative	-11599
▁substrates	-11600
▁laboratoriet	-11601
kult	-11602
human	-11603
▁nanos	-11604
▁åsikt	-11605
▁anslut	-11606
▁diplom	-11607
▁formas	-11608
formulär	-11609
ophrenia	-11610
▁begränsat	-11611
▁Experiment	-11612
▁transplant	-11613
▁considering	-11614
▁Ti	-11615
klud	-11616
open	-11617
views	-11618
▁dust	-11619
terade	-11620
▁earth	-11621
▁synen	-11622
▁intellekt	-11623
▁jämförelser	-11624
12	-11625
Om	-11626
leg	-11627
duce	-11628
lear	-11629
värd	-11630
▁Exp	-11631
behov	-11632
böcker	-11633
▁inspir	-11634
▁places	-11635
▁Results	-11636
▁massive	-11637
skrivning	-11638
▁excellent	-11639
antikroppar	-11640
▁frågeställ	-11641
▁kollektiva	-11642
▁utilization	-11643
▁förhoppningsvis	-11644
▁institutionella	-11645
Vil	-11646
▁iso	-11647
▁tand	-11648
kvalit	-11649
▁After	-11650
▁osteo	-11651
▁dödsorsak	-11652
▁nanoscale	-11653
▁storleken	-11654
▁cancerformer	-11655
▁Ada	-11656
▁GLP	-11657
▁comm	-11658
▁påsk	-11659
▁vary	-11660
ompati	-11661
▁audio	-11662
▁deriv	-11663
datorer	-11664
tension	-11665
▁veckor	-11666
▁amounts	-11667
▁andelen	-11668
▁Political	-11669
▁ursprungliga	-11670
▁Computational	-11671
▁åderförkalkning	-11672
atism	-11673
domet	-11674
utman	-11675
integr	-11676
ocrine	-11677
▁utreda	-11678
plankton	-11679
▁Western	-11680
▁nederbör	-11681
▁överföring	-11682
▁användandet	-11683
organisationer	-11684
▁funktionalitet	-11685
asser	-11686
▁niche	-11687
▁trees	-11688
strategi	-11689
▁konkreta	-11690
▁suppress	-11691
Resultaten	-11692
▁genetically	-11693
▁datainsamling	-11694
▁Sec	-11695
▁fäl	-11696
atsen	-11697
jukhus	-11698
▁oklar	-11699
▁numera	-11700
▁toward	-11701
▁cluster	-11702
▁interconn	-11703
▁tillverkas	-11704
▁automatiskt	-11705
▁framväxande	-11706
chip	-11707
eori	-11708
▁Col	-11709
▁Type	-11710
▁bron	-11711
villkor	-11712
▁disturb	-11713
plattform	-11714
▁governing	-11715
▁histories	-11716
▁miljontals	-11717
▁presenteras	-11718
▁schizofreni	-11719
4-	-11720
BB	-11721
ekv	-11722
▁HS	-11723
isons	-11724
▁2022	-11725
▁minimera	-11726
▁neutroph	-11727
▁validera	-11728
▁performing	-11729
▁replication	-11730
▁expectations	-11731
war	-11732
▁pga	-11733
times	-11734
▁game	-11735
▁Given	-11736
version	-11737
kvalitet	-11738
▁delarna	-11739
▁vattnet	-11740
▁positivt	-11741
▁starkare	-11742
▁tolkning	-11743
▁industrin	-11744
▁fabrication	-11745
bäd	-11746
0-20	-11747
▁Plan	-11748
▁etik	-11749
studies	-11750
▁minnen	-11751
umptions	-11752
skrävande	-11753
fördelning	-11754
▁litterära	-11755
▁instruction	-11756
▁sto	-11757
aters	-11758
vised	-11759
▁dämp	-11760
▁soll	-11761
▁carcin	-11762
▁mostly	-11763
▁vätskor	-11764
▁distingu	-11765
▁injuries	-11766
läggningar	-11767
▁infectious	-11768
▁interagera	-11769
▁sjuklighet	-11770
▁tidskrifter	-11771
▁quantification	-11772
):	-11773
inc	-11774
syra	-11775
▁enc	-11776
arens	-11777
löshet	-11778
▁kinds	-11779
atively	-11780
▁emphas	-11781
▁extrah	-11782
projektet	-11783
▁planeras	-11784
▁workshops	-11785
ikrobi	-11786
▁skapat	-11787
▁Genetic	-11788
▁antagon	-11789
▁defense	-11790
▁fysiskt	-11791
▁Dynamics	-11792
▁anpassas	-11793
▁dynamisk	-11794
▁operator	-11795
▁utilized	-11796
▁efterfrågan	-11797
▁föreliggande	-11798
▁produktivitet	-11799
▁Ro	-11800
wise	-11801
lades	-11802
▁avst	-11803
tnings	-11804
▁doing	-11805
▁yeast	-11806
ricitet	-11807
▁income	-11808
▁funding	-11809
▁kapital	-11810
▁överbry	-11811
▁nätverks	-11812
▁discussion	-11813
▁resonemang	-11814
▁expressions	-11815
▁combinations	-11816
--	-11817
zz	-11818
uni	-11819
Dess	-11820
▁300	-11821
urses	-11822
atigue	-11823
target	-11824
▁avsak	-11825
▁rutin	-11826
trolled	-11827
▁anisot	-11828
▁glutam	-11829
▁sätter	-11830
▁underp	-11831
verkande	-11832
▁hearing	-11833
▁oavsett	-11834
▁kranskärl	-11835
▁kristaller	-11836
▁reconstruct	-11837
▁reproduction	-11838
HR	-11839
▁ign	-11840
▁samti	-11841
▁scope	-11842
▁Therap	-11843
▁attempt	-11844
regulated	-11845
▁bidragit	-11846
▁reliability	-11847
▁verkligheten	-11848
▁pa	-11849
▁vak	-11850
▁mixt	-11851
aggreg	-11852
▁amplif	-11853
▁senior	-11854
urrently	-11855
▁Register	-11856
▁feminist	-11857
▁motsvarar	-11858
▁uppfattar	-11859
▁förknippade	-11860
▁analysmetoder	-11861
▁semiconductor	-11862
▁municipalities	-11863
rie	-11864
miss	-11865
ught	-11866
cence	-11867
▁föra	-11868
▁migr	-11869
cellers	-11870
ococcus	-11871
science	-11872
▁levern	-11873
▁remote	-11874
▁störst	-11875
▁condens	-11876
▁equation	-11877
▁interactive	-11878
GS	-11879
Si	-11880
do	-11881
rist	-11882
▁20%	-11883
ibrer	-11884
moder	-11885
▁panel	-11886
▁sitter	-11887
▁misslyck	-11888
▁yttersta	-11889
▁förändrat	-11890
▁selektion	-11891
▁kunskapslu	-11892
uid	-11893
▁Top	-11894
delse	-11895
exist	-11896
itors	-11897
oling	-11898
▁staten	-11899
okemiska	-11900
▁cellers	-11901
▁circuit	-11902
▁förblir	-11903
▁Tyskland	-11904
▁historien	-11905
▁landskapet	-11906
▁samarbeten	-11907
▁matematiskt	-11908
▁surveillance	-11909
▁epidemiological	-11910
LS	-11911
vey	-11912
crib	-11913
▁Cal	-11914
▁Jäm	-11915
ectal	-11916
▁mätt	-11917
▁minsta	-11918
▁blodprov	-11919
▁revealed	-11920
▁thorough	-11921
▁Institute	-11922
▁diagnoser	-11923
ställningar	-11924
▁instruments	-11925
▁återhämtning	-11926
aspor	-11927
▁Qual	-11928
▁hold	-11929
▁läsa	-11930
▁skic	-11931
ieskol	-11932
▁cycles	-11933
▁likvär	-11934
▁showed	-11935
▁endomet	-11936
▁Hittills	-11937
▁formella	-11938
▁universal	-11939
▁integrerad	-11940
På	-11941
ita	-11942
onia	-11943
rafts	-11944
▁klas	-11945
▁Roman	-11946
▁career	-11947
▁partly	-11948
▁lämplig	-11949
▁predikt	-11950
▁faktiska	-11951
▁företags	-11952
▁modulate	-11953
▁pluripot	-11954
▁reformer	-11955
▁statliga	-11956
▁fördelning	-11957
▁bearbetning	-11958
▁naturvetenskap	-11959
ckta	-11960
▁sed	-11961
träff	-11962
▁brus	-11963
▁boreal	-11964
▁hälsan	-11965
▁påvisa	-11966
▁steget	-11967
▁cellulosa	-11968
▁electrons	-11969
▁innehållet	-11970
▁publications	-11971
▁successfully	-11972
differ	-11973
▁skede	-11974
▁tvång	-11975
▁enrich	-11976
oprotein	-11977
▁förutom	-11978
▁generna	-11979
▁marknaden	-11980
▁sambanden	-11981
▁epithelial	-11982
▁verification	-11983
53	-11984
col	-11985
viv	-11986
▁AB	-11987
otid	-11988
otox	-11989
▁räds	-11990
▁academ	-11991
▁klarar	-11992
▁adipose	-11993
▁linking	-11994
▁skapandet	-11995
▁vattendrag	-11996
▁examination	-11997
EE	-11998
atch	-11999
cens	-12000
grade	-12001
▁COPD	-12002
▁orth	-12003
▁decade	-12004
▁Univers	-12005
▁conform	-12006
▁schemes	-12007
▁autoanti	-12008
▁initiativ	-12009
▁blodprover	-12010
▁assumptions	-12011
▁pathophysiology	-12012
▁sli	-12013
frast	-12014
▁edge	-12015
acchar	-12016
ckande	-12017
▁lakes	-12018
▁Klimat	-12019
▁flödes	-12020
▁leader	-12021
▁Diagnos	-12022
▁forests	-12023
▁rådande	-12024
▁säkrare	-12025
▁viruset	-12026
▁baseline	-12027
▁fertility	-12028
▁grundämnen	-12029
produktionen	-12030
▁Sustainable	-12031
▁preclinical	-12032
▁tillräcklig	-12033
▁UK	-12034
rors	-12035
risen	-12036
▁deal	-12037
ometer	-12038
▁alpha	-12039
▁shock	-12040
▁Assess	-12041
▁marknad	-12042
elektronik	-12043
▁speciation	-12044
▁bukspottkörtel	-12045
▁omständigheter	-12046
hern	-12047
eterm	-12048
orier	-12049
▁Drug	-12050
cement	-12051
▁miRNA	-12052
▁neigh	-12053
▁höguppl	-12054
▁lateral	-12055
▁pandemin	-12056
▁doktorand	-12057
▁transient	-12058
▁regulators	-12059
▁CM	-12060
▁zo	-12061
▁Orsak	-12062
▁ateros	-12063
smönster	-12064
▁visible	-12065
▁Department	-12066
▁flyktingar	-12067
▁introduction	-12068
▁efterföljande	-12069
▁philosophical	-12070
▁Kina	-12071
▁harv	-12072
energy	-12073
rophic	-12074
espread	-12075
electric	-12076
▁details	-12077
▁kluster	-12078
▁lipider	-12079
▁kromosom	-12080
▁interview	-12081
▁disciplines	-12082
▁effectively	-12083
▁MY	-12084
ryst	-12085
▁Tow	-12086
krain	-12087
lager	-12088
▁cues	-12089
imeter	-12090
▁brosk	-12091
osfären	-12092
▁fungal	-12093
▁kopplar	-12094
▁Magnetic	-12095
▁långvariga	-12096
▁recordings	-12097
▁biomaterial	-12098
åren	-12099
▁fine	-12100
regler	-12101
▁assay	-12102
▁gynns	-12103
stemper	-12104
▁Method	-12105
▁Single	-12106
▁nämnda	-12107
▁productivity	-12108
▁diskriminering	-12109
▁motståndskraft	-12110
gat	-12111
▁root	-12112
▁akuta	-12113
▁secret	-12114
beräkningar	-12115
▁verklighet	-12116
▁plasticitet	-12117
▁Inflammation	-12118
▁anpassningar	-12119
UD	-12120
▁11	-12121
▁Go	-12122
eless	-12123
▁Soci	-12124
▁frukt	-12125
▁sprider	-12126
▁planeter	-12127
▁zebrafish	-12128
▁internationally	-12129
fäl	-12130
kly	-12131
tos	-12132
neut	-12133
orrh	-12134
▁abn	-12135
instru	-12136
▁dedic	-12137
▁litet	-12138
▁review	-12139
▁vätska	-12140
▁förutspå	-12141
▁informal	-12142
▁military	-12143
▁aggressiv	-12144
▁introduce	-12145
▁kontakter	-12146
▁frequently	-12147
▁recognized	-12148
▁multilingual	-12149
▁karaktärisera	-12150
bod	-12151
ekan	-12152
oken	-12153
osity	-12154
▁Next	-12155
▁bruk	-12156
▁dose	-12157
▁tens	-12158
rosoph	-12159
▁glass	-12160
▁Predic	-12161
▁sträng	-12162
▁kroppar	-12163
▁markets	-12164
▁protect	-12165
▁reperto	-12166
▁purposes	-12167
▁employing	-12168
modellering	-12169
▁specialiserade	-12170
jöl	-12171
bear	-12172
iers	-12173
▁Due	-12174
▁tjän	-12175
behand	-12176
▁ledde	-12177
▁shall	-12178
▁Region	-12179
▁double	-12180
▁ritual	-12181
tillgäng	-12182
▁läsning	-12183
▁myeloid	-12184
▁solljus	-12185
▁fotosyntes	-12186
▁correlations	-12187
lare	-12188
▁oön	-12189
▁skör	-12190
▁deploy	-12191
▁easily	-12192
▁förtro	-12193
▁skalor	-12194
verkning	-12195
▁crystals	-12196
▁principle	-12197
▁rörlighet	-12198
▁genomsnitt	-12199
▁föreslagits	-12200
5-	-12201
onds	-12202
▁musc	-12203
aneous	-12204
▁equal	-12205
▁lagar	-12206
▁Combin	-12207
▁volume	-12208
▁integral	-12209
▁scalable	-12210
▁epidemiology	-12211
LR	-12212
▁asy	-12213
▁kör	-12214
▁aden	-12215
mässig	-12216
▁arise	-12217
▁heavy	-12218
factory	-12219
markörer	-12220
▁interna	-12221
ningssätt	-12222
▁transist	-12223
▁substrate	-12224
▁widespread	-12225
▁preferences	-12226
▁förklaringar	-12227
▁geographical	-12228
ION	-12229
icks	-12230
made	-12231
eskop	-12232
quate	-12233
▁2021	-12234
▁stäm	-12235
fusion	-12236
mitted	-12237
ängande	-12238
▁utröna	-12239
▁enkäter	-12240
▁kompens	-12241
▁maskiner	-12242
▁Kunskapen	-12243
▁awareness	-12244
▁studerade	-12245
stemperatur	-12246
▁lungcancer	-12247
▁authorities	-12248
▁demographic	-12249
▁musmodeller	-12250
▁sannolikhet	-12251
▁immunological	-12252
▁longitudinell	-12253
nits	-12254
▁hälsor	-12255
olecules	-12256
▁accompl	-12257
effective	-12258
▁främmande	-12259
▁glioblast	-12260
▁ledarskap	-12261
▁cellmembran	-12262
▁Utvecklingen	-12263
▁localization	-12264
▁stratification	-12265
tDNA	-12266
▁Some	-12267
▁blad	-12268
▁huge	-12269
ologic	-12270
aceller	-12271
depress	-12272
▁insuff	-12273
▁autofag	-12274
▁receive	-12275
cipitation	-12276
▁biomedical	-12277
▁hundratals	-12278
▁synchrotron	-12279
nt	-12280
ira	-12281
erac	-12282
nega	-12283
▁fear	-12284
urance	-12285
timering	-12286
▁preserv	-12287
materialet	-12288
ometabolic	-12289
bro	-12290
▁Fam	-12291
▁relies	-12292
▁bestånds	-12293
▁insamlade	-12294
▁parallellt	-12295
▁förbättringar	-12296
5,	-12297
rob	-12298
▁nä	-12299
oded	-12300
▁clinic	-12301
▁undergo	-12302
▁occurring	-12303
▁turbulence	-12304
framkallande	-12305
utbildningar	-12306
▁bioinformatics	-12307
MC	-12308
elt	-12309
▁EC	-12310
itus	-12311
tial	-12312
▁mor	-12313
▁apop	-12314
▁skön	-12315
▁extin	-12316
kodande	-12317
▁progen	-12318
▁ändrar	-12319
åtgärder	-12320
chemistry	-12321
▁kolonial	-12322
▁genomgått	-12323
▁intressen	-12324
▁samarbetar	-12325
▁energilagring	-12326
börj	-12327
▁räd	-12328
ritan	-12329
▁rikta	-12330
▁tarms	-12331
▁nutida	-12332
▁optisk	-12333
▁århund	-12334
▁substans	-12335
▁lösningen	-12336
▁molekylerna	-12337
▁grundforskning	-12338
▁LL	-12339
odic	-12340
▁avs	-12341
bruks	-12342
endly	-12343
lagda	-12344
▁RNAs	-12345
▁gått	-12346
▁news	-12347
▁anser	-12348
▁delay	-12349
▁fråge	-12350
▁tromb	-12351
▁urbana	-12352
orbritan	-12353
▁Imaging	-12354
▁reservo	-12355
▁possibly	-12356
▁permafrost	-12357
▁riskfaktor	-12358
▁vårdpersonal	-12359
▁longitudinella	-12360
▁EVs	-12361
▁Mit	-12362
▁oänd	-12363
identif	-12364
▁lägger	-12365
▁exhibit	-12366
studenter	-12367
▁äggstock	-12368
▁flertalet	-12369
▁predicted	-12370
▁blodsocker	-12371
DR	-12372
höj	-12373
andes	-12374
äthet	-12375
▁Följ	-12376
▁samlar	-12377
▁Modeller	-12378
▁concrete	-12379
▁kollision	-12380
▁modifiera	-12381
populationer	-12382
▁discrimination	-12383
ilk	-12384
umed	-12385
hertz	-12386
▁spåra	-12387
▁artros	-12388
▁livets	-12389
aktligen	-12390
▁reforms	-12391
▁algebras	-12392
▁säkerhets	-12393
▁manipulera	-12394
lt	-12395
pped	-12396
utby	-12397
vist	-12398
▁aren	-12399
stress	-12400
▁white	-12401
▁Projekt	-12402
▁ekologi	-12403
▁numerous	-12404
▁återspeg	-12405
▁Patienter	-12406
▁aesthetic	-12407
▁intensive	-12408
▁dependence	-12409
▁elektriskt	-12410
▁allmänheten	-12411
▁kommunicerar	-12412
▁kunskapslucka	-12413
▁70	-12414
▁US	-12415
eled	-12416
icle	-12417
opic	-12418
▁Sah	-12419
▁WHO	-12420
optim	-12421
rotein	-12422
▁Third	-12423
▁amino	-12424
▁rummet	-12425
dokument	-12426
gression	-12427
▁forming	-12428
▁showing	-12429
bakterier	-12430
resistant	-12431
▁djupgående	-12432
▁förhoppning	-12433
▁Er	-12434
adap	-12435
omes	-12436
▁fru	-12437
itude	-12438
▁Cons	-12439
▁born	-12440
▁länk	-12441
olymer	-12442
uclein	-12443
Studien	-12444
▁upptag	-12445
▁vinter	-12446
arbetare	-12447
▁Strateg	-12448
▁asymmet	-12449
▁hippocamp	-12450
▁describing	-12451
Gs	-12452
dy	-12453
▁80	-12454
opes	-12455
▁Dep	-12456
▁benäm	-12457
▁fresh	-12458
▁nanoc	-12459
▁skick	-12460
▁omedel	-12461
▁Mathema	-12462
▁advantag	-12463
▁cerebral	-12464
▁ingående	-12465
ekonomiska	-12466
▁programmer	-12467
▁produktions	-12468
AA	-12469
CoV	-12470
uum	-12471
▁mygg	-12472
▁atoms	-12473
▁volym	-12474
oplankton	-12475
producerande	-12476
▁kontrollerade	-12477
▁representative	-12478
▁Rys	-12479
▁lex	-12480
Trots	-12481
ended	-12482
prest	-12483
▁knapp	-12484
▁claims	-12485
▁skrift	-12486
▁tittar	-12487
▁Människ	-12488
▁coastal	-12489
▁förhand	-12490
rosophila	-12491
▁arvsmassa	-12492
▁ställning	-12493
▁individuell	-12494
▁recruitment	-12495
▁utformningen	-12496
Ch	-12497
KD	-12498
vor	-12499
▁IoT	-12500
▁pave	-12501
begräns	-12502
lärnings	-12503
▁absolut	-12504
▁reinfor	-12505
▁location	-12506
▁trådlösa	-12507
▁kollektiv	-12508
▁magnetisk	-12509
▁artificiella	-12510
▁dissemination	-12511
▁uppvärmningen	-12512
▁cancercellerna	-12513
▁AP	-12514
▁san	-12515
class	-12516
▁Path	-12517
▁utsat	-12518
▁avslöj	-12519
▁neutro	-12520
ditioner	-12521
▁bestäms	-12522
▁intended	-12523
▁grupperna	-12524
▁mobilitet	-12525
▁mänskligt	-12526
lementation	-12527
▁inkluderas	-12528
▁strengthen	-12529
▁1:	-12530
▁Relig	-12531
▁indep	-12532
▁Models	-12533
minstone	-12534
▁celldöd	-12535
▁editing	-12536
▁jämförs	-12537
▁melanom	-12538
▁antioxid	-12539
▁kandidat	-12540
generational	-12541
▁Scandinavian	-12542
▁hypertension	-12543
öds	-12544
▁3,	-12545
fakt	-12546
▁Dan	-12547
nable	-12548
oking	-12549
lingen	-12550
▁Labor	-12551
▁Monte	-12552
▁agera	-12553
▁dagar	-12554
▁solen	-12555
▁center	-12556
▁privat	-12557
ensively	-12558
sprojekt	-12559
▁conject	-12560
▁reagera	-12561
▁dopamine	-12562
diagnostik	-12563
▁Storbritan	-12564
▁Skandinavien	-12565
▁civilsamhäll	-12566
arr	-12567
high	-12568
olit	-12569
▁30%	-12570
▁Finn	-12571
▁Self	-12572
▁lyss	-12573
agenom	-12574
charge	-12575
▁uniqu	-12576
▁Parall	-12577
▁hämmar	-12578
▁partier	-12579
▁segment	-12580
▁uteslut	-12581
rapporter	-12582
▁prepared	-12583
▁Materials	-12584
▁fieldwork	-12585
nedsättning	-12586
▁makrofager	-12587
▁km	-12588
kemi	-12589
phal	-12590
▁Joh	-12591
nivån	-12592
▁wound	-12593
▁tackle	-12594
▁versus	-12595
ogeneous	-12596
▁började	-12597
▁precurs	-12598
▁Särskilt	-12599
▁Christian	-12600
▁bakterien	-12601
▁fördelningen	-12602
jälv	-12603
cyter	-12604
▁explor	-12605
▁flödet	-12606
▁luften	-12607
inations	-12608
▁Cognitive	-12609
▁malignant	-12610
▁comparisons	-12611
▁consequence	-12612
▁transcriptome	-12613
ube	-12614
▁Jap	-12615
▁inta	-12616
ysiska	-12617
läktade	-12618
▁depart	-12619
▁format	-12620
▁testar	-12621
▁isotope	-12622
▁Children	-12623
▁influens	-12624
▁registry	-12625
▁östrogen	-12626
▁biomarkör	-12627
▁signifikant	-12628
▁ten	-12629
▁vap	-12630
▁gamm	-12631
▁solv	-12632
sköter	-12633
▁topics	-12634
▁föroren	-12635
▁ranging	-12636
▁traffic	-12637
structured	-12638
▁nätverket	-12639
▁relaterat	-12640
▁constitutes	-12641
▁sjukdomarna	-12642
deb	-12643
hyp	-12644
oun	-12645
▁Hg	-12646
isch	-12647
▁10%	-12648
hälso	-12649
ämnet	-12650
▁SARS	-12651
▁unit	-12652
▁ansikt	-12653
▁evolve	-12654
ructural	-12655
▁kondens	-12656
▁detected	-12657
▁förnybara	-12658
▁Stockholms	-12659
▁initiatives	-12660
Ex	-12661
abs	-12662
▁bow	-12663
ekund	-12664
▁city	-12665
▁späd	-12666
botten	-12667
▁Hydro	-12668
▁recyc	-12669
projects	-12670
▁variera	-12671
▁advancing	-12672
▁sclerosis	-12673
▁advantages	-12674
▁myocardial	-12675
Fs	-12676
-18	-12677
3).	-12678
embl	-12679
▁tes	-12680
ifikt	-12681
▁capt	-12682
icking	-12683
▁compuls	-12684
▁proposes	-12685
▁moraliska	-12686
▁fullständig	-12687
▁chemotherapy	-12688
▁överlevnaden	-12689
gens	-12690
ront	-12691
omech	-12692
skomp	-12693
ubric	-12694
▁regen	-12695
riterier	-12696
▁försvår	-12697
▁accounts	-12698
▁epilepsi	-12699
▁hormones	-12700
▁Problemet	-12701
▁extraction	-12702
▁maintaining	-12703
▁fluctuations	-12704
▁masspektrometri	-12705
yal	-12706
irala	-12707
▁foto	-12708
▁idén	-12709
▁sist	-12710
▁helst	-12711
▁linje	-12712
▁varav	-12713
igenous	-12714
▁Several	-12715
▁archival	-12716
▁beräkningsm	-12717
TS	-12718
amic	-12719
ermal	-12720
micro	-12721
▁audi	-12722
identi	-12723
roppen	-12724
served	-12725
▁vilda	-12726
▁corpus	-12727
▁ryggra	-12728
oriented	-12729
▁gravida	-12730
▁föreslås	-12731
▁exception	-12732
▁kvalitets	-12733
▁monograph	-12734
▁neglected	-12735
▁employment	-12736
▁oer	-12737
antig	-12738
uding	-12739
▁book	-12740
center	-12741
coming	-12742
▁fasen	-12743
▁gastro	-12744
▁Electro	-12745
▁depends	-12746
▁hierark	-12747
▁verksamma	-12748
-6	-12749
14	-12750
fett	-12751
▁ort	-12752
▁bioc	-12753
▁klim	-12754
▁noll	-12755
trådar	-12756
ulator	-12757
▁Nobel	-12758
▁usage	-12759
istance	-12760
skultur	-12761
▁bodies	-12762
▁lagras	-12763
▁string	-12764
▁lattice	-12765
▁version	-12766
▁tolerans	-12767
▁fundament	-12768
▁mediators	-12769
▁traditionellt	-12770
▁undersökningen	-12771
ME	-12772
ladd	-12773
reds	-12774
▁cav	-12775
field	-12776
pande	-12777
▁error	-12778
▁möten	-12779
planter	-12780
▁attach	-12781
▁police	-12782
▁känslig	-12783
▁datamängder	-12784
▁improvements	-12785
▁tillgängligt	-12786
tur	-12787
▁pip	-12788
abler	-12789
▁Mitt	-12790
ticism	-12791
▁flöde	-12792
▁sched	-12793
bration	-12794
änkande	-12795
▁fatigue	-12796
▁promise	-12797
▁punkter	-12798
värdering	-12799
▁klassisk	-12800
emperature	-12801
▁angeläget	-12802
▁fenomenet	-12803
▁reception	-12804
▁accurately	-12805
▁utmaningen	-12806
mot	-12807
▁blå	-12808
▁lens	-12809
▁Appro	-12810
▁enough	-12811
▁litium	-12812
vascular	-12813
▁gravity	-12814
▁dominant	-12815
▁fördelak	-12816
profession	-12817
presterande	-12818
▁underlättar	-12819
▁temperaturen	-12820
tition	-12821
▁hämma	-12822
▁logic	-12823
▁södra	-12824
outhern	-12825
▁graden	-12826
▁angripa	-12827
▁ingrepp	-12828
disciplin	-12829
▁vanligen	-12830
▁aktiverar	-12831
▁arbetsliv	-12832
▁dramatiskt	-12833
▁arbetsplats	-12834
▁finansiella	-12835
▁CR	-12836
telef	-12837
▁aged	-12838
opathy	-12839
ponent	-12840
äkring	-12841
▁gamma	-12842
▁words	-12843
anismen	-12844
▁multip	-12845
specifik	-12846
▁Förbätt	-12847
▁plasmon	-12848
spraktiker	-12849
▁växelverkar	-12850
▁regulatoriska	-12851
FD	-12852
can	-12853
▁IN	-12854
varon	-12855
svatten	-12856
▁partik	-12857
▁fotoner	-12858
▁correlate	-12859
▁overlooked	-12860
▁sjukdomens	-12861
▁självständ	-12862
▁immunterapi	-12863
▁gymnasieskol	-12864
anu	-12865
iph	-12866
etry	-12867
fyll	-12868
lity	-12869
▁400	-12870
▁utm	-12871
reats	-12872
uling	-12873
▁Fran	-12874
▁utgå	-12875
▁hittar	-12876
▁notions	-12877
▁gentemot	-12878
▁persistent	-12879
▁polynomial	-12880
▁psykosocial	-12881
▁reproduktion	-12882
edda	-12883
▁Big	-12884
tisol	-12885
kommer	-12886
▁fetal	-12887
▁Mycket	-12888
▁kärnan	-12889
unskaper	-12890
▁Austral	-12891
▁skadade	-12892
▁blandning	-12893
▁entrepren	-12894
▁discipliner	-12895
▁plattformar	-12896
▁publicerade	-12897
▁questionnaire	-12898
Ne	-12899
ada	-12900
scy	-12901
foli	-12902
nals	-12903
ptive	-12904
▁brotts	-12905
störning	-12906
▁distance	-12907
▁troligen	-12908
▁vardagen	-12909
▁Linköping	-12910
▁reprogram	-12911
▁realistiska	-12912
▁implementing	-12913
▁establishment	-12914
IB	-12915
▁(”	-12916
▁pig	-12917
intag	-12918
rolog	-12919
värld	-12920
social	-12921
▁Autom	-12922
▁arriv	-12923
▁equip	-12924
▁leave	-12925
▁prove	-12926
▁excess	-12927
▁kriser	-12928
▁obstac	-12929
paration	-12930
register	-12931
▁funnits	-12932
▁Drosophila	-12933
▁kvaliteten	-12934
▁närliggande	-12935
gan	-12936
▁HE	-12937
▁Out	-12938
▁lum	-12939
alism	-12940
▁Ocean	-12941
▁nyans	-12942
▁radik	-12943
▁trigg	-12944
keletal	-12945
▁manage	-12946
▁porösa	-12947
▁ovarian	-12948
▁pulmonary	-12949
▁electrodes	-12950
▁antidepress	-12951
▁implikationer	-12952
▁skräddarsydda	-12953
▁betydelsefulla	-12954
▁kvantmekaniska	-12955
års	-12956
▁nul	-12957
ocene	-12958
▁vänt	-12959
▁byggs	-12960
▁följs	-12961
▁höger	-12962
▁nivån	-12963
ruption	-12964
▁plaque	-12965
▁Another	-12966
▁kinetic	-12967
▁stödjer	-12968
▁whereas	-12969
▁Patients	-12970
▁archives	-12971
▁diskussion	-12972
▁komplexiteten	-12973
cap	-12974
spl	-12975
rees	-12976
ilver	-12977
▁Neur	-12978
▁bens	-12979
▁bran	-12980
område	-12981
▁Empir	-12982
▁below	-12983
▁middle	-12984
▁superi	-12985
ognition	-12986
timately	-12987
▁energib	-12988
▁utmanar	-12989
▁dedicated	-12990
▁etablerat	-12991
▁medlemmar	-12992
▁halvledare	-12993
▁Leg	-12994
itism	-12995
skrid	-12996
▁bilar	-12997
▁föreg	-12998
▁Hospital	-12999
▁etiology	-13000
▁sociology	-13001
▁wellbeing	-13002
▁mobiltelef	-13003
▁integrerade	-13004
▁determination	-13005
isen	-13006
ooth	-13007
▁fair	-13008
▁Grund	-13009
▁State	-13010
▁fatta	-13011
▁polyp	-13012
▁entang	-13013
▁oerhör	-13014
▁överva	-13015
▁kalcium	-13016
▁methane	-13017
▁relapse	-13018
▁trender	-13019
▁heterost	-13020
▁depending	-13021
▁interests	-13022
▁Background	-13023
▁neurotrans	-13024
▁tillväxten	-13025
▁probability	-13026
500	-13027
▁Fil	-13028
ifrån	-13029
▁Chal	-13030
astisk	-13031
▁Deras	-13032
develop	-13033
▁ligands	-13034
bedömning	-13035
▁indirect	-13036
▁Character	-13037
▁allvarligt	-13038
▁upptäckten	-13039
▁Intelligence	-13040
▁Intervention	-13041
PET	-13042
ours	-13043
▁kli	-13044
kulos	-13045
▁dyra	-13046
entral	-13047
weight	-13048
ekonomi	-13049
▁nuclei	-13050
▁proxim	-13051
▁inblick	-13052
▁speglar	-13053
▁colonial	-13054
▁överföra	-13055
▁Vetenskap	-13056
▁diskurser	-13057
▁programme	-13058
▁preventing	-13059
▁circulating	-13060
▁systematiska	-13061
diff	-13062
ovis	-13063
ören	-13064
ybrid	-13065
▁moving	-13066
▁flickor	-13067
▁homogen	-13068
hastighet	-13069
poprotein	-13070
▁nivåerna	-13071
▁drivkrafter	-13072
90	-13073
linj	-13074
lock	-13075
loss	-13076
▁ATP	-13077
▁ROS	-13078
▁basal	-13079
biology	-13080
individ	-13081
▁billig	-13082
▁Chronic	-13083
▁Organic	-13084
▁surpris	-13085
▁electrode	-13086
▁identiteter	-13087
▁skillnaderna	-13088
▁Storbritannien	-13089
TP	-13090
▁OA	-13091
▁Läk	-13092
forms	-13093
innor	-13094
iotic	-13095
▁Kart	-13096
▁aven	-13097
forming	-13098
▁centers	-13099
▁föreslå	-13100
▁placebo	-13101
▁redskap	-13102
▁magnitude	-13103
▁förlossning	-13104
▁utbildningen	-13105
IA	-13106
▁Bo	-13107
▁Po	-13108
iber	-13109
▁Enz	-13110
▁utl	-13111
▁verb	-13112
quency	-13113
tionen	-13114
uclear	-13115
▁kodar	-13116
fenomen	-13117
▁Carbon	-13118
▁Norway	-13119
▁derive	-13120
▁förvån	-13121
clinical	-13122
▁Control	-13123
▁Towards	-13124
▁mentala	-13125
▁Treatment	-13126
▁greenhouse	-13127
▁approximately	-13128
imal	-13129
musk	-13130
▁Ice	-13131
opsis	-13132
solid	-13133
▁belö	-13134
▁kill	-13135
▁resur	-13136
ceptual	-13137
ohorter	-13138
emission	-13139
▁utrymme	-13140
▁implicit	-13141
▁detektion	-13142
ytor	-13143
observ	-13144
▁ATLAS	-13145
▁Evalu	-13146
▁radar	-13147
kirurgi	-13148
▁finally	-13149
▁started	-13150
▁analytic	-13151
▁coherent	-13152
▁journals	-13153
▁noggranna	-13154
▁undersökts	-13155
▁Preliminary	-13156
▁signalsubst	-13157
▁representera	-13158
PG	-13159
alge	-13160
ched	-13161
▁tung	-13162
kärnor	-13163
▁islet	-13164
▁roman	-13165
▁smält	-13166
▁stoppa	-13167
▁limiting	-13168
▁minority	-13169
▁elektricitet	-13170
▁architectures	-13171
2+	-13172
:1)	-13173
▁ru	-13174
ysis	-13175
▁MYC	-13176
▁pyl	-13177
ables	-13178
onsin	-13179
▁feel	-13180
spring	-13181
▁skoll	-13182
▁tunga	-13183
▁kompar	-13184
▁native	-13185
▁påbörj	-13186
brytning	-13187
▁spridas	-13188
▁elevated	-13189
▁förhöjda	-13190
▁uttrycka	-13191
▁åtminstone	-13192
intervention	-13193
▁microscopic	-13194
▁magnetkamera	-13195
▁arbetsmarknad	-13196
▁SF	-13197
▁SW	-13198
tagna	-13199
tistic	-13200
▁Carlo	-13201
▁antar	-13202
▁mjuka	-13203
▁tider	-13204
▁verkt	-13205
▁åtgär	-13206
idopsis	-13207
▁Föränd	-13208
▁belast	-13209
erahertz	-13210
▁erbjuds	-13211
▁abundant	-13212
förståelse	-13213
▁inclusive	-13214
▁multivari	-13215
försörjning	-13216
▁vocational	-13217
▁nanostructures	-13218
2).	-13219
mses	-13220
ohyd	-13221
▁cosm	-13222
▁webb	-13223
▁fritt	-13224
▁thous	-13225
ulerade	-13226
▁hemmet	-13227
ändelser	-13228
▁devoted	-13229
▁adhesion	-13230
▁storleks	-13231
▁utrustning	-13232
▁laboratorie	-13233
röm	-13234
▁21	-13235
sdag	-13236
▁RCT	-13237
osion	-13238
▁1990	-13239
▁Auto	-13240
▁rönt	-13241
ontinu	-13242
▁games	-13243
▁omics	-13244
▁fibrer	-13245
▁lämnar	-13246
▁Medical	-13247
▁samarbeta	-13248
▁zebrafisk	-13249
▁överlever	-13250
▁tarmfloran	-13251
▁katalysator	-13252
▁+	-13253
aller	-13254
▁China	-13255
ingarna	-13256
section	-13257
▁fronti	-13258
eratorer	-13259
styrning	-13260
▁klasser	-13261
▁stellar	-13262
▁toxiska	-13263
▁varmare	-13264
▁affinity	-13265
▁avlägsna	-13266
▁omöjligt	-13267
▁avvikelser	-13268
ems	-13269
isms	-13270
ligh	-13271
borne	-13272
idden	-13273
▁lågt	-13274
▁robo	-13275
iation	-13276
▁plöts	-13277
▁prost	-13278
delningar	-13279
▁American	-13280
▁Chalmers	-13281
▁flexibla	-13282
▁händelse	-13283
▁systemen	-13284
▁författare	-13285
▁understandings	-13286
eed	-13287
▁PG	-13288
anol	-13289
ench	-13290
skole	-13291
faller	-13292
otande	-13293
sättas	-13294
▁intake	-13295
▁omform	-13296
▁pylori	-13297
▁diaspor	-13298
▁fraktur	-13299
▁önskade	-13300
transport	-13301
▁förstärka	-13302
▁intensity	-13303
▁standards	-13304
▁hälsoproblem	-13305
Is	-13306
stol	-13307
▁xen	-13308
bärare	-13309
▁Three	-13310
▁inten	-13311
▁Frågan	-13312
▁assign	-13313
▁boende	-13314
▁Germany	-13315
▁endotel	-13316
sequently	-13317
▁infected	-13318
▁probabil	-13319
▁orsakssam	-13320
ställningen	-13321
▁potentiell	-13322
ammansättning	-13323
▁graviditeten	-13324
▁decomposition	-13325
lapp	-13326
▁AND	-13327
anten	-13328
▁cold	-13329
ningss	-13330
▁Incre	-13331
▁alone	-13332
▁fuels	-13333
▁skade	-13334
▁tusen	-13335
ftersom	-13336
▁filter	-13337
▁oxides	-13338
▁predis	-13339
▁skogar	-13340
▁tjockt	-13341
skunskap	-13342
▁bristen	-13343
▁freedom	-13344
▁nuläget	-13345
▁kvarstår	-13346
▁semantic	-13347
▁etnicitet	-13348
▁motoriska	-13349
▁gränsskikt	-13350
▁microfluid	-13351
▁diffraction	-13352
▁stokastiska	-13353
hä	-13354
iora	-13355
upus	-13356
▁(202	-13357
▁breda	-13358
kemiska	-13359
▁pollut	-13360
▁kraftig	-13361
▁feasible	-13362
resistenta	-13363
▁immunitet	-13364
▁rättsliga	-13365
▁aggressive	-13366
▁observeras	-13367
▁amerikanska	-13368
▁majoriteten	-13369
▁participating	-13370
▁schizophrenia	-13371
stret	-13372
▁Coun	-13373
▁gang	-13374
▁årsk	-13375
▁Japan	-13376
▁renal	-13377
läkning	-13378
▁indika	-13379
isations	-13380
spunkten	-13381
▁skleros	-13382
▁digitalt	-13383
▁operating	-13384
▁spänningar	-13385
▁macrophages	-13386
orta	-13387
burna	-13388
bundna	-13389
▁Focus	-13390
▁remar	-13391
hämmare	-13392
överlev	-13393
▁threats	-13394
▁vertebr	-13395
inducerad	-13396
▁vaccines	-13397
▁isolerade	-13398
▁kraftfull	-13399
▁strategic	-13400
▁utvecklad	-13401
▁agricultural	-13402
▁approximation	-13403
▁NB	-13404
born	-13405
▁Mid	-13406
empts	-13407
▁casc	-13408
▁cure	-13409
▁uppm	-13410
rained	-13411
▁decay	-13412
▁depos	-13413
ordnade	-13414
▁kemiskt	-13415
▁teknisk	-13416
▁ansvariga	-13417
▁completed	-13418
▁sufficient	-13419
▁flexibility	-13420
▁penet	-13421
▁defect	-13422
▁Physics	-13423
▁acoustic	-13424
▁tränings	-13425
▁diskuteras	-13426
▁discoveries	-13427
▁matematiken	-13428
▁functionally	-13429
▁patienternas	-13430
▁frågeformulär	-13431
enk	-13432
arch	-13433
atte	-13434
incl	-13435
cytes	-13436
▁Dels	-13437
▁försvag	-13438
▁remarka	-13439
▁weather	-13440
▁exposures	-13441
▁medication	-13442
▁antimikrobi	-13443
▁py	-13444
▁2014	-13445
▁anta	-13446
▁saliv	-13447
▁allergy	-13448
▁highest	-13449
▁misstän	-13450
▁någonsin	-13451
▁nutrition	-13452
▁Mechanisms	-13453
▁miljövänliga	-13454
▁visualisering	-13455
UR	-13456
esi	-13457
mak	-13458
mier	-13459
skolor	-13460
▁legis	-13461
▁lösas	-13462
▁weeks	-13463
▁pollin	-13464
eknologi	-13465
▁desired	-13466
▁förhöjd	-13467
▁inverse	-13468
▁Networks	-13469
▁discrete	-13470
▁ovanliga	-13471
▁decreased	-13472
▁formulera	-13473
▁kulturarv	-13474
▁religions	-13475
▁identitets	-13476
▁problemati	-13477
▁traditions	-13478
▁participant	-13479
Jag	-13480
erb	-13481
▁pow	-13482
ectin	-13483
▁Bang	-13484
▁cord	-13485
försel	-13486
▁chaper	-13487
▁flytta	-13488
▁synaps	-13489
▁innovativ	-13490
▁proteomik	-13491
▁kompetenser	-13492
▁tuberculosis	-13493
NO	-13494
nor	-13495
ceed	-13496
▁utö	-13497
hetor	-13498
assist	-13499
▁argue	-13500
▁stads	-13501
▁tving	-13502
linjära	-13503
▁strugg	-13504
▁tagits	-13505
▁tolkas	-13506
▁hypoxia	-13507
skontroll	-13508
▁Multiple	-13509
▁contains	-13510
▁områdena	-13511
▁superior	-13512
bildningar	-13513
▁principal	-13514
▁Forsknings	-13515
▁upplevelse	-13516
atalysatorer	-13517
▁observerade	-13518
▁orientation	-13519
▁innovationer	-13520
▁morphological	-13521
▁ämnesomsättning	-13522
kin	-13523
pes	-13524
osal	-13525
▁gir	-13526
▁Even	-13527
▁värm	-13528
grader	-13529
licing	-13530
▁ammon	-13531
▁ferro	-13532
▁påtag	-13533
▁refle	-13534
▁soils	-13535
▁barnens	-13536
▁located	-13537
mätningar	-13538
▁covering	-13539
▁kontrast	-13540
▁metaboliska	-13541
▁operationer	-13542
▁electromagnetic	-13543
▁,	-13544
olta	-13545
▁dyr	-13546
arier	-13547
fråga	-13548
inery	-13549
rowth	-13550
källor	-13551
▁photoc	-13552
tjänster	-13553
▁elastic	-13554
ceptional	-13555
▁ärftliga	-13556
▁elektronerna	-13557
my	-13558
NPs	-13559
ugg	-13560
yll	-13561
▁Häl	-13562
etabl	-13563
gångs	-13564
skydd	-13565
▁Båda	-13566
▁röda	-13567
▁vask	-13568
▁djupt	-13569
▁enact	-13570
▁träna	-13571
▁uncon	-13572
▁retrie	-13573
▁Epidemi	-13574
ordningar	-13575
▁although	-13576
▁guidance	-13577
▁Experimental	-13578
▁kommersiella	-13579
▁kontinuerlig	-13580
▁nervcellerna	-13581
▁simultaneous	-13582
▁inflammationen	-13583
▁kommunikationen	-13584
IK	-13585
UT	-13586
here	-13587
stri	-13588
äten	-13589
▁Est	-13590
cking	-13591
ietic	-13592
ompos	-13593
▁cryo	-13594
▁lake	-13595
ething	-13596
▁artic	-13597
▁ömses	-13598
actions	-13599
stammar	-13600
kiatriska	-13601
▁filosofi	-13602
▁organisk	-13603
▁survivors	-13604
▁intelligent	-13605
▁konstrueras	-13606
▁framställning	-13607
▁visualization	-13608
irth	-13609
▁Art	-13610
itron	-13611
ammare	-13612
hinnan	-13613
▁Kvant	-13614
▁Numer	-13615
stadiet	-13616
▁syften	-13617
▁vehicles	-13618
▁motivated	-13619
▁understud	-13620
▁arbetslivet	-13621
▁specialized	-13622
BV	-13623
▁År	-13624
What	-13625
agers	-13626
ropic	-13627
▁pack	-13628
drivna	-13629
randet	-13630
▁klart	-13631
▁seism	-13632
▁Within	-13633
▁kontin	-13634
▁connect	-13635
▁rättvis	-13636
▁Building	-13637
▁catalyst	-13638
▁garanter	-13639
▁symmetry	-13640
▁subgroups	-13641
▁workplace	-13642
▁collections	-13643
▁introducera	-13644
▁modifierade	-13645
▁psychosocial	-13646
▁substantially	-13647
▁individualized	-13648
-4	-13649
aut	-13650
▁GBM	-13651
▁gav	-13652
▁epis	-13653
▁Graph	-13654
▁kolleg	-13655
▁dioxide	-13656
▁detaljer	-13657
▁bristfäll	-13658
▁delaktighet	-13659
▁neurodevelop	-13660
-/	-13661
He	-13662
län	-13663
quis	-13664
tech	-13665
plett	-13666
prote	-13667
▁Svens	-13668
▁tankar	-13669
▁åsikter	-13670
▁förnyelse	-13671
▁initiated	-13672
▁entreprene	-13673
▁coordination	-13674
▁individanpassad	-13675
CE	-13676
kat	-13677
toxic	-13678
▁GPCR	-13679
▁Soft	-13680
▁adul	-13681
▁rena	-13682
▁sfär	-13683
itarian	-13684
plastic	-13685
▁airway	-13686
▁emerge	-13687
▁invent	-13688
▁lipids	-13689
personer	-13690
▁farliga	-13691
▁fördröj	-13692
icksilver	-13693
▁proteome	-13694
▁begränsas	-13695
▁estetiska	-13696
▁something	-13697
▁influencing	-13698
▁kontrolleras	-13699
▁nanomaterial	-13700
mpto	-13701
▁Analy	-13702
▁Teach	-13703
▁bowel	-13704
▁nanow	-13705
▁svaga	-13706
bilitet	-13707
student	-13708
▁Observ	-13709
▁obstru	-13710
▁passar	-13711
oretiskt	-13712
▁Purpose	-13713
▁Russian	-13714
▁Arabidopsis	-13715
▁förvaltning	-13716
▁lösningsmedel	-13717
anl	-13718
bert	-13719
gren	-13720
pack	-13721
▁Ste	-13722
orial	-13723
print	-13724
▁blind	-13725
defined	-13726
▁Ukrain	-13727
▁meteor	-13728
▁fibrobl	-13729
▁Advanced	-13730
▁topology	-13731
▁databaser	-13732
▁decenniet	-13733
▁inhibitor	-13734
▁sekvenser	-13735
▁ultrafast	-13736
▁undergoing	-13737
Mål	-13738
▁EV	-13739
konf	-13740
▁Ini	-13741
▁Änd	-13742
thood	-13743
▁stål	-13744
health	-13745
▁signs	-13746
▁Vinter	-13747
▁solidar	-13748
alisering	-13749
▁konstant	-13750
▁neutrino	-13751
▁turbulens	-13752
▁compulsory	-13753
▁tillfällen	-13754
▁sammanhanget	-13755
▁Identifiering	-13756
Se	-13757
öt	-13758
Year	-13759
vacc	-13760
▁Mem	-13761
aktiv	-13762
▁acet	-13763
arante	-13764
▁1970-	-13765
▁Ytter	-13766
element	-13767
ffekter	-13768
metoden	-13769
pedagog	-13770
▁tillfr	-13771
▁hjärnav	-13772
▁smaller	-13773
▁långsamt	-13774
▁treating	-13775
▁individuellt	-13776
▁MX	-13777
▁1-2	-13778
▁Bes	-13779
▁che	-13780
▁sof	-13781
▁hall	-13782
upptag	-13783
▁Their	-13784
▁Women	-13785
▁symbi	-13786
▁trait	-13787
▁Neural	-13788
▁följas	-13789
▁potent	-13790
▁värdet	-13791
frånvaro	-13792
▁typiskt	-13793
▁prestand	-13794
aktivering	-13795
▁multiplex	-13796
▁prevalent	-13797
▁prominent	-13798
▁proteomic	-13799
▁Ultimately	-13800
▁adaptations	-13801
▁personlighet	-13802
▁slumpmässiga	-13803
bos	-13804
▁Red	-13805
▁Sel	-13806
▁imm	-13807
ident	-13808
▁Jord	-13809
sprodu	-13810
▁fotok	-13811
▁gases	-13812
▁vilja	-13813
▁mutual	-13814
▁locally	-13815
▁överväg	-13816
▁extension	-13817
▁heterogena	-13818
▁reaktionen	-13819
▁Scandinavia	-13820
▁professions	-13821
▁representing	-13822
cob	-13823
akta	-13824
▁ECM	-13825
▁2030	-13826
▁Peri	-13827
▁intu	-13828
▁left	-13829
skaliga	-13830
▁agerar	-13831
▁täcker	-13832
▁Complex	-13833
▁Democra	-13834
▁visuell	-13835
organisms	-13836
▁Medicine	-13837
▁contacts	-13838
▁störning	-13839
▁övervaka	-13840
▁inneboende	-13841
▁integritet	-13842
▁sexualitet	-13843
▁preparation	-13844
När	-13845
makt	-13846
phyl	-13847
reson	-13848
scious	-13849
▁datav	-13850
intress	-13851
▁beting	-13852
▁riktas	-13853
▁känslom	-13854
▁tillväx	-13855
▁mitigate	-13856
▁satellit	-13857
▁deficiency	-13858
▁landscapes	-13859
▁materiella	-13860
▁complicated	-13861
▁CA	-13862
▁gal	-13863
▁nov	-13864
bitar	-13865
riser	-13866
▁span	-13867
onerna	-13868
▁spint	-13869
▁bevara	-13870
▁coding	-13871
▁crises	-13872
skridande	-13873
▁microbes	-13874
▁antiviral	-13875
▁microglia	-13876
▁skrivande	-13877
▁faktorerna	-13878
▁funktionsh	-13879
▁suggesting	-13880
▁gravitation	-13881
ödor	-13882
otide	-13883
▁ling	-13884
▁adekv	-13885
▁begra	-13886
▁erkän	-13887
cellulär	-13888
lational	-13889
▁liquids	-13890
▁typical	-13891
▁Universe	-13892
▁rörelsem	-13893
▁delstudie	-13894
▁fettsyror	-13895
▁insamling	-13896
▁aminosyror	-13897
▁appliceras	-13898
▁humanities	-13899
▁växthusgas	-13900
▁beskrivningar	-13901
▁SE	-13902
ride	-13903
sour	-13904
▁blo	-13905
▁cul	-13906
▁nic	-13907
innet	-13908
▁Ofta	-13909
beslut	-13910
▁arena	-13911
▁always	-13912
▁handla	-13913
▁ledare	-13914
▁alltför	-13915
▁arktiska	-13916
▁circumst	-13917
▁inherent	-13918
generering	-13919
▁akademisk	-13920
▁innehålla	-13921
▁translate	-13922
▁aggregates	-13923
▁positioner	-13924
▁prövningar	-13925
▁throughput	-13926
▁transgenic	-13927
▁multicenter	-13928
▁operational	-13929
PM	-13930
nc	-13931
▁ES	-13932
fund	-13933
hion	-13934
alger	-13935
power	-13936
▁ages	-13937
▁glyk	-13938
▁moth	-13939
ressed	-13940
ässigt	-13941
▁faster	-13942
▁kinase	-13943
▁mining	-13944
bildnings	-13945
▁Secondly	-13946
▁defining	-13947
▁detector	-13948
▁leverage	-13949
▁educators	-13950
▁personlig	-13951
▁continuously	-13952
▁spektroskopi	-13953
hö	-13954
biv	-13955
yra	-13956
pare	-13957
vand	-13958
▁193	-13959
▁tele	-13960
cykeln	-13961
▁Norge	-13962
▁incom	-13963
bildade	-13964
▁atomär	-13965
▁fluids	-13966
▁giving	-13967
▁tyvärr	-13968
▁billiga	-13969
▁genomgå	-13970
▁algoritm	-13971
▁dialogue	-13972
▁ryggrads	-13973
▁achieving	-13974
▁comprises	-13975
NR	-13976
éer	-13977
itin	-13978
Vilka	-13979
holds	-13980
▁Lung	-13981
▁inqu	-13982
▁genen	-13983
▁quasi	-13984
methods	-13985
skällor	-13986
▁förbin	-13987
▁attract	-13988
synuclein	-13989
▁Funktion	-13990
▁selektivt	-13991
▁kandidater	-13992
▁dimensional	-13993
▁kunskapsluckor	-13994
ha	-13995
▁IF	-13996
hist	-13997
odon	-13998
biops	-13999
emble	-14000
täckt	-14001
ovolta	-14002
övning	-14003
▁bestå	-14004
▁tract	-14005
compass	-14006
▁hamnar	-14007
▁wealth	-14008
breaking	-14009
electron	-14010
▁gradvis	-14011
▁blockera	-14012
▁interfer	-14013
▁mjukvara	-14014
arkitektur	-14015
▁klarlägga	-14016
▁övervinna	-14017
▁informella	-14018
▁transkript	-14019
▁politicians	-14020
ca	-14021
ww	-14022
näm	-14023
▁Tel	-14024
▁poj	-14025
▁Kron	-14026
▁gren	-14027
▁laws	-14028
▁boost	-14029
▁nodes	-14030
▁polys	-14031
▁Transc	-14032
▁mobila	-14033
▁oftare	-14034
ättningar	-14035
▁epilepsy	-14036
▁holistic	-14037
▁elektroder	-14038
▁hållbarhets	-14039
▁livshotande	-14040
rums	-14041
ägen	-14042
▁80%	-14043
▁flo	-14044
▁gott	-14045
▁veck	-14046
umatic	-14047
▁Raman	-14048
▁Policy	-14049
▁insekt	-14050
▁pollen	-14051
▁shapes	-14052
▁Spatial	-14053
▁anpassad	-14054
▁gymnasie	-14055
▁resolved	-14056
instrument	-14057
▁relaterad	-14058
undervisningen	-14059
▁uncertainties	-14060
insp	-14061
ovår	-14062
▁piv	-14063
▁2010	-14064
▁East	-14065
idence	-14066
▁brans	-14067
▁hepat	-14068
▁fyller	-14069
▁illustr	-14070
▁novelty	-14071
▁remodel	-14072
▁skapade	-14073
▁spectra	-14074
▁utbrott	-14075
▁Forskare	-14076
▁attempts	-14077
▁cellulos	-14078
▁dissemin	-14079
▁conserved	-14080
▁intention	-14081
▁Individual	-14082
eta	-14083
▁0.	-14084
smek	-14085
unna	-14086
▁rod	-14087
▁rut	-14088
onala	-14089
▁Find	-14090
▁push	-14091
▁Heter	-14092
▁tredj	-14093
bakteri	-14094
electro	-14095
faction	-14096
raktion	-14097
▁fluktu	-14098
▁infilt	-14099
▁policym	-14100
▁stadier	-14101
▁multipel	-14102
▁befintlig	-14103
▁cytometry	-14104
▁diskutera	-14105
▁Emellertid	-14106
▁archaeological	-14107
unn	-14108
▁Ak	-14109
with	-14110
▁pseud	-14111
ativity	-14112
▁deaths	-14113
▁uppträ	-14114
bakgrund	-14115
ssjukdom	-14116
▁Cultural	-14117
▁indirekt	-14118
▁patogena	-14119
▁reaktiva	-14120
▁prognoser	-14121
▁occurrence	-14122
▁ethnography	-14123
▁stimulering	-14124
▁lärarutbildning	-14125
ean	-14126
▁90	-14127
omas	-14128
super	-14129
▁tigh	-14130
byggda	-14131
otypes	-14132
▁gradu	-14133
▁holds	-14134
▁print	-14135
▁doctoral	-14136
▁Currently	-14137
▁expanding	-14138
▁attractive	-14139
▁mikromiljö	-14140
▁multiscale	-14141
▁radiotherapy	-14142
▁slumpmässigt	-14143
adi	-14144
rec	-14145
▁HC	-14146
erge	-14147
ibri	-14148
▁Kol	-14149
anish	-14150
▁Allt	-14151
▁fyll	-14152
händer	-14153
▁Några	-14154
▁Solar	-14155
▁Modell	-14156
▁errors	-14157
ometabol	-14158
▁regionen	-14159
▁sjukvårds	-14160
▁läkemedlet	-14161
▁potentials	-14162
▁substances	-14163
▁överbrygga	-14164
▁SL	-14165
acet	-14166
ened	-14167
osed	-14168
inosa	-14169
spect	-14170
▁Then	-14171
▁föda	-14172
▁prag	-14173
▁trän	-14174
muskel	-14175
▁Innov	-14176
▁setup	-14177
▁splitt	-14178
▁aggregat	-14179
▁användar	-14180
▁released	-14181
▁biophysical	-14182
▁livskvaliteten	-14183
▁patientgrupper	-14184
▁>	-14185
phy	-14186
▁Vir	-14187
▁akus	-14188
▁Visual	-14189
▁fibers	-14190
▁graphs	-14191
atalytic	-14192
forskare	-14193
rospinal	-14194
▁språklig	-14195
▁kontexten	-14196
▁parasiter	-14197
▁aggressiva	-14198
▁capability	-14199
▁långsiktig	-14200
▁Identification	-14201
ara	-14202
onomy	-14203
varor	-14204
escence	-14205
▁coping	-14206
▁hittat	-14207
▁kausala	-14208
▁official	-14209
▁sofistik	-14210
▁endogenous	-14211
▁patienters	-14212
▁genomförande	-14213
sol	-14214
xia	-14215
bank	-14216
rupt	-14217
ymal	-14218
▁Are	-14219
▁LED	-14220
▁Asia	-14221
▁Land	-14222
▁leta	-14223
▁trib	-14224
facial	-14225
kanska	-14226
▁birds	-14227
oriasis	-14228
▁Inform	-14229
▁Nature	-14230
▁adsorb	-14231
▁gränsy	-14232
▁jordar	-14233
▁marker	-14234
▁preser	-14235
kristall	-14236
oretiska	-14237
barriären	-14238
ordningen	-14239
▁melanoma	-14240
▁neuroner	-14241
▁sammanfl	-14242
▁Migration	-14243
▁induction	-14244
▁stimulerar	-14245
▁återställa	-14246
▁immunsvaret	-14247
▁tillgänglighet	-14248
9.	-14249
usk	-14250
▁hiv	-14251
▁slå	-14252
▁syd	-14253
eyond	-14254
ssvar	-14255
▁Pres	-14256
▁arom	-14257
profil	-14258
▁skild	-14259
filosof	-14260
▁sommar	-14261
▁isolera	-14262
▁seroton	-14263
▁Particip	-14264
▁anhöriga	-14265
▁guarante	-14266
▁livmoder	-14267
▁sediments	-14268
▁parallella	-14269
▁explanation	-14270
▁formulation	-14271
▁industriell	-14272
▁disabilities	-14273
OA	-14274
▁Gram	-14275
▁flav	-14276
▁gaser	-14277
amyloid	-14278
exempel	-14279
hållande	-14280
▁orsakad	-14281
cognitive	-14282
▁Chemical	-14283
▁koncentr	-14284
▁simulate	-14285
▁strömmar	-14286
▁högkvalit	-14287
▁miljöpåverkan	-14288
▁högpresterande	-14289
▁konstruktioner	-14290
CP	-14291
cit	-14292
Swed	-14293
last	-14294
▁Tan	-14295
▁urb	-14296
adian	-14297
ields	-14298
▁dric	-14299
▁vore	-14300
▁Ultra	-14301
▁covid	-14302
▁nanok	-14303
roscopy	-14304
▁Mellan	-14305
▁brings	-14306
▁fallen	-14307
▁minnet	-14308
▁smooth	-14309
ekvenser	-14310
▁enzymet	-14311
▁carriers	-14312
▁creative	-14313
▁perifera	-14314
▁överförs	-14315
▁adulthood	-14316
▁encompass	-14317
▁inorganic	-14318
▁nutrients	-14319
▁framträdande	-14320
abas	-14321
▁2008	-14322
ondens	-14323
sätter	-14324
▁ansam	-14325
▁synta	-14326
▁trygg	-14327
▁assemb	-14328
▁select	-14329
ativitet	-14330
▁oerhört	-14331
▁utvidga	-14332
batterier	-14333
▁narrativ	-14334
vårigheter	-14335
▁Mekanismer	-14336
▁miljömässiga	-14337
▁komponenterna	-14338
lä	-14339
ESS	-14340
▁2:	-14341
▁Why	-14342
▁dol	-14343
itiva	-14344
▁klor	-14345
▁sång	-14346
▁word	-14347
lihood	-14348
ptions	-14349
▁räkna	-14350
▁played	-14351
▁vector	-14352
▁Framför	-14353
cellernas	-14354
ventioner	-14355
▁fibrosis	-14356
▁oönskade	-14357
▁procedure	-14358
▁colorectal	-14359
▁indicators	-14360
▁uppbyggnad	-14361
HS	-14362
js	-14363
egu	-14364
orth	-14365
skog	-14366
skåd	-14367
▁CAD	-14368
okine	-14369
ussel	-14370
vning	-14371
▁Circ	-14372
▁firm	-14373
▁Class	-14374
▁retor	-14375
▁Together	-14376
▁coronary	-14377
▁könshorm	-14378
▁equipment	-14379
▁metagenom	-14380
▁engineered	-14381
▁interested	-14382
▁tillståndet	-14383
▁organisatoriska	-14384
NN	-14385
dos	-14386
ixed	-14387
▁Its	-14388
▁SiC	-14389
riven	-14390
▁opio	-14391
▁sjun	-14392
▁opens	-14393
medicin	-14394
▁chosen	-14395
▁supers	-14396
▁svaret	-14397
▁läkning	-14398
avelength	-14399
▁scenario	-14400
avbildning	-14401
▁naturally	-14402
▁nederbörd	-14403
▁offspring	-14404
▁elektrokemiska	-14405
▁microstructure	-14406
▁transcriptomic	-14407
iry	-14408
▁fj	-14409
ilic	-14410
▁fen	-14411
angle	-14412
ripts	-14413
▁arte	-14414
delser	-14415
ödande	-14416
▁initio	-14417
▁undvik	-14418
▁väster	-14419
▁operate	-14420
▁Effektiv	-14421
▁kriminal	-14422
▁eliminera	-14423
▁providers	-14424
▁provision	-14425
▁vibration	-14426
▁synkrotron	-14427
▁komplicerad	-14428
▁descriptions	-14429
▁koncentrationer	-14430
cken	-14431
▁ute	-14432
spart	-14433
värde	-14434
▁acts	-14435
elastic	-14436
▁Immune	-14437
▁måltav	-14438
▁origins	-14439
▁välkända	-14440
▁bevarande	-14441
▁composite	-14442
▁microwave	-14443
▁demokratin	-14444
▁Engineering	-14445
▁degeneration	-14446
▁metodologiska	-14447
PSC	-14448
cor	-14449
▁SP	-14450
▁Ze	-14451
▁Syd	-14452
robot	-14453
▁STEM	-14454
▁arti	-14455
vätska	-14456
▁termo	-14457
▁Indust	-14458
▁Stress	-14459
▁observe	-14460
▁pivotal	-14461
▁Physical	-14462
▁fortsatta	-14463
▁omvandlar	-14464
▁professor	-14465
▁genomförts	-14466
▁autoantibodies	-14467
▁extracellulära	-14468
▁socioekonomisk	-14469
LL	-14470
mal	-14471
hjäl	-14472
viol	-14473
rådet	-14474
▁gath	-14475
▁libr	-14476
▁2000-	-14477
▁Behav	-14478
▁Major	-14479
▁inbäd	-14480
▁mucus	-14481
▁seems	-14482
▁telom	-14483
aktörer	-14484
anlända	-14485
▁afford	-14486
[...]
