<unk>	0
<s>	0
</s>	0
er	-0
▁a	-1
in	-2
en	-3
ti	-4
▁s	-5
▁o	-6
▁t	-7
▁f	-8
an	-9
ar	-10
on	-11
▁m	-12
de	-13
ll	-14
▁p	-15
om	-16
or	-17
ing	-18
es	-19
tt	-20
al	-21
at	-22
is	-23
ro	-24
ch	-25
et	-26
▁b	-27
nd	-28
ör	-29
tion	-30
▁k	-31
ed	-32
▁th	-33
▁in	-34
▁e	-35
▁v	-36
▁h	-37
st	-38
re	-39
▁d	-40
li	-41
▁c	-42
▁de	-43
är	-44
as	-45
▁för	-46
▁the	-47
ka	-48
▁u	-49
▁och	-50
▁att	-51
le	-52
▁i	-53
▁g	-54
▁n	-55
▁av	-56
▁and	-57
ra	-58
ic	-59
▁of	-60
kt	-61
▁w	-62
it	-63
ur	-64
▁pro	-65
ation	-66
▁st	-67
ent	-68
▁en	-69
ning	-70
ec	-71
na	-72
ol	-73
▁to	-74
el	-75
em	-76
era	-77
▁l	-78
▁som	-79
▁ti	-80
ver	-81
ig	-82
ul	-83
▁vi	-84
▁an	-85
▁r	-86
pp	-87
os	-88
▁är	-89
ell	-90
▁for	-91
▁till	-92
ter	-93
▁re	-94
lig	-95
am	-96
ens	-97
ri	-98
▁T	-99
un	-100
▁på	-101
▁D	-102
▁mo	-103
eri	-104
ut	-105
mer	-106
il	-107
ru	-108
ag	-109
▁med	-110
tiv	-111
og	-112
sk	-113
▁be	-114
▁ex	-115
▁ut	-116
ess	-117
än	-118
tic	-119
▁kom	-120
▁(	-121
te	-122
ac	-123
and	-124
ill	-125
od	-126
ot	-127
ss	-128
ande	-129
op	-130
ab	-131
ån	-132
änd	-133
ect	-134
ff	-135
▁gen	-136
all	-137
id	-138
▁kan	-139
us	-140
per	-141
▁S	-142
ment	-143
ck	-144
▁Th	-145
ekt	-146
▁is	-147
▁fr	-148
ek	-149
ud	-150
▁proj	-151
▁will	-152
ant	-153
ce	-154
ik	-155
ys	-156
▁A	-157
▁sp	-158
▁det	-159
▁I	-160
▁M	-161
ct	-162
▁sy	-163
kl	-164
▁den	-165
nder	-166
ow	-167
ska	-168
▁con	-169
ate	-170
▁res	-171
im	-172
▁met	-173
tta	-174
iska	-175
▁mat	-176
um	-177
år	-178
▁kommer	-179
qu	-180
olog	-181
▁under	-182
ly	-183
stem	-184
för	-185
ith	-186
▁har	-187
ir	-188
▁com	-189
ga	-190
▁om	-191
ans	-192
del	-193
for	-194
▁ett	-195
mp	-196
ion	-197
est	-198
erial	-199
▁E	-200
du	-201
ller	-202
▁on	-203
ätt	-204
se	-205
den	-206
ve	-207
are	-208
▁with	-209
▁P	-210
th	-211
▁var	-212
ts	-213
vel	-214
▁int	-215
▁stud	-216
ering	-217
▁C	-218
vänd	-219
ad	-220
▁su	-221
▁sam	-222
▁F	-223
ge	-224
ak	-225
▁ne	-226
ical	-227
▁ch	-228
▁bi	-229
▁The	-230
ations	-231
ist	-232
▁ö	-233
▁ny	-234
äl	-235
het	-236
▁material	-237
▁använd	-238
▁by	-239
▁or	-240
att	-241
▁li	-242
di	-243
▁upp	-244
▁di	-245
isk	-246
▁exp	-247
ram	-248
da	-249
ction	-250
ity	-251
der	-252
▁tr	-253
vec	-254
▁ele	-255
form	-256
▁eff	-257
veckl	-258
ni	-259
▁project	-260
cess	-261
▁hur	-262
▁så	-263
ure	-264
▁as	-265
▁dat	-266
▁dess	-267
▁are	-268
ta	-269
▁pl	-270
▁genom	-271
▁comp	-272
▁sk	-273
ear	-274
▁V	-275
▁that	-276
ron	-277
erade	-278
▁H	-279
verk	-280
erna	-281
ass	-282
ningar	-283
ktion	-284
ati	-285
▁från	-286
ers	-287
ort	-288
▁utveckl	-289
tive	-290
▁par	-291
▁system	-292
▁al	-293
▁inte	-294
stå	-295
oc	-296
▁sig	-297
erg	-298
▁app	-299
ry	-300
lika	-301
▁fl	-302
liga	-303
eras	-304
ili	-305
var	-306
ble	-307
▁fun	-308
▁projekt	-309
▁vä	-310
▁N	-311
▁at	-312
▁wh	-313
ech	-314
▁j	-315
▁this	-316
▁imp	-317
sp	-318
und	-319
erar	-320
alys	-321
▁vil	-322
ution	-323
anis	-324
ast	-325
tig	-326
fi	-327
ft	-328
▁all	-329
▁cell	-330
eci	-331
▁se	-332
iz	-333
▁B	-334
▁De	-335
▁ar	-336
lo	-337
ne	-338
fic	-339
äm	-340
▁dessa	-341
▁G	-342
ven	-343
velop	-344
▁le	-345
ine	-346
gen	-347
▁olika	-348
▁process	-349
tiska	-350
▁stru	-351
▁ph	-352
▁pr	-353
enska	-354
▁detta	-355
lim	-356
▁där	-357
igh	-358
ore	-359
▁ha	-360
åg	-361
▁develop	-362
itet	-363
ics	-364
äg	-365
ser	-366
▁man	-367
▁co	-368
▁data	-369
ala	-370
ma	-371
enti	-372
ring	-373
▁R	-374
ator	-375
äk	-376
ated	-377
▁fram	-378
vol	-379
▁kon	-380
öj	-381
▁ro	-382
akt	-383
vi	-384
ph	-385
anc	-386
äll	-387
gr	-388
▁ac	-389
▁ska	-390
▁we	-391
▁kun	-392
▁stor	-393
able	-394
▁trans	-395
▁energ	-396
▁W	-397
▁bet	-398
ång	-399
lic	-400
▁model	-401
▁L	-402
▁nya	-403
ade	-404
ds	-405
▁In	-406
nings	-407
ty	-408
▁förstå	-409
pl	-410
ally	-411
▁us	-412
ål	-413
ilj	-414
atur	-415
▁mode	-416
tim	-417
fter	-418
ju	-419
ns	-420
tein	-421
ystem	-422
ella	-423
yl	-424
▁över	-425
▁beh	-426
▁speci	-427
▁eller	-428
bar	-429
▁fin	-430
▁from	-431
stru	-432
ms	-433
▁ad	-434
▁gener	-435
lex	-436
ligt	-437
▁O	-438
ies	-439
nam	-440
ild	-441
ynam	-442
tions	-443
▁vilk	-444
▁str	-445
ningen	-446
▁inom	-447
pt	-448
lek	-449
▁y	-450
▁qu	-451
▁vis	-452
åll	-453
ier	-454
sta	-455
▁forsk	-456
pro	-457
▁ob	-458
ular	-459
äng	-460
yp	-461
ance	-462
▁min	-463
oder	-464
ok	-465
eriment	-466
bin	-467
ere	-468
▁ma	-469
▁op	-470
ties	-471
pos	-472
ous	-473
sö	-474
▁meth	-475
bi	-476
▁gru	-477
ork	-478
▁analys	-479
▁när	-480
ence	-481
▁möj	-482
sc	-483
▁U	-484
▁ge	-485
vers	-486
▁my	-487
me	-488
▁This	-489
ling	-490
ci	-491
met	-492
ult	-493
▁hj	-494
▁elekt	-495
▁intera	-496
genska	-497
▁method	-498
vs	-499
▁produ	-500
ese	-501
▁cont	-502
br	-503
ov	-504
▁hos	-505
ktur	-506
enom	-507
▁inter	-508
▁hö	-509
earch	-510
▁vik	-511
▁protein	-512
yd	-513
▁2	-514
▁new	-515
▁vilket	-516
▁can	-517
▁Detta	-518
ektiv	-519
ekn	-520
▁experiment	-521
äns	-522
▁whi	-523
▁gör	-524
▁komp	-525
▁kv	-526
genskaper	-527
ets	-528
volution	-529
lu	-530
sig	-531
cks	-532
▁reg	-533
tical	-534
▁high	-535
gör	-536
mo	-537
ellan	-538
ap	-539
stand	-540
▁Det	-541
par	-542
▁form	-543
pr	-544
som	-545
vå	-546
▁Vi	-547
▁mellan	-548
rä	-549
ös	-550
xt	-551
▁milj	-552
dig	-553
▁so	-554
▁dis	-555
ility	-556
formation	-557
ary	-558
▁bas	-559
▁vid	-560
la	-561
ull	-562
▁org	-563
mun	-564
▁diff	-565
▁vari	-566
cket	-567
man	-568
▁aim	-569
omet	-570
ential	-571
rå	-572
▁research	-573
ark	-574
icro	-575
ach	-576
ende	-577
bas	-578
ät	-579
▁inc	-580
▁ext	-581
▁nan	-582
ology	-583
▁proble	-584
▁sim	-585
).	-586
ära	-587
▁sol	-588
ste	-589
ves	-590
ånga	-591
ug	-592
▁dynam	-593
▁grund	-594
▁which	-595
▁elect	-596
▁men	-597
▁pot	-598
▁desig	-599
ang	-600
▁inf	-601
ors	-602
▁mycket	-603
▁understand	-604
▁struct	-605
▁1	-606
▁egenskaper	-607
▁per	-608
lekyl	-609
▁ver	-610
NA	-611
▁fi	-612
▁tech	-613
▁mag	-614
▁påverk	-615
emp	-616
▁mer	-617
ress	-618
act	-619
ats	-620
ikro	-621
ory	-622
▁För	-623
erad	-624
▁finns	-625
ckså	-626
▁syn	-627
▁vår	-628
▁K	-629
▁hög	-630
▁their	-631
▁också	-632
▁efter	-633
▁del	-634
jekt	-635
ord	-636
ationer	-637
▁un	-638
▁these	-639
▁ko	-640
▁vär	-641
gg	-642
lec	-643
▁undersö	-644
vis	-645
▁have	-646
denti	-647
ating	-648
▁ber	-649
▁pre	-650
▁nu	-651
▁En	-652
ärn	-653
▁sm	-654
ulti	-655
▁no	-656
ämp	-657
pa	-658
▁te	-659
▁andra	-660
ön	-661
vär	-662
▁kunna	-663
▁how	-664
ide	-665
ase	-666
▁We	-667
▁sh	-668
ay	-669
led	-670
ändring	-671
▁identi	-672
▁Den	-673
▁ins	-674
▁ra	-675
änn	-676
▁mech	-677
juk	-678
ugh	-679
▁sc	-680
rib	-681
str	-682
klar	-683
▁materials	-684
▁micro	-685
▁denna	-686
als	-687
▁utveckla	-688
skap	-689
▁deras	-690
▁kall	-691
nas	-692
▁använda	-693
atten	-694
▁tekn	-695
▁ab	-696
arb	-697
▁projektet	-698
ace	-699
enc	-700
limat	-701
▁Dess	-702
▁im	-703
ric	-704
tis	-705
ox	-706
▁methods	-707
▁applic	-708
▁evolution	-709
håll	-710
▁ä	-711
▁förb	-712
▁such	-713
▁information	-714
else	-715
▁gene	-716
▁hjäl	-717
▁metoder	-718
▁appro	-719
▁differ	-720
▁möjlig	-721
bb	-722
ents	-723
ack	-724
cell	-725
▁led	-726
yn	-727
acter	-728
▁tra	-729
▁pol	-730
▁gra	-731
▁vara	-732
▁has	-733
aly	-734
va	-735
▁sätt	-736
tiga	-737
▁rec	-738
so	-739
▁design	-740
work	-741
▁function	-742
ikt	-743
▁väx	-744
▁do	-745
▁ass	-746
ogen	-747
▁models	-748
),	-749
▁uni	-750
ons	-751
▁using	-752
▁hel	-753
▁modeller	-754
▁bl	-755
ind	-756
▁studera	-757
▁mot	-758
▁sin	-759
empel	-760
ulation	-761
▁molekyl	-762
vid	-763
now	-764
▁även	-765
▁många	-766
ägg	-767
▁utveckling	-768
▁klimat	-769
▁gro	-770
oth	-771
tiva	-772
▁kem	-773
▁effektiv	-774
orer	-775
▁3	-776
ater	-777
▁red	-778
▁bes	-779
▁multi	-780
art	-781
▁study	-782
int	-783
▁Pro	-784
▁funktion	-785
▁dem	-786
▁ek	-787
00	-788
▁mikro	-789
till	-790
ological	-791
ändringar	-792
rar	-793
val	-794
▁natur	-795
ely	-796
▁systems	-797
lob	-798
ved	-799
ive	-800
ther	-801
▁fo	-802
ates	-803
tik	-804
▁modell	-805
dom	-806
utom	-807
▁use	-808
alis	-809
anismer	-810
ization	-811
vir	-812
emper	-813
tisk	-814
des	-815
▁miljö	-816
ond	-817
▁understanding	-818
▁viktig	-819
ep	-820
▁propos	-821
▁samt	-822
sa	-823
▁sub	-824
▁it	-825
ale	-826
▁forskning	-827
lar	-828
viron	-829
ects	-830
oss	-831
▁exempel	-832
▁proper	-833
vironment	-834
▁lig	-835
▁sl	-836
▁bå	-837
ins	-838
▁problem	-839
ability	-840
▁struktur	-841
uts	-842
▁po	-843
ial	-844
ration	-845
ici	-846
een	-847
aterial	-848
▁energi	-849
ex	-850
▁år	-851
rough	-852
▁potential	-853
▁å	-854
▁förbätt	-855
ber	-856
▁plan	-857
ateg	-858
▁kol	-859
fy	-860
age	-861
▁result	-862
▁our	-863
▁glob	-864
ange	-865
ue	-866
ition	-867
ust	-868
ele	-869
▁typ	-870
osystem	-871
▁approach	-872
lass	-873
ip	-874
esent	-875
▁mechanis	-876
▁sv	-877
öd	-878
ension	-879
oner	-880
vestig	-881
▁bio	-882
tics	-883
emical	-884
▁test	-885
Th	-886
fer	-887
ask	-888
▁lös	-889
lin	-890
▁novel	-891
▁properties	-892
jukdom	-893
limate	-894
▁environment	-895
▁fys	-896
antum	-897
▁simul	-898
▁me	-899
tter	-900
▁vatten	-901
arge	-902
duc	-903
ologiska	-904
▁interaction	-905
jur	-906
ingar	-907
ures	-908
ong	-909
ym	-910
ath	-911
co	-912
▁investig	-913
▁undersöka	-914
les	-915
tro	-916
spro	-917
▁kunskap	-918
▁also	-919
▁tillämp	-920
amm	-921
eter	-922
▁organ	-923
rom	-924
▁bar	-925
▁phys	-926
▁optim	-927
tal	-928
ligen	-929
▁obser	-930
▁temper	-931
▁know	-932
ween	-933
erm	-934
▁St	-935
▁bild	-936
▁både	-937
▁–	-938
▁adv	-939
▁between	-940
▁lear	-941
ellt	-942
nabb	-943
▁mek	-944
ie	-945
▁påverkar	-946
▁rel	-947
dan	-948
▁här	-949
▁bli	-950
▁development	-951
anti	-952
▁into	-953
get	-954
med	-955
▁energy	-956
heter	-957
mode	-958
▁molec	-959
▁sur	-960
tiklar	-961
▁best	-962
nal	-963
ings	-964
iss	-965
ori	-966
▁pred	-967
▁effekt	-968
▁magne	-969
rid	-970
vä	-971
▁ec	-972
▁kombin	-973
lag	-974
▁Dessa	-975
▁kvant	-976
ish	-977
atis	-978
ural	-979
enter	-980
andling	-981
imension	-982
▁-	-983
▁förståelse	-984
urr	-985
bara	-986
▁stora	-987
ational	-988
▁theory	-989
av	-990
yr	-991
▁än	-992
▁oss	-993
▁två	-994
▁bid	-995
akteri	-996
rol	-997
▁elektron	-998
▁resp	-999
▁tar	-1000
▁provi	-1001
▁hjälp	-1002
▁tre	-1003
ions	-1004
▁ta	-1005
▁inne	-1006
▁teknik	-1007
ämn	-1008
ymer	-1009
▁sed	-1010
▁br	-1011
▁atom	-1012
▁rob	-1013
ament	-1014
▁sens	-1015
▁komplex	-1016
▁Genom	-1017
jus	-1018
ib	-1019
ster	-1020
rop	-1021
iv	-1022
över	-1023
gor	-1024
▁fiel	-1025
▁AI	-1026
▁dri	-1027
▁ak	-1028
▁snabb	-1029
▁utan	-1030
tioner	-1031
oci	-1032
▁learning	-1033
▁förbättra	-1034
▁integr	-1035
eng	-1036
▁partic	-1037
▁väl	-1038
iskt	-1039
ene	-1040
▁användas	-1041
kn	-1042
▁fund	-1043
jektet	-1044
las	-1045
uring	-1046
▁gr	-1047
kom	-1048
▁håll	-1049
▁import	-1050
▁complex	-1051
lev	-1052
▁he	-1053
ever	-1054
▁time	-1055
▁aims	-1056
▁different	-1057
end	-1058
digt	-1059
ger	-1060
▁flera	-1061
cept	-1062
gram	-1063
▁pop	-1064
▁geomet	-1065
vens	-1066
▁framti	-1067
ral	-1068
▁biom	-1069
▁beräk	-1070
▁stör	-1071
port	-1072
res	-1073
ologi	-1074
nos	-1075
fär	-1076
▁climate	-1077
▁out	-1078
dition	-1079
▁öka	-1080
▁identifi	-1081
▁fundament	-1082
▁metod	-1083
▁sjukdom	-1084
yg	-1085
net	-1086
▁acc	-1087
gräns	-1088
of	-1089
lägg	-1090
tain	-1091
▁områ	-1092
▁sen	-1093
▁vilka	-1094
det	-1095
▁quantum	-1096
▁techn	-1097
pass	-1098
▁used	-1099
▁dire	-1100
ält	-1101
▁männ	-1102
her	-1103
ments	-1104
iga	-1105
ite	-1106
▁dec	-1107
▁char	-1108
▁viktiga	-1109
up	-1110
mos	-1111
▁go	-1112
atter	-1113
ättre	-1114
ual	-1115
▁fung	-1116
▁non	-1117
kri	-1118
niqu	-1119
▁provide	-1120
▁analysis	-1121
based	-1122
▁bättre	-1123
▁indi	-1124
ize	-1125
struktur	-1126
fin	-1127
ras	-1128
ving	-1129
abl	-1130
▁techniqu	-1131
▁dist	-1132
yper	-1133
gra	-1134
ree	-1135
abor	-1136
▁through	-1137
heten	-1138
▁processes	-1139
▁tid	-1140
▁comput	-1141
▁få	-1142
onom	-1143
ature	-1144
▁not	-1145
▁mål	-1146
be	-1147
▁hum	-1148
present	-1149
aste	-1150
▁fe	-1151
▁resul	-1152
aser	-1153
▁but	-1154
ancer	-1155
▁dynamics	-1156
▁em	-1157
▁vet	-1158
ard	-1159
lement	-1160
▁tidig	-1161
▁syft	-1162
▁well	-1163
▁plas	-1164
▁alla	-1165
▁combin	-1166
ågor	-1167
▁effici	-1168
▁vill	-1169
its	-1170
▁indu	-1171
▁processer	-1172
▁How	-1173
åga	-1174
ja	-1175
ny	-1176
▁ur	-1177
alt	-1178
▁kra	-1179
etwork	-1180
avi	-1181
▁beskri	-1182
tivity	-1183
gång	-1184
▁impro	-1185
ann	-1186
åra	-1187
els	-1188
▁krä	-1189
▁predic	-1190
▁applications	-1191
org	-1192
enomen	-1193
ail	-1194
▁används	-1195
arna	-1196
▁strateg	-1197
ption	-1198
scop	-1199
äker	-1200
▁more	-1201
▁́	-1202
▁am	-1203
▁då	-1204
▁chall	-1205
▁ann	-1206
▁resultat	-1207
▁work	-1208
▁någ	-1209
▁over	-1210
wo	-1211
▁inn	-1212
enskap	-1213
vän	-1214
▁flu	-1215
term	-1216
our	-1217
▁produc	-1218
▁DNA	-1219
▁ger	-1220
ilt	-1221
▁perform	-1222
▁"	-1223
▁sådan	-1224
out	-1225
erat	-1226
▁människ	-1227
nad	-1228
ost	-1229
land	-1230
▁rör	-1231
lit	-1232
▁atmos	-1233
▁cy	-1234
ome	-1235
▁tool	-1236
▁utman	-1237
▁been	-1238
▁coll	-1239
▁character	-1240
tä	-1241
▁mechanisms	-1242
jor	-1243
▁expl	-1244
vet	-1245
▁An	-1246
▁matem	-1247
ently	-1248
stånd	-1249
▁göra	-1250
▁eftersom	-1251
The	-1252
ogra	-1253
ete	-1254
▁ofta	-1255
▁structure	-1256
ten	-1257
▁kopp	-1258
▁ljus	-1259
lä	-1260
orre	-1261
▁extre	-1262
esis	-1263
▁cons	-1264
▁based	-1265
▁ada	-1266
ke	-1267
▁skapa	-1268
▁lång	-1269
itt	-1270
ider	-1271
▁dock	-1272
▁year	-1273
▁bakteri	-1274
vic	-1275
ingen	-1276
ob	-1277
ized	-1278
ktyg	-1279
rus	-1280
edel	-1281
ätverk	-1282
mon	-1283
ataly	-1284
ställ	-1285
▁individ	-1286
▁molecular	-1287
▁its	-1288
▁fysik	-1289
ilit	-1290
▁represent	-1291
kar	-1292
▁J	-1293
ey	-1294
▁begräns	-1295
versity	-1296
▁hyd	-1297
▁tur	-1298
ative	-1299
ple	-1300
cle	-1301
▁electron	-1302
▁syftar	-1303
▁bara	-1304
▁dom	-1305
rain	-1306
▁mak	-1307
▁mass	-1308
ia	-1309
ants	-1310
▁val	-1311
▁van	-1312
ases	-1313
embr	-1314
bild	-1315
terna	-1316
▁phot	-1317
▁observ	-1318
okus	-1319
öm	-1320
atalys	-1321
atic	-1322
▁ox	-1323
▁möjliggör	-1324
lt	-1325
▁temperatur	-1326
fication	-1327
anden	-1328
▁Ar	-1329
▁fundamental	-1330
▁large	-1331
embran	-1332
ker	-1333
dag	-1334
▁sj	-1335
ledge	-1336
▁network	-1337
▁läk	-1338
lär	-1339
ose	-1340
irst	-1341
▁anpass	-1342
ocus	-1343
▁real	-1344
ection	-1345
ld	-1346
▁techniques	-1347
▁må	-1348
▁bygg	-1349
▁åter	-1350
▁20	-1351
▁field	-1352
▁er	-1353
▁såsom	-1354
▁two	-1355
atorer	-1356
ound	-1357
arbon	-1358
▁algor	-1359
▁both	-1360
fl	-1361
▁pers	-1362
ible	-1363
▁sedan	-1364
▁important	-1365
ars	-1366
▁anti	-1367
▁därför	-1368
struct	-1369
ropp	-1370
▁interactions	-1371
▁super	-1372
▁species	-1373
ded	-1374
▁spect	-1375
▁bidra	-1376
▁However	-1377
▁matemati	-1378
face	-1379
▁program	-1380
▁lag	-1381
eringar	-1382
▁pati	-1383
▁möjligt	-1384
▁cent	-1385
varande	-1386
▁lim	-1387
▁jord	-1388
produ	-1389
▁focus	-1390
▁add	-1391
▁föres	-1392
häll	-1393
▁mäng	-1394
▁knowledge	-1395
fatt	-1396
ected	-1397
▁results	-1398
emedel	-1399
modeller	-1400
▁skull	-1401
▁indust	-1402
▁föränd	-1403
material	-1404
ht	-1405
cis	-1406
▁incre	-1407
opp	-1408
▁Sp	-1409
▁advanc	-1410
▁skulle	-1411
skop	-1412
▁Denna	-1413
▁fokus	-1414
▁enz	-1415
sak	-1416
▁yt	-1417
agnos	-1418
▁studier	-1419
▁lin	-1420
▁cancer	-1421
ktioner	-1422
▁change	-1423
▁oper	-1424
▁Mo	-1425
▁chang	-1426
▁avgör	-1427
▁redu	-1428
verka	-1429
▁studies	-1430
▁curr	-1431
▁signal	-1432
▁meas	-1433
▁commun	-1434
▁små	-1435
läggande	-1436
bra	-1437
tiskt	-1438
täc	-1439
▁föruts	-1440
öl	-1441
▁förändringar	-1442
föra	-1443
oxid	-1444
▁jag	-1445
ks	-1446
troll	-1447
▁immun	-1448
the	-1449
▁human	-1450
▁control	-1451
och	-1452
▁ca	-1453
▁other	-1454
ities	-1455
▁transport	-1456
ub	-1457
ärsk	-1458
▁Med	-1459
▁where	-1460
ekvens	-1461
uld	-1462
▁arter	-1463
ower	-1464
▁Ph	-1465
▁avanc	-1466
▁signi	-1467
▁pri	-1468
▁electro	-1469
tid	-1470
ement	-1471
▁djur	-1472
▁grundläggande	-1473
omp	-1474
ata	-1475
tivitet	-1476
▁effects	-1477
▁tillämpningar	-1478
▁For	-1479
▁CO	-1480
▁mark	-1481
▁water	-1482
andet	-1483
tes	-1484
▁address	-1485
▁key	-1486
▁läkemedel	-1487
▁behavi	-1488
förändringar	-1489
quenc	-1490
▁vad	-1491
▁våra	-1492
eff	-1493
kter	-1494
rans	-1495
▁there	-1496
ditions	-1497
▁använder	-1498
▁roll	-1499
▁chemical	-1500
▁partiklar	-1501
▁arb	-1502
▁bu	-1503
▁top	-1504
▁investigate	-1505
▁main	-1506
▁Ett	-1507
je	-1508
▁celler	-1509
▁proteiner	-1510
ämnen	-1511
▁first	-1512
cent	-1513
baserade	-1514
ality	-1515
▁jäm	-1516
▁conditions	-1517
▁moder	-1518
▁risk	-1519
bry	-1520
▁blir	-1521
▁path	-1522
▁tidigare	-1523
▁bil	-1524
▁komplexa	-1525
ium	-1526
tific	-1527
erap	-1528
cke	-1529
itu	-1530
▁invol	-1531
▁years	-1532
▁To	-1533
askin	-1534
ective	-1535
upp	-1536
▁fot	-1537
fe	-1538
tivt	-1539
▁trä	-1540
▁global	-1541
fun	-1542
kel	-1543
atteri	-1544
▁måste	-1545
▁signific	-1546
ribut	-1547
▁nätverk	-1548
▁neut	-1549
fr	-1550
▁verktyg	-1551
▁one	-1552
riska	-1553
▁upptäc	-1554
▁sci	-1555
ain	-1556
▁förm	-1557
far	-1558
celler	-1559
stain	-1560
▁metall	-1561
▁lead	-1562
▁long	-1563
▁diagnos	-1564
unt	-1565
▁metab	-1566
ross	-1567
▁mest	-1568
▁reak	-1569
▁särsk	-1570
mar	-1571
▁specific	-1572
▁relev	-1573
▁utvecklingen	-1574
▁aff	-1575
▁via	-1576
oende	-1577
scopy	-1578
▁stab	-1579
▁cells	-1580
full	-1581
uture	-1582
▁nano	-1583
lös	-1584
con	-1585
▁grow	-1586
ung	-1587
oli	-1588
metoder	-1589
by	-1590
▁fast	-1591
▁land	-1592
▁role	-1593
▁during	-1594
▁param	-1595
uro	-1596
▁viktigt	-1597
vin	-1598
järn	-1599
▁cir	-1600
▁kemiska	-1601
▁kr	-1602
▁devic	-1603
▁kallas	-1604
▁samhäll	-1605
bio	-1606
reen	-1607
▁dise	-1608
▁sing	-1609
▁senaste	-1610
▁most	-1611
▁industri	-1612
▁full	-1613
▁samman	-1614
▁elektro	-1615
▁prot	-1616
ellig	-1617
scale	-1618
▁minska	-1619
▁ekosystem	-1620
tidigt	-1621
▁allow	-1622
▁incl	-1623
▁specifi	-1624
▁impact	-1625
årt	-1626
kning	-1627
▁tools	-1628
ekter	-1629
uding	-1630
system	-1631
▁alge	-1632
▁Projektet	-1633
▁challeng	-1634
pid	-1635
▁intress	-1636
▁state	-1637
▁stress	-1638
▁vissa	-1639
▁ned	-1640
hållanden	-1641
ulations	-1642
▁Q	-1643
▁styr	-1644
▁dju	-1645
▁hyp	-1646
▁första	-1647
▁radi	-1648
▁mekanismer	-1649
rac	-1650
▁bety	-1651
emist	-1652
▁inkl	-1653
▁requ	-1654
▁molekyler	-1655
▁reac	-1656
▁analy	-1657
▁bland	-1658
▁hydro	-1659
por	-1660
▁dag	-1661
▁Ne	-1662
▁future	-1663
aging	-1664
▁sådana	-1665
▁limit	-1666
▁Att	-1667
▁ner	-1668
▁polymer	-1669
▁carbon	-1670
ian	-1671
ework	-1672
▁helt	-1673
▁icke	-1674
▁changes	-1675
▁spin	-1676
▁precis	-1677
dimension	-1678
elect	-1679
▁neur	-1680
▁4	-1681
▁significant	-1682
emistry	-1683
ättning	-1684
▁kallade	-1685
icin	-1686
▁car	-1687
▁hand	-1688
▁fort	-1689
eg	-1690
väg	-1691
inlär	-1692
aces	-1693
▁variation	-1694
ise	-1695
▁mång	-1696
ces	-1697
ically	-1698
▁physics	-1699
duct	-1700
▁leda	-1701
▁membran	-1702
▁mach	-1703
▁förs	-1704
erande	-1705
fil	-1706
▁allt	-1707
▁antal	-1708
▁numer	-1709
ze	-1710
▁including	-1711
reg	-1712
▁organis	-1713
▁developed	-1714
one	-1715
otyp	-1716
▁ult	-1717
▁områden	-1718
alth	-1719
▁avgörande	-1720
▁fly	-1721
▁determ	-1722
▁pos	-1723
lut	-1724
▁därmed	-1725
▁loc	-1726
▁they	-1727
ays	-1728
orm	-1729
▁leder	-1730
▁hållbar	-1731
▁rum	-1732
▁ser	-1733
▁identify	-1734
kon	-1735
▁eng	-1736
▁svar	-1737
▁innov	-1738
▁es	-1739
▁utgör	-1740
▁gas	-1741
▁quanti	-1742
▁grupp	-1743
nar	-1744
nytt	-1745
pport	-1746
▁formation	-1747
skal	-1748
▁framework	-1749
▁Ex	-1750
iteten	-1751
urther	-1752
ray	-1753
▁Al	-1754
ission	-1755
▁light	-1756
▁dig	-1757
▁group	-1758
▁fungerar	-1759
▁experimental	-1760
▁et	-1761
cover	-1762
thesis	-1763
▁proposed	-1764
▁änd	-1765
fal	-1766
nader	-1767
ablish	-1768
▁atmosfär	-1769
▁lu	-1770
ribution	-1771
▁sustain	-1772
▁hjärn	-1773
▁identifiera	-1774
▁many	-1775
▁maskin	-1776
vit	-1777
inci	-1778
elekt	-1779
▁klass	-1780
▁växt	-1781
eningar	-1782
▁flow	-1783
▁framtida	-1784
verkan	-1785
▁level	-1786
förs	-1787
▁säker	-1788
▁functional	-1789
gener	-1790
ner	-1791
arm	-1792
▁implement	-1793
alj	-1794
ators	-1795
inu	-1796
iti	-1797
▁cap	-1798
▁människor	-1799
▁rela	-1800
dre	-1801
elf	-1802
▁equ	-1803
▁est	-1804
▁environmental	-1805
växt	-1806
▁mät	-1807
▁statis	-1808
agne	-1809
bär	-1810
▁class	-1811
▁särskilt	-1812
▁idag	-1813
▁ques	-1814
ism	-1815
tag	-1816
▁forsknings	-1817
▁exist	-1818
▁structures	-1819
områ	-1820
▁sym	-1821
▁livs	-1822
▁behandling	-1823
mek	-1824
bildning	-1825
▁Men	-1826
▁typer	-1827
▁insigh	-1828
▁hi	-1829
▁växter	-1830
valu	-1831
▁plant	-1832
ila	-1833
▁star	-1834
▁spati	-1835
uv	-1836
igt	-1837
▁behöver	-1838
▁Bi	-1839
ital	-1840
bryt	-1841
ful	-1842
▁fler	-1843
▁measure	-1844
▁adapt	-1845
▁relevant	-1846
▁problems	-1847
tili	-1848
▁”	-1849
▁ans	-1850
▁fall	-1851
▁prom	-1852
▁ecosystem	-1853
▁kontroll	-1854
äst	-1855
cer	-1856
ilitet	-1857
que	-1858
▁due	-1859
dri	-1860
▁theore	-1861
▁goal	-1862
▁robot	-1863
▁mä	-1864
orph	-1865
▁pur	-1866
▁Ch	-1867
▁först	-1868
iken	-1869
▁poss	-1870
atory	-1871
lect	-1872
▁hist	-1873
jud	-1874
▁hal	-1875
▁vårt	-1876
▁X	-1877
▁sö	-1878
▁univers	-1879
▁dep	-1880
▁enh	-1881
aktorer	-1882
▁experiments	-1883
▁These	-1884
▁autom	-1885
oph	-1886
ging	-1887
gi	-1888
▁sever	-1889
ölj	-1890
▁detalj	-1891
bru	-1892
▁fre	-1893
yra	-1894
ologies	-1895
▁spel	-1896
farande	-1897
sor	-1898
åller	-1899
▁proteins	-1900
▁ter	-1901
▁stort	-1902
▁kar	-1903
▁intellig	-1904
vera	-1905
▁Res	-1906
yt	-1907
▁assess	-1908
▁establish	-1909
▁within	-1910
odi	-1911
ock	-1912
rots	-1913
▁fil	-1914
▁samma	-1915
▁regl	-1916
▁extra	-1917
▁surface	-1918
▁machine	-1919
▁efficient	-1920
▁utnytt	-1921
▁up	-1922
uvud	-1923
▁orsak	-1924
sten	-1925
anda	-1926
dens	-1927
▁magnetic	-1928
▁solution	-1929
▁performance	-1930
xim	-1931
ekom	-1932
▁fortfarande	-1933
▁liv	-1934
▁current	-1935
ire	-1936
▁fact	-1937
fall	-1938
▁batteri	-1939
▁potenti	-1940
▁avancerade	-1941
▁vät	-1942
▁utfor	-1943
vention	-1944
ness	-1945
▁cre	-1946
▁artific	-1947
eler	-1948
▁kompon	-1949
▁genetic	-1950
▁modelling	-1951
ency	-1952
▁häl	-1953
▁low	-1954
▁själ	-1955
▁betydel	-1956
▁Our	-1957
lighet	-1958
▁Dessutom	-1959
ii	-1960
▁främ	-1961
läpp	-1962
änsk	-1963
▁bör	-1964
▁samtidigt	-1965
verse	-1966
▁extrem	-1967
▁bel	-1968
ave	-1969
utveckl	-1970
▁magnet	-1971
use	-1972
ammans	-1973
ika	-1974
▁sjukdomar	-1975
sts	-1976
▁def	-1977
▁virus	-1978
▁teore	-1979
medel	-1980
▁vilken	-1981
▁́s	-1982
istall	-1983
▁associ	-1984
▁algorith	-1985
▁gi	-1986
chie	-1987
▁emp	-1988
red	-1989
▁hela	-1990
▁uppn	-1991
▁visat	-1992
gäng	-1993
▁mångfal	-1994
▁direkt	-1995
▁obj	-1996
▁mindre	-1997
lla	-1998
ood	-1999
ritical	-2000
rag	-2001
vänt	-2002
▁enda	-2003
▁fördel	-2004
äga	-2005
▁sec	-2006
eller	-2007
▁värl	-2008
▁asp	-2009
anter	-2010
▁blo	-2011
▁mon	-2012
▁compos	-2013
▁health	-2014
▁kons	-2015
▁läng	-2016
▁modi	-2017
▁fenomen	-2018
▁bete	-2019
▁need	-2020
▁studi	-2021
▁about	-2022
▁resist	-2023
▁stjärn	-2024
men	-2025
dioxid	-2026
▁paramet	-2027
▁algebra	-2028
▁production	-2029
▁achie	-2030
▁alterna	-2031
▁uts	-2032
▁region	-2033
▁general	-2034
alax	-2035
ores	-2036
▁only	-2037
▁cry	-2038
▁biologiska	-2039
▁particular	-2040
▁mod	-2041
▁power	-2042
▁tills	-2043
gru	-2044
▁imaging	-2045
▁generation	-2046
▁technology	-2047
▁theoretical	-2048
▁across	-2049
▁uppnå	-2050
▁större	-2051
ema	-2052
tekn	-2053
eriod	-2054
▁Met	-2055
▁heter	-2056
▁structural	-2057
▁simulations	-2058
add	-2059
bul	-2060
ätta	-2061
▁mänsk	-2062
▁Till	-2063
▁single	-2064
vas	-2065
▁ni	-2066
▁improve	-2067
ikal	-2068
erings	-2069
▁By	-2070
▁mi	-2071
▁verk	-2072
▁devices	-2073
▁Con	-2074
▁computational	-2075
▁mar	-2076
olution	-2077
inlärning	-2078
▁RNA	-2079
gas	-2080
ända	-2081
▁Där	-2082
▁four	-2083
▁frågor	-2084
▁strukturer	-2085
▁ep	-2086
ules	-2087
vent	-2088
▁nog	-2089
▁väg	-2090
verig	-2091
▁deep	-2092
▁betyd	-2093
▁therm	-2094
▁engine	-2095
▁skog	-2096
produktion	-2097
▁growth	-2098
rum	-2099
oring	-2100
ograph	-2101
▁effekter	-2102
▁Under	-2103
▁three	-2104
ologisk	-2105
▁mechan	-2106
▁globala	-2107
▁bakterier	-2108
ety	-2109
wed	-2110
▁mu	-2111
▁effektiva	-2112
AS	-2113
▁It	-2114
▁foss	-2115
aniska	-2116
▁kropp	-2117
▁microbi	-2118
De	-2119
▁bestäm	-2120
▁rema	-2121
▁evalu	-2122
▁vetenskap	-2123
ced	-2124
▁bre	-2125
rak	-2126
▁may	-2127
▁slut	-2128
analys	-2129
▁networks	-2130
▁Sverig	-2131
▁increas	-2132
bri	-2133
▁nanop	-2134
▁förekom	-2135
▁beteende	-2136
▁lok	-2137
▁bak	-2138
raft	-2139
räck	-2140
ware	-2141
▁kräver	-2142
▁specifika	-2143
ples	-2144
▁På	-2145
▁omv	-2146
ump	-2147
▁cellul	-2148
▁advanced	-2149
▁;	-2150
▁karakt	-2151
▁princi	-2152
▁ag	-2153
usion	-2154
▁contribut	-2155
▁fas	-2156
▁exper	-2157
▁går	-2158
▁tun	-2159
▁scal	-2160
ensive	-2161
▁plat	-2162
▁metal	-2163
oll	-2164
▁medicin	-2165
oral	-2166
inary	-2167
orrel	-2168
▁respons	-2169
▁than	-2170
▁ear	-2171
▁(2	-2172
com	-2173
äller	-2174
▁sour	-2175
▁sak	-2176
▁tradition	-2177
▁separ	-2178
yck	-2179
▁genetiska	-2180
▁behö	-2181
▁sker	-2182
▁djup	-2183
▁cataly	-2184
▁utvecklas	-2185
▁predict	-2186
ästa	-2187
håller	-2188
▁cru	-2189
läg	-2190
▁bec	-2191
eknik	-2192
andard	-2193
▁major	-2194
▁rad	-2195
ärt	-2196
▁num	-2197
▁skill	-2198
vara	-2199
oid	-2200
orld	-2201
▁sustainable	-2202
▁koldioxid	-2203
rin	-2204
▁element	-2205
▁critical	-2206
▁synthesis	-2207
▁developing	-2208
▁aut	-2209
▁delar	-2210
▁situ	-2211
▁kraft	-2212
▁dimension	-2213
▁organic	-2214
ilda	-2215
ående	-2216
▁them	-2217
▁molekylära	-2218
änt	-2219
▁poll	-2220
▁show	-2221
munika	-2222
▁tekniker	-2223
▁betydelse	-2224
▁challenges	-2225
▁fält	-2226
▁soci	-2227
▁föreslag	-2228
▁Swed	-2229
▁högre	-2230
eringen	-2231
ålet	-2232
cial	-2233
▁population	-2234
ards	-2235
▁insights	-2236
▁kont	-2237
vari	-2238
arbet	-2239
▁unique	-2240
▁bro	-2241
ris	-2242
to	-2243
önt	-2244
▁jämför	-2245
▁snabbt	-2246
▁collabor	-2247
▁proposal	-2248
▁tillverk	-2249
▁very	-2250
▁bacter	-2251
▁math	-2252
önster	-2253
▁el	-2254
istic	-2255
ationen	-2256
orn	-2257
ultat	-2258
usive	-2259
▁antibio	-2260
▁analysera	-2261
äss	-2262
pose	-2263
upl	-2264
▁huvud	-2265
▁phase	-2266
örer	-2267
ligare	-2268
RNA	-2269
▁galax	-2270
▁discover	-2271
▁väv	-2272
kan	-2273
▁nytt	-2274
▁labor	-2275
▁materi	-2276
▁Wh	-2277
fore	-2278
▁hitta	-2279
▁neuro	-2280
▁insikt	-2281
▁spectro	-2282
▁term	-2283
ågan	-2284
▁användning	-2285
▁approaches	-2286
▁space	-2287
▁får	-2288
▁öpp	-2289
modell	-2290
sprocess	-2291
vetenskap	-2292
▁utmaningar	-2293
▁Uni	-2294
lying	-2295
▁valid	-2296
▁treat	-2297
▁tox	-2298
▁explore	-2299
▁when	-2300
▁ion	-2301
▁Re	-2302
ages	-2303
▁desc	-2304
▁life	-2305
▁påverka	-2306
ake	-2307
▁lösa	-2308
▁direct	-2309
In	-2310
faces	-2311
rug	-2312
▁part	-2313
▁världen	-2314
▁När	-2315
▁sina	-2316
▁tids	-2317
▁ytter	-2318
kta	-2319
▁luft	-2320
▁central	-2321
▁förvänt	-2322
elser	-2323
▁several	-2324
▁varje	-2325
osom	-2326
▁enable	-2327
▁modern	-2328
▁varand	-2329
risk	-2330
skning	-2331
lade	-2332
orna	-2333
▁local	-2334
lid	-2335
ues	-2336
▁find	-2337
ningarna	-2338
bro	-2339
▁annat	-2340
▁influ	-2341
▁Ut	-2342
flö	-2343
ication	-2344
ogni	-2345
▁intro	-2346
▁ökad	-2347
▁bildas	-2348
▁innebär	-2349
enta	-2350
itmer	-2351
▁target	-2352
▁förmåga	-2353
▁Om	-2354
▁disease	-2355
▁support	-2356
speci	-2357
▁exam	-2358
▁visar	-2359
▁forskare	-2360
old	-2361
läng	-2362
▁mäta	-2363
▁tillgäng	-2364
dd	-2365
fält	-2366
van	-2367
äck	-2368
▁end	-2369
▁gap	-2370
he	-2371
kem	-2372
reat	-2373
▁fac	-2374
mäss	-2375
ored	-2376
▁krävs	-2377
unkt	-2378
ising	-2379
▁förklar	-2380
ott	-2381
▁initi	-2382
otop	-2383
▁nivå	-2384
▁further	-2385
▁mut	-2386
▁tum	-2387
▁regul	-2388
▁varandra	-2389
ould	-2390
▁flö	-2391
skopi	-2392
▁kombinera	-2393
onal	-2394
▁funktioner	-2395
ight	-2396
orin	-2397
▁patient	-2398
▁various	-2399
▁ing	-2400
▁vol	-2401
ssätt	-2402
▁inclu	-2403
▁neutron	-2404
▁produktion	-2405
ken	-2406
▁påverkas	-2407
MR	-2408
knande	-2409
lor	-2410
ired	-2411
▁resur	-2412
▁objekt	-2413
▁mathema	-2414
mär	-2415
▁består	-2416
Pro	-2417
giv	-2418
▁strategies	-2419
pher	-2420
▁propose	-2421
▁oxid	-2422
gga	-2423
vatten	-2424
ilities	-2425
likationer	-2426
▁effektivt	-2427
▁utili	-2428
▁noggr	-2429
▁small	-2430
tekt	-2431
▁koll	-2432
tit	-2433
▁höga	-2434
▁soft	-2435
▁katalys	-2436
▁möjliggöra	-2437
▁fär	-2438
▁order	-2439
▁ban	-2440
▁omfatt	-2441
▁turbul	-2442
chemical	-2443
▁modeling	-2444
raf	-2445
▁dens	-2446
▁flex	-2447
▁build	-2448
▁temperature	-2449
▁avs	-2450
▁samm	-2451
▁prest	-2452
▁Sverige	-2453
▁natural	-2454
▁“	-2455
▁conn	-2456
▁sett	-2457
ina	-2458
zation	-2459
▁laser	-2460
uter	-2461
▁ess	-2462
▁behov	-2463
▁försö	-2464
▁storlek	-2465
För	-2466
rat	-2467
ites	-2468
▁way	-2469
▁robust	-2470
ned	-2471
▁hy	-2472
nivå	-2473
värd	-2474
▁dator	-2475
▁highly	-2476
▁algorithms	-2477
lan	-2478
▁questions	-2479
▁tillstånd	-2480
▁tol	-2481
▁graph	-2482
emb	-2483
tively	-2484
▁exakt	-2485
rong	-2486
▁physical	-2487
▁present	-2488
▁förhållanden	-2489
står	-2490
▁isol	-2491
utt	-2492
elsen	-2493
uk	-2494
▁spatial	-2495
▁chemistry	-2496
yc	-2497
▁exc	-2498
cc	-2499
▁known	-2500
▁arbet	-2501
▁låg	-2502
▁kost	-2503
driven	-2504
▁kring	-2505
▁Qu	-2506
▁art	-2507
▁avail	-2508
len	-2509
time	-2510
änder	-2511
▁följ	-2512
cri	-2513
data	-2514
▁lar	-2515
gress	-2516
▁föreslagna	-2517
band	-2518
▁några	-2519
▁bygger	-2520
▁Ä	-2521
ccess	-2522
▁rikt	-2523
▁range	-2524
▁ämnen	-2525
▁cal	-2526
▁purpose	-2527
spr	-2528
tives	-2529
▁enab	-2530
▁os	-2531
▁blod	-2532
position	-2533
▁magnetiska	-2534
000	-2535
▁sele	-2536
▁demon	-2537
periment	-2538
▁tiss	-2539
▁nucle	-2540
duced	-2541
ously	-2542
▁hjälpa	-2543
▁sammans	-2544
▁Su	-2545
▁ben	-2546
munikation	-2547
▁(1	-2548
▁crucial	-2549
▁distribution	-2550
ogene	-2551
▁lever	-2552
▁drug	-2553
ining	-2554
▁emer	-2555
▁skap	-2556
▁spekt	-2557
▁plasma	-2558
▁sem	-2559
ision	-2560
▁inst	-2561
▁metabol	-2562
▁bräns	-2563
ret	-2564
▁åt	-2565
▁utforska	-2566
▁kor	-2567
ställa	-2568
mande	-2569
▁bidrar	-2570
▁föresl	-2571
▁beroende	-2572
round	-2573
▁bind	-2574
▁found	-2575
▁biodi	-2576
isering	-2577
▁miljöer	-2578
dis	-2579
▁absor	-2580
▁related	-2581
EM	-2582
▁5	-2583
blem	-2584
▁while	-2585
▁technologies	-2586
mering	-2587
▁konstru	-2588
från	-2589
ories	-2590
▁käns	-2591
▁baserade	-2592
fri	-2593
min	-2594
ryck	-2595
enotyp	-2596
▁cryst	-2597
▁organismer	-2598
ros	-2599
bart	-2600
grad	-2601
▁ström	-2602
▁behövs	-2603
brid	-2604
▁functions	-2605
ont	-2606
▁recent	-2607
strukturer	-2608
ftet	-2609
▁bin	-2610
▁bra	-2611
ength	-2612
▁respon	-2613
lö	-2614
▁mängd	-2615
process	-2616
▁phenomen	-2617
vande	-2618
romet	-2619
▁Därför	-2620
▁Hur	-2621
atiskt	-2622
gande	-2623
loy	-2624
▁du	-2625
▁engineering	-2626
djur	-2627
enar	-2628
▁lay	-2629
atiska	-2630
▁effect	-2631
▁efficiency	-2632
fied	-2633
ines	-2634
▁kart	-2635
▁compar	-2636
▁geometri	-2637
▁komponenter	-2638
▁populations	-2639
kor	-2640
atom	-2641
itro	-2642
▁upptäckt	-2643
ile	-2644
antera	-2645
▁bakom	-2646
▁estim	-2647
cipl	-2648
▁number	-2649
Vi	-2650
lat	-2651
▁anim	-2652
▁spelar	-2653
▁innehåller	-2654
▁naturliga	-2655
This	-2656
hålla	-2657
▁comb	-2658
▁ladd	-2659
ssystem	-2660
▁evolutionary	-2661
▁just	-2662
▁brain	-2663
▁biomass	-2664
▁transfer	-2665
▁open	-2666
▁betydande	-2667
▁lösningar	-2668
▁påverkan	-2669
▁tim	-2670
▁like	-2671
.,	-2672
dynam	-2673
▁make	-2674
▁skyd	-2675
▁organiska	-2676
▁beräknings	-2677
▁matematiska	-2678
beh	-2679
▁tow	-2680
energ	-2681
ället	-2682
ällor	-2683
▁circ	-2684
roll	-2685
▁interaktioner	-2686
if	-2687
▁strong	-2688
▁stability	-2689
▁coupl	-2690
▁realis	-2691
iment	-2692
▁redan	-2693
▁aktivitet	-2694
▁still	-2695
ps	-2696
▁ve	-2697
omics	-2698
uella	-2699
▁compon	-2700
▁forest	-2701
flu	-2702
▁svårt	-2703
ctic	-2704
▁202	-2705
▁fel	-2706
▁ligger	-2707
▁väldigt	-2708
▁tillsammans	-2709
▁ast	-2710
ately	-2711
ane	-2712
vation	-2713
▁mångfald	-2714
jär	-2715
ännu	-2716
▁ökar	-2717
ctions	-2718
▁omgiv	-2719
▁bed	-2720
▁allm	-2721
▁reson	-2722
▁forskningspro	-2723
▁fri	-2724
▁host	-2725
▁ännu	-2726
▁defin	-2727
▁often	-2728
▁acceler	-2729
▁wide	-2730
▁processing	-2731
▁Di	-2732
tikel	-2733
ången	-2734
▁solar	-2735
sm	-2736
▁prim	-2737
▁skad	-2738
▁varit	-2739
▁tillväxt	-2740
▁clin	-2741
änning	-2742
▁period	-2743
vationer	-2744
AI	-2745
skar	-2746
▁some	-2747
▁endast	-2748
▁z	-2749
▁ök	-2750
ject	-2751
▁adap	-2752
▁inklusive	-2753
▁Så	-2754
cean	-2755
ured	-2756
orden	-2757
▁strål	-2758
▁better	-2759
▁avse	-2760
▁sign	-2761
ape	-2762
▁fer	-2763
▁jon	-2764
▁lipid	-2765
▁symmet	-2766
▁konsekvens	-2767
▁scienti	-2768
▁success	-2769
åt	-2770
ily	-2771
▁bry	-2772
▁annan	-2773
▁vanliga	-2774
sam	-2775
esta	-2776
stud	-2777
vo	-2778
▁veri	-2779
ER	-2780
eros	-2781
fact	-2782
naden	-2783
alitet	-2784
▁kristall	-2785
▁atmosfären	-2786
ckel	-2787
put	-2788
yftet	-2789
▁const	-2790
▁planet	-2791
read	-2792
▁skal	-2793
▁interag	-2794
▁application	-2795
▁spectroscopy	-2796
osa	-2797
otes	-2798
▁bygga	-2799
baserad	-2800
▁vidare	-2801
▁world	-2802
▁matter	-2803
fys	-2804
steg	-2805
erats	-2806
app	-2807
▁enkl	-2808
▁science	-2809
▁response	-2810
▁gång	-2811
▁hypoth	-2812
▁arch	-2813
▁reli	-2814
▁nyligen	-2815
▁possible	-2816
▁carri	-2817
rip	-2818
anta	-2819
▁minim	-2820
tighet	-2821
▁activ	-2822
dr	-2823
▁ram	-2824
IS	-2825
▁therap	-2826
▁obtain	-2827
▁nanopar	-2828
ides	-2829
▁bef	-2830
▁excit	-2831
▁kvanti	-2832
▁förutsäga	-2833
AR	-2834
▁far	-2835
Detta	-2836
ounds	-2837
▁Efter	-2838
▁gu	-2839
▁handlar	-2840
▁Ad	-2841
▁ord	-2842
grupp	-2843
phere	-2844
▁beror	-2845
▁egenskaperna	-2846
▁scale	-2847
▁miljön	-2848
centration	-2849
▁teori	-2850
▁interest	-2851
▁neural	-2852
▁biology	-2853
▁hantera	-2854
dep	-2855
kture	-2856
▁förh	-2857
▁fields	-2858
▁geometry	-2859
bruk	-2860
osyn	-2861
▁Int	-2862
▁tor	-2863
ences	-2864
▁rönt	-2865
▁Trots	-2866
olic	-2867
▁detail	-2868
DE	-2869
▁havs	-2870
▁artifici	-2871
protein	-2872
▁gäller	-2873
▁patter	-2874
▁multiple	-2875
-1	-2876
iter	-2877
ections	-2878
▁standard	-2879
icult	-2880
▁kärn	-2881
▁Ny	-2882
▁mots	-2883
▁affect	-2884
▁biological	-2885
lekt	-2886
▁lack	-2887
▁sprid	-2888
▁existing	-2889
agång	-2890
steknik	-2891
▁solutions	-2892
▁maskininlärning	-2893
▁persp	-2894
ination	-2895
▁resour	-2896
vägagång	-2897
▁measurements	-2898
▁nor	-2899
▁caus	-2900
▁ensk	-2901
▁recept	-2902
▁behavior	-2903
very	-2904
▁por	-2905
▁inklud	-2906
▁soil	-2907
▁själv	-2908
▁närings	-2909
▁determine	-2910
▁relations	-2911
▁universum	-2912
▁ytterligare	-2913
▁ål	-2914
▁bort	-2915
▁flesta	-2916
▁demonstr	-2917
dimensional	-2918
▁ref	-2919
andid	-2920
▁nega	-2921
▁interaktion	-2922
milj	-2923
▁hom	-2924
orf	-2925
▁size	-2926
▁syre	-2927
organismer	-2928
▁nuvarande	-2929
amp	-2930
▁prak	-2931
▁transition	-2932
▁early	-2933
▁sa	-2934
kvens	-2935
▁contribute	-2936
iva	-2937
komp	-2938
▁mul	-2939
▁utvärd	-2940
▁composition	-2941
Det	-2942
ges	-2943
izing	-2944
liggande	-2945
▁största	-2946
▁detection	-2947
hip	-2948
enge	-2949
▁Des	-2950
▁värme	-2951
erative	-2952
tigt	-2953
▁Comp	-2954
▁activity	-2955
▁set	-2956
▁åren	-2957
▁omvand	-2958
▁materialet	-2959
vägagångssätt	-2960
ygen	-2961
▁factors	-2962
ough	-2963
värm	-2964
ography	-2965
▁intens	-2966
▁challenge	-2967
▁environments	-2968
▁if	-2969
▁Multi	-2970
▁could	-2971
▁reaktioner	-2972
▁kri	-2973
odynam	-2974
▁essential	-2975
vents	-2976
ids	-2977
▁At	-2978
▁pathw	-2979
funktion	-2980
▁lo	-2981
ilar	-2982
▁Jag	-2983
▁prac	-2984
OC	-2985
sen	-2986
▁dra	-2987
▁intern	-2988
▁hållbara	-2989
▁ren	-2990
▁quality	-2991
▁electronic	-2992
▁lign	-2993
▁what	-2994
▁accur	-2995
lopp	-2996
▁Ear	-2997
ffektiv	-2998
▁dagens	-2999
▁detekt	-3000
▁jorden	-3001
▁elektroner	-3002
▁ide	-3003
▁states	-3004
▁vanligt	-3005
▁underlying	-3006
▁läg	-3007
▁treatment	-3008
▁cl	-3009
▁orig	-3010
▁medan	-3011
▁urspr	-3012
ultaten	-3013
ulationer	-3014
▁diversity	-3015
▁19	-3016
rikt	-3017
andom	-3018
ester	-3019
gångs	-3020
cin	-3021
▁Man	-3022
fulla	-3023
▁detect	-3024
▁conduct	-3025
▁plastic	-3026
▁storage	-3027
▁cor	-3028
▁bred	-3029
▁manip	-3030
▁previ	-3031
▁advance	-3032
▁exempelvis	-3033
jar	-3034
▁task	-3035
▁Model	-3036
▁enzym	-3037
▁insikter	-3038
▁vir	-3039
▁foll	-3040
▁Elect	-3041
▁increasing	-3042
▁mechanical	-3043
atures	-3044
ikalier	-3045
▁follow	-3046
ole	-3047
▁fu	-3048
▁Speci	-3049
attering	-3050
▁faktorer	-3051
▁Ö	-3052
osm	-3053
roph	-3054
älla	-3055
▁lab	-3056
▁optical	-3057
▁möjlighet	-3058
▁numerical	-3059
kade	-3060
linear	-3061
▁polar	-3062
▁adaptation	-3063
fik	-3064
let	-3065
mark	-3066
▁PhD	-3067
▁steg	-3068
▁student	-3069
▁förändras	-3070
ita	-3071
kopp	-3072
▁hot	-3073
brott	-3074
▁deri	-3075
▁lämp	-3076
▁beskriva	-3077
▁optimization	-3078
-2	-3079
hop	-3080
kas	-3081
lied	-3082
▁subst	-3083
▁limited	-3084
▁ind	-3085
▁off	-3086
▁testa	-3087
▁modellering	-3088
Ps	-3089
hyd	-3090
▁svår	-3091
▁tissue	-3092
▁communication	-3093
year	-3094
fiera	-3095
metod	-3096
▁experimentella	-3097
▁värld	-3098
▁particles	-3099
rot	-3100
anic	-3101
urop	-3102
▁utnyttja	-3103
astic	-3104
▁controll	-3105
▁teoretiska	-3106
eu	-3107
aves	-3108
▁occ	-3109
▁prob	-3110
▁kombination	-3111
bland	-3112
version	-3113
▁uppstår	-3114
▁Vår	-3115
isation	-3116
romagne	-3117
itect	-3118
▁något	-3119
▁värde	-3120
▁fossil	-3121
▁inform	-3122
▁As	-3123
▁nära	-3124
issions	-3125
▁express	-3126
▁towards	-3127
▁förväntas	-3128
▁molecules	-3129
▁scientific	-3130
▁infek	-3131
▁möjligheter	-3132
▁Co	-3133
▁act	-3134
▁pat	-3135
mikro	-3136
▁tillh	-3137
▁växel	-3138
▁Sam	-3139
▁fam	-3140
▁fisk	-3141
▁stim	-3142
▁gräns	-3143
discipl	-3144
▁koppling	-3145
▁mechanism	-3146
▁link	-3147
▁lätt	-3148
ödvänd	-3149
▁revolution	-3150
▁mathematical	-3151
luc	-3152
alisering	-3153
▁Y	-3154
bygg	-3155
peci	-3156
plan	-3157
▁kvä	-3158
▁feed	-3159
gre	-3160
▁utföra	-3161
▁platform	-3162
▁associated	-3163
▁type	-3164
områden	-3165
▁isotop	-3166
teknik	-3167
▁datas	-3168
▁addition	-3169
▁mätningar	-3170
▁differential	-3171
▁halv	-3172
icient	-3173
▁mikrobi	-3174
▁studied	-3175
text	-3176
inter	-3177
bility	-3178
▁plast	-3179
▁plants	-3180
▁combination	-3181
ovsk	-3182
veal	-3183
ovande	-3184
▁monit	-3185
lant	-3186
▁post	-3187
▁växth	-3188
molekyl	-3189
▁nedbryt	-3190
▁expected	-3191
▁available	-3192
▁strukture	-3193
bred	-3194
ances	-3195
▁enkel	-3196
▁förny	-3197
▁optimal	-3198
▁karakter	-3199
ody	-3200
endent	-3201
mass	-3202
▁There	-3203
▁dynamic	-3204
▁förutsäg	-3205
▁achieve	-3206
▁studeras	-3207
ård	-3208
äre	-3209
▁ens	-3210
anced	-3211
▁graf	-3212
▁importance	-3213
eld	-3214
▁Or	-3215
▁thus	-3216
▁clinical	-3217
▁kommunikation	-3218
▁ent	-3219
▁rep	-3220
▁und	-3221
itive	-3222
▁unika	-3223
▁tillräck	-3224
▁resolution	-3225
epti	-3226
▁Sweden	-3227
onic	-3228
certain	-3229
▁producera	-3230
▁biodiversity	-3231
▁1)	-3232
▁10	-3233
▁runt	-3234
▁hybrid	-3235
▁kallad	-3236
▁microbial	-3237
back	-3238
▁lik	-3239
aking	-3240
produc	-3241
▁solid	-3242
▁second	-3243
▁syntes	-3244
▁nödvänd	-3245
rolog	-3246
fiering	-3247
▁designa	-3248
▁2)	-3249
förhållanden	-3250
3)	-3251
▁Målet	-3252
▁överg	-3253
▁lovande	-3254
▁moderna	-3255
▁mängder	-3256
bed	-3257
▁ingen	-3258
ligheten	-3259
▁particle	-3260
▁fra	-3261
alled	-3262
använd	-3263
▁prote	-3264
▁rapid	-3265
emporal	-3266
▁utsläpp	-3267
▁snabbare	-3268
quences	-3269
▁nature	-3270
▁enhance	-3271
▁enzymer	-3272
▁hjärnan	-3273
lust	-3274
tically	-3275
▁prestanda	-3276
SC	-3277
au	-3278
mat	-3279
zed	-3280
trans	-3281
▁flexib	-3282
ream	-3283
▁ant	-3284
▁calc	-3285
▁opti	-3286
zing	-3287
▁rym	-3288
▁common	-3289
▁nyckel	-3290
Projektet	-3291
▁transcri	-3292
värt	-3293
yond	-3294
▁klin	-3295
▁slump	-3296
▁types	-3297
▁instru	-3298
▁autonom	-3299
medi	-3300
order	-3301
▁reag	-3302
▁genes	-3303
▁enheter	-3304
▁precision	-3305
▁Fin	-3306
▁Nan	-3307
▁higher	-3308
▁deli	-3309
aterials	-3310
▁increase	-3311
▁utmaning	-3312
ister	-3313
▁recon	-3314
▁sediment	-3315
acts	-3316
sing	-3317
▁fysikal	-3318
▁underst	-3319
▁elektriska	-3320
tills	-3321
▁utför	-3322
▁applied	-3323
▁liknande	-3324
▁fokuserar	-3325
▁evol	-3326
▁klar	-3327
pheric	-3328
▁längre	-3329
oreningar	-3330
väx	-3331
▁nå	-3332
isera	-3333
▁employ	-3334
▁förståelsen	-3335
cy	-3336
▁ok	-3337
alog	-3338
▁sch	-3339
▁active	-3340
▁beyond	-3341
standing	-3342
rust	-3343
▁access	-3344
▁växthus	-3345
▁pul	-3346
▁norm	-3347
▁approxim	-3348
We	-3349
olved	-3350
▁ability	-3351
imul	-3352
▁pub	-3353
▁vind	-3354
▁utform	-3355
gration	-3356
▁require	-3357
▁loss	-3358
▁uppgi	-3359
▁describ	-3360
utveckling	-3361
syn	-3362
tiver	-3363
▁help	-3364
ign	-3365
verall	-3366
▁studie	-3367
▁thermal	-3368
▁diseases	-3369
▁forskningen	-3370
▁interagerar	-3371
▁then	-3372
▁domin	-3373
▁correl	-3374
▁kemisk	-3375
▁materia	-3376
▁tillför	-3377
▁selection	-3378
▁food	-3379
▁microscopy	-3380
▁beräkningar	-3381
dar	-3382
has	-3383
imer	-3384
rier	-3385
skri	-3386
▁would	-3387
▁reveal	-3388
▁uppvärm	-3389
ick	-3390
▁cyc	-3391
▁ice	-3392
▁tal	-3393
▁Quantum	-3394
▁sources	-3395
▁mänskliga	-3396
▁ecosystems	-3397
pol	-3398
arbete	-3399
▁parad	-3400
▁beskriver	-3401
MS	-3402
okem	-3403
spel	-3404
ynom	-3405
▁ist	-3406
▁län	-3407
orier	-3408
▁Earth	-3409
▁continu	-3410
▁förändra	-3411
▁software	-3412
▁simulation	-3413
▁observations	-3414
kton	-3415
rala	-3416
▁pass	-3417
▁areas	-3418
▁ecological	-3419
igu	-3420
ification	-3421
▁recently	-3422
▁senare	-3423
▁uppska	-3424
electric	-3425
▁reaction	-3426
▁(2)	-3427
▁näst	-3428
▁pres	-3429
ements	-3430
behandling	-3431
▁influence	-3432
ulära	-3433
▁hyper	-3434
▁mekanis	-3435
▁framsteg	-3436
▁dvs	-3437
▁våg	-3438
▁upptäcka	-3439
ades	-3440
våra	-3441
▁Com	-3442
▁components	-3443
amin	-3444
▁(1)	-3445
▁great	-3446
▁origin	-3447
▁bestämma	-3448
▁phenomena	-3449
▁random	-3450
▁digital	-3451
▁simuleringar	-3452
HC	-3453
igg	-3454
ands	-3455
▁bal	-3456
▁conf	-3457
▁step	-3458
▁algoritmer	-3459
▁resistance	-3460
▁stabilitet	-3461
hib	-3462
▁väte	-3463
▁Arctic	-3464
▁computing	-3465
▁bound	-3466
▁snabba	-3467
▁behaviour	-3468
▁reactions	-3469
▁tillverka	-3470
▁mikroorganismer	-3471
ew	-3472
▁Un	-3473
▁Par	-3474
ocial	-3475
water	-3476
▁hund	-3477
▁last	-3478
▁bilda	-3479
▁equations	-3480
▁tillverkning	-3481
ES	-3482
▁tri	-3483
erosol	-3484
▁ground	-3485
bit	-3486
bjud	-3487
▁ark	-3488
▁område	-3489
▁concept	-3490
▁hydrogen	-3491
▁omfattande	-3492
▁Z	-3493
bil	-3494
▁green	-3495
▁atomer	-3496
atalysis	-3497
▁significantly	-3498
hets	-3499
▁sex	-3500
▁Trans	-3501
▁istället	-3502
orts	-3503
abric	-3504
▁same	-3505
▁broad	-3506
▁bilder	-3507
▁röntgen	-3508
▁Eftersom	-3509
▁laborator	-3510
0%	-3511
råk	-3512
▁ämn	-3513
▁disk	-3514
▁mill	-3515
▁expos	-3516
▁relat	-3517
▁density	-3518
▁kemikalier	-3519
▁resultaten	-3520
jon	-3521
▁od	-3522
eral	-3523
know	-3524
gent	-3525
organis	-3526
▁scattering	-3527
FT	-3528
▁rå	-3529
åter	-3530
urope	-3531
▁High	-3532
▁parti	-3533
▁toxic	-3534
▁groups	-3535
▁naturen	-3536
▁architect	-3537
ires	-3538
kraft	-3539
löj	-3540
reh	-3541
förm	-3542
▁gly	-3543
ativa	-3544
▁ovan	-3545
thetic	-3546
▁allmän	-3547
structure	-3548
▁compounds	-3549
En	-3550
▁sjö	-3551
ymmet	-3552
▁orsa	-3553
▁erbjud	-3554
▁extremt	-3555
▁föreslår	-3556
▁framtiden	-3557
▁uncertain	-3558
▁intelligens	-3559
▁Rec	-3560
vning	-3561
metall	-3562
ittills	-3563
Den	-3564
▁Vid	-3565
luster	-3566
▁svåra	-3567
▁vätsk	-3568
▁ursprung	-3569
▁igen	-3570
▁någon	-3571
▁start	-3572
▁improved	-3573
▁hem	-3574
▁kvar	-3575
▁datab	-3576
▁parall	-3577
▁include	-3578
partiklar	-3579
▁effekterna	-3580
▁mö	-3581
▁self	-3582
ografi	-3583
sättning	-3584
angu	-3585
▁lat	-3586
▁etabl	-3587
▁progress	-3588
▁combining	-3589
lac	-3590
osc	-3591
pre	-3592
▁kraf	-3593
▁mjuk	-3594
▁warm	-3595
▁leading	-3596
disciplinary	-3597
▁6	-3598
come	-3599
▁reduc	-3600
▁bär	-3601
▁mig	-3602
gående	-3603
▁product	-3604
▁parameters	-3605
ots	-3606
▁pe	-3607
▁mac	-3608
▁ekonom	-3609
▁systemet	-3610
▁patienter	-3611
▁lö	-3612
miljö	-3613
▁conse	-3614
▁photo	-3615
▁fungera	-3616
▁cellular	-3617
▁position	-3618
▁molekylär	-3619
EC	-3620
over	-3621
▁slä	-3622
▁synte	-3623
▁miljoner	-3624
▁biologisk	-3625
▁col	-3626
▁enzy	-3627
▁expon	-3628
▁modul	-3629
▁press	-3630
lications	-3631
▁stjärnor	-3632
▁individer	-3633
▁responses	-3634
▁tillförlit	-3635
air	-3636
▁Micro	-3637
▁kväve	-3638
▁grupper	-3639
▁remains	-3640
utri	-3641
▁sat	-3642
▁consider	-3643
▁generate	-3644
▁relationship	-3645
asc	-3646
oint	-3647
▁samhälle	-3648
generation	-3649
▁mol	-3650
▁charge	-3651
▁community	-3652
▁promising	-3653
▁utt	-3654
▁magn	-3655
▁ocean	-3656
▁starkt	-3657
effektiv	-3658
inf	-3659
▁bene	-3660
▁next	-3661
▁Även	-3662
▁dessutom	-3663
▁gravit	-3664
▁kunskapen	-3665
▁Se	-3666
known	-3667
▁Lear	-3668
▁behand	-3669
▁optiska	-3670
▁sekvens	-3671
▁quantify	-3672
▁storskal	-3673
▁kontrollera	-3674
▁applikationer	-3675
eded	-3676
mare	-3677
ellul	-3678
lägga	-3679
▁veget	-3680
▁skapar	-3681
▁orsakar	-3682
nitt	-3683
otic	-3684
▁agg	-3685
▁cost	-3686
▁målet	-3687
▁create	-3688
▁trop	-3689
▁tiden	-3690
▁lignin	-3691
▁scenar	-3692
▁jämfört	-3693
▁transpor	-3694
▁constrain	-3695
rix	-3696
ventional	-3697
▁University	-3698
▁mekanismerna	-3699
acka	-3700
strål	-3701
▁allo	-3702
▁rest	-3703
▁seri	-3704
▁sugg	-3705
scopic	-3706
▁kända	-3707
▁ultra	-3708
▁sensor	-3709
▁transi	-3710
ättningen	-3711
▁mör	-3712
▁varför	-3713
▁enskilda	-3714
▁dynamiska	-3715
▁innovative	-3716
▁understood	-3717
ändel	-3718
▁With	-3719
▁compreh	-3720
▁komplic	-3721
▁elements	-3722
▁introduc	-3723
hal	-3724
teori	-3725
▁rätt	-3726
▁fluid	-3727
nan	-3728
ren	-3729
▁Op	-3730
▁genome	-3731
▁föreningar	-3732
ED	-3733
gnos	-3734
▁viss	-3735
▁wind	-3736
▁morph	-3737
struction	-3738
▁emissions	-3739
▁ty	-3740
▁heat	-3741
▁avslöj	-3742
▁biomark	-3743
jer	-3744
▁Li	-3745
line	-3746
lecular	-3747
▁provid	-3748
electron	-3749
amma	-3750
▁sikt	-3751
ogenic	-3752
▁skall	-3753
▁making	-3754
specific	-3755
▁ramverk	-3756
▁poor	-3757
▁korre	-3758
▁nästa	-3759
▁Learning	-3760
nade	-3761
tika	-3762
▁yet	-3763
▁liqu	-3764
▁scales	-3765
▁screen	-3766
▁god	-3767
▁inverkan	-3768
▁bek	-3769
arter	-3770
▁able	-3771
▁kort	-3772
▁infer	-3773
mission	-3774
▁suggest	-3775
▁avancerad	-3776
▁utvärdera	-3777
ime	-3778
▁genetisk	-3779
▁individual	-3780
abit	-3781
aren	-3782
▁mit	-3783
▁värd	-3784
▁ytan	-3785
former	-3786
▁förut	-3787
▁mönster	-3788
▁interact	-3789
vak	-3790
pers	-3791
▁System	-3792
▁events	-3793
▁strukturen	-3794
ET	-3795
öda	-3796
▁kod	-3797
▁lika	-3798
▁osäker	-3799
▁facilit	-3800
▁begränsad	-3801
ora	-3802
stra	-3803
▁hälsa	-3804
▁skilj	-3805
konstru	-3806
lösning	-3807
ologier	-3808
▁möjliga	-3809
▁combined	-3810
▁air	-3811
▁tro	-3812
▁dynamik	-3813
▁närvarande	-3814
omer	-3815
rial	-3816
▁ret	-3817
ampar	-3818
▁ihop	-3819
ctional	-3820
▁aktiva	-3821
▁accurate	-3822
▁patterns	-3823
sh	-3824
eck	-3825
trä	-3826
▁each	-3827
▁visa	-3828
▁sensing	-3829
▁generera	-3830
▁relativt	-3831
desig	-3832
quency	-3833
utsläpp	-3834
▁allvar	-3835
▁studerar	-3836
▁alternativ	-3837
▁kap	-3838
▁given	-3839
▁bacteria	-3840
enni	-3841
ered	-3842
strin	-3843
ständ	-3844
▁manu	-3845
▁much	-3846
▁sequ	-3847
▁levels	-3848
▁paradig	-3849
IC	-3850
II	-3851
less	-3852
hibit	-3853
ysics	-3854
▁lite	-3855
▁strä	-3856
▁Forsk	-3857
agement	-3858
ists	-3859
▁play	-3860
▁text	-3861
▁arbete	-3862
▁jordens	-3863
▁effekten	-3864
▁providing	-3865
▁utvecklar	-3866
aled	-3867
▁any	-3868
igene	-3869
▁Vårt	-3870
▁remain	-3871
▁kontinu	-3872
▁samband	-3873
PC	-3874
▁Nu	-3875
▁kine	-3876
▁känn	-3877
▁ytor	-3878
▁Inter	-3879
▁concer	-3880
▁främst	-3881
▁intresse	-3882
nads	-3883
▁201	-3884
▁hopp	-3885
▁stöd	-3886
gether	-3887
▁point	-3888
▁spinn	-3889
▁antalet	-3890
▁together	-3891
▁fysikaliska	-3892
▁integration	-3893
▁collaboration	-3894
econd	-3895
▁nästan	-3896
▁tj	-3897
isel	-3898
▁Gen	-3899
▁sann	-3900
▁Sådan	-3901
▁pepti	-3902
ception	-3903
▁needed	-3904
▁search	-3905
▁substr	-3906
tillstånd	-3907
▁konsekvenser	-3908
bet	-3909
mot	-3910
▁bevis	-3911
▁computer	-3912
loud	-3913
▁social	-3914
▁Resultaten	-3915
ich	-3916
ift	-3917
urb	-3918
ute	-3919
▁sid	-3920
talet	-3921
▁sjuk	-3922
barhet	-3923
▁effective	-3924
2-	-3925
▁tred	-3926
▁viktigaste	-3927
tism	-3928
aktor	-3929
▁nerv	-3930
▁konta	-3931
▁formul	-3932
elektron	-3933
▁halvled	-3934
▁partikel	-3935
▁transform	-3936
▁former	-3937
▁aerosol	-3938
ltim	-3939
estic	-3940
ysical	-3941
▁apply	-3942
▁hypotes	-3943
▁ske	-3944
▁infra	-3945
▁physi	-3946
▁combine	-3947
▁strategier	-3948
dimensionella	-3949
dade	-3950
▁lära	-3951
▁polynom	-3952
▁without	-3953
▁electric	-3954
▁ed	-3955
eles	-3956
▁hav	-3957
▁hol	-3958
▁pathways	-3959
▁utvecklats	-3960
hol	-3961
▁Syftet	-3962
▁carried	-3963
▁klimatet	-3964
like	-3965
▁etc	-3966
▁past	-3967
▁står	-3968
▁team	-3969
▁analyses	-3970
▁enabling	-3971
▁temperaturer	-3972
▁sitt	-3973
rotron	-3974
▁fören	-3975
▁impacts	-3976
▁rörelse	-3977
▁noggrann	-3978
▁phenotyp	-3979
▁artificial	-3980
▁undersöker	-3981
ause	-3982
play	-3983
hether	-3984
▁metabolism	-3985
▁statistical	-3986
▁funktionella	-3987
AM	-3988
väl	-3989
tice	-3990
▁Dynam	-3991
▁occur	-3992
▁kvantmek	-3993
▁membrane	-3994
vik	-3995
▁skillnader	-3996
pret	-3997
▁nec	-3998
▁capt	-3999
▁aggreg	-4000
▁extrema	-4001
▁fysiska	-4002
ased	-4003
hang	-4004
▁grad	-4005
▁vikt	-4006
attform	-4007
▁genomför	-4008
AT	-4009
skikt	-4010
▁resili	-4011
▁Protein	-4012
▁lösning	-4013
▁området	-4014
▁mikroskop	-4015
▁populationer	-4016
lucid	-4017
▁stable	-4018
▁mekaniska	-4019
elt	-4020
ativ	-4021
ching	-4022
▁special	-4023
▁beräkning	-4024
▁representation	-4025
▁PF	-4026
▁ers	-4027
oresc	-4028
pping	-4029
▁gain	-4030
▁capac	-4031
▁adaptive	-4032
▁vetenskapliga	-4033
atta	-4034
inst	-4035
rest	-4036
▁packa	-4037
▁själva	-4038
▁uppvis	-4039
ban	-4040
day	-4041
resp	-4042
▁back	-4043
▁even	-4044
tative	-4045
▁expla	-4046
▁whether	-4047
▁evaluate	-4048
▁tekniska	-4049
▁artificiell	-4050
NN	-4051
▁3)	-4052
▁sek	-4053
▁area	-4054
▁biog	-4055
▁kemi	-4056
▁selec	-4057
▁marine	-4058
▁individu	-4059
▁challenging	-4060
▁tillgängliga	-4061
▁wave	-4062
▁nutri	-4063
Hz	-4064
örj	-4065
▁fy	-4066
ason	-4067
echan	-4068
▁Using	-4069
▁tillräckligt	-4070
ains	-4071
iner	-4072
▁fåg	-4073
atisk	-4074
limin	-4075
▁warming	-4076
▁frekvens	-4077
asi	-4078
rik	-4079
▁bor	-4080
▁reduce	-4081
▁resurser	-4082
▁batterier	-4083
▁speciellt	-4084
örs	-4085
▁ze	-4086
▁diss	-4087
▁hard	-4088
▁vers	-4089
▁Sk	-4090
ätts	-4091
▁språk	-4092
▁reaktion	-4093
▁tillgång	-4094
▁produkter	-4095
▁gånger	-4096
▁satell	-4097
▁robotar	-4098
structures	-4099
▁läkemedels	-4100
▁digit	-4101
▁inför	-4102
kningar	-4103
▁transl	-4104
dependent	-4105
▁emission	-4106
▁feedback	-4107
▁surfaces	-4108
▁currently	-4109
zo	-4110
▁tän	-4111
▁fabric	-4112
▁observationer	-4113
anser	-4114
▁infl	-4115
▁necess	-4116
quencing	-4117
typ	-4118
gence	-4119
orpor	-4120
▁Stru	-4121
intera	-4122
▁fokusera	-4123
▁utvecklat	-4124
▁regulation	-4125
acy	-4126
don	-4127
gär	-4128
▁larg	-4129
▁vatt	-4130
▁biofil	-4131
▁integrated	-4132
▁gjor	-4133
praled	-4134
▁fråga	-4135
▁cer	-4136
▁immune	-4137
▁processen	-4138
▁radiation	-4139
▁complexity	-4140
OM	-4141
rädd	-4142
▁100	-4143
▁antim	-4144
▁anpassa	-4145
rang	-4146
▁iss	-4147
terar	-4148
▁Here	-4149
▁befint	-4150
▁uppkom	-4151
▁patogen	-4152
▁features	-4153
▁tex	-4154
itrogen	-4155
mässiga	-4156
▁skapas	-4157
▁unknown	-4158
▁discovery	-4159
på	-4160
▁Fr	-4161
▁Si	-4162
lands	-4163
▁energik	-4164
▁question	-4165
▁expression	-4166
▁x	-4167
ited	-4168
▁tail	-4169
verktyg	-4170
▁blivit	-4171
▁evolutionära	-4172
til	-4173
ffer	-4174
opro	-4175
pekt	-4176
▁mus	-4177
▁lung	-4178
▁säll	-4179
▁explo	-4180
▁förbr	-4181
ectives	-4182
▁bildar	-4183
▁domain	-4184
▁source	-4185
▁jämföra	-4186
abilities	-4187
▁construct	-4188
▁anpassning	-4189
▁methodology	-4190
cep	-4191
ärl	-4192
gets	-4193
last	-4194
osens	-4195
▁being	-4196
▁fiber	-4197
▁assemb	-4198
▁regions	-4199
▁elektroniska	-4200
▁katalysatorer	-4201
ice	-4202
▁bill	-4203
▁since	-4204
ributed	-4205
roskopi	-4206
▁animal	-4207
▁degrad	-4208
forskning	-4209
▁prediction	-4210
kod	-4211
▁Sol	-4212
▁kisel	-4213
▁baserat	-4214
▁context	-4215
▁hittills	-4216
▁management	-4217
▁mix	-4218
▁band	-4219
▁bore	-4220
▁låga	-4221
▁upph	-4222
ologiskt	-4223
▁perovsk	-4224
▁produce	-4225
▁kontinuer	-4226
▁samarbete	-4227
går	-4228
oment	-4229
▁habit	-4230
▁maxim	-4231
▁minskar	-4232
▁consequences	-4233
▁Ark	-4234
atser	-4235
level	-4236
ograf	-4237
rical	-4238
▁bott	-4239
▁liten	-4240
▁saknas	-4241
▁bearbet	-4242
▁neutrin	-4243
inn	-4244
▁patients	-4245
▁tillhanda	-4246
bes	-4247
tså	-4248
▁ön	-4249
▁krets	-4250
▁langu	-4251
▁radio	-4252
▁sannoli	-4253
▁bacterial	-4254
▁kartlägga	-4255
▁traditionella	-4256
▁&	-4257
kal	-4258
tade	-4259
▁akt	-4260
▁fem	-4261
anisk	-4262
▁Mach	-4263
▁rums	-4264
steori	-4265
▁grunden	-4266
ochemical	-4267
▁ekologiska	-4268
ule	-4269
▁Fe	-4270
▁My	-4271
▁Non	-4272
▁ang	-4273
▁rot	-4274
▁short	-4275
atically	-4276
▁building	-4277
ote	-4278
tar	-4279
anob	-4280
▁hål	-4281
▁näm	-4282
agring	-4283
verkar	-4284
▁Europe	-4285
▁Sådana	-4286
▁kroppen	-4287
▁karaktär	-4288
▁sjukdoms	-4289
▁monitoring	-4290
OF	-4291
comes	-4292
osfär	-4293
▁Stud	-4294
▁posi	-4295
▁basis	-4296
▁vävnad	-4297
▁samples	-4298
▁detailed	-4299
▁elektronik	-4300
enden	-4301
▁free	-4302
▁image	-4303
▁atomic	-4304
▁expand	-4305
brytande	-4306
▁mängden	-4307
▁observer	-4308
▁framgångs	-4309
▁naturligt	-4310
OS	-4311
▁More	-4312
▁egen	-4313
▁konk	-4314
inform	-4315
▁elucid	-4316
modellen	-4317
▁matematisk	-4318
ined	-4319
▁cle	-4320
▁stark	-4321
strateg	-4322
▁device	-4323
▁oxygen	-4324
▁manipul	-4325
▁organisms	-4326
bre	-4327
lay	-4328
oft	-4329
▁ol	-4330
▁fyra	-4331
▁träd	-4332
▁unik	-4333
fördel	-4334
ometer	-4335
▁inlär	-4336
oration	-4337
▁person	-4338
▁decenni	-4339
▁samspel	-4340
▁huvudsak	-4341
▁livsmedel	-4342
▁instrument	-4343
ög	-4344
▁Sc	-4345
▁sn	-4346
abil	-4347
▁dam	-4348
orter	-4349
▁possib	-4350
▁ecology	-4351
▁stabila	-4352
▁separation	-4353
▁predictions	-4354
▁sammansättning	-4355
own	-4356
▁Upp	-4357
▁prop	-4358
▁brist	-4359
▁smart	-4360
▁involved	-4361
▁paradigm	-4362
mekanismer	-4363
▁interpret	-4364
▁inkluderar	-4365
bers	-4366
▁Var	-4367
föring	-4368
abilitet	-4369
▁Further	-4370
▁directly	-4371
▁incorpor	-4372
▁conversion	-4373
▁topological	-4374
▁comprehensive	-4375
go	-4376
aler	-4377
▁Inom	-4378
▁visu	-4379
▁among	-4380
▁joner	-4381
▁skikt	-4382
▁teorin	-4383
versitet	-4384
▁intressanta	-4385
▁sea	-4386
ström	-4387
▁flyg	-4388
▁känt	-4389
▁såväl	-4390
▁lokala	-4391
▁matrix	-4392
ske	-4393
tise	-4394
ticles	-4395
▁benef	-4396
▁visual	-4397
lutligen	-4398
▁genomic	-4399
seffektiv	-4400
▁specifikt	-4401
icon	-4402
▁(3)	-4403
ristall	-4404
ättningar	-4405
▁förklara	-4406
su	-4407
indu	-4408
loid	-4409
unkter	-4410
sproblem	-4411
▁epigene	-4412
▁manufact	-4413
▁relevanta	-4414
▁AM	-4415
▁bul	-4416
▁mem	-4417
▁plac	-4418
▁thin	-4419
▁rates	-4420
▁reach	-4421
jukdomar	-4422
▁testing	-4423
ler	-4424
▁now	-4425
▁rate	-4426
design	-4427
▁alter	-4428
▁plats	-4429
▁tryck	-4430
troller	-4431
▁starka	-4432
▁Machine	-4433
▁bränslen	-4434
▁antibiotika	-4435
▁Pre	-4436
inent	-4437
▁båda	-4438
▁forts	-4439
▁innan	-4440
▁waves	-4441
evolution	-4442
▁studying	-4443
▁difficult	-4444
▁matematik	-4445
▁magnetfält	-4446
▁effektivitet	-4447
gu	-4448
roppar	-4449
▁lägre	-4450
▁history	-4451
▁applicant	-4452
bel	-4453
▁Org	-4454
▁Pol	-4455
ellar	-4456
▁lager	-4457
▁findings	-4458
strukturen	-4459
▁solceller	-4460
As	-4461
ae	-4462
mic	-4463
rel	-4464
tex	-4465
▁enkla	-4466
iconduct	-4467
▁nuclear	-4468
▁elektrisk	-4469
▁communities	-4470
▁strukturella	-4471
kad	-4472
▁Tra	-4473
ather	-4474
▁flux	-4475
▁långt	-4476
▁tasks	-4477
▁traits	-4478
▁utbred	-4479
▁diverse	-4480
▁extreme	-4481
ror	-4482
oper	-4483
stad	-4484
▁gam	-4485
▁rik	-4486
▁vac	-4487
▁was	-4488
▁poly	-4489
▁säga	-4490
▁cycle	-4491
▁shown	-4492
▁binder	-4493
▁fossila	-4494
▁kontakt	-4495
▁sequencing	-4496
▁conventional	-4497
uti	-4498
inal	-4499
oplan	-4500
▁före	-4501
▁vivo	-4502
räddars	-4503
▁alltså	-4504
▁beslut	-4505
▁however	-4506
▁kritiska	-4507
PS	-4508
mi	-4509
▁aga	-4510
▁ste	-4511
dynamik	-4512
faktorer	-4513
▁overall	-4514
▁atmospheric	-4515
gången	-4516
▁macro	-4517
▁skala	-4518
▁skogs	-4519
hållande	-4520
▁Finally	-4521
▁because	-4522
▁signaler	-4523
▁expertise	-4524
▁nonlinear	-4525
▁sammanhang	-4526
▁Som	-4527
▁few	-4528
▁kyl	-4529
▁reda	-4530
▁While	-4531
▁vågor	-4532
▁förekommer	-4533
▁underliggande	-4534
akes	-4535
iting	-4536
scill	-4537
▁prov	-4538
energi	-4539
▁avser	-4540
förmåga	-4541
▁theories	-4542
▁increased	-4543
nov	-4544
vna	-4545
▁Nya	-4546
itekt	-4547
▁Higg	-4548
▁hoppas	-4549
▁aspects	-4550
▁koncept	-4551
▁designed	-4552
▁förbättrad	-4553
åd	-4554
▁gå	-4555
lock	-4556
rast	-4557
▁nanom	-4558
▁become	-4559
▁levera	-4560
▁outcomes	-4561
▁identified	-4562
▁kombinerar	-4563
row	-4564
Genom	-4565
plant	-4566
änsyn	-4567
▁dels	-4568
▁enkelt	-4569
▁upphov	-4570
▁neurala	-4571
2,	-4572
▁järn	-4573
▁supp	-4574
▁gradi	-4575
▁hjärt	-4576
▁hjälper	-4577
▁disorder	-4578
▁verkliga	-4579
▁numeriska	-4580
▁particularly	-4581
▁7	-4582
oton	-4583
umin	-4584
▁PFAS	-4585
studier	-4586
▁centrala	-4587
▁kunskaps	-4588
▁requires	-4589
▁resources	-4590
▁perspektiv	-4591
▁generations	-4592
50	-4593
▁ML	-4594
char	-4595
ually	-4596
▁addi	-4597
▁händer	-4598
stekniker	-4599
▁reproduc	-4600
▁technique	-4601
▁One	-4602
tifrån	-4603
▁Många	-4604
▁långs	-4605
▁conser	-4606
▁example	-4607
▁kopplade	-4608
▁modellen	-4609
sprocessen	-4610
▁therefore	-4611
ode	-4612
uss	-4613
ends	-4614
rich	-4615
situ	-4616
▁bioge	-4617
▁enorm	-4618
▁metan	-4619
▁terap	-4620
▁datorer	-4621
▁similar	-4622
▁industrial	-4623
▁yta	-4624
▁inre	-4625
▁event	-4626
▁mitig	-4627
▁öppna	-4628
▁levande	-4629
▁återvin	-4630
▁byggsten	-4631
▁vanligtvis	-4632
vatt	-4633
▁Här	-4634
▁sal	-4635
äcker	-4636
▁spri	-4637
▁foton	-4638
▁schem	-4639
ochastic	-4640
▁samhället	-4641
▁Nor	-4642
▁tack	-4643
▁länge	-4644
induced	-4645
▁vätgas	-4646
▁förstär	-4647
▁scenari	-4648
▁targets	-4649
▁relation	-4650
▁mechanistic	-4651
lad	-4652
grepp	-4653
ripande	-4654
▁extend	-4655
▁Utveckl	-4656
▁cellerna	-4657
▁användningen	-4658
ösa	-4659
brer	-4660
istics	-4661
ragment	-4662
▁defini	-4663
▁against	-4664
▁mineral	-4665
▁energieffektiv	-4666
si	-4667
drag	-4668
vant	-4669
▁kal	-4670
▁log	-4671
▁börj	-4672
▁made	-4673
▁allows	-4674
▁tidiga	-4675
▁signals	-4676
molekyler	-4677
anik	-4678
iral	-4679
vågor	-4680
▁public	-4681
koppling	-4682
▁Climate	-4683
▁Slutligen	-4684
we	-4685
rör	-4686
öds	-4687
ukary	-4688
▁bästa	-4689
▁empir	-4690
▁styra	-4691
▁around	-4692
▁hänsyn	-4693
▁komple	-4694
▁komponent	-4695
▁laboratory	-4696
äd	-4697
ulf	-4698
▁tu	-4699
kval	-4700
pite	-4701
▁acid	-4702
▁ions	-4703
acitet	-4704
ancing	-4705
itable	-4706
▁redox	-4707
rations	-4708
▁batter	-4709
▁fluoresc	-4710
▁samarbet	-4711
mod	-4712
ygg	-4713
fika	-4714
längd	-4715
▁Mode	-4716
▁intr	-4717
eenden	-4718
▁refer	-4719
▁liquid	-4720
▁marina	-4721
▁Develop	-4722
▁Swedish	-4723
▁capacity	-4724
▁performed	-4725
RI	-4726
stor	-4727
▁amo	-4728
tande	-4729
▁inuti	-4730
▁catalytic	-4731
▁parametrar	-4732
▁contribution	-4733
);	-4734
AX	-4735
NS	-4736
iet	-4737
▁amp	-4738
▁tyd	-4739
▁punkt	-4740
▁stimul	-4741
▁compared	-4742
▁optimera	-4743
▁required	-4744
▁simulera	-4745
▁potentiella	-4746
ax	-4747
▁fak	-4748
▁vul	-4749
ighet	-4750
▁inflamm	-4751
▁catalysts	-4752
▁electrochemical	-4753
▁Å	-4754
▁Ge	-4755
free	-4756
▁New	-4757
ologin	-4758
▁händel	-4759
▁primary	-4760
▁överlev	-4761
▁supraled	-4762
▁befintliga	-4763
▁förändring	-4764
AC	-4765
ran	-4766
vikt	-4767
▁tom	-4768
oding	-4769
punkt	-4770
▁miss	-4771
▁göras	-4772
▁tunna	-4773
itation	-4774
▁investigated	-4775
ged	-4776
rika	-4777
▁run	-4778
ended	-4779
itivity	-4780
▁absorb	-4781
▁called	-4782
▁stream	-4783
▁framför	-4784
fre	-4785
▁Le	-4786
racy	-4787
▁tus	-4788
▁fysi	-4789
▁lyck	-4790
▁mRNA	-4791
▁selek	-4792
▁övers	-4793
itektur	-4794
▁advant	-4795
▁cellen	-4796
▁enzymes	-4797
▁säkerhet	-4798
▁differenti	-4799
våg	-4800
skad	-4801
▁säk	-4802
ordin	-4803
▁belys	-4804
▁ultim	-4805
▁korrekt	-4806
▁screening	-4807
▁tas	-4808
emens	-4809
fysik	-4810
▁near	-4811
▁Energ	-4812
▁along	-4813
▁energil	-4814
▁skiljer	-4815
▁coupling	-4816
▁skräddars	-4817
▁optimering	-4818
▁möjligheten	-4819
aw	-4820
ope	-4821
ming	-4822
▁mes	-4823
▁ljud	-4824
▁trots	-4825
pecially	-4826
2)	-4827
Vs	-4828
bind	-4829
▁Eff	-4830
▁Imp	-4831
light	-4832
▁insp	-4833
bration	-4834
akterier	-4835
▁products	-4836
▁strength	-4837
ekvationer	-4838
▁organiskt	-4839
▁resulting	-4840
▁synthetic	-4841
▁banbrytande	-4842
▁researchers	-4843
▁AT	-4844
▁PI	-4845
more	-4846
skon	-4847
algor	-4848
▁Data	-4849
▁gran	-4850
▁wall	-4851
ention	-4852
▁after	-4853
▁komma	-4854
▁those	-4855
▁fusion	-4856
▁Artific	-4857
▁uppvisar	-4858
▁frequency	-4859
▁kontroller	-4860
▁potentially	-4861
▁characterize	-4862
jära	-4863
ssnitt	-4864
▁block	-4865
▁corre	-4866
▁stars	-4867
▁waste	-4868
▁conver	-4869
▁cyanob	-4870
▁ökande	-4871
▁coupled	-4872
▁lagring	-4873
▁svenska	-4874
▁sensorer	-4875
ningsmedel	-4876
▁metabolic	-4877
imuleringar	-4878
DNA	-4879
umul	-4880
under	-4881
upplö	-4882
▁Fram	-4883
vement	-4884
▁antag	-4885
▁experi	-4886
▁certain	-4887
▁förhind	-4888
▁society	-4889
▁jordbruk	-4890
▁metaller	-4891
▁observed	-4892
▁spridning	-4893
enew	-4894
press	-4895
uracy	-4896
romosom	-4897
▁nitrogen	-4898
▁complement	-4899
PR	-4900
▁Syn	-4901
▁giv	-4902
ening	-4903
ented	-4904
▁musk	-4905
flöden	-4906
▁humans	-4907
▁practical	-4908
▁hypothesis	-4909
lly	-4910
mut	-4911
vår	-4912
▁verkar	-4913
▁Despite	-4914
▁beräkna	-4915
▁prognos	-4916
▁motstånd	-4917
▁controlled	-4918
▁especially	-4919
▁interfaces	-4920
▁implications	-4921
▁Av	-4922
▁cyt	-4923
▁case	-4924
▁evid	-4925
▁fully	-4926
▁sjöar	-4927
▁today	-4928
▁tumör	-4929
kemiska	-4930
▁candid	-4931
▁opport	-4932
▁metoden	-4933
▁avsevärt	-4934
▁established	-4935
nat	-4936
▁CH	-4937
▁glac	-4938
eställ	-4939
▁avslöja	-4940
▁opportun	-4941
▁batteries	-4942
nen	-4943
▁Fun	-4944
ledes	-4945
▁bedö	-4946
änster	-4947
▁begränsningar	-4948
ML	-4949
äs	-4950
knar	-4951
ying	-4952
▁blood	-4953
nätverk	-4954
▁algebr	-4955
▁spaces	-4956
▁produceras	-4957
CO	-4958
ouse	-4959
▁dop	-4960
heimer	-4961
genskap	-4962
▁aktiver	-4963
▁semiconduct	-4964
▁traditional	-4965
▁quantitative	-4966
tet	-4967
väv	-4968
juka	-4969
▁utö	-4970
▁däre	-4971
område	-4972
aliserade	-4973
▁analyser	-4974
▁decision	-4975
▁skillnad	-4976
ones	-4977
grund	-4978
ioner	-4979
▁rele	-4980
herent	-4981
▁terms	-4982
▁modifi	-4983
▁strävar	-4984
efficient	-4985
▁provides	-4986
▁konvention	-4987
ota	-4988
istor	-4989
▁explain	-4990
▁uppskatt	-4991
▁integrating	-4992
▁AL	-4993
gaser	-4994
inder	-4995
timod	-4996
kompon	-4997
▁landsc	-4998
▁animals	-4999
▁strategy	-5000
sprocesser	-5001
▁genomföra	-5002
fas	-5003
raph	-5004
change	-5005
isions	-5006
▁lagra	-5007
▁problemet	-5008
▁producerar	-5009
luts	-5010
▁lär	-5011
ticle	-5012
▁berg	-5013
▁core	-5014
knings	-5015
▁indic	-5016
▁simult	-5017
cellular	-5018
▁medical	-5019
▁accuracy	-5020
▁therapeu	-5021
▁8	-5022
igen	-5023
ölja	-5024
state	-5025
▁kvan	-5026
▁line	-5027
aktiva	-5028
▁oscill	-5029
▁princip	-5030
▁powerful	-5031
▁training	-5032
▁modellera	-5033
▁övergripande	-5034
0-	-5035
edan	-5036
stån	-5037
wide	-5038
▁rig	-5039
ither	-5040
▁disc	-5041
▁nytta	-5042
▁times	-5043
▁ändra	-5044
▁profil	-5045
▁thereby	-5046
▁landskap	-5047
▁parameter	-5048
▁avbildning	-5049
▁medicinska	-5050
▁potentiellt	-5051
▁industriella	-5052
ID	-5053
dé	-5054
mål	-5055
pop	-5056
▁hjär	-5057
▁stra	-5058
▁wild	-5059
▁layer	-5060
zheimer	-5061
▁invari	-5062
▁miljövän	-5063
▁classical	-5064
ols	-5065
▁tag	-5066
joner	-5067
▁fish	-5068
▁abund	-5069
▁goals	-5070
batteri	-5071
▁analog	-5072
▁vision	-5073
ield	-5074
ific	-5075
▁fos	-5076
ogena	-5077
▁brid	-5078
▁cirk	-5079
▁grän	-5080
▁krav	-5081
▁fåglar	-5082
▁kataly	-5083
▁reagerar	-5084
resolution	-5085
▁calculations	-5086
ayes	-5087
▁hor	-5088
fluid	-5089
▁body	-5090
▁högt	-5091
▁använ	-5092
▁motion	-5093
▁emerging	-5094
▁previous	-5095
▁suitable	-5096
▁dynamical	-5097
eh	-5098
fte	-5099
▁rö	-5100
kärn	-5101
▁age	-5102
beräk	-5103
▁cloud	-5104
▁econom	-5105
▁eukary	-5106
▁främja	-5107
▁pressure	-5108
▁temporal	-5109
▁electroly	-5110
IR	-5111
lies	-5112
lösa	-5113
wave	-5114
▁gyn	-5115
▁give	-5116
istens	-5117
▁gemens	-5118
▁grafen	-5119
▁capture	-5120
▁djupare	-5121
▁erbjuder	-5122
not	-5123
rete	-5124
ulär	-5125
▁fail	-5126
▁virt	-5127
▁films	-5128
▁långa	-5129
ocellul	-5130
▁attack	-5131
▁hanter	-5132
▁baserad	-5133
▁reprodu	-5134
▁Evolution	-5135
▁generated	-5136
▁omvandling	-5137
öna	-5138
tebr	-5139
arder	-5140
ector	-5141
▁enti	-5142
orphic	-5143
▁poorly	-5144
▁reason	-5145
enewable	-5146
▁besvara	-5147
▁obtained	-5148
▁operation	-5149
▁uppgifter	-5150
▁atmosphere	-5151
▁computation	-5152
▁lå	-5153
olit	-5154
▁färg	-5155
▁tvär	-5156
▁biomo	-5157
▁metoderna	-5158
▁necessary	-5159
▁objectives	-5160
▁previously	-5161
cur	-5162
▁Deep	-5163
▁invas	-5164
▁metam	-5165
ogeneous	-5166
▁kostnad	-5167
processer	-5168
▁Alzheimer	-5169
▁detaljerad	-5170
▁vegetation	-5171
▁degradation	-5172
▁geometriska	-5173
▁tä	-5174
tegr	-5175
fying	-5176
sters	-5177
▁havet	-5178
taining	-5179
▁Analys	-5180
▁histor	-5181
▁marken	-5182
okemiska	-5183
▁implant	-5184
▁polymers	-5185
▁absorption	-5186
▁principles	-5187
▁relaterade	-5188
▁limitations	-5189
hes	-5190
iem	-5191
kop	-5192
avig	-5193
fety	-5194
oxic	-5195
▁All	-5196
▁bur	-5197
▁less	-5198
▁pale	-5199
▁take	-5200
▁tarm	-5201
▁utst	-5202
▁Comput	-5203
▁crystall	-5204
funktioner	-5205
▁integrera	-5206
▁koncentration	-5207
2.	-5208
▁sili	-5209
▁tran	-5210
oscale	-5211
▁Higgs	-5212
▁exter	-5213
▁makro	-5214
▁metals	-5215
▁globalt	-5216
▁mänsklig	-5217
▁reduction	-5218
▁deformation	-5219
▁internation	-5220
▁sensitivity	-5221
▁intelligence	-5222
cka	-5223
amet	-5224
entals	-5225
▁diver	-5226
▁driven	-5227
▁orsaka	-5228
▁aspekter	-5229
▁biomassa	-5230
▁hypothes	-5231
egenskaper	-5232
▁polymerer	-5233
To	-5234
reak	-5235
äder	-5236
▁spe	-5237
ansen	-5238
skade	-5239
▁hind	-5240
gärder	-5241
igenom	-5242
emperatur	-5243
▁architecture	-5244
▁transmission	-5245
AD	-5246
▁MX	-5247
rätt	-5248
▁Car	-5249
ready	-5250
▁peri	-5251
▁tunn	-5252
▁svamp	-5253
ystemet	-5254
▁phases	-5255
paration	-5256
▁analyze	-5257
▁largely	-5258
▁långsik	-5259
▁insekter	-5260
▁sw	-5261
ocal	-5262
orma	-5263
kande	-5264
▁vare	-5265
▁shape	-5266
▁industry	-5267
▁framställ	-5268
▁assessment	-5269
▁representations	-5270
AL	-5271
uc	-5272
ird	-5273
bial	-5274
active	-5275
▁Large	-5276
▁toler	-5277
ännande	-5278
▁Struct	-5279
▁matris	-5280
▁battery	-5281
▁planerar	-5282
▁upplösning	-5283
itri	-5284
▁dram	-5285
▁binding	-5286
▁terrest	-5287
▁boundary	-5288
elektriska	-5289
▁elucidate	-5290
▁processerna	-5291
▁transporter	-5292
▁characteristics	-5293
EE	-5294
Ett	-5295
hus	-5296
▁Im	-5297
fisk	-5298
värr	-5299
urity	-5300
▁följa	-5301
▁offer	-5302
försvar	-5303
ktionen	-5304
ridning	-5305
▁ration	-5306
ognition	-5307
▁konstruera	-5308
TH	-5309
tom	-5310
vity	-5311
tiken	-5312
▁svag	-5313
tering	-5314
▁circu	-5315
▁cross	-5316
▁enhet	-5317
▁gover	-5318
▁oxide	-5319
ayesian	-5320
▁should	-5321
▁antingen	-5322
▁hållbart	-5323
inlärnings	-5324
▁objective	-5325
▁oxidation	-5326
▁transcript	-5327
▁electronics	-5328
▁föroreningar	-5329
▁manufacturing	-5330
aka	-5331
osph	-5332
tium	-5333
▁Vis	-5334
licit	-5335
▁Våra	-5336
▁answ	-5337
▁resource	-5338
▁elektroly	-5339
▁turbulent	-5340
Ms	-5341
rep	-5342
icine	-5343
virus	-5344
ätter	-5345
▁vars	-5346
ståndet	-5347
▁consist	-5348
▁exister	-5349
▁framtid	-5350
▁ledande	-5351
▁supercon	-5352
▁diffusion	-5353
▁uncertainty	-5354
▁implementation	-5355
vät	-5356
▁konst	-5357
▁avseende	-5358
▁successful	-5359
eln	-5360
ised	-5361
▁Per	-5362
▁stad	-5363
▁enorma	-5364
▁exakta	-5365
▁simultane	-5366
▁strålning	-5367
▁säkerställa	-5368
▁identification	-5369
-,	-5370
▁Mon	-5371
▁her	-5372
ernas	-5373
okond	-5374
riskt	-5375
▁vitro	-5376
området	-5377
▁korrel	-5378
▁constit	-5379
▁förmågan	-5380
▁language	-5381
▁nedbrytning	-5382
▁näringsämnen	-5383
bör	-5384
ares	-5385
▁amy	-5386
▁Thus	-5387
▁bulk	-5388
▁means	-5389
▁paras	-5390
▁synch	-5391
vakning	-5392
▁bedöma	-5393
räckning	-5394
▁besluts	-5395
▁sociala	-5396
▁exposure	-5397
▁teknologi	-5398
St	-5399
sy	-5400
styr	-5401
skala	-5402
▁rygg	-5403
ometri	-5404
▁sidan	-5405
▁consum	-5406
▁damage	-5407
▁stabil	-5408
▁histori	-5409
▁svampar	-5410
▁algebraic	-5411
▁uppvärmning	-5412
▁växelverkan	-5413
▁capabilities	-5414
▁Understanding	-5415
▁NMR	-5416
▁aqu	-5417
rogen	-5418
▁clos	-5419
▁mörk	-5420
▁delen	-5421
▁kunde	-5422
▁växer	-5423
▁distin	-5424
▁servic	-5425
▁Specific	-5426
▁innovativa	-5427
▁constraints	-5428
ST	-5429
hic	-5430
mers	-5431
house	-5432
igare	-5433
▁amin	-5434
▁beam	-5435
▁seek	-5436
rosion	-5437
stersj	-5438
▁categ	-5439
▁minst	-5440
▁kanske	-5441
▁teorier	-5442
▁egenskap	-5443
▁evidence	-5444
▁skadliga	-5445
▁conducted	-5446
▁utmanande	-5447
▁spectromet	-5448
02	-5449
ints	-5450
vest	-5451
▁biomed	-5452
▁expans	-5453
▁medför	-5454
▁insight	-5455
▁precise	-5456
▁kvalitet	-5457
▁receptor	-5458
▁framtidens	-5459
▁utsträckning	-5460
ink	-5461
▁AD	-5462
dsor	-5463
olds	-5464
▁fix	-5465
ilver	-5466
▁down	-5467
lastic	-5468
alisera	-5469
erativa	-5470
▁behind	-5471
▁bekämp	-5472
▁advances	-5473
▁begränsade	-5474
förändringarna	-5475
▁nanopartiklar	-5476
▁/	-5477
ura	-5478
▁ög	-5479
sent	-5480
vill	-5481
▁Euro	-5482
▁acco	-5483
▁hitt	-5484
▁must	-5485
▁slag	-5486
skraft	-5487
vision	-5488
▁antib	-5489
▁survi	-5490
beroende	-5491
dant	-5492
▁idé	-5493
itter	-5494
▁rymd	-5495
gricult	-5496
igheter	-5497
▁driver	-5498
▁erhåll	-5499
▁prover	-5500
▁saknar	-5501
▁objects	-5502
▁laddning	-5503
användning	-5504
▁interface	-5505
▁Furthermore	-5506
agn	-5507
fly	-5508
ctive	-5509
tting	-5510
▁fasta	-5511
▁Arktis	-5512
▁neurom	-5513
▁propag	-5514
".	-5515
thes	-5516
gefär	-5517
relat	-5518
stead	-5519
▁ambi	-5520
▁linear	-5521
▁Moreover	-5522
mikroskopi	-5523
▁improving	-5524
▁speciella	-5525
▁Experiment	-5526
fro	-5527
▁Sm	-5528
ales	-5529
anna	-5530
▁arvs	-5531
▁resurs	-5532
▁already	-5533
▁behovet	-5534
▁condens	-5535
▁dataset	-5536
▁sällsyn	-5537
▁parallel	-5538
▁catalysis	-5539
▁deposition	-5540
▁plasticity	-5541
▁stochastic	-5542
▁förbränning	-5543
gt	-5544
eding	-5545
ronic	-5546
utting	-5547
▁drift	-5548
▁alloys	-5549
▁delivery	-5550
▁energilagring	-5551
rym	-5552
▁No	-5553
tids	-5554
▁diam	-5555
▁load	-5556
itness	-5557
▁alltid	-5558
▁astron	-5559
▁moment	-5560
▁series	-5561
▁energiför	-5562
▁resilience	-5563
fac	-5564
▁fett	-5565
ringar	-5566
▁polym	-5567
▁ämnar	-5568
grupper	-5569
lektron	-5570
storlek	-5571
ectively	-5572
▁konkurr	-5573
▁includes	-5574
▁omvandla	-5575
bal	-5576
nda	-5577
ompos	-5578
▁bestå	-5579
duction	-5580
organic	-5581
▁enzyme	-5582
▁hetero	-5583
▁bildandet	-5584
▁foundation	-5585
▁statistiska	-5586
dju	-5587
lik	-5588
tte	-5589
▁Hg	-5590
enhet	-5591
▁fjär	-5592
▁motiv	-5593
related	-5594
▁factor	-5595
▁reliable	-5596
▁världens	-5597
off	-5598
ymp	-5599
etal	-5600
usta	-5601
ytan	-5602
▁navig	-5603
▁skydd	-5604
▁svarta	-5605
resolved	-5606
▁sensors	-5607
▁Östersj	-5608
ductivity	-5609
▁fördelar	-5610
experiment	-5611
▁following	-5612
▁användbara	-5613
▁electrical	-5614
▁facilitate	-5615
▁kraftfulla	-5616
▁infektioner	-5617
▁investigation	-5618
bl	-5619
▁leg	-5620
▁barri	-5621
▁shift	-5622
▁sample	-5623
läggning	-5624
▁Samtidigt	-5625
▁Therefore	-5626
▁modellerna	-5627
▁kvantifiera	-5628
CT	-5629
ctu	-5630
▁ir	-5631
▁une	-5632
delar	-5633
ombin	-5634
spekt	-5635
▁does	-5636
▁lett	-5637
▁adsor	-5638
▁chann	-5639
▁induc	-5640
▁noise	-5641
osphere	-5642
sekvens	-5643
▁focusing	-5644
▁extensive	-5645
▁diagnostik	-5646
▁simulering	-5647
▁storskaliga	-5648
bli	-5649
ien	-5650
ktu	-5651
gens	-5652
jord	-5653
▁Bal	-5654
▁Mer	-5655
▁sår	-5656
ammar	-5657
genom	-5658
▁moln	-5659
▁beter	-5660
▁inneb	-5661
▁källor	-5662
▁efforts	-5663
▁digitala	-5664
▁kliniska	-5665
▁spectral	-5666
▁cellulose	-5667
▁dynamiken	-5668
▁teoretisk	-5669
▁utvecklade	-5670
fäll	-5671
▁sum	-5672
▁Idag	-5673
▁tree	-5674
▁track	-5675
membran	-5676
▁känner	-5677
liminary	-5678
▁utifrån	-5679
▁analytical	-5680
cl	-5681
ops	-5682
▁Ga	-5683
abol	-5684
aceu	-5685
▁brett	-5686
▁flöde	-5687
▁spric	-5688
ellertid	-5689
▁utnyttj	-5690
▁strategi	-5691
▁activities	-5692
▁allvarliga	-5693
▁materialen	-5694
▁He	-5695
▁din	-5696
▁hör	-5697
lling	-5698
ogens	-5699
▁blom	-5700
▁spår	-5701
▁följd	-5702
▁pålit	-5703
enheter	-5704
▁safety	-5705
▁sådant	-5706
▁fullständ	-5707
▁omgivning	-5708
▁växthusgaser	-5709
▁nanoparticles	-5710
▁LHC	-5711
▁Sch	-5712
tiden	-5713
▁omöj	-5714
▁Green	-5715
▁väder	-5716
▁försöka	-5717
▁Bayesian	-5718
▁achieved	-5719
▁tekniken	-5720
algoritmer	-5721
▁hastighet	-5722
▁resistens	-5723
▁vibration	-5724
oT	-5725
▁Te	-5726
rakt	-5727
▁cur	-5728
▁Such	-5729
▁view	-5730
▁intra	-5731
▁motor	-5732
▁parts	-5733
▁solve	-5734
▁ålder	-5735
armaceu	-5736
ascular	-5737
elektro	-5738
istiska	-5739
▁bortom	-5740
▁mainly	-5741
▁memory	-5742
▁domains	-5743
▁förenkl	-5744
▁neurode	-5745
▁Standard	-5746
▁nämligen	-5747
▁komplicerade	-5748
SM	-5749
pul	-5750
▁kn	-5751
ermo	-5752
uman	-5753
▁Ext	-5754
▁Lund	-5755
▁kust	-5756
nology	-5757
▁cases	-5758
▁syfte	-5759
▁tillb	-5760
▁Vidare	-5761
▁hinder	-5762
▁limits	-5763
▁changing	-5764
▁praktiska	-5765
▁spännande	-5766
▁överlevnad	-5767
▁immunförsvar	-5768
▁temperatures	-5769
▁relationships	-5770
”.	-5771
gar	-5772
lägs	-5773
▁film	-5774
preced	-5775
▁Europa	-5776
▁consid	-5777
▁intrins	-5778
▁betydligt	-5779
▁ekvationer	-5780
▁variability	-5781
▁9	-5782
urg	-5783
oler	-5784
vika	-5785
▁hud	-5786
▁opt	-5787
infor	-5788
▁done	-5789
▁tråd	-5790
erades	-5791
inting	-5792
▁flows	-5793
▁plasm	-5794
▁svara	-5795
▁kvantd	-5796
▁regard	-5797
▁ultras	-5798
▁account	-5799
chemistry	-5800
▁försöker	-5801
▁packages	-5802
▁unpreced	-5803
▁mechanics	-5804
▁intressant	-5805
▁teknologier	-5806
aff	-5807
ably	-5808
ryst	-5809
other	-5810
▁dark	-5811
blemet	-5812
rought	-5813
▁sampl	-5814
▁enbart	-5815
▁förlor	-5816
▁biologi	-5817
▁kraftigt	-5818
▁känsliga	-5819
▁mitokond	-5820
▁multimod	-5821
▁rekonstru	-5822
▁predictive	-5823
SA	-5824
bor	-5825
▁WP	-5826
jort	-5827
sequ	-5828
brium	-5829
▁They	-5830
▁anten	-5831
▁photon	-5832
▁genomics	-5833
▁planeter	-5834
▁störningar	-5835
▁tillämpning	-5836
▁tillhandahålla	-5837
rit	-5838
▁Ult	-5839
▁Dock	-5840
▁remo	-5841
▁ökat	-5842
▁hälso	-5843
▁ifrån	-5844
▁uppfy	-5845
▁belast	-5846
▁divers	-5847
▁nivåer	-5848
▁pollin	-5849
▁Electro	-5850
▁undvika	-5851
▁växande	-5852
▁enhanced	-5853
▁interplay	-5854
▁klassiska	-5855
▁activation	-5856
▁individuals	-5857
▁specifically	-5858
",	-5859
hod	-5860
care	-5861
fria	-5862
änna	-5863
▁tax	-5864
matic	-5865
rolys	-5866
though	-5867
osyntes	-5868
▁Intera	-5869
▁layers	-5870
▁synerg	-5871
▁synner	-5872
▁väsent	-5873
ographic	-5874
systemet	-5875
▁forskar	-5876
▁domestic	-5877
▁geometric	-5878
▁considered	-5879
▁regulatory	-5880
▁diagnostics	-5881
▁behandlingar	-5882
ux	-5883
hiz	-5884
pan	-5885
osis	-5886
▁Vad	-5887
andin	-5888
program	-5889
raction	-5890
▁robots	-5891
liknande	-5892
▁arvsmass	-5893
▁personer	-5894
▁substanti	-5895
▁evaluation	-5896
▁människors	-5897
▁distributed	-5898
▁investigating	-5899
▁%	-5900
ict	-5901
▁äl	-5902
derna	-5903
ument	-5904
▁finite	-5905
▁enables	-5906
▁fragment	-5907
▁varierar	-5908
▁genereras	-5909
▁renewable	-5910
▁hållbarhet	-5911
▁international	-5912
EL	-5913
ljus	-5914
ropy	-5915
anska	-5916
▁Expl	-5917
▁symp	-5918
unskap	-5919
▁domän	-5920
astiska	-5921
biologi	-5922
▁bidrag	-5923
▁skydda	-5924
atoriska	-5925
▁platser	-5926
▁tillämpa	-5927
▁Molecular	-5928
▁signaling	-5929
▁förutsägelser	-5930
▁unprecedented	-5931
ward	-5932
▁000	-5933
▁ves	-5934
verar	-5935
▁Mars	-5936
▁makes	-5937
agnetic	-5938
▁fallet	-5939
▁forests	-5940
▁exchange	-5941
▁produced	-5942
▁resulterar	-5943
▁conservation	-5944
▁tvärvetenskap	-5945
ense	-5946
▁Ins	-5947
▁ena	-5948
undna	-5949
▁kosm	-5950
▁smar	-5951
▁guide	-5952
▁längs	-5953
▁släpp	-5954
eroende	-5955
▁Theory	-5956
▁avstånd	-5957
▁kondens	-5958
▁realtid	-5959
▁agricult	-5960
▁describe	-5961
▁operator	-5962
information	-5963
▁förbättrade	-5964
gå	-5965
turb	-5966
ysik	-5967
▁THz	-5968
ables	-5969
▁chem	-5970
▁here	-5971
▁puls	-5972
▁black	-5973
▁massa	-5974
komplex	-5975
formance	-5976
likation	-5977
▁outcome	-5978
▁synthes	-5979
echanical	-5980
▁presence	-5981
▁utnyttjar	-5982
▁mångfalden	-5983
▁fundamentala	-5984
▁förekommande	-5985
rad	-5986
▁Ty	-5987
▁itu	-5988
▁mik	-5989
▁tan	-5990
▁Phot	-5991
▁bone	-5992
▁crystal	-5993
▁utanför	-5994
▁singular	-5995
▁sällsynta	-5996
▁undersökas	-5997
▁alternative	-5998
sol	-5999
keln	-6000
atile	-6001
varar	-6002
▁görs	-6003
▁hård	-6004
gångar	-6005
urrent	-6006
usions	-6007
▁forms	-6008
kningen	-6009
▁fordon	-6010
▁öppnar	-6011
▁Network	-6012
▁contrast	-6013
▁rörelser	-6014
föroreningar	-6015
Ga	-6016
▁Vä	-6017
▁hon	-6018
inity	-6019
itets	-6020
mafro	-6021
▁Coll	-6022
▁priv	-6023
▁were	-6024
▁tyder	-6025
iration	-6026
mönster	-6027
▁fascin	-6028
▁smarta	-6029
▁contact	-6030
▁enklare	-6031
▁fysiken	-6032
▁induced	-6033
industrin	-6034
▁faktiskt	-6035
▁galaxies	-6036
ditionally	-6037
▁addresses	-6038
▁complexes	-6039
OR	-6040
ksam	-6041
ribu	-6042
▁200	-6043
▁nam	-6044
▁Cell	-6045
▁medi	-6046
ometry	-6047
urface	-6048
▁trees	-6049
mässigt	-6050
problem	-6051
▁linked	-6052
▁proced	-6053
▁utsätts	-6054
▁morphology	-6055
▁Forskningen	-6056
▁physiological	-6057
▁0	-6058
mal	-6059
eria	-6060
▁eas	-6061
▁föd	-6062
going	-6063
urser	-6064
▁åldr	-6065
▁boreal	-6066
▁ibland	-6067
▁utföras	-6068
▁negativa	-6069
▁sannolik	-6070
▁miljarder	-6071
▁byggstenar	-6072
▁elektromagne	-6073
▁informationen	-6074
▁experimentally	-6075
nande	-6076
▁Riem	-6077
▁cause	-6078
▁ionic	-6079
▁multip	-6080
▁select	-6081
▁dispers	-6082
▁focuses	-6083
▁representerar	-6084
Co	-6085
-19	-6086
iii	-6087
omy	-6088
oids	-6089
ämne	-6090
▁subs	-6091
▁tror	-6092
▁cover	-6093
▁lower	-6094
▁roles	-6095
▁hierar	-6096
▁predik	-6097
▁classes	-6098
▁cutting	-6099
▁långsam	-6100
▁robusta	-6101
iguration	-6102
▁allowing	-6103
▁topologiska	-6104
▁4-	-6105
▁Fl	-6106
etes	-6107
ladd	-6108
▁rib	-6109
defin	-6110
vinna	-6111
▁heav	-6112
▁unex	-6113
▁atoms	-6114
▁drugs	-6115
▁embed	-6116
ricitet	-6117
▁avgöra	-6118
ktivitet	-6119
▁galaxer	-6120
▁upprätt	-6121
▁hydrolog	-6122
▁transformation	-6123
nes	-6124
▁bo	-6125
▁App	-6126
▁gif	-6127
munic	-6128
ktions	-6129
onding	-6130
▁close	-6131
▁okända	-6132
ilibrium	-6133
▁baseras	-6134
▁betyder	-6135
▁drivers	-6136
▁ungefär	-6137
▁variety	-6138
batterier	-6139
relaterade	-6140
ilk	-6141
mit	-6142
imet	-6143
thet	-6144
ttle	-6145
forsk	-6146
▁häls	-6147
▁fånga	-6148
ksilver	-6149
acterial	-6150
påverkan	-6151
proteiner	-6152
▁nanoscale	-6153
▁sensitive	-6154
▁transitions	-6155
ås	-6156
fram	-6157
▁kir	-6158
▁manif	-6159
▁ständ	-6160
▁cannot	-6161
▁familj	-6162
▁formed	-6163
▁koppla	-6164
metaller	-6165
▁capable	-6166
▁uncover	-6167
strategier	-6168
▁beteenden	-6169
▁chemicals	-6170
▁infection	-6171
▁infektion	-6172
▁laddnings	-6173
▁genombrott	-6174
▁effektivare	-6175
▁transcription	-6176
eta	-6177
omv	-6178
▁ka	-6179
aper	-6180
▁Bio	-6181
aster	-6182
eness	-6183
▁fuel	-6184
▁aktiv	-6185
▁emitt	-6186
▁resol	-6187
▁avfall	-6188
▁either	-6189
▁fluctu	-6190
▁genutt	-6191
▁överle	-6192
▁defects	-6193
▁utilize	-6194
▁Intellig	-6195
▁targeted	-6196
▁pollution	-6197
▁mathematics	-6198
”,	-6199
cip	-6200
uli	-6201
throp	-6202
▁cirka	-6203
▁djupa	-6204
miljöer	-6205
▁descri	-6206
▁människa	-6207
▁pågående	-6208
förändring	-6209
▁expansion	-6210
▁inlärning	-6211
▁landscape	-6212
▁tillgänglig	-6213
▁spectrometry	-6214
4)	-6215
WP	-6216
eti	-6217
gna	-6218
▁Då	-6219
empl	-6220
tida	-6221
▁vin	-6222
▁frig	-6223
▁medel	-6224
electro	-6225
▁demand	-6226
▁formal	-6227
▁infrar	-6228
▁oftast	-6229
▁partik	-6230
▁growing	-6231
▁involves	-6232
▁lämpliga	-6233
▁nutrient	-6234
▁regioner	-6235
▁händelser	-6236
▁scenarios	-6237
▁studerats	-6238
▁continuous	-6239
▁grundämnen	-6240
MA	-6241
best	-6242
vård	-6243
yror	-6244
▁död	-6245
▁häm	-6246
▁las	-6247
▁ytt	-6248
flöde	-6249
ochond	-6250
rafast	-6251
▁whole	-6252
▁entire	-6253
▁sekund	-6254
▁simple	-6255
▁Systems	-6256
▁driving	-6257
▁magnetism	-6258
▁Artificial	-6259
▁therapeutic	-6260
kra	-6261
kyl	-6262
atus	-6263
opar	-6264
ärer	-6265
▁inh	-6266
centr	-6267
orous	-6268
thern	-6269
unter	-6270
▁acqu	-6271
▁ways	-6272
▁ammon	-6273
▁stand	-6274
▁zebra	-6275
▁Design	-6276
▁Energy	-6277
▁graphene	-6278
▁kommersi	-6279
▁medicine	-6280
▁noggrant	-6281
▁identifying	-6282
EN	-6283
comp	-6284
ivel	-6285
rics	-6286
▁Min	-6287
▁web	-6288
▁fill	-6289
amhäll	-6290
imeter	-6291
▁correct	-6292
▁energin	-6293
▁algebras	-6294
▁datasets	-6295
romagnetic	-6296
▁principer	-6297
▁selective	-6298
▁synnerhet	-6299
SS	-6300
▁kö	-6301
▁hår	-6302
▁kry	-6303
aries	-6304
clear	-6305
erier	-6306
kring	-6307
▁hear	-6308
▁rare	-6309
▁basic	-6310
▁minsk	-6311
▁norra	-6312
▁probe	-6313
rävande	-6314
ylogene	-6315
▁assist	-6316
▁skogar	-6317
▁uppmär	-6318
▁använts	-6319
▁reduced	-6320
▁observera	-6321
▁plattform	-6322
▁funktionen	-6323
▁infections	-6324
ener	-6325
empor	-6326
oxide	-6327
anning	-6328
verade	-6329
▁glass	-6330
▁before	-6331
▁aquatic	-6332
▁sequence	-6333
▁inference	-6334
▁partiklarna	-6335
▁tredimension	-6336
LC	-6337
cker	-6338
mend	-6339
▁gut	-6340
▁lju	-6341
▁tot	-6342
▁First	-6343
▁chrom	-6344
▁proton	-6345
▁mapping	-6346
▁affected	-6347
▁beskrivs	-6348
▁integrate	-6349
▁addressing	-6350
▁combinator	-6351
▁technological	-6352
▁experimentellt	-6353
▁konventionella	-6354
aps	-6355
ked	-6356
zon	-6357
ignal	-6358
▁samb	-6359
▁fibri	-6360
▁needs	-6361
▁gjorts	-6362
cellerna	-6363
▁conject	-6364
▁fitness	-6365
ografiska	-6366
▁hjärnans	-6367
▁reglering	-6368
ove	-6369
▁IV	-6370
▁ii	-6371
vägg	-6372
▁ham	-6373
abler	-6374
ively	-6375
tices	-6376
▁sist	-6377
ground	-6378
▁proof	-6379
jektets	-6380
katalys	-6381
ledning	-6382
äggdjur	-6383
▁fosfor	-6384
▁neuron	-6385
▁planned	-6386
▁mekanisk	-6387
▁automatis	-6388
▁sustainability	-6389
MC	-6390
jug	-6391
▁Gr	-6392
eder	-6393
tryck	-6394
ondens	-6395
▁Super	-6396
▁expect	-6397
▁length	-6398
▁ljuset	-6399
▁affects	-6400
▁cellens	-6401
▁deliver	-6402
▁komplett	-6403
▁reglerar	-6404
▁supernov	-6405
▁tillbaka	-6406
▁förnybara	-6407
▁nanometer	-6408
▁analyseras	-6409
nät	-6410
ners	-6411
sens	-6412
▁Kon	-6413
▁Sea	-6414
▁höj	-6415
▁fråg	-6416
▁repl	-6417
effici	-6418
oustic	-6419
sprodu	-6420
▁input	-6421
▁korta	-6422
▁ensure	-6423
▁protoc	-6424
ätningar	-6425
▁förutsp	-6426
▁tailored	-6427
▁omgivande	-6428
segenskaper	-6429
amt	-6430
equ	-6431
följ	-6432
▁cosm	-6433
▁växa	-6434
ängder	-6435
▁sites	-6436
▁total	-6437
▁uttry	-6438
through	-6439
brukning	-6440
tigheten	-6441
tillväxt	-6442
▁fenotyp	-6443
hastighet	-6444
▁overcome	-6445
▁scalable	-6446
▁specifik	-6447
▁intermedi	-6448
▁operators	-6449
▁diagnostic	-6450
▁discovered	-6451
aken	-6452
lete	-6453
osion	-6454
typer	-6455
mafrost	-6456
▁kandid	-6457
▁litium	-6458
▁perman	-6459
▁photoc	-6460
▁skador	-6461
▁historia	-6462
▁klassific	-6463
▁pathogens	-6464
pri	-6465
▁map	-6466
▁mis	-6467
▁biok	-6468
▁shap	-6469
▁bring	-6470
▁ställ	-6471
iserade	-6472
▁testas	-6473
▁complete	-6474
▁cellulosa	-6475
▁kraftfull	-6476
▁turbulens	-6477
▁thermodynam	-6478
▁Specifically	-6479
▁effektiviteten	-6480
bo	-6481
▁kl	-6482
flow	-6483
ften	-6484
lätta	-6485
▁grön	-6486
▁inga	-6487
▁spar	-6488
recept	-6489
ycling	-6490
▁Spect	-6491
▁cardi	-6492
ibility	-6493
▁delvis	-6494
▁fördju	-6495
▁record	-6496
▁useful	-6497
▁begränsar	-6498
▁osäkerhet	-6499
▁tusentals	-6500
▁nödvändigt	-6501
▁Additionally	-6502
EG	-6503
bid	-6504
▁Sh	-6505
atit	-6506
omes	-6507
skor	-6508
utes	-6509
bräns	-6510
uellt	-6511
▁datam	-6512
▁viral	-6513
ireless	-6514
känning	-6515
▁Baltic	-6516
▁dators	-6517
▁frågan	-6518
▁hydrog	-6519
▁decades	-6520
▁uppbygg	-6521
▁creating	-6522
▁katalytiska	-6523
▁mikrobiella	-6524
▁noggrannhet	-6525
▁karakterisera	-6526
▁PDE	-6527
▁kat	-6528
▁mal	-6529
▁räk	-6530
▁biop	-6531
▁care	-6532
▁förk	-6533
▁perf	-6534
▁turn	-6535
▁wood	-6536
▁flytt	-6537
▁ideal	-6538
▁gången	-6539
▁toxicity	-6540
▁exception	-6541
▁vanligaste	-6542
▁perspective	-6543
Att	-6544
dat	-6545
alge	-6546
inne	-6547
ises	-6548
▁mic	-6549
tning	-6550
▁Neut	-6551
▁Park	-6552
▁morf	-6553
olymer	-6554
värden	-6555
▁insul	-6556
▁reser	-6557
▁aspekt	-6558
▁phosph	-6559
▁risken	-6560
▁vardag	-6561
▁ersätta	-6562
▁examine	-6563
▁överför	-6564
▁behandla	-6565
▁prototyp	-6566
▁regarding	-6567
▁samhällen	-6568
ningsförmåga	-6569
▁beskrivning	-6570
▁experimentell	-6571
IN	-6572
tz	-6573
▁Tid	-6574
▁gre	-6575
▁rely	-6576
▁postd	-6577
▁extract	-6578
▁combines	-6579
▁värdefulla	-6580
ningsområden	-6581
▁fabrication	-6582
▁reproduktion	-6583
CS	-6584
ko	-6585
LAS	-6586
▁ax	-6587
ries	-6588
ravel	-6589
▁Biom	-6590
▁Däre	-6591
▁mitt	-6592
▁noll	-6593
▁prof	-6594
▁salt	-6595
▁soll	-6596
anpass	-6597
▁coast	-6598
▁final	-6599
▁smält	-6600
▁vehic	-6601
▁faktor	-6602
▁little	-6603
▁metast	-6604
▁totala	-6605
▁coating	-6606
▁external	-6607
▁flytande	-6608
▁interfer	-6609
▁optimize	-6610
▁extremely	-6611
▁gränssnitt	-6612
▁requirements	-6613
▁methodologies	-6614
..	-6615
fta	-6616
▁CR	-6617
▁lä	-6618
leda	-6619
orem	-6620
▁anses	-6621
▁driva	-6622
stadkom	-6623
▁issues	-6624
▁ligand	-6625
otential	-6626
▁vattnet	-6627
▁assembly	-6628
▁kostnader	-6629
▁medicinsk	-6630
▁underlätta	-6631
▁consumption	-6632
▁situationer	-6633
▁On	-6634
allt	-6635
▁lip	-6636
▁års	-6637
▁kvic	-6638
▁modu	-6639
ognitive	-6640
▁viruses	-6641
▁vätskor	-6642
▁tillåter	-6643
▁advantage	-6644
▁därigenom	-6645
▁kapacitet	-6646
▁2-	-6647
nipp	-6648
▁Adv	-6649
▁lad	-6650
▁pair	-6651
▁upon	-6652
iteter	-6653
▁nanos	-6654
▁tolka	-6655
osfären	-6656
▁arbeta	-6657
▁arbets	-6658
▁avlägs	-6659
kristall	-6660
▁Exempel	-6661
▁derived	-6662
▁defekter	-6663
▁åstadkom	-6664
▁detektera	-6665
▁electrode	-6666
▁vattendrag	-6667
▁beslutsfatt	-6668
▁demonstrate	-6669
ef	-6670
ari	-6671
mitt	-6672
▁bru	-6673
atorn	-6674
invas	-6675
▁Från	-6676
▁code	-6677
▁synk	-6678
▁valu	-6679
elling	-6680
▁clust	-6681
▁glaci	-6682
▁prior	-6683
▁samla	-6684
lagring	-6685
limatic	-6686
ylation	-6687
▁abstra	-6688
▁accept	-6689
▁fluxes	-6690
▁graphs	-6691
▁ingenj	-6692
▁insekt	-6693
▁sträng	-6694
icrobial	-6695
plankton	-6696
▁förslag	-6697
▁lattice	-6698
▁däggdjur	-6699
▁tillämpas	-6700
▁kombineras	-6701
▁controlling	-6702
interaktioner	-6703
▁cult	-6704
▁diab	-6705
▁nord	-6706
▁välk	-6707
▁ferro	-6708
▁livet	-6709
▁volum	-6710
▁agents	-6711
▁ryggra	-6712
▁corresp	-6713
▁energis	-6714
▁exhibit	-6715
▁inhibit	-6716
▁initial	-6717
▁distribu	-6718
▁genererar	-6719
▁mutationer	-6720
▁neurodegen	-6721
▁phenotypic	-6722
io	-6723
ix	-6724
ero	-6725
oti	-6726
sex	-6727
world	-6728
▁read	-6729
flödet	-6730
▁lokal	-6731
lication	-6732
▁mjukvar	-6733
överföring	-6734
▁förhindra	-6735
▁realistic	-6736
▁manipulation	-6737
eds	-6738
edge	-6739
omik	-6740
▁KTH	-6741
▁wear	-6742
▁urval	-6743
ierande	-6744
▁appear	-6745
▁belysa	-6746
▁porous	-6747
▁sönder	-6748
▁biofilm	-6749
▁habitat	-6750
▁therapy	-6751
organiska	-6752
▁samspelet	-6753
▁variationer	-6754
For	-6755
ern	-6756
gue	-6757
▁Ob	-6758
kall	-6759
▁sup	-6760
ptake	-6761
energy	-6762
rophic	-6763
▁Metod	-6764
▁kogni	-6765
ularity	-6766
▁normal	-6767
▁spread	-6768
skopiska	-6769
▁cycling	-6770
▁syntetis	-6771
▁transpar	-6772
▁kollision	-6773
▁Hyd	-6774
▁Glob	-6775
▁driv	-6776
▁befol	-6777
▁bryta	-6778
▁elimin	-6779
▁ultral	-6780
ningsvis	-6781
▁bestånd	-6782
▁krafter	-6783
▁produkt	-6784
▁release	-6785
▁Material	-6786
▁personal	-6787
▁spektrum	-6788
▁survival	-6789
ologically	-6790
osynthesis	-6791
▁attention	-6792
▁oberoende	-6793
▁uppskatta	-6794
▁differences	-6795
▁synchrotron	-6796
▁characterized	-6797
▁uppvärmningen	-6798
▁investigations	-6799
kle	-6800
atch	-6801
erbör	-6802
inste	-6803
▁bana	-6804
▁dras	-6805
▁enco	-6806
▁gaps	-6807
▁glyc	-6808
▁mean	-6809
▁pion	-6810
ustion	-6811
▁bioph	-6812
acteria	-6813
stående	-6814
▁näring	-6815
▁uppnås	-6816
▁ändras	-6817
▁complet	-6818
▁lättare	-6819
▁optimer	-6820
▁rapidly	-6821
strålning	-6822
omvandling	-6823
▁cellulära	-6824
▁Östersjön	-6825
▁motsvarande	-6826
PE	-6827
bol	-6828
vån	-6829
tech	-6830
aling	-6831
bruks	-6832
▁käll	-6833
▁möta	-6834
▁rich	-6835
▁Mikro	-6836
▁känna	-6837
▁nervs	-6838
▁react	-6839
▁flöden	-6840
▁flexible	-6841
▁reducing	-6842
▁sampling	-6843
▁migration	-6844
▁reaktions	-6845
xy	-6846
eor	-6847
lem	-6848
urs	-6849
▁Ada	-6850
agens	-6851
▁vägar	-6852
▁börjar	-6853
▁images	-6854
▁luften	-6855
▁drought	-6856
▁setting	-6857
▁solljus	-6858
▁således	-6859
▁equation	-6860
▁probabil	-6861
▁förväntar	-6862
▁varianter	-6863
▁emellertid	-6864
▁observation	-6865
▁elektricitet	-6866
▁dy	-6867
omic	-6868
▁Ind	-6869
aktum	-6870
antag	-6871
ktiva	-6872
lopps	-6873
point	-6874
▁ansö	-6875
▁rang	-6876
▁stok	-6877
▁above	-6878
▁tumor	-6879
▁vilda	-6880
eleskop	-6881
▁bakterie	-6882
▁vävnader	-6883
▁åtgärder	-6884
▁Materials	-6885
▁membranes	-6886
▁estimation	-6887
▁behandlings	-6888
▁biochemical	-6889
▁dimensioner	-6890
▁universitet	-6891
▁kontinuerligt	-6892
▁undersökningar	-6893
sky	-6894
amål	-6895
ople	-6896
ttag	-6897
▁Dis	-6898
▁Rob	-6899
cient	-6900
vägar	-6901
▁kval	-6902
▁stem	-6903
▁swit	-6904
ektion	-6905
▁clear	-6906
▁torka	-6907
▁yttre	-6908
▁extent	-6909
▁infekt	-6910
▁larger	-6911
▁Parkins	-6912
▁gravity	-6913
▁studien	-6914
▁växthusgas	-6915
▁Development	-6916
▁reconstruction	-6917
ha	-6918
part	-6919
ract	-6920
ödor	-6921
▁Kan	-6922
▁bos	-6923
▁bäst	-6924
▁dust	-6925
▁opto	-6926
fattar	-6927
▁Optim	-6928
▁later	-6929
▁polic	-6930
▁sound	-6931
▁urban	-6932
levande	-6933
▁amount	-6934
▁filmer	-6935
▁internal	-6936
▁microbiome	-6937
▁availability	-6938
▁verification	-6939
▁approximation	-6940
ört	-6941
rats	-6942
▁MAX	-6943
▁Top	-6944
▁des	-6945
▁cool	-6946
▁crop	-6947
▁topp	-6948
▁vide	-6949
▁ögon	-6950
lingar	-6951
▁fungi	-6952
▁Second	-6953
▁threat	-6954
produkter	-6955
▁crystals	-6956
▁valuable	-6957
▁materialets	-6958
▁mikroskopiska	-6959
1)	-6960
ude	-6961
▁pH	-6962
bert	-6963
chip	-6964
▁ack	-6965
▁simp	-6966
▁takt	-6967
▁Sedan	-6968
▁fract	-6969
▁value	-6970
▁yield	-6971
▁Dynamics	-6972
▁services	-6973
▁strongly	-6974
▁ständigt	-6975
▁fastställa	-6976
▁variations	-6977
▁matematiskt	-6978
▁skräddarsyd	-6979
▁strukturell	-6980
▁increasingly	-6981
fat	-6982
öra	-6983
▁she	-6984
ecting	-6985
otiska	-6986
▁lägga	-6987
▁avbild	-6988
▁lyckas	-6989
▁vanlig	-6990
▁etablera	-6991
▁designing	-6992
▁aktiviteter	-6993
▁potentialen	-6994
▁reproductive	-6995
▁undersökning	-6996
rob	-6997
▁ST	-6998
sala	-6999
▁ori	-7000
▁Tech	-7001
▁adop	-7002
▁dual	-7003
▁mamm	-7004
▁tens	-7005
associ	-7006
cataly	-7007
▁solen	-7008
▁tests	-7009
▁fungal	-7010
▁multic	-7011
▁stages	-7012
▁integra	-7013
▁omkring	-7014
▁partial	-7015
▁vertebr	-7016
oplankton	-7017
▁explored	-7018
▁nederbör	-7019
▁samhälls	-7020
▁security	-7021
omposition	-7022
▁utilizing	-7023
▁description	-7024
ca	-7025
ädd	-7026
▁EC	-7027
istik	-7028
stekn	-7029
▁konf	-7030
▁mini	-7031
biotic	-7032
cancer	-7033
▁Human	-7034
▁carry	-7035
▁answer	-7036
▁enligt	-7037
▁extended	-7038
▁åldrande	-7039
▁anpassade	-7040
▁exploring	-7041
▁involving	-7042
▁fotosyntes	-7043
▁klimatmodeller	-7044
tj	-7045
itm	-7046
ton	-7047
urer	-7048
▁And	-7049
▁deb	-7050
▁han	-7051
▁skri	-7052
oliter	-7053
▁befin	-7054
▁oklar	-7055
▁utmär	-7056
▁Tyvärr	-7057
▁Through	-7058
▁balance	-7059
aktivitet	-7060
▁mikrober	-7061
▁targeting	-7062
▁autonomous	-7063
▁förbättrar	-7064
▁healthcare	-7065
▁permafrost	-7066
▁individuella	-7067
▁informations	-7068
Ds	-7069
NP	-7070
▁‘	-7071
fäl	-7072
drig	-7073
regl	-7074
▁Mat	-7075
▁alg	-7076
▁gar	-7077
▁ill	-7078
▁seg	-7079
posit	-7080
▁dags	-7081
▁mått	-7082
▁Kvant	-7083
▁mixed	-7084
▁nukle	-7085
▁unikt	-7086
▁thermo	-7087
▁amyloid	-7088
▁försvar	-7089
▁perturb	-7090
stainable	-7091
▁regional	-7092
▁Tradition	-7093
▁automated	-7094
▁bestående	-7095
armaceutical	-7096
▁conc	-7097
▁dubb	-7098
▁attos	-7099
▁drive	-7100
▁offers	-7101
▁rymden	-7102
▁hundrat	-7103
▁kretsar	-7104
▁ongoing	-7105
▁pathway	-7106
▁persist	-7107
▁varmare	-7108
▁Analysis	-7109
▁European	-7110
▁genetics	-7111
▁transist	-7112
▁generalis	-7113
▁typically	-7114
▁preliminary	-7115
▁vetenskaplig	-7116
▁Computational	-7117
enz	-7118
gap	-7119
isot	-7120
most	-7121
▁bir	-7122
▁bud	-7123
▁sus	-7124
alger	-7125
▁Plas	-7126
▁chip	-7127
▁jäst	-7128
▁mild	-7129
▁snar	-7130
urolog	-7131
örande	-7132
▁rekom	-7133
ksamhet	-7134
▁causes	-7135
▁depend	-7136
▁people	-7137
▁uptake	-7138
function	-7139
liminära	-7140
▁Process	-7141
komponenter	-7142
ningsmetoder	-7143
▁implemented	-7144
▁involverade	-7145
▁demonstrated	-7146
IT	-7147
ager	-7148
▁Ram	-7149
emang	-7150
coding	-7151
plored	-7152
▁depth	-7153
▁hålla	-7154
▁förbli	-7155
▁fotoner	-7156
▁kopplas	-7157
▁högupplö	-7158
▁kommunic	-7159
▁kvantita	-7160
▁optimala	-7161
▁validate	-7162
▁beteendet	-7163
▁cognitive	-7164
▁component	-7165
▁optimized	-7166
▁komplexitet	-7167
FD	-7168
▁Am	-7169
▁fa	-7170
▁ri	-7171
east	-7172
ecast	-7173
▁What	-7174
▁brus	-7175
▁glas	-7176
▁skic	-7177
▁trig	-7178
▁want	-7179
ronics	-7180
▁säkra	-7181
▁Organic	-7182
esterande	-7183
functional	-7184
▁mutations	-7185
▁involverar	-7186
▁terrestrial	-7187
IB	-7188
VID	-7189
ivt	-7190
▁MR	-7191
cepts	-7192
ender	-7193
fully	-7194
monic	-7195
▁bioc	-7196
▁good	-7197
▁safe	-7198
▁mobil	-7199
väntade	-7200
▁Uppsala	-7201
▁gradient	-7202
▁organism	-7203
▁planning	-7204
▁ryggrads	-7205
▁electrons	-7206
beräkningar	-7207
presterande	-7208
Med	-7209
kam	-7210
leg	-7211
öst	-7212
▁Me	-7213
▁km	-7214
fast	-7215
iezo	-7216
ters	-7217
▁Mar	-7218
▁kön	-7219
rable	-7220
värda	-7221
▁olig	-7222
▁rise	-7223
ektive	-7224
▁erfar	-7225
▁sluts	-7226
▁vital	-7227
ffekter	-7228
örjning	-7229
▁rörels	-7230
▁tested	-7231
▁focused	-7232
▁stellar	-7233
▁concerns	-7234
▁movement	-7235
▁rumsliga	-7236
▁bevarande	-7237
▁intrinsic	-7238
▁kristaller	-7239
▁structured	-7240
▁measurement	-7241
PT	-7242
acc	-7243
esh	-7244
ysi	-7245
asis	-7246
uell	-7247
▁bit	-7248
▁nat	-7249
field	-7250
▁egna	-7251
▁foto	-7252
▁sets	-7253
skalor	-7254
▁nanoc	-7255
▁kunnat	-7256
▁syftet	-7257
tillgäng	-7258
▁ansökan	-7259
▁arbetar	-7260
▁benefit	-7261
▁genomes	-7262
▁implantat	-7263
▁värdefull	-7264
▁respektive	-7265
▁systematic	-7266
▁interesting	-7267
▁miljövänliga	-7268
▁superconduct	-7269
▁concentration	-7270
kemi	-7271
rack	-7272
räff	-7273
▁säg	-7274
▁Novel	-7275
▁Solar	-7276
▁count	-7277
▁pione	-7278
▁speed	-7279
▁Integr	-7280
▁indire	-7281
▁tidigt	-7282
▁minskad	-7283
▁ordning	-7284
▁terapeu	-7285
▁ändamål	-7286
▁Although	-7287
▁naturlig	-7288
▁bioinform	-7289
▁enhancing	-7290
▁patogener	-7291
▁greenhouse	-7292
▁halvledare	-7293
▁multimodal	-7294
▁uppsättning	-7295
hydr	-7296
ipel	-7297
▁fru	-7298
▁sök	-7299
abila	-7300
värder	-7301
▁every	-7302
▁mjuka	-7303
▁Models	-7304
▁aldrig	-7305
▁ganska	-7306
▁online	-7307
▁privacy	-7308
▁autonoma	-7309
▁measures	-7310
performance	-7311
▁antibiotic	-7312
▁biologiskt	-7313
▁dimensions	-7314
▁alternativa	-7315
▁detaljerade	-7316
▁evolutionen	-7317
▁förhållande	-7318
▁kvicksilver	-7319
▁fysiologiska	-7320
▁utmaningarna	-7321
1.	-7322
mas	-7323
ozo	-7324
sked	-7325
uble	-7326
▁feas	-7327
▁fått	-7328
▁list	-7329
inforc	-7330
▁faser	-7331
sammans	-7332
▁family	-7333
▁inside	-7334
▁stödja	-7335
▁uppstå	-7336
▁värden	-7337
▁begrepp	-7338
▁bränsle	-7339
▁direkta	-7340
▁prevent	-7341
▁ribosom	-7342
▁evaluated	-7343
▁electrodes	-7344
▁förekomsten	-7345
▁långsiktiga	-7346
▁simultaneously	-7347
ted	-7348
▁EU	-7349
ifts	-7350
▁Gene	-7351
▁anom	-7352
▁suff	-7353
▁sulf	-7354
resist	-7355
ömning	-7356
▁Monte	-7357
▁astro	-7358
▁heavy	-7359
▁media	-7360
▁cycles	-7361
▁försäm	-7362
▁instead	-7363
▁concepts	-7364
▁determin	-7365
▁explicit	-7366
reaktioner	-7367
▁beskrivas	-7368
▁applicable	-7369
▁turbulence	-7370
SP	-7371
akth	-7372
▁Flu	-7373
▁når	-7374
induc	-7375
▁mixt	-7376
▁veta	-7377
Syftet	-7378
called	-7379
frågan	-7380
signal	-7381
▁exact	-7382
▁tunga	-7383
paramet	-7384
▁muskel	-7385
▁pollut	-7386
▁betrakt	-7387
▁förnybar	-7388
materialet	-7389
▁algorithm	-7390
▁resultera	-7391
▁Utveckling	-7392
▁biomarkers	-7393
▁genuttryck	-7394
▁predicting	-7395
▁teoretiskt	-7396
▁programming	-7397
äv	-7398
rig	-7399
sid	-7400
▁ow	-7401
berg	-7402
ords	-7403
plas	-7404
▁stö	-7405
ekund	-7406
▁kron	-7407
▁decre	-7408
▁gjort	-7409
▁indik	-7410
▁newly	-7411
gerande	-7412
tikares	-7413
▁genera	-7414
▁hormon	-7415
ogenesis	-7416
▁giftiga	-7417
▁diabetes	-7418
▁hardware	-7419
▁livslängd	-7420
▁permanent	-7421
▁multiscale	-7422
▁syntetiska	-7423
▁construction	-7424
▁slumpmässiga	-7425
▁lösningsmedel	-7426
▁nm	-7427
akta	-7428
cium	-7429
odes	-7430
▁kin	-7431
▁tel	-7432
▁why	-7433
▁barn	-7434
▁diet	-7435
▁Ocean	-7436
▁agent	-7437
▁släkt	-7438
fenomen	-7439
▁närvar	-7440
andinavi	-7441
ransport	-7442
riptions	-7443
▁beskriv	-7444
▁förutse	-7445
▁neurons	-7446
▁planets	-7447
▁circuits	-7448
▁kommande	-7449
▁neurolog	-7450
▁projects	-7451
▁överleva	-7452
emperature	-7453
throughput	-7454
▁advancing	-7455
▁mitochond	-7456
▁reasoning	-7457
▁frågeställ	-7458
▁responsible	-7459
▁återvinning	-7460
▁revolutionera	-7461
PU	-7462
rål	-7463
pres	-7464
quit	-7465
▁CER	-7466
ulate	-7467
▁peat	-7468
▁user	-7469
fibrer	-7470
▁inner	-7471
▁leads	-7472
▁belägg	-7473
▁utrust	-7474
antering	-7475
frekvens	-7476
tigheter	-7477
▁coastal	-7478
akthrough	-7479
pektromet	-7480
▁diagnosis	-7481
▁nödvändiga	-7482
▁storskalig	-7483
▁decennierna	-7484
▁gravitation	-7485
▁architectures	-7486
▁vidareutveckl	-7487
▁PC	-7488
▁SM	-7489
avel	-7490
diff	-7491
göra	-7492
king	-7493
ktiv	-7494
ktor	-7495
lity	-7496
läkt	-7497
trop	-7498
▁Dec	-7499
▁blå	-7500
▁lys	-7501
Målet	-7502
ekten	-7503
ympto	-7504
▁From	-7505
▁stål	-7506
▁söka	-7507
▁bevar	-7508
▁insam	-7509
▁tanke	-7510
▁typen	-7511
▁users	-7512
▁utöka	-7513
▁bridge	-7514
▁caused	-7515
▁flödes	-7516
▁liknar	-7517
▁points	-7518
▁världs	-7519
▁restric	-7520
▁slutänd	-7521
▁prestand	-7522
▁känslighet	-7523
▁statistisk	-7524
▁efficiently	-7525
5%	-7526
biv	-7527
oms	-7528
abel	-7529
enes	-7530
ytor	-7531
▁Reg	-7532
dande	-7533
▁melt	-7534
▁Natur	-7535
▁disru	-7536
▁joint	-7537
▁lakes	-7538
▁seeks	-7539
▁seman	-7540
stemper	-7541
▁jordar	-7542
▁minsta	-7543
▁ancient	-7544
▁fasöver	-7545
▁distinct	-7546
▁kinetics	-7547
▁tropiska	-7548
▁utnyttjas	-7549
▁algebraisk	-7550
▁nervceller	-7551
▁distributions	-7552
häl	-7553
yme	-7554
▁SC	-7555
aket	-7556
enet	-7557
fiber	-7558
princi	-7559
▁ATLAS	-7560
▁epide	-7561
terande	-7562
▁tredje	-7563
▁upptag	-7564
verkning	-7565
▁Förutom	-7566
▁alltmer	-7567
▁content	-7568
▁involve	-7569
▁närmare	-7570
projektet	-7571
▁acoustic	-7572
▁employed	-7573
▁följande	-7574
▁reactive	-7575
▁industrin	-7576
▁omvandlas	-7577
▁perception	-7578
▁propagation	-7579
▁huvudsakliga	-7580
▁framgångsrikt	-7581
▁tillförlitliga	-7582
edom	-7583
▁beg	-7584
▁Anti	-7585
▁fron	-7586
▁vast	-7587
arning	-7588
istisk	-7589
▁costs	-7590
▁felak	-7591
tektion	-7592
▁finnas	-7593
▁unravel	-7594
▁expertis	-7595
▁empirical	-7596
▁existence	-7597
centrations	-7598
▁connection	-7599
▁elektroder	-7600
▁frameworks	-7601
▁signatures	-7602
▁validation	-7603
▁intelligent	-7604
▁växelverkar	-7605
▁breakthrough	-7606
▁interaktionen	-7607
AN	-7608
tas	-7609
▁UV	-7610
onds	-7611
type	-7612
▁dör	-7613
anten	-7614
bilda	-7615
endly	-7616
▁Alla	-7617
▁Sing	-7618
▁röra	-7619
▁Carlo	-7620
▁Water	-7621
▁extin	-7622
▁styrs	-7623
▁vägen	-7624
äkerhet	-7625
▁början	-7626
▁extrah	-7627
▁utforma	-7628
föreningar	-7629
▁collected	-7630
▁proteinet	-7631
▁receptors	-7632
stemperatur	-7633
▁additional	-7634
▁arkitektur	-7635
▁kopplingar	-7636
▁utvecklings	-7637
▁ursprungliga	-7638
AB	-7639
eth	-7640
liv	-7641
mor	-7642
▁öv	-7643
▁ses	-7644
▁Four	-7645
▁root	-7646
▁side	-7647
▁skär	-7648
assemb	-7649
omplex	-7650
▁fåtal	-7651
▁learn	-7652
▁längd	-7653
▁might	-7654
▁piezo	-7655
▁skada	-7656
▁utvid	-7657
▁Recent	-7658
▁grödor	-7659
▁allmänt	-7660
▁varying	-7661
▁working	-7662
▁allmänna	-7663
▁befinner	-7664
▁varierande	-7665
▁omgivningen	-7666
▁opportunity	-7667
▁translation	-7668
▁högpresterande	-7669
omb	-7670
▁Ec	-7671
▁äg	-7672
atin	-7673
kärl	-7674
radi	-7675
▁dys	-7676
enser	-7677
▁oför	-7678
▁skin	-7679
▁utby	-7680
interg	-7681
umines	-7682
växter	-7683
▁källa	-7684
▁place	-7685
▁aktivt	-7686
▁arrang	-7687
▁blocks	-7688
▁confin	-7689
▁medium	-7690
▁orient	-7691
▁skalor	-7692
▁timing	-7693
ineering	-7694
▁erhålla	-7695
▁flertal	-7696
▁punkter	-7697
▁solving	-7698
▁tissues	-7699
umulation	-7700
▁catalyst	-7701
▁flexibla	-7702
▁relative	-7703
▁topology	-7704
▁condition	-7705
▁worldwide	-7706
modellering	-7707
▁analytiska	-7708
▁inflammation	-7709
Res	-7710
▁If	-7711
▁fj	-7712
ches	-7713
dels	-7714
isen	-7715
otal	-7716
unts	-7717
▁Rad	-7718
alian	-7719
bitar	-7720
delen	-7721
▁speg	-7722
acchar	-7723
bärare	-7724
valent	-7725
vampar	-7726
▁action	-7727
▁entang	-7728
▁oxides	-7729
▁rather	-7730
ektioner	-7731
resurser	-7732
▁genotyp	-7733
▁reflect	-7734
▁resolve	-7735
▁communic	-7736
▁northern	-7737
▁tropical	-7738
ochemistry	-7739
▁människan	-7740
▁slutändan	-7741
inforcement	-7742
▁framställa	-7743
▁decomposition	-7744
Fs	-7745
MO	-7746
▁3-	-7747
oval	-7748
reta	-7749
▁MOF	-7750
▁cho	-7751
▁deg	-7752
▁fol	-7753
oider	-7754
▁Soft	-7755
▁arom	-7756
▁dyra	-7757
▁iron	-7758
▁shed	-7759
▁weak	-7760
▁önsk	-7761
erable	-7762
▁appar	-7763
▁earth	-7764
▁fresh	-7765
▁fylla	-7766
▁deform	-7767
▁lagras	-7768
▁precip	-7769
▁ekologi	-7770
▁erbjuda	-7771
▁stället	-7772
▁bakgrund	-7773
▁allmänhet	-7774
▁connected	-7775
▁generellt	-7776
▁speciation	-7777
▁temperaturen	-7778
SI	-7779
fts	-7780
nit	-7781
cing	-7782
rets	-7783
▁Sim	-7784
inger	-7785
träff	-7786
▁CERN	-7787
▁beli	-7788
▁klim	-7789
▁smäl	-7790
▁uses	-7791
iseras	-7792
variga	-7793
▁Bland	-7794
▁drivs	-7795
eteende	-7796
otherap	-7797
punkter	-7798
▁Carbon	-7799
▁Method	-7800
▁framåt	-7801
▁försök	-7802
▁likely	-7803
▁meteor	-7804
▁moduli	-7805
▁biosens	-7806
▁inträff	-7807
▁laddade	-7808
▁metodik	-7809
▁Sveriges	-7810
▁integral	-7811
▁mekanism	-7812
▁wireless	-7813
▁magnetisk	-7814
▁combustion	-7815
▁exploration	-7816
▁produktionen	-7817
▁functionality	-7818
SCs	-7819
ifi	-7820
rav	-7821
▁IT	-7822
ancy	-7823
ders	-7824
obic	-7825
rhiz	-7826
unda	-7827
Denna	-7828
▁equi	-7829
▁mask	-7830
▁stro	-7831
frågor	-7832
ontals	-7833
▁hybri	-7834
▁förstår	-7835
lösningar	-7836
▁benefits	-7837
▁experience	-7838
▁ultimately	-7839
▁Sustainable	-7840
▁matematiken	-7841
▁contributions	-7842
ando	-7843
▁Dig	-7844
▁Yet	-7845
▁mim	-7846
▁mob	-7847
▁mär	-7848
▁mån	-7849
aters	-7850
ybrid	-7851
▁cykl	-7852
▁shar	-7853
▁vitt	-7854
ectors	-7855
matris	-7856
otyper	-7857
▁alkal	-7858
▁bryts	-7859
ordning	-7860
▁fibrer	-7861
▁fältet	-7862
▁optisk	-7863
▁reservo	-7864
▁taxonom	-7865
▁vävnads	-7866
▁Universe	-7867
▁forecast	-7868
▁omfattar	-7869
▁speciell	-7870
▁decisions	-7871
▁problemen	-7872
▁accurately	-7873
▁betydelsen	-7874
▁elektriskt	-7875
▁systematically	-7876
An	-7877
wh	-7878
aks	-7879
nap	-7880
oren	-7881
▁SiC	-7882
▁kam	-7883
agnet	-7884
enced	-7885
odies	-7886
▁stär	-7887
detekt	-7888
ektorn	-7889
prover	-7890
▁mäter	-7891
▁steps	-7892
▁surve	-7893
▁yeast	-7894
alities	-7895
vements	-7896
ännings	-7897
▁kallat	-7898
▁severe	-7899
▁evolved	-7900
▁subsequ	-7901
▁neutrino	-7902
▁starting	-7903
▁candidate	-7904
▁förändrar	-7905
▁lösningen	-7906
▁partikelf	-7907
▁ultrafast	-7908
▁mitokondri	-7909
▁treatments	-7910
▁existerande	-7911
▁realistiska	-7912
▁funktionalitet	-7913
▁~	-7914
body	-7915
eper	-7916
▁fäl	-7917
cence	-7918
lager	-7919
tious	-7920
▁Mark	-7921
▁idea	-7922
▁trän	-7923
▁Graph	-7924
▁Vissa	-7925
▁brott	-7926
▁gaser	-7927
▁stoft	-7928
lekyler	-7929
quality	-7930
▁optics	-7931
▁Physics	-7932
▁substrat	-7933
▁symmetry	-7934
▁tillverkas	-7935
▁tomography	-7936
▁utmaningen	-7937
▁advancements	-7938
cir	-7939
gae	-7940
jäl	-7941
ocy	-7942
ISPR	-7943
pped	-7944
spar	-7945
ttar	-7946
▁ask	-7947
ektor	-7948
erapi	-7949
ompon	-7950
▁alig	-7951
▁edge	-7952
▁fris	-7953
olites	-7954
ompati	-7955
▁påsky	-7956
▁ökade	-7957
▁anatom	-7958
▁prefer	-7959
▁shifts	-7960
gression	-7961
▁asymmet	-7962
▁bredare	-7963
▁förläng	-7964
ställning	-7965
▁applying	-7966
▁elektrod	-7967
▁estimate	-7968
▁maskiner	-7969
▁strömmar	-7970
▁användare	-7971
▁halvledar	-7972
▁platforms	-7973
▁innovation	-7974
▁upptäckter	-7975
▁diffraction	-7976
▁developments	-7977
▁fluctuations	-7978
▁infrastructure	-7979
RL	-7980
Si	-7981
ied	-7982
▁2.	-7983
▁IR	-7984
pair	-7985
skilj	-7986
▁cere	-7987
kärnor	-7988
vinden	-7989
▁aging	-7990
▁aster	-7991
▁fuels	-7992
▁risks	-7993
ledande	-7994
▁Identi	-7995
▁deploy	-7996
▁fluktu	-7997
▁friska	-7998
▁widely	-7999
▁uppgift	-8000
▁uttryck	-8001
▁embedded	-8002
▁technical	-8003
▁Functional	-8004
▁epigenetic	-8005
▁hypotheses	-8006
▁contributing	-8007
▁heterogeneous	-8008
▁semiconductor	-8009
pon	-8010
tun	-8011
bätt	-8012
sett	-8013
mekanis	-8014
▁anisot	-8015
▁kropps	-8016
▁prepar	-8017
▁Vinterg	-8018
▁däremot	-8019
ämpningar	-8020
▁clusters	-8021
▁transkri	-8022
▁innefattar	-8023
▁elektrokemiska	-8024
▁konsekvenserna	-8025
ior	-8026
sch	-8027
▁30	-8028
▁tw	-8029
lats	-8030
rare	-8031
organ	-8032
rices	-8033
▁Arch	-8034
▁lägg	-8035
▁gases	-8036
▁gröna	-8037
▁holog	-8038
▁flödet	-8039
▁methane	-8040
fications	-8041
▁followed	-8042
▁komplext	-8043
▁kroppens	-8044
▁satellit	-8045
▁nätverket	-8046
▁ultraljud	-8047
▁övergångs	-8048
▁substanser	-8049
▁artificiella	-8050
▁transporteras	-8051
)-	-8052
deri	-8053
etag	-8054
▁inj	-8055
▁tac	-8056
elesc	-8057
osity	-8058
print	-8059
▁meet	-8060
▁semi	-8061
▁skör	-8062
allium	-8063
▁issue	-8064
▁pipel	-8065
▁symbi	-8066
▁balans	-8067
▁utförs	-8068
▁theorem	-8069
▁dependen	-8070
▁riktning	-8071
▁spectrum	-8072
arkitektur	-8073
▁disorders	-8074
▁conjecture	-8075
▁genomföras	-8076
▁utbredning	-8077
▁functioning	-8078
▁substantial	-8079
▁anpassningar	-8080
▁fascinerande	-8081
▁significance	-8082
▁förutsättningar	-8083
1,	-8084
ena	-8085
ibr	-8086
ify	-8087
▁18	-8088
▁VR	-8089
diga	-8090
ials	-8091
ince	-8092
▁Eng	-8093
▁Jord	-8094
▁Time	-8095
▁lies	-8096
▁oänd	-8097
gifter	-8098
ikrobi	-8099
itions	-8100
ulated	-8101
▁death	-8102
▁radar	-8103
▁odling	-8104
▁upprep	-8105
▁vaccin	-8106
▁entropy	-8107
▁experts	-8108
▁schemes	-8109
skrävande	-8110
▁anpassar	-8111
▁användar	-8112
▁Forskning	-8113
▁transient	-8114
▁variabler	-8115
▁Alzheimers	-8116
▁candidates	-8117
▁possibility	-8118
▁reliability	-8119
3,	-8120
hom	-8121
kap	-8122
▁Ab	-8123
adri	-8124
trol	-8125
vida	-8126
▁Mod	-8127
ocene	-8128
▁akus	-8129
▁meta	-8130
▁ändå	-8131
strans	-8132
sträng	-8133
urally	-8134
▁Plant	-8135
▁ingår	-8136
▁låter	-8137
▁soils	-8138
raktion	-8139
▁fiskar	-8140
▁remote	-8141
▁contain	-8142
▁dioxide	-8143
▁promote	-8144
organisms	-8145
▁aktuella	-8146
▁arktiska	-8147
▁matrices	-8148
generering	-8149
läggningar	-8150
▁omvandlar	-8151
▁completely	-8152
▁symmetrier	-8153
▁automatiskt	-8154
▁biomarkörer	-8155
▁interacting	-8156
▁electrolytes	-8157
jan	-8158
orfa	-8159
▁IoT	-8160
▁mid	-8161
bolic	-8162
▁site	-8163
stream	-8164
▁force	-8165
▁liter	-8166
licated	-8167
▁kvantt	-8168
▁living	-8169
izations	-8170
▁ekonomi	-8171
▁exploit	-8172
▁inverse	-8173
▁minimal	-8174
teknologi	-8175
▁leverera	-8176
▁particip	-8177
▁recombin	-8178
▁blandning	-8179
▁nederbörd	-8180
▁protocols	-8181
▁validated	-8182
▁projektets	-8183
▁synkrotron	-8184
▁universums	-8185
▁katalysator	-8186
▁microscopic	-8187
▁recognition	-8188
▁kvantdatorer	-8189
3.	-8190
dex	-8191
▁dro	-8192
volta	-8193
▁repe	-8194
▁trib	-8195
▁tung	-8196
bilder	-8197
mässig	-8198
skaper	-8199
▁assays	-8200
▁deeper	-8201
▁hjärna	-8202
▁samlas	-8203
▁strain	-8204
▁tackle	-8205
▁ackumul	-8206
▁barrier	-8207
▁Research	-8208
▁termiska	-8209
▁utsläppen	-8210
▁generating	-8211
▁unexplored	-8212
▁antibiotics	-8213
▁connections	-8214
▁simulerings	-8215
▁fluorescence	-8216
▁systematiskt	-8217
▁infrastruktur	-8218
▁forskningsfält	-8219
har	-8220
▁50	-8221
▁MRI	-8222
▁ana	-8223
brist	-8224
ierna	-8225
osome	-8226
▁Mass	-8227
▁argu	-8228
▁carb	-8229
▁fibr	-8230
▁port	-8231
▁slow	-8232
iction	-8233
making	-8234
skador	-8235
varian	-8236
▁COVID	-8237
▁Gener	-8238
▁miner	-8239
▁termo	-8240
▁tjock	-8241
▁though	-8242
effekter	-8243
kopplade	-8244
▁Kunskap	-8245
▁cooling	-8246
▁kemiskt	-8247
▁strains	-8248
▁bestånds	-8249
▁förknipp	-8250
▁kromosom	-8251
▁nätverks	-8252
▁settings	-8253
fördelning	-8254
▁selektion	-8255
▁leveraging	-8256
▁framförallt	-8257
▁övervakning	-8258
▁possibilities	-8259
▁internationella	-8260
OP	-8261
lef	-8262
▁(3	-8263
▁1.	-8264
skog	-8265
visa	-8266
▁AMR	-8267
▁Sta	-8268
▁ded	-8269
▁söt	-8270
nable	-8271
robot	-8272
▁stam	-8273
marker	-8274
▁antic	-8275
▁spint	-8276
▁förmod	-8277
▁håller	-8278
▁överva	-8279
▁arbetet	-8280
▁harvest	-8281
▁postdoc	-8282
▁property	-8283
▁selected	-8284
▁generella	-8285
▁miljontals	-8286
▁phenomenon	-8287
▁återkoppling	-8288
▁biodiversitet	-8289
▁motståndskraft	-8290
4-	-8291
Al	-8292
sto	-8293
änk	-8294
▁Ti	-8295
istr	-8296
izes	-8297
life	-8298
▁rem	-8299
▁akut	-8300
▁drag	-8301
▁fång	-8302
▁hade	-8303
▁känd	-8304
▁ämne	-8305
▁gamla	-8306
tagning	-8307
▁CRISPR	-8308
▁Neural	-8309
▁aminos	-8310
▁porösa	-8311
▁adapted	-8312
▁competi	-8313
▁isotope	-8314
mentation	-8315
▁orsakade	-8316
▁programs	-8317
▁direction	-8318
▁estimates	-8319
▁förbättras	-8320
▁mekanismen	-8321
▁energikällor	-8322
BS	-8323
PP	-8324
sl	-8325
orl	-8326
öts	-8327
bott	-8328
iljö	-8329
just	-8330
ensen	-8331
hertz	-8332
uling	-8333
▁Many	-8334
▁Nano	-8335
kemisk	-8336
tteori	-8337
▁Space	-8338
▁adhes	-8339
▁binda	-8340
▁lätta	-8341
forming	-8342
kondens	-8343
▁årtion	-8344
▁lipider	-8345
▁million	-8346
kraftverk	-8347
▁Networks	-8348
▁Tidigare	-8349
▁därefter	-8350
▁handling	-8351
▁klassisk	-8352
▁supported	-8353
▁arvsmassan	-8354
▁generative	-8355
▁upptäckten	-8356
▁correlation	-8357
▁flexibility	-8358
▁regeneration	-8359
▁miljöpåverkan	-8360
DC	-8361
IG	-8362
så	-8363
itr	-8364
kly	-8365
läk	-8366
sub	-8367
ush	-8368
uum	-8369
▁mm	-8370
emål	-8371
ucle	-8372
▁Lie	-8373
adron	-8374
graph	-8375
ished	-8376
oplas	-8377
overy	-8378
▁Cont	-8379
▁torv	-8380
erbara	-8381
marily	-8382
▁Först	-8383
▁finna	-8384
▁kateg	-8385
▁lines	-8386
▁Global	-8387
▁behöva	-8388
▁forces	-8389
▁compare	-8390
▁counter	-8391
▁massive	-8392
hållandet	-8393
ovascular	-8394
▁ekvation	-8395
▁regleras	-8396
▁surround	-8397
▁jordbruks	-8398
▁recycling	-8399
▁sequences	-8400
▁solenergi	-8401
▁evolutionär	-8402
▁conductivity	-8403
▁uppmärksamhet	-8404
DA	-8405
kts	-8406
lue	-8407
sök	-8408
väm	-8409
Vårt	-8410
ensk	-8411
ilka	-8412
slag	-8413
▁Enz	-8414
▁III	-8415
▁gli	-8416
▁tyn	-8417
▁Dist	-8418
▁dela	-8419
▁fine	-8420
▁lith	-8421
iments	-8422
intens	-8423
lektro	-8424
seende	-8425
spunkt	-8426
▁resid	-8427
ediment	-8428
▁derive	-8429
▁excell	-8430
▁herbiv	-8431
▁lokalt	-8432
beteende	-8433
fattning	-8434
ligheter	-8435
oprotein	-8436
▁boreala	-8437
▁created	-8438
▁främsta	-8439
▁orsakas	-8440
▁trigger	-8441
▁sambandet	-8442
thropogenic	-8443
▁ekonomiska	-8444
▁biomaterial	-8445
▁skräddarsydda	-8446
▁transcriptomics	-8447
CH	-8448
HG	-8449
Our	-8450
eli	-8451
fel	-8452
way	-8453
▁LL	-8454
ompl	-8455
prov	-8456
layer	-8457
olite	-8458
spect	-8459
thers	-8460
▁beta	-8461
▁blad	-8462
▁drab	-8463
▁puss	-8464
▁ring	-8465
▁Varje	-8466
▁pågår	-8467
begräns	-8468
▁inrikt	-8469
▁nation	-8470
▁sättet	-8471
▁Nyligen	-8472
▁asympto	-8473
▁vågläng	-8474
▁begränsa	-8475
▁limiting	-8476
▁omöjligt	-8477
▁resonance	-8478
▁situation	-8479
▁förändrade	-8480
▁bakterierna	-8481
▁variationen	-8482
▁karakterisering	-8483
30	-8484
scy	-8485
▁So	-8486
▁ly	-8487
llip	-8488
▁Sci	-8489
▁dos	-8490
▁döds	-8491
assist	-8492
öntgen	-8493
▁eigen	-8494
▁error	-8495
▁fotok	-8496
krafter	-8497
▁klarar	-8498
▁städer	-8499
▁termer	-8500
▁trafik	-8501
▁feature	-8502
▁forward	-8503
processen	-8504
▁interfac	-8505
▁measured	-8506
▁minimera	-8507
▁peptides	-8508
▁behandlas	-8509
▁fortsätta	-8510
▁heterogen	-8511
▁Projektets	-8512
▁algebraiska	-8513
▁kollisioner	-8514
▁macroscopic	-8515
▁stokastiska	-8516
▁utilization	-8517
▁forskargrupp	-8518
▁modellsystem	-8519
▁ryggradsdjur	-8520
▁quantification	-8521
NPs	-8522
das	-8523
▁Cu	-8524
▁Em	-8525
fish	-8526
nära	-8527
orth	-8528
rays	-8529
skyd	-8530
ärna	-8531
▁Ass	-8532
▁vak	-8533
asing	-8534
▁fria	-8535
chmark	-8536
tionen	-8537
▁antik	-8538
▁mörka	-8539
▁plays	-8540
▁traff	-8541
metoden	-8542
ocation	-8543
▁Einste	-8544
▁alumin	-8545
▁kännet	-8546
▁oklart	-8547
▁stroke	-8548
▁svarar	-8549
▁tester	-8550
▁utgöra	-8551
omografi	-8552
▁defined	-8553
▁förblir	-8554
▁streams	-8555
▁återfin	-8556
mätningar	-8557
▁Modeller	-8558
▁discrete	-8559
▁offering	-8560
▁organisk	-8561
▁tidpunkt	-8562
▁excellent	-8563
▁sannolikt	-8564
▁introduced	-8565
▁manipulera	-8566
▁determining	-8567
▁correlations	-8568
▁kvantmekaniska	-8569
gn	-8570
jö	-8571
NNs	-8572
▁12	-8573
bits	-8574
duce	-8575
repp	-8576
▁Och	-8577
flamm	-8578
skraf	-8579
unded	-8580
▁maps	-8581
▁phyt	-8582
▁pore	-8583
▁heart	-8584
▁injur	-8585
▁polys	-8586
▁titta	-8587
▁Dagens	-8588
▁amplit	-8589
strömmar	-8590
▁snarare	-8591
▁solcell	-8592
▁studiet	-8593
▁breeding	-8594
▁hierarch	-8595
▁molecule	-8596
verkningar	-8597
▁Vintergat	-8598
▁extension	-8599
▁inkludera	-8600
▁övervinna	-8601
▁physiology	-8602
▁åstadkomma	-8603
populationer	-8604
▁polynomials	-8605
▁antimicrobial	-8606
▁uncertainties	-8607
MRI	-8608
Vår	-8609
agg	-8610
hab	-8611
pha	-8612
▁II	-8613
auss	-8614
erge	-8615
gene	-8616
grän	-8617
rade	-8618
▁iii	-8619
▁vux	-8620
actic	-8621
andem	-8622
oural	-8623
phase	-8624
▁Pred	-8625
▁klor	-8626
▁papp	-8627
▁pave	-8628
bestäm	-8629
▁birds	-8630
▁metyl	-8631
antaget	-8632
skaliga	-8633
▁define	-8634
▁fronti	-8635
▁mottag	-8636
ectivity	-8637
▁fertili	-8638
▁kinetic	-8639
▁pattern	-8640
▁reglera	-8641
ningsbara	-8642
▁cellvägg	-8643
▁consists	-8644
▁utvärder	-8645
▁dependent	-8646
▁microwave	-8647
▁therapies	-8648
▁kopplingen	-8649
▁millimeter	-8650
▁receptorer	-8651
▁tillgången	-8652
▁fullständig	-8653
▁laboratorie	-8654
▁concentrations	-8655
▁differentiation	-8656
▁environmentally	-8657
cap	-8658
föd	-8659
häm	-8660
ivå	-8661
▁AR	-8662
▁Ac	-8663
bear	-8664
ckor	-8665
▁Gal	-8666
▁psy	-8667
erior	-8668
okoll	-8669
ptive	-8670
vised	-8671
ättar	-8672
▁cryo	-8673
▁guid	-8674
▁värm	-8675
cision	-8676
nivåer	-8677
▁fullt	-8678
▁spela	-8679
▁sätta	-8680
▁äldre	-8681
ktorand	-8682
linjära	-8683
stället	-8684
▁Klimat	-8685
▁defect	-8686
▁dinosa	-8687
▁pollen	-8688
▁string	-8689
erahertz	-8690
timering	-8691
transport	-8692
▁föränder	-8693
▁positiva	-8694
▁ultimate	-8695
▁övervaka	-8696
▁noggranna	-8697
▁nödvändig	-8698
▁secondary	-8699
▁slutligen	-8700
▁adsorption	-8701
▁hundratals	-8702
▁interagera	-8703
▁microfluid	-8704
▁prestandan	-8705
produktionen	-8706
▁independent	-8707
▁identifiering	-8708
▁opportunities	-8709
LED	-8710
▁Ca	-8711
▁Ma	-8712
▁ap	-8713
itta	-8714
ustr	-8715
▁Ara	-8716
atics	-8717
▁Metal	-8718
▁Spati	-8719
▁givet	-8720
▁latit	-8721
▁slags	-8722
rometer	-8723
▁Använd	-8724
▁följer	-8725
▁overlo	-8726
mediated	-8727
▁another	-8728
▁exposed	-8729
▁monitor	-8730
represent	-8731
▁additive	-8732
▁climatic	-8733
▁leverage	-8734
▁partners	-8735
▁primarily	-8736
▁pålitliga	-8737
▁specialis	-8738
▁background	-8739
▁effectively	-8740
applikationer	-8741
▁modification	-8742
▁collaborators	-8743
IP	-8744
ök	-8745
box	-8746
▁Bå	-8747
alen	-8748
serv	-8749
sönd	-8750
uild	-8751
▁who	-8752
▁bibe	-8753
▁home	-8754
algebr	-8755
charge	-8756
symmet	-8757
▁Numer	-8758
▁allra	-8759
▁crack	-8760
▁prove	-8761
▁trade	-8762
▁trait	-8763
▁träna	-8764
▁välja	-8765
▁commer	-8766
▁kallar	-8767
▁regler	-8768
▁visade	-8769
kontroll	-8770
learning	-8771
▁inbland	-8772
▁realize	-8773
▁Chemical	-8774
▁creation	-8775
▁provided	-8776
▁modifiera	-8777
vironmental	-8778
▁dataanalys	-8779
▁literature	-8780
▁industriell	-8781
▁complementary	-8782
▁antibiotikares	-8783
--	-8784
1-	-8785
00-	-8786
ante	-8787
dröj	-8788
film	-8789
kala	-8790
löst	-8791
▁Str	-8792
▁cop	-8793
▁law	-8794
▁Sens	-8795
drivna	-8796
ogonal	-8797
olding	-8798
queous	-8799
▁MXene	-8800
elastic	-8801
▁aiming	-8802
▁attrak	-8803
▁effort	-8804
▁faster	-8805
▁others	-8806
▁regime	-8807
▁säkert	-8808
kvalitet	-8809
▁analyse	-8810
▁interst	-8811
▁habitats	-8812
▁mobility	-8813
▁photonic	-8814
▁recovery	-8815
▁sträcker	-8816
▁relevance	-8817
▁satellite	-8818
▁tolerance	-8819
▁verkligen	-8820
pektroskopi	-8821
▁associerade	-8822
▁datamängder	-8823
▁Intelligence	-8824
▁developmental	-8825
▁huvudsakligen	-8826
▁precipitation	-8827
▁classification	-8828
▁nanostructures	-8829
▁pharmaceutical	-8830
jut	-8831
conn	-8832
elds	-8833
neut	-8834
romo	-8835
tile	-8836
▁Aut	-8837
▁aer	-8838
astro	-8839
opsis	-8840
▁rent	-8841
idence	-8842
▁Huvud	-8843
▁lösas	-8844
▁regel	-8845
▁uniqu	-8846
delning	-8847
inental	-8848
pporter	-8849
vattnet	-8850
▁inspir	-8851
▁output	-8852
▁taking	-8853
▁vätska	-8854
▁ökning	-8855
▁Current	-8856
▁Fourier	-8857
▁avlopps	-8858
▁discipl	-8859
▁display	-8860
▁elastic	-8861
▁channels	-8862
▁sjukvård	-8863
▁prognoser	-8864
▁substrate	-8865
▁Structural	-8866
▁boundaries	-8867
▁invariants	-8868
▁mitigation	-8869
▁människans	-8870
▁protection	-8871
▁spectroscopic	-8872
▁microstructure	-8873
hav	-8874
cont	-8875
eman	-8876
▁Ice	-8877
▁era	-8878
eptid	-8879
staka	-8880
utsäg	-8881
▁pump	-8882
▁robo	-8883
▁vuln	-8884
arante	-8885
belast	-8886
▁belie	-8887
▁built	-8888
▁inher	-8889
▁mesta	-8890
▁serve	-8891
ometric	-8892
▁mixing	-8893
▁revers	-8894
▁sommar	-8895
▁sprids	-8896
bidopsis	-8897
▁closely	-8898
▁essenti	-8899
▁astronom	-8900
▁behaviors	-8901
▁sediments	-8902
▁solvinden	-8903
pektrometri	-8904
▁gränsskikt	-8905
▁substrates	-8906
▁termodynam	-8907
▁comparative	-8908
▁efterfrågan	-8909
▁accumulation	-8910
▁djupinlärning	-8911
PV	-8912
ls	-8913
öv	-8914
▁1,	-8915
▁zo	-8916
foli	-8917
▁Hög	-8918
▁Sub	-8919
▁get	-8920
▁kör	-8921
▁pan	-8922
sområ	-8923
▁face	-8924
▁goda	-8925
▁närm	-8926
▁seas	-8927
ektiva	-8928
järnor	-8929
▁trace	-8930
▁konver	-8931
pression	-8932
tization	-8933
▁klinisk	-8934
▁kritisk	-8935
▁neutral	-8936
▁promise	-8937
▁reagera	-8938
▁respond	-8939
▁frågorna	-8940
▁modified	-8941
▁vehicles	-8942
▁phylogene	-8943
▁storleken	-8944
▁växternas	-8945
▁pollutants	-8946
▁programmer	-8947
▁proteomics	-8948
evolutionary	-8949
▁establishing	-8950
▁intelligenta	-8951
▁mikrostruktur	-8952
Ts	-8953
zz	-8954
▁Ni	-8955
iven	-8956
lict	-8957
stör	-8958
▁Two	-8959
▁ton	-8960
bital	-8961
ental	-8962
värde	-8963
▁Neur	-8964
▁kärl	-8965
▁road	-8966
▁seen	-8967
linjer	-8968
mental	-8969
vävnad	-8970
ökning	-8971
▁nitri	-8972
▁recru	-8973
▁regim	-8974
▁stage	-8975
ställer	-8976
urrence	-8977
▁expert	-8978
emission	-8979
▁dagliga	-8980
▁metrics	-8981
▁Recently	-8982
▁circular	-8983
▁framgång	-8984
▁mjukvara	-8985
▁neuronal	-8986
▁funktions	-8987
▁variables	-8988
▁återfinns	-8989
▁erfarenhet	-8990
▁organization	-8991
▁representera	-8992
.)	-8993
ON	-8994
tur	-8995
uls	-8996
yrm	-8997
täck	-8998
▁dry	-8999
aving	-9000
▁bran	-9001
▁cold	-9002
▁myst	-9003
▁sper	-9004
▁vård	-9005
ätning	-9006
▁Neuro	-9007
▁bilar	-9008
▁effic	-9009
▁hårda	-9010
▁okänt	-9011
herence	-9012
nalling	-9013
projekt	-9014
▁Därmed	-9015
▁anomal	-9016
▁insect	-9017
▁intend	-9018
▁simpli	-9019
ogeneity	-9020
resultat	-9021
titution	-9022
▁normalt	-9023
▁säkrare	-9024
▁Internet	-9025
▁peptider	-9026
▁aktiveras	-9027
▁benchmark	-9028
▁genetiskt	-9029
▁viktigare	-9030
▁mikroskopi	-9031
▁relatively	-9032
▁robustness	-9033
utvecklingen	-9034
▁supraledande	-9035
Ls	-9036
öp	-9037
ARS	-9038
▁Is	-9039
▁Ox	-9040
▁la	-9041
eled	-9042
ient	-9043
vågs	-9044
ödra	-9045
▁Beh	-9046
▁Nob	-9047
▁åld	-9048
icles	-9049
idden	-9050
läget	-9051
skval	-9052
ättas	-9053
▁coli	-9054
▁Över	-9055
inning	-9056
▁Based	-9057
▁fibers	-9058
▁förlit	-9059
▁lipids	-9060
▁status	-9061
▁amounts	-9062
▁externa	-9063
▁klimats	-9064
▁mätning	-9065
▁tumörer	-9066
▁analysen	-9067
▁database	-9068
▁societal	-9069
▁dimensional	-9070
▁electrolyte	-9071
▁selectivity	-9072
▁probabilistic	-9073
▁microorganisms	-9074
▁electromagnetic	-9075
4,	-9076
LP	-9077
erh	-9078
räd	-9079
halt	-9080
ison	-9081
oter	-9082
pper	-9083
ukle	-9084
▁Acc	-9085
▁Big	-9086
▁eut	-9087
lever	-9088
uvida	-9089
atomer	-9090
delity	-9091
▁ampli	-9092
▁array	-9093
▁säger	-9094
▁söker	-9095
abolism	-9096
ductive	-9097
roscopy	-9098
växande	-9099
▁bryter	-9100
▁faktum	-9101
▁galaxy	-9102
▁multiv	-9103
▁sexual	-9104
mutative	-9105
▁förlust	-9106
▁healthy	-9107
▁primära	-9108
▁stabili	-9109
▁abundant	-9110
▁algoritm	-9111
▁innebära	-9112
▁maintain	-9113
▁negativt	-9114
▁systemen	-9115
▁tracking	-9116
▁användbar	-9117
▁composite	-9118
▁doktorand	-9119
▁emergence	-9120
▁gradients	-9121
▁predicted	-9122
munikations	-9123
▁antimikrobi	-9124
▁implementera	-9125
cal	-9126
iak	-9127
ths	-9128
tor	-9129
▁(&	-9130
▁ey	-9131
▁py	-9132
-202	-9133
Dess	-9134
glas	-9135
▁inb	-9136
lants	-9137
äthet	-9138
▁1000	-9139
▁actu	-9140
▁kors	-9141
▁orth	-9142
▁spli	-9143
▁subj	-9144
ockhol	-9145
▁Hence	-9146
▁assum	-9147
▁avvik	-9148
▁stopp	-9149
▁ämnes	-9150
vinning	-9151
▁annorl	-9152
▁clouds	-9153
▁igenom	-9154
▁muscle	-9155
▁outfor	-9156
▁repres	-9157
▁rummet	-9158
▁vulkan	-9159
partikel	-9160
pridning	-9161
▁broader	-9162
▁regular	-9163
▁stimuli	-9164
ledningen	-9165
spridning	-9166
▁atomerna	-9167
▁fraction	-9168
▁fracture	-9169
▁innehåll	-9170
▁topologi	-9171
▁expensive	-9172
▁praktiken	-9173
infektioner	-9174
▁operations	-9175
▁perovskite	-9176
▁utvärdering	-9177
▁gravitations	-9178
▁nanomaterial	-9179
▁terapeutiska	-9180
▁determination	-9181
▁partikelfysik	-9182
▁[	-9183
bur	-9184
tri	-9185
▁Cy	-9186
hund	-9187
onen	-9188
udes	-9189
▁own	-9190
ackar	-9191
magne	-9192
rådar	-9193
skott	-9194
▁bias	-9195
▁divi	-9196
▁rece	-9197
grader	-9198
▁Deras	-9199
▁Since	-9200
▁fluor	-9201
▁nanok	-9202
▁smörj	-9203
uilding	-9204
▁gained	-9205
▁sorter	-9206
atalytic	-9207
▁coordin	-9208
▁finding	-9209
▁koordin	-9210
▁svårare	-9211
▁överbry	-9212
erization	-9213
imulering	-9214
▁contamin	-9215
▁negative	-9216
▁resolved	-9217
▁corrosion	-9218
▁hypoteser	-9219
▁kunskaper	-9220
▁annorlunda	-9221
▁categories	-9222
▁statistics	-9223
▁progression	-9224
tillämpningar	-9225
▁localization	-9226
▁upprätthålla	-9227
▁analysmetoder	-9228
SO	-9229
▁—	-9230
inc	-9231
▁Ep	-9232
▁OC	-9233
ppar	-9234
utin	-9235
▁Gru	-9236
blick	-9237
power	-9238
yntes	-9239
▁base	-9240
▁casc	-9241
aniken	-9242
atigue	-9243
▁embry	-9244
▁refin	-9245
▁trust	-9246
▁During	-9247
▁contin	-9248
▁dåligt	-9249
▁evolve	-9250
▁explan	-9251
▁preser	-9252
▁sitter	-9253
▁transk	-9254
analyser	-9255
▁angrepp	-9256
▁bekämpa	-9257
▁enstaka	-9258
▁insects	-9259
▁reflekt	-9260
▁sjukhus	-9261
plattform	-9262
▁Investig	-9263
▁coatings	-9264
▁coherent	-9265
▁dynamisk	-9266
▁guarante	-9267
▁described	-9268
▁motsvarar	-9269
▁neutroner	-9270
▁samverkar	-9271
▁exponering	-9272
▁represents	-9273
▁behavioural	-9274
CI	-9275
ame	-9276
ery	-9277
vag	-9278
▁ju	-9279
biom	-9280
oked	-9281
▁lun	-9282
eries	-9283
▁bubb	-9284
▁lake	-9285
▁live	-9286
ekonom	-9287
pulser	-9288
▁spont	-9289
▁Single	-9290
▁invers	-9291
▁parasi	-9292
▁pussel	-9293
▁repair	-9294
▁utgång	-9295
▁values	-9296
▁Complex	-9297
▁channel	-9298
▁databas	-9299
▁förhopp	-9300
▁ranging	-9301
▁termisk	-9302
▁tillhör	-9303
▁Advanced	-9304
▁interven	-9305
▁pathogen	-9306
▁simulate	-9307
▁universe	-9308
▁utilized	-9309
electronic	-9310
▁Problemet	-9311
▁celltyper	-9312
▁governing	-9313
▁uppkommer	-9314
▁automation	-9315
▁elektrolyt	-9316
▁uppkomsten	-9317
tillverkning	-9318
▁Arabidopsis	-9319
▁bearbetning	-9320
▁interfacial	-9321
▁preliminära	-9322
▁reconstruct	-9323
▁reproduction	-9324
▁biogeochemical	-9325
▁energieffektiva	-9326
läs	-9327
eram	-9328
iell	-9329
stal	-9330
inten	-9331
▁Link	-9332
▁sort	-9333
degrad	-9334
stegen	-9335
ödning	-9336
▁Extre	-9337
▁clean	-9338
▁colon	-9339
▁kolon	-9340
▁träff	-9341
▁tvill	-9342
▁Differ	-9343
▁atomär	-9344
▁formen	-9345
▁vinter	-9346
▁greatly	-9347
▁jämvikt	-9348
▁normala	-9349
▁unclear	-9350
▁villkor	-9351
▁överens	-9352
▁Electron	-9353
▁bildades	-9354
▁mixtures	-9355
▁affecting	-9356
▁inorganic	-9357
▁partiella	-9358
▁producing	-9359
▁utforskar	-9360
▁accessible	-9361
▁signalling	-9362
▁slutsatser	-9363
▁agricultural	-9364
▁kvantmekanik	-9365
▁cyanobakterier	-9366
▁semiconductors	-9367
▁vidareutveckla	-9368
DM	-9369
LL	-9370
ingu	-9371
matt	-9372
ults	-9373
▁DES	-9374
▁sän	-9375
▁tru	-9376
akter	-9377
ecken	-9378
spite	-9379
unget	-9380
▁Grön	-9381
▁Nord	-9382
▁buil	-9383
▁exec	-9384
▁låta	-9385
▁ones	-9386
▁acids	-9387
▁break	-9388
manfatt	-9389
ractive	-9390
▁almost	-9391
▁initio	-9392
▁risker	-9393
▁vector	-9394
▁astroph	-9395
▁billiga	-9396
▁desired	-9397
▁despite	-9398
▁failure	-9399
▁missing	-9400
▁perfekt	-9401
▁utforsk	-9402
▁examples	-9403
▁immunity	-9404
▁kandidat	-9405
▁trådlösa	-9406
▁variants	-9407
▁sjukdomen	-9408
▁biomedicin	-9409
▁landskapet	-9410
spektroskopi	-9411
▁metabolites	-9412
▁proteinerna	-9413
▁nanostrukturer	-9414
NF	-9415
tos	-9416
acit	-9417
apor	-9418
auge	-9419
käns	-9420
pris	-9421
rome	-9422
▁Tur	-9423
▁aid	-9424
eslut	-9425
iring	-9426
utman	-9427
änger	-9428
▁Both	-9429
▁Next	-9430
▁Stor	-9431
▁auto	-9432
▁libr	-9433
bundna	-9434
cykeln	-9435
▁ellip	-9436
▁holes	-9437
▁sista	-9438
▁spåra	-9439
▁utrym	-9440
echanis	-9441
unction	-9442
▁fluids	-9443
▁förhöj	-9444
▁having	-9445
▁siktar	-9446
echanics	-9447
▁Digital	-9448
▁disturb	-9449
▁modular	-9450
▁avlägsna	-9451
▁economic	-9452
▁motverka	-9453
▁storleks	-9454
▁teleskop	-9455
akteriella	-9456
ammantaget	-9457
▁analyzing	-9458
▁rapporter	-9459
▁fluorescens	-9460
▁plasticitet	-9461
▁connectivity	-9462
▁epigenetiska	-9463
IV	-9464
Ne	-9465
fix	-9466
län	-9467
ocka	-9468
▁LED	-9469
▁kly	-9470
micro	-9471
äsong	-9472
▁brom	-9473
▁flod	-9474
ningss	-9475
ophila	-9476
otoxic	-9477
▁Therm	-9478
▁alger	-9479
▁ansam	-9480
▁hence	-9481
▁oöver	-9482
uration	-9483
▁Förstå	-9484
▁Quanti	-9485
▁Utöver	-9486
▁longer	-9487
ifiering	-9488
▁Riemann	-9489
▁details	-9490
▁föremål	-9491
▁homogen	-9492
märknings	-9493
▁Istället	-9494
▁Magnetic	-9495
▁Stockhol	-9496
▁förlitar	-9497
▁förutspå	-9498
▁globally	-9499
▁rational	-9500
opartiklar	-9501
▁praktiskt	-9502
▁biomedical	-9503
▁relationer	-9504
▁throughout	-9505
▁kartläggning	-9506
▁anthropogenic	-9507
▁corresponding	-9508
▁transformations	-9509
LE	-9510
dvs	-9511
fam	-9512
gan	-9513
osp	-9514
råd	-9515
▁40	-9516
▁dr	-9517
dist	-9518
omyc	-9519
tera	-9520
vall	-9521
▁big	-9522
▁eco	-9523
Under	-9524
ionen	-9525
local	-9526
önstr	-9527
▁bary	-9528
coming	-9529
ilbert	-9530
miljön	-9531
▁absol	-9532
▁decay	-9533
▁fjärr	-9534
▁idéer	-9535
▁inget	-9536
▁video	-9537
physics	-9538
▁Combin	-9539
▁verifi	-9540
▁volume	-9541
följande	-9542
tjänster	-9543
▁actions	-9544
▁utbrott	-9545
▁virtual	-9546
skontroll	-9547
▁inherent	-9548
▁national	-9549
▁referens	-9550
▁tjänster	-9551
▁övergång	-9552
▁förändrat	-9553
▁operating	-9554
▁correlated	-9555
▁determined	-9556
▁divergence	-9557
▁inneboende	-9558
▁sönderfall	-9559
▁electricity	-9560
▁grundvatten	-9561
▁computations	-9562
▁productivity	-9563
▁modifications	-9564
AG	-9565
IM	-9566
GaN	-9567
seq	-9568
usk	-9569
▁Mn	-9570
cury	-9571
▁Ber	-9572
▁akv	-9573
▁don	-9574
▁snö	-9575
ossil	-9576
polar	-9577
tains	-9578
abolic	-9579
ledare	-9580
spread	-9581
▁Laser	-9582
▁linje	-9583
▁skade	-9584
▁third	-9585
celliga	-9586
lecules	-9587
ligtvis	-9588
läktade	-9589
▁Maskin	-9590
▁förbru	-9591
▁inters	-9592
▁minnes	-9593
ostnader	-9594
▁Studier	-9595
▁datadri	-9596
▁företag	-9597
▁kopplar	-9598
▁lacking	-9599
▁photons	-9600
▁sensory	-9601
▁tydligt	-9602
▁weather	-9603
cellulära	-9604
sjukdomar	-9605
▁cellulär	-9606
▁commonly	-9607
▁jämföras	-9608
▁proposes	-9609
▁abundance	-9610
▁fokuserat	-9611
▁advantages	-9612
▁extinction	-9613
▁ultrasnabb	-9614
▁aggregation	-9615
▁atmosfäriska	-9616
▁thermodynamic	-9617
▁computationally	-9618
dö	-9619
kos	-9620
atik	-9621
redu	-9622
▁kop	-9623
▁lif	-9624
fibri	-9625
hydro	-9626
super	-9627
tider	-9628
▁Tekn	-9629
▁norr	-9630
▁obes	-9631
aching	-9632
händel	-9633
▁links	-9634
▁modes	-9635
▁okänd	-9636
▁virul	-9637
▁whose	-9638
sökning	-9639
▁annars	-9640
▁bilden	-9641
▁botten	-9642
▁builds	-9643
▁degree	-9644
▁liksom	-9645
▁manner	-9646
▁precur	-9647
▁roller	-9648
sorption	-9649
▁genomet	-9650
▁respect	-9651
avelength	-9652
hantering	-9653
rosophila	-9654
▁constitu	-9655
▁currents	-9656
▁mitigate	-9657
▁naturens	-9658
▁regulate	-9659
▁rörelsem	-9660
▁tillfäll	-9661
▁addressed	-9662
▁assessing	-9663
▁employing	-9664
▁increases	-9665
▁undersöks	-9666
▁integrerade	-9667
▁generationer	-9668
▁metamaterial	-9669
▁observational	-9670
▁diversification	-9671
10	-9672
Hur	-9673
kat	-9674
prå	-9675
sci	-9676
▁15	-9677
ding	-9678
ided	-9679
iltr	-9680
modi	-9681
umer	-9682
ways	-9683
wise	-9684
äget	-9685
▁Cir	-9686
▁Kar	-9687
▁ges	-9688
▁uns	-9689
varig	-9690
▁Bang	-9691
▁lant	-9692
▁mygg	-9693
▁regn	-9694
ogener	-9695
▁Flera	-9696
▁aimed	-9697
▁angri	-9698
▁below	-9699
▁delas	-9700
▁earli	-9701
▁nanof	-9702
▁nanot	-9703
▁saker	-9704
▁seism	-9705
▁topic	-9706
ression	-9707
▁Statis	-9708
▁aspect	-9709
▁chiral	-9710
▁finans	-9711
aborator	-9712
▁causing	-9713
▁cluster	-9714
▁kopplad	-9715
varianter	-9716
▁positive	-9717
▁printing	-9718
▁achieving	-9719
▁förklarar	-9720
▁isolation	-9721
▁belastning	-9722
▁historiska	-9723
▁bakteriella	-9724
▁biophysical	-9725
▁molekylerna	-9726
▁probability	-9727
▁specificity	-9728
▁intresserade	-9729
▁polarization	-9730
Fe	-9731
MD	-9732
Rs	-9733
xi	-9734
tra	-9735
▁Be	-9736
▁Mg	-9737
tial	-9738
ängd	-9739
▁Ham	-9740
▁Typ	-9741
▁too	-9742
ropic	-9743
astisk	-9744
▁avoid	-9745
▁tillå	-9746
acceler	-9747
skällor	-9748
vattens	-9749
▁occurs	-9750
▁pulses	-9751
▁slutet	-9752
assembly	-9753
▁economy	-9754
▁klasser	-9755
▁symptom	-9756
reglering	-9757
ulationen	-9758
▁detected	-9759
▁föreslås	-9760
▁instance	-9761
avbildning	-9762
brukningen	-9763
▁invariant	-9764
▁profiling	-9765
equilibrium	-9766
tegenskaper	-9767
▁geometrisk	-9768
▁subsequent	-9769
▁agriculture	-9770
▁ekosystemen	-9771
▁metaboliter	-9772
▁surrounding	-9773
▁laboratoriet	-9774
▁visualization	-9775
▁superconducting	-9776
bla	-9777
oma	-9778
uge	-9779
poll	-9780
skem	-9781
stri	-9782
▁hus	-9783
▁oms	-9784
▁sty	-9785
angle	-9786
ields	-9787
jande	-9788
▁deci	-9789
skalig	-9790
teorin	-9791
upptag	-9792
▁Autom	-9793
▁dropp	-9794
▁epita	-9795
▁kalla	-9796
▁minne	-9797
utbrott	-9798
▁adress	-9799
▁sprick	-9800
breaking	-9801
▁magnets	-9802
▁flygplan	-9803
▁formalis	-9804
▁metallic	-9805
▁original	-9806
legeringar	-9807
ordination	-9808
▁bestämmer	-9809
▁detecting	-9810
▁detektion	-9811
▁förluster	-9812
▁patienten	-9813
▁practices	-9814
▁reference	-9815
▁underhåll	-9816
▁Technology	-9817
▁facilities	-9818
▁procedures	-9819
▁resultatet	-9820
dimensionell	-9821
▁Tillsammans	-9822
▁considering	-9823
▁Utvecklingen	-9824
▁heterogeneity	-9825
▁förändringarna	-9826
3-	-9827
SD	-9828
Ut	-9829
oor	-9830
▁SE	-9831
pred	-9832
▁DOM	-9833
▁Väx	-9834
elett	-9835
▁föda	-9836
▁mäts	-9837
▁push	-9838
▁volc	-9839
▁Medan	-9840
▁Nobel	-9841
▁byggs	-9842
▁fibre	-9843
▁ligga	-9844
▁doping	-9845
▁energe	-9846
▁physic	-9847
▁compact	-9848
▁demands	-9849
▁exoplan	-9850
▁hindrar	-9851
▁lämplig	-9852
▁orbital	-9853
▁sjukvår	-9854
▁traject	-9855
▁fördelak	-9856
▁magnetis	-9857
▁existerar	-9858
▁minskning	-9859
▁verifiera	-9860
hastigheten	-9861
sexperiment	-9862
▁extraction	-9863
▁programvar	-9864
▁Engineering	-9865
▁incorporate	-9866
▁lignocellul	-9867
▁programvara	-9868
▁elektronerna	-9869
▁entanglement	-9870
▁sekvensering	-9871
▁spektroskopi	-9872
▁extracellular	-9873
▁gravitational	-9874
▁språkmodeller	-9875
▁collaborations	-9876
HO	-9877
bos	-9878
ept	-9879
▁Br	-9880
▁MS	-9881
▁Ro	-9882
bile	-9883
enus	-9884
fikt	-9885
gery	-9886
hern	-9887
pack	-9888
quid	-9889
roup	-9890
unna	-9891
urgi	-9892
▁cam	-9893
▁dyr	-9894
▁mel	-9895
▁sof	-9896
ether	-9897
stone	-9898
▁Chal	-9899
▁Then	-9900
▁draw	-9901
▁look	-9902
▁mant	-9903
▁sial	-9904
ancers	-9905
försök	-9906
rained	-9907
▁chain	-9908
▁depos	-9909
▁least	-9910
▁målen	-9911
förlopp	-9912
▁Rieman	-9913
▁exempl	-9914
▁fysisk	-9915
▁replac	-9916
otherapy	-9917
sprogram	-9918
▁antagon	-9919
▁bottlen	-9920
▁kopplat	-9921
▁liquids	-9922
▁närvaro	-9923
▁sammanf	-9924
specifika	-9925
▁Därefter	-9926
▁efficacy	-9927
▁fördjupa	-9928
▁microbes	-9929
▁variable	-9930
▁förekomst	-9931
temperature	-9932
▁integreras	-9933
jonbatterier	-9934
▁funktionell	-9935
▁maintaining	-9936
▁Experimental	-9937
▁neuromorphic	-9938
▁applicability	-9939
4.	-9940
CC	-9941
VD	-9942
kv	-9943
tif	-9944
▁Ur	-9945
ilky	-9946
magn	-9947
▁Ant	-9948
▁Gra	-9949
▁kur	-9950
▁rek	-9951
oming	-9952
texts	-9953
▁Cent	-9954
▁Hall	-9955
▁When	-9956
▁utom	-9957
agenom	-9958
encing	-9959
ording	-9960
▁Milky	-9961
▁börja	-9962
▁gauge	-9963
▁match	-9964
▁penet	-9965
▁socio	-9966
bearbet	-9967
steorin	-9968
▁Vatten	-9969
▁causal	-9970
▁easily	-9971
▁losses	-9972
▁policy	-9973
▁relies	-9974
▁carrier	-9975
▁forming	-9976
▁lyckats	-9977
▁peptide	-9978
▁station	-9979
▁växters	-9980
▁Elektron	-9981
▁barriers	-9982
▁conflict	-9983
▁detector	-9984
▁ensuring	-9985
▁solvents	-9986
▁överföra	-9987
▁membranet	-9988
▁behavioral	-9989
▁influences	-9990
▁kunskapslu	-9991
▁biobaserade	-9992
▁discoveries	-9993
▁interactive	-9994
▁observerade	-9995
▁vibrationer	-9996
▁framställning	-9997
▁morphological	-9998
▁cardiovascular	-9999
HP	-10000
▁=	-10001
Cas	-10002
ano	-10003
def	-10004
död	-10005
▁RE	-10006
▁ev	-10007
hist	-10008
ofil	-10009
ours	-10010
ovet	-10011
ting	-10012
uler	-10013
fritt	-10014
gradi	-10015
▁soli	-10016
▁dedic	-10017
▁djupt	-10018
▁monom	-10019
▁pairs	-10020
▁shall	-10021
▁smitt	-10022
▁synap	-10023
derived	-10024
duktion	-10025
ostasis	-10026
▁Hybrid	-10027
▁report	-10028
▁undvik	-10029
atienter	-10030
▁känslig	-10031
▁traffic	-10032
alisation	-10033
ordningar	-10034
▁Mechanis	-10035
▁extrahera	-10036
▁introduce	-10037
▁zebrafish	-10038
▁collective	-10039
▁regulating	-10040
▁artbildning	-10041
▁tillräcklig	-10042
▁kontrollerar	-10043
▁nervsystemet	-10044
▁utgångspunkt	-10045
▁combinatorics	-10046
▁incorporating	-10047
▁produktivitet	-10048
▁reinforcement	-10049
▁specialiserade	-10050
iff	-10051
jäm	-10052
▁Sa	-10053
▁Way	-10054
▁der	-10055
▁let	-10056
Trots	-10057
onsum	-10058
▁Inte	-10059
▁folk	-10060
▁nack	-10061
▁pack	-10062
▁slit	-10063
iserar	-10064
▁Light	-10065
▁anaer	-10066
▁kvinn	-10067
▁lagar	-10068
▁grafer	-10069
▁länder	-10070
▁tarmen	-10071
▁underl	-10072
amhällen	-10073
brations	-10074
lekylära	-10075
tivation	-10076
▁Metoden	-10077
▁gruppen	-10078
▁install	-10079
▁subject	-10080
▁Effektiv	-10081
▁concrete	-10082
▁perioder	-10083
▁profiles	-10084
▁sofistik	-10085
▁suggests	-10086
elektronik	-10087
stransport	-10088
▁suggested	-10089
▁versatile	-10090
▁geologiska	-10091
▁integritet	-10092
▁microbiota	-10093
▁mikrobiell	-10094
▁ursprunget	-10095
▁förbättring	-10096
▁interpretation	-10097
▁thermoelectric	-10098
Hg	-10099
bu	-10100
che	-10101
RNAs	-10102
avor	-10103
hood	-10104
insp	-10105
kast	-10106
olda	-10107
utby	-10108
▁GaN	-10109
▁Har	-10110
▁Lag	-10111
▁Mot	-10112
▁Pri	-10113
▁bug	-10114
▁rov	-10115
exist	-10116
rycks	-10117
ubble	-10118
▁fatt	-10119
▁migr	-10120
ficial	-10121
oplast	-10122
▁Venus	-10123
▁andel	-10124
▁sense	-10125
▁tusen	-10126
▁växts	-10127
▁Markov	-10128
▁exotic	-10129
▁högsta	-10130
▁livets	-10131
▁skilja	-10132
▁supply	-10133
▁toward	-10134
▁vätske	-10135
▁aqueous	-10136
▁bestäms	-10137
▁depends	-10138
▁enskild	-10139
▁mångsid	-10140
▁recogni	-10141
▁ställer	-10142
▁unified	-10143
▁önskade	-10144
intenance	-10145
operative	-10146
▁contexts	-10147
▁energier	-10148
▁huruvida	-10149
▁profound	-10150
▁översväm	-10151
odiversity	-10152
structured	-10153
▁cellernas	-10154
▁continuum	-10155
▁multicell	-10156
▁Drosophila	-10157
▁commercial	-10158
▁conducting	-10159
▁containing	-10160
▁freshwater	-10161
▁geometries	-10162
▁harvesting	-10163
▁radioaktiva	-10164
▁sannolikhet	-10165
▁identifieras	-10166
▁electrocataly	-10167
kol	-10168
tum	-10169
▁25	-10170
▁4)	-10171
▁PR	-10172
▁Wa	-10173
high	-10174
napp	-10175
stäm	-10176
▁Hol	-10177
▁Pop	-10178
▁ign	-10179
▁ked	-10180
▁oro	-10181
▁pil	-10182
cepti	-10183
eyond	-10184
onics	-10185
▁arts	-10186
▁deco	-10187
▁köns	-10188
▁rena	-10189
▁scar	-10190
▁tect	-10191
▁klara	-10192
▁platt	-10193
▁råvar	-10194
▁tackl	-10195
▁volym	-10196
ällande	-10197
▁förfly	-10198
▁inbygg	-10199
▁medvet	-10200
kommande	-10201
leceller	-10202
pecifika	-10203
urrently	-10204
▁Control	-10205
▁Således	-10206
▁compris	-10207
▁divided	-10208
▁hundred	-10209
▁typiskt	-10210
estration	-10211
operation	-10212
▁Chalmers	-10213
▁dinosaur	-10214
▁hydrogel	-10215
▁starkare	-10216
▁superior	-10217
structions	-10218
▁dagsläget	-10219
▁definiera	-10220
▁elementar	-10221
▁dramatiskt	-10222
▁konkurrens	-10223
▁övergången	-10224
▁Information	-10225
▁högupplösta	-10226
▁relativitet	-10227
▁supraledare	-10228
▁fördelningen	-10229
▁selektivitet	-10230
▁kombinationer	-10231
▁makroskopiska	-10232
FM	-10233
Hs	-10234
OT	-10235
PI	-10236
Ph	-10237
ösk	-10238
fron	-10239
made	-10240
vlar	-10241
äkra	-10242
▁ESS	-10243
▁Lik	-10244
▁Lip	-10245
▁glu	-10246
atsen	-10247
iling	-10248
lobin	-10249
odern	-10250
persp	-10251
times	-10252
▁Math	-10253
▁gamm	-10254
▁tork	-10255
atörer	-10256
▁kosts	-10257
▁refle	-10258
▁scaff	-10259
▁tagit	-10260
▁utval	-10261
▁varie	-10262
diagnos	-10263
▁anslut	-10264
▁förfin	-10265
▁förmed	-10266
▁handle	-10267
▁hidden	-10268
▁kärnan	-10269
▁utsönd	-10270
particle	-10271
▁centrum	-10272
▁diamant	-10273
▁emerged	-10274
▁interna	-10275
▁kortare	-10276
▁nyckeln	-10277
▁skyddar	-10278
komponent	-10279
utsläppen	-10280
▁Resultat	-10281
▁adaptiva	-10282
▁anpassas	-10283
▁category	-10284
▁frontier	-10285
▁infrared	-10286
▁korrekta	-10287
▁atomistic	-10288
▁decennier	-10289
▁generally	-10290
▁scenarier	-10291
försörjning	-10292
▁Exempelvis	-10293
▁fördelning	-10294
▁livsmedels	-10295
▁observeras	-10296
▁oorganiska	-10297
▁oöverträff	-10298
▁reaktionen	-10299
▁tillväxten	-10300
▁turbulenta	-10301
▁väsentligt	-10302
▁närliggande	-10303
▁conformation	-10304
▁kommunikations	-10305
▁photosynthesis	-10306
AV	-10307
tts	-10308
yth	-10309
nano	-10310
plet	-10311
▁nem	-10312
▁Änd	-10313
ading	-10314
analy	-10315
anyme	-10316
splan	-10317
▁haft	-10318
▁happ	-10319
▁lubr	-10320
▁pris	-10321
försel	-10322
▁Heter	-10323
▁bekrä	-10324
▁löser	-10325
▁shear	-10326
▁uppen	-10327
▁verkt	-10328
orphism	-10329
▁Cancer	-10330
▁ageing	-10331
▁förvär	-10332
▁konstg	-10333
▁livscy	-10334
▁säsong	-10335
atalysts	-10336
förmågan	-10337
ospheric	-10338
▁circuit	-10339
▁efterli	-10340
▁kvarkar	-10341
▁largest	-10342
▁magnitu	-10343
▁relativ	-10344
▁usually	-10345
ekosystem	-10346
▁cellulos	-10347
▁exotiska	-10348
▁mutation	-10349
▁neuroner	-10350
▁practice	-10351
▁searches	-10352
▁akvatiska	-10353
▁gränserna	-10354
▁orsakerna	-10355
▁verknings	-10356
commutative	-10357
▁biokemiska	-10358
▁frekvenser	-10359
▁förändrats	-10360
▁photovolta	-10361
▁supporting	-10362
▁cancerceller	-10363
▁investigates	-10364
▁tidskrävande	-10365
▁traditionell	-10366
▁förlängningen	-10367
▁mitochondrial	-10368
By	-10369
ckt	-10370
cul	-10371
tox	-10372
emed	-10373
puts	-10374
▁Dom	-10375
▁Hom	-10376
▁ago	-10377
▁dev	-10378
▁fen	-10379
▁oön	-10380
antly	-10381
iella	-10382
iklar	-10383
klass	-10384
litet	-10385
mooth	-10386
okemi	-10387
riker	-10388
telef	-10389
aggreg	-10390
grafer	-10391
oxider	-10392
rycket	-10393
▁Raman	-10394
▁akade	-10395
▁avkom	-10396
▁color	-10397
▁enter	-10398
▁frequ	-10399
▁påvis	-10400
▁setup	-10401
▁sorts	-10402
▁utred	-10403
produkt	-10404
▁compet	-10405
▁famili	-10406
▁färger	-10407
▁förval	-10408
▁moving	-10409
▁ställa	-10410
▁växten	-10411
temporal	-10412
▁atomära	-10413
▁bandgap	-10414
▁registr	-10415
▁Modeling	-10416
▁appropri	-10417
▁livskval	-10418
▁momentum	-10419
▁nordliga	-10420
▁numerous	-10421
▁rotation	-10422
▁betraktas	-10423
▁kretslopp	-10424
▁measuring	-10425
▁organized	-10426
▁uppfyller	-10427
▁varieties	-10428
▁collection	-10429
▁kombinator	-10430
sekvensering	-10431
▁drivkrafter	-10432
▁efterliknar	-10433
▁framväxande	-10434
▁personalized	-10435
▁beståndsdelar	-10436
▁motståndskraf	-10437
▁programmering	-10438
manfattningsvis	-10439
BI	-10440
Cu	-10441
bud	-10442
son	-10443
tan	-10444
tio	-10445
vor	-10446
alae	-10447
idel	-10448
ifte	-10449
pric	-10450
proj	-10451
▁PET	-10452
▁piv	-10453
onsin	-10454
relev	-10455
samma	-10456
▁Plan	-10457
▁blev	-10458
▁dric	-10459
▁döda	-10460
▁fant	-10461
▁Waals	-10462
▁chlor	-10463
▁hotsp	-10464
▁inver	-10465
▁perme	-10466
▁rehab	-10467
▁tänka	-10468
▁works	-10469
ordnade	-10470
strålar	-10471
▁exosom	-10472
▁explos	-10473
▁latter	-10474
▁proven	-10475
▁ändrar	-10476
ederated	-10477
elescope	-10478
ensively	-10479
organism	-10480
tiveness	-10481
▁Methods	-10482
▁designs	-10483
▁förlopp	-10484
▁gallium	-10485
▁records	-10486
▁uniform	-10487
▁bildning	-10488
▁experter	-10489
▁hanterar	-10490
▁rigorous	-10491
▁vävnaden	-10492
parametrar	-10493
perspektiv	-10494
▁Exploring	-10495
▁computers	-10496
▁enzymatic	-10497
▁multivari	-10498
▁spatially	-10499
▁Parkinsons	-10500
▁accelerate	-10501
▁integrerad	-10502
▁legeringar	-10503
▁modelleras	-10504
▁optimizing	-10505
▁utvärderas	-10506
▁widespread	-10507
▁complicated	-10508
▁introducera	-10509
▁maintenance	-10510
▁phylogenetic	-10511
▁combinatorial	-10512
▁cyanobacteria	-10513
▁recombination	-10514
Es	-10515
NO	-10516
aria	-10517
blom	-10518
oday	-10519
offs	-10520
onon	-10521
▁199	-10522
▁lev	-10523
ified	-10524
▁Over	-10525
▁stri	-10526
aktorn	-10527
ckelin	-10528
stress	-10529
▁ramen	-10530
lective	-10531
▁Ganyme	-10532
▁bundna	-10533
▁centur	-10534
▁govern	-10535
▁hundra	-10536
▁sällan	-10537
▁waters	-10538
omorphic	-10539
▁Förbätt	-10540
▁Program	-10541
▁anticip	-10542
▁avbilda	-10543
▁fatigue	-10544
▁härleda	-10545
▁kluster	-10546
▁parasit	-10547
▁silicon	-10548
▁utvalda	-10549
▁analytic	-10550
▁analyzed	-10551
▁carriers	-10552
▁komposit	-10553
▁långsamt	-10554
▁överförs	-10555
▁isolerade	-10556
▁kvanttekn	-10557
▁occurring	-10558
▁årtionden	-10559
▁mobiltelef	-10560
▁överbrygga	-10561
▁aktiviteten	-10562
▁cellmembran	-10563
▁convergence	-10564
▁framgångsrika	-10565
5.	-10566
MP	-10567
Wh	-10568
ato	-10569
▁CM	-10570
▁PD	-10571
▁SL	-10572
nian	-10573
rone	-10574
▁End	-10575
▁syr	-10576
Forsk	-10577
▁Form	-10578
▁Real	-10579
▁clar	-10580
▁elev	-10581
▁emot	-10582
erativ	-10583
fältet	-10584
weight	-10585
▁Andra	-10586
▁bedri	-10587
▁helst	-10588
▁omics	-10589
species	-10590
▁Beyond	-10591
▁Linköp	-10592
▁double	-10593
▁induce	-10594
▁koppar	-10595
▁static	-10596
vationen	-10597
vitation	-10598
▁arterna	-10599
▁connect	-10600
▁delarna	-10601
▁editing	-10602
▁fission	-10603
▁fusions	-10604
▁förverk	-10605
▁bearbeta	-10606
▁centralt	-10607
▁detaljer	-10608
▁någonsin	-10609
▁tränings	-10610
▁geometrin	-10611
▁interconn	-10612
▁kognitiva	-10613
interaktion	-10614
▁perovskites	-10615
▁projections	-10616
▁Spectroscopy	-10617
▁kontinuerlig	-10618
▁möjligheterna	-10619
EO	-10620
FB	-10621
Aim	-10622
uni	-10623
uth	-10624
ött	-10625
atyr	-10626
pråk	-10627
stro	-10628
▁Cal	-10629
▁USA	-10630
cular	-10631
onala	-10632
▁date	-10633
▁ferm	-10634
▁oerh	-10635
▁true	-10636
ecknas	-10637
▁Atlan	-10638
▁Gauss	-10639
▁elast	-10640
▁svart	-10641
erioder	-10642
kvalita	-10643
respons	-10644
ärskilt	-10645
▁arters	-10646
▁enrich	-10647
▁genoms	-10648
▁harmon	-10649
▁itself	-10650
▁kompil	-10651
▁lasers	-10652
▁secure	-10653
▁trends	-10654
▁turbin	-10655
ikaliska	-10656
▁absolut	-10657
▁bristen	-10658
▁excited	-10659
▁meaning	-10660
▁modules	-10661
▁numbers	-10662
▁spectra	-10663
▁sprider	-10664
▁symbios	-10665
▁träning	-10666
▁gällande	-10667
▁internet	-10668
▁påskynda	-10669
▁signatur	-10670
▁signifik	-10671
▁begränsas	-10672
▁dynamiskt	-10673
▁samarbeta	-10674
▁biopolymer	-10675
▁composites	-10676
▁fortsätter	-10677
▁tidsskalor	-10678
▁hypothesize	-10679
▁observerats	-10680
▁syntetisera	-10681
▁konstruktion	-10682
▁nanostruktur	-10683
▁simultaneous	-10684
▁stabiliteten	-10685
▁kontrollerade	-10686
▁visualisering	-10687
RA	-10688
ank	-10689
▁tv	-10690
▁sto	-10691
▁aven	-10692
▁dämp	-10693
oniska	-10694
▁fibro	-10695
▁grant	-10696
▁sputt	-10697
▁units	-10698
▁bevisa	-10699
▁heller	-10700
▁injury	-10701
▁rollen	-10702
▁socker	-10703
▁sprida	-10704
ophistic	-10705
▁Lagrang	-10706
▁Univers	-10707
▁kalcium	-10708
▁ligands	-10709
▁ljusets	-10710
▁massiva	-10711
▁Building	-10712
▁ovanliga	-10713
▁protoner	-10714
receptorer	-10715
▁dedicated	-10716
▁dispersal	-10717
▁innovativ	-10718
▁languages	-10719
▁oxidative	-10720
▁zebrafisk	-10721
electronics	-10722
variationer	-10723
▁describing	-10724
▁kvantbitar	-10725
atalysatorer	-10726
▁anmärknings	-10727
▁utvecklades	-10728
▁resulterande	-10729
▁säkerställer	-10730
▁förbättringar	-10731
▁koncentrationer	-10732
▁μ	-10733
▁Bl	-10734
bion	-10735
smål	-10736
vial	-10737
▁Mek	-10738
▁Mul	-10739
▁Tow	-10740
▁vor	-10741
ffekt	-10742
först	-10743
lösta	-10744
▁Char	-10745
▁Ofta	-10746
▁fate	-10747
▁five	-10748
▁frys	-10749
▁muse	-10750
▁obst	-10751
▁uppm	-10752
belägg	-10753
▁fatta	-10754
▁kodar	-10755
▁tidsp	-10756
▁uncon	-10757
capacit	-10758
defined	-10759
ektorer	-10760
▁defekt	-10761
▁object	-10762
innehåll	-10763
invasive	-10764
strategi	-10765
▁concern	-10766
▁främjar	-10767
▁pivotal	-10768
▁plasmon	-10769
▁spektro	-10770
▁Collider	-10771
▁Forskare	-10772
▁affinity	-10773
▁operando	-10774
technology	-10775
▁Greenland	-10776
▁gemensamt	-10777
▁korrosion	-10778
▁regionala	-10779
▁reservoir	-10780
▁gemensamma	-10781
▁contributes	-10782
▁kvantsystem	-10783
▁energisystem	-10784
▁förhållandet	-10785
▁rekonstruera	-10786
▁växtplankton	-10787
TS	-10788
dW	-10789
CoV	-10790
Men	-10791
fab	-10792
▁gl	-10793
agen	-10794
cest	-10795
fric	-10796
koll	-10797
olar	-10798
▁DFT	-10799
▁day	-10800
antal	-10801
initi	-10802
ource	-10803
sprid	-10804
▁PDEs	-10805
▁huge	-10806
▁höjd	-10807
▁hörs	-10808
▁korn	-10809
▁mort	-10810
▁spec	-10811
▁vary	-10812
faktor	-10813
iation	-10814
tional	-10815
▁Today	-10816
▁antiv	-10817
▁skett	-10818
▁skyrm	-10819
▁välbe	-10820
iratory	-10821
science	-10822
tarctic	-10823
överför	-10824
▁Antark	-10825
▁Hamilt	-10826
▁cement	-10827
▁conjug	-10828
▁litter	-10829
▁urgent	-10830
▁utgörs	-10831
ekvation	-10832
▁energit	-10833
▁föreslå	-10834
▁kylning	-10835
▁negativ	-10836
▁radikal	-10837
▁reality	-10838
▁tydliga	-10839
▁ansträng	-10840
▁beräknas	-10841
▁gemensam	-10842
▁klargöra	-10843
▁suscepti	-10844
▁Speciellt	-10845
▁magnitude	-10846
▁materiens	-10847
▁principle	-10848
▁capability	-10849
▁engineered	-10850
▁overlooked	-10851
▁synthesize	-10852
katalysatorer	-10853
▁behandlingen	-10854
▁diagnostiska	-10855
▁komplexiteten	-10856
▁nanomaterials	-10857
▁communications	-10858
▁masspektrometri	-10859
0.	-10860
▁α	-10861
byg	-10862
ått	-10863
▁QC	-10864
▁jo	-10865
Inom	-10866
▁(4)	-10867
▁But	-10868
arnas	-10869
mazon	-10870
toxic	-10871
vavel	-10872
ätare	-10873
▁Lign	-10874
▁SARS	-10875
▁bond	-10876
▁foot	-10877
▁osyn	-10878
utbred	-10879
ännisk	-10880
▁Algor	-10881
▁Vilka	-10882
▁dolda	-10883
▁rigid	-10884
▁södra	-10885
▁Plasma	-10886
▁gitter	-10887
▁native	-10888
▁obstac	-10889
▁peptid	-10890
▁rötter	-10891
▁styrka	-10892
▁window	-10893
verkande	-10894
▁erhålls	-10895
▁inlands	-10896
▁plaster	-10897
▁radical	-10898
▁spatiot	-10899
▁Arktiska	-10900
▁diskreta	-10901
▁extremes	-10902
▁genomgår	-10903
▁isotopes	-10904
▁pipeline	-10905
▁nutrients	-10906
▁sophistic	-10907
▁statistik	-10908
▁switching	-10909
▁conceptual	-10910
▁heterogena	-10911
▁integrates	-10912
▁pathogenic	-10913
▁pioneering	-10914
▁överföring	-10915
▁circulation	-10916
▁crystalline	-10917
▁formulation	-10918
▁methylation	-10919
▁synthesized	-10920
▁vertebrates	-10921
▁Biodiversity	-10922
▁strukturerna	-10923
▁transistorer	-10924
▁miljöfaktorer	-10925
▁immunförsvaret	-10926
QC	-10927
TM	-10928
af	-10929
fot	-10930
obi	-10931
ods	-10932
sim	-10933
▁13	-10934
▁2,	-10935
▁Ze	-10936
apes	-10937
lyck	-10938
▁SVs	-10939
▁Två	-10940
▁eth	-10941
▁tio	-10942
▁ubi	-10943
grade	-10944
ickel	-10945
marka	-10946
▁cues	-10947
▁half	-10948
▁harm	-10949
▁publ	-10950
defini	-10951
▁Analy	-10952
▁Prote	-10953
▁comes	-10954
▁mätas	-10955
▁svaga	-10956
▁toxin	-10957
baserat	-10958
isition	-10959
▁Hadron	-10960
▁bevara	-10961
▁diatom	-10962
▁lasrar	-10963
▁routes	-10964
▁solens	-10965
▁vektor	-10966
stration	-10967
▁försvin	-10968
▁genetik	-10969
▁harness	-10970
▁magneto	-10971
▁remarka	-10972
variation	-10973
▁controls	-10974
▁families	-10975
▁realtids	-10976
▁vesicles	-10977
▁volatile	-10978
▁yttersta	-10979
▁aluminium	-10980
▁förnyelse	-10981
▁indikerar	-10982
▁jämförelse	-10983
▁reactivity	-10984
▁symmetries	-10985
▁användandet	-10986
▁equilibrium	-10987
▁feasibility	-10988
▁geografiska	-10989
▁kommunicera	-10990
▁osäkerheter	-10991
kommunikation	-10992
▁identifierat	-10993
▁efterföljande	-10994
▁interventions	-10995
▁komponenterna	-10996
Gs	-10997
ada	-10998
▁1-	-10999
▁Go	-11000
▁ej	-11001
inte	-11002
ived	-11003
odic	-11004
osed	-11005
ovid	-11006
sour	-11007
▁198	-11008
▁Kol	-11009
▁bly	-11010
▁ont	-11011
▁put	-11012
▁vec	-11013
emble	-11014
rafik	-11015
rafts	-11016
reson	-11017
ronik	-11018
▁cust	-11019
▁diag	-11020
▁fyll	-11021
▁fynd	-11022
▁lämn	-11023
▁zero	-11024
avfall	-11025
lation	-11026
rening	-11027
skalan	-11028
▁Phase	-11029
▁check	-11030
▁haven	-11031
▁litet	-11032
▁proxy	-11033
▁quasi	-11034
fysiska	-11035
mekanik	-11036
▁flytta	-11037
▁grader	-11038
▁omform	-11039
▁probes	-11040
▁spatio	-11041
▁suffer	-11042
▁Neutron	-11043
▁Surface	-11044
▁heating	-11045
▁linking	-11046
▁regimes	-11047
▁ammoniak	-11048
▁blodkärl	-11049
▁generell	-11050
▁minskade	-11051
▁mjukvaru	-11052
▁phosphor	-11053
▁reducera	-11054
funktionen	-11055
▁Antarctic	-11056
▁Numerical	-11057
▁Nuvarande	-11058
▁Structure	-11059
▁biodegrad	-11060
▁aminosyror	-11061
▁befolkning	-11062
▁etablerade	-11063
▁modulation	-11064
▁riktningar	-11065
▁antikroppar	-11066
▁verkligheten	-11067
▁ferroelectric	-11068
▁fluktuationer	-11069
▁sequestration	-11070
▁vetenskapligt	-11071
NT	-11072
én	-11073
ana	-11074
ibi	-11075
lam	-11076
mol	-11077
möj	-11078
▁17	-11079
isch	-11080
neur	-11081
▁Någ	-11082
▁cav	-11083
födda	-11084
lucka	-11085
unden	-11086
▁Oper	-11087
▁stig	-11088
▁synd	-11089
▁tätt	-11090
proper	-11091
▁biore	-11092
▁breda	-11093
▁fjäll	-11094
▁honor	-11095
▁porer	-11096
medicin	-11097
optiska	-11098
upplöst	-11099
vatives	-11100
verallt	-11101
▁Enligt	-11102
▁ansikt	-11103
▁cosmic	-11104
▁enough	-11105
fidelity	-11106
▁återhäm	-11107
▁Adaptive	-11108
▁kosmiska	-11109
▁kritiskt	-11110
▁rekombin	-11111
▁relevans	-11112
▁styrning	-11113
▁tjocklek	-11114
biologiska	-11115
▁explosion	-11116
▁genomförs	-11117
▁genomiska	-11118
▁mänskligt	-11119
▁naturally	-11120
▁collisions	-11121
▁högkvalita	-11122
▁utrustning	-11123
ommunikation	-11124
▁acquisition	-11125
▁applikation	-11126
▁spridningen	-11127
koncentration	-11128
▁configuration	-11129
▁phytoplankton	-11130
0,	-11131
HE	-11132
fåg	-11133
▁CT	-11134
▁pa	-11135
osen	-11136
rors	-11137
utna	-11138
▁Due	-11139
▁ade	-11140
krets	-11141
skatt	-11142
solid	-11143
▁(202	-11144
▁Mitt	-11145
▁pure	-11146
▁tros	-11147
▁unit	-11148
ameter	-11149
botten	-11150
förstå	-11151
oscill	-11152
äddade	-11153
▁Afric	-11154
▁Hyper	-11155
▁antar	-11156
▁arise	-11157
▁dålig	-11158
▁färre	-11159
▁genus	-11160
▁print	-11161
▁retur	-11162
▁takes	-11163
▁thres	-11164
estanda	-11165
tilitet	-11166
▁Amazon	-11167
▁biolog	-11168
▁förvån	-11169
▁mildra	-11170
▁nuclei	-11171
▁omedel	-11172
▁skapat	-11173
bildande	-11174
▁Däremot	-11175
▁chronic	-11176
▁replace	-11177
▁robotic	-11178
▁isolated	-11179
▁kvantfäl	-11180
▁matriser	-11181
▁optimalt	-11182
▁riskerar	-11183
▁röntgens	-11184
▁vascular	-11185
seffektiva	-11186
structural	-11187
▁Modelling	-11188
▁Stockholm	-11189
▁ekologisk	-11190
▁kontinent	-11191
▁precisely	-11192
▁studierna	-11193
▁säkerhets	-11194
environment	-11195
övervakning	-11196
▁framstegen	-11197
▁förväntade	-11198
▁kraftfullt	-11199
▁programmet	-11200
▁resonemang	-11201
▁Sammantaget	-11202
▁adaptations	-11203
eringsmetoder	-11204
▁biverkningar	-11205
▁facilitating	-11206
▁hierarchical	-11207
▁theoretically	-11208
▁interaktionerna	-11209
BF	-11210
GF	-11211
DEs	-11212
How	-11213
gel	-11214
▁11	-11215
▁ID	-11216
▁Na	-11217
aged	-11218
apse	-11219
▁Jup	-11220
▁bif	-11221
▁gel	-11222
cript	-11223
▁ever	-11224
▁guld	-11225
▁möss	-11226
▁upps	-11227
▁volt	-11228
otrans	-11229
tisera	-11230
ångfal	-11231
▁Magne	-11232
▁Their	-11233
▁alloy	-11234
▁paper	-11235
▁rigor	-11236
▁satis	-11237
▁usage	-11238
inflamm	-11239
ulating	-11240
▁Cellul	-11241
▁Modell	-11242
▁europe	-11243
▁färdig	-11244
▁irradi	-11245
▁kollid	-11246
▁mobile	-11247
▁primär	-11248
▁århund	-11249
effekten	-11250
▁Spatial	-11251
▁consequ	-11252
▁erosion	-11253
▁framtag	-11254
▁fördröj	-11255
▁hierark	-11256
▁mysteri	-11257
▁orsaken	-11258
▁polaris	-11259
▁rumslig	-11260
▁tillåta	-11261
▁visible	-11262
elektroly	-11263
metoderna	-11264
▁miniatyr	-11265
▁plastics	-11266
▁reaktiva	-11267
▁scenario	-11268
▁välkända	-11269
▁växterna	-11270
▁överallt	-11271
osynthetic	-11272
▁comparing	-11273
▁kandidater	-11274
▁limitation	-11275
▁mikrometer	-11276
▁vibrations	-11277
▁assessments	-11278
▁dominerande	-11279
ammansättning	-11280
▁improvements	-11281
▁interference	-11282
▁kommersiella	-11283
▁kontrollerad	-11284
▁demonstration	-11285
▁kunskapslucka	-11286
Se	-11287
▁’	-11288
ria	-11289
ula	-11290
▁vs	-11291
ames	-11292
plac	-11293
rium	-11294
värl	-11295
▁ATP	-11296
▁Exp	-11297
▁GPU	-11298
worth	-11299
▁amen	-11300
▁blue	-11301
▁isen	-11302
embers	-11303
gnoser	-11304
identi	-11305
integr	-11306
källor	-11307
retion	-11308
▁Atmos	-11309
▁algae	-11310
▁amino	-11311
▁borde	-11312
▁högst	-11313
▁sjuka	-11314
rystall	-11315
ulering	-11316
▁hittar	-11317
▁skilda	-11318
▁skogen	-11319
▁stärka	-11320
▁visats	-11321
oretical	-11322
oretiska	-11323
tekniker	-11324
▁accumul	-11325
▁attract	-11326
▁cellers	-11327
▁droppar	-11328
▁epidemi	-11329
▁ickelin	-11330
▁locally	-11331
▁markers	-11332
▁surgery	-11333
▁återska	-11334
ehandling	-11335
händelser	-11336
▁Hamilton	-11337
▁assessed	-11338
▁bindning	-11339
▁bridging	-11340
▁deformer	-11341
▁exciting	-11342
▁revealed	-11343
▁uppfylla	-11344
tification	-11345
▁Chemistry	-11346
▁förändrad	-11347
▁planetary	-11348
▁resistant	-11349
servationer	-11350
▁aktivering	-11351
▁förhindrar	-11352
▁influenced	-11353
▁situations	-11354
funktionella	-11355
▁appropriate	-11356
▁immunceller	-11357
▁introducing	-11358
▁scalability	-11359
▁transformer	-11360
▁Environmental	-11361
▁datavetenskap	-11362
▁datormodeller	-11363
▁internationellt	-11364
▁tillhandahåller	-11365
5,	-11366
SL	-11367
När	-11368
▁EV	-11369
▁MD	-11370
▁fö	-11371
prot	-11372
star	-11373
▁ort	-11374
▁pet	-11375
▁ved	-11376
täckt	-11377
▁Most	-11378
▁devi	-11379
▁kind	-11380
▁thor	-11381
▁vacc	-11382
▁webb	-11383
▁Ändå	-11384
revers	-11385
ypotes	-11386
▁Fokus	-11387
▁Langu	-11388
▁North	-11389
▁Olika	-11390
▁fritt	-11391
▁gynns	-11392
aktiver	-11393
ogether	-11394
orening	-11395
▁Instit	-11396
▁organs	-11397
▁qubits	-11398
▁superd	-11399
▁tempor	-11400
▁utmatt	-11401
atorerna	-11402
åtgärder	-11403
▁compati	-11404
▁kanaler	-11405
▁periods	-11406
▁variera	-11407
▁Atlantic	-11408
▁distance	-11409
▁indicate	-11410
▁invasiva	-11411
▁invasive	-11412
▁kliniskt	-11413
▁periodic	-11414
▁sprickor	-11415
Resultaten	-11416
▁Parkinson	-11417
▁anledning	-11418
▁applicera	-11419
▁fysiologi	-11420
▁marknaden	-11421
ställningen	-11422
▁consisting	-11423
▁transistor	-11424
▁transplant	-11425
▁Topological	-11426
▁condensates	-11427
▁modifierade	-11428
▁replication	-11429
▁tillverkade	-11430
▁evolutionärt	-11431
▁tillförlitlig	-11432
▁transkriptions	-11433
2+	-11434
CP	-11435
Cs	-11436
Ex	-11437
oh	-11438
▁°	-11439
ARP	-11440
ESS	-11441
gly	-11442
▁3.	-11443
▁ga	-11444
chem	-11445
glac	-11446
ären	-11447
▁Ion	-11448
▁Red	-11449
▁net	-11450
depth	-11451
hålls	-11452
kvent	-11453
oidal	-11454
omers	-11455
satta	-11456
undet	-11457
▁Icke	-11458
▁call	-11459
▁come	-11460
▁ende	-11461
▁iter	-11462
ulture	-11463
▁Impro	-11464
▁angle	-11465
▁boost	-11466
▁hanar	-11467
▁index	-11468
▁orbit	-11469
▁pande	-11470
▁sched	-11471
moderna	-11472
sjukdom	-11473
stammar	-11474
▁Turbul	-11475
▁adsorb	-11476
▁center	-11477
▁dubbel	-11478
▁filter	-11479
▁formar	-11480
▁metric	-11481
▁namely	-11482
▁sector	-11483
▁tittar	-11484
critical	-11485
quencies	-11486
undament	-11487
▁arbetsp	-11488
▁greater	-11489
▁insulin	-11490
▁lumines	-11491
▁riktade	-11492
▁rovdjur	-11493
▁synliga	-11494
▁ytterst	-11495
▁continue	-11496
▁konstant	-11497
▁markörer	-11498
▁symmetri	-11499
▁våglängd	-11500
bildningen	-11501
efficients	-11502
igurations	-11503
▁estimated	-11504
▁fabricate	-11505
▁planerade	-11506
▁systemets	-11507
▁universal	-11508
▁upprepade	-11509
▁evolutions	-11510
▁improvement	-11511
▁komplicerad	-11512
▁livsmiljöer	-11513
▁operational	-11514
▁regleringen	-11515
▁elektrolyter	-11516
▁flexibilitet	-11517
▁kontrolleras	-11518
▁modellerings	-11519
▁betydelsefull	-11520
▁revolutionize	-11521
▁sophisticated	-11522
▁beslutsfattande	-11523
BP	-11524
ou	-11525
Sam	-11526
ems	-11527
ext	-11528
ils	-11529
set	-11530
▁0.	-11531
▁NO	-11532
okes	-11533
opes	-11534
skär	-11535
stim	-11536
▁Can	-11537
▁Hal	-11538
▁Tri	-11539
▁Ver	-11540
▁pga	-11541
▁vel	-11542
▁ägg	-11543
annar	-11544
lings	-11545
ormal	-11546
skill	-11547
▁leva	-11548
▁nyck	-11549
▁tend	-11550
dioder	-11551
ftning	-11552
isotop	-11553
livade	-11554
udinal	-11555
▁added	-11556
▁bredd	-11557
▁fetts	-11558
▁gasen	-11559
▁gynna	-11560
▁intim	-11561
▁jordb	-11562
▁otill	-11563
▁rings	-11564
▁räkna	-11565
bränsle	-11566
längden	-11567
plastic	-11568
▁circum	-11569
▁decade	-11570
▁halter	-11571
▁havets	-11572
▁ingred	-11573
▁innate	-11574
▁pestic	-11575
▁släpps	-11576
aciteten	-11577
biotiska	-11578
byggande	-11579
iserande	-11580
▁ambient	-11581
▁bonding	-11582
▁enzymet	-11583
▁frigörs	-11584
▁linjära	-11585
▁motorer	-11586
▁oerhört	-11587
▁smaller	-11588
▁telomer	-11589
▁version	-11590
effective	-11591
ltimately	-11592
rekonstru	-11593
▁Software	-11594
▁location	-11595
▁maximera	-11596
▁thorough	-11597
▁uttrycks	-11598
sprodukter	-11599
▁avståndet	-11600
▁extending	-11601
▁metagenom	-11602
▁pressures	-11603
▁regulated	-11604
▁toxicitet	-11605
▁atomkärnor	-11606
▁fysikalisk	-11607
▁geological	-11608
▁phenotypes	-11609
▁potentiell	-11610
▁researcher	-11611
▁transkript	-11612
▁upptäcktes	-11613
▁uppfattning	-11614
▁mitokondrier	-11615
▁neurologiska	-11616
▁transportera	-11617
▁magnetization	-11618
▁implementering	-11619
fa	-11620
cre	-11621
kur	-11622
san	-11623
down	-11624
edda	-11625
icul	-11626
lare	-11627
oted	-11628
speg	-11629
▁QFT	-11630
▁enc	-11631
▁erg	-11632
▁nät	-11633
▁vit	-11634
fatta	-11635
gebra	-11636
gning	-11637
immun	-11638
smark	-11639
▁bird	-11640
▁labb	-11641
ctoral	-11642
familj	-11643
moment	-11644
pheres	-11645
roppen	-11646
▁delay	-11647
▁egent	-11648
▁equip	-11649
▁opens	-11650
korrhiz	-11651
kraften	-11652
prising	-11653
reening	-11654
rolysis	-11655
▁brukar	-11656
▁guidel	-11657
▁hydroc	-11658
▁intric	-11659
▁mostly	-11660
▁tänker	-11661
aktligen	-11662
barheten	-11663
fficient	-11664
▁Imaging	-11665
▁Jordens	-11666
▁additiv	-11667
▁collect	-11668
▁loading	-11669
▁mekanik	-11670
▁operate	-11671
▁package	-11672
▁råvaror	-11673
▁utmärkt	-11674
▁atomnivå	-11675
▁becoming	-11676
▁numerisk	-11677
▁plankton	-11678
▁seasonal	-11679
▁validera	-11680
▁volcanic	-11681
associated	-11682
munication	-11683
▁begränsat	-11684
▁behandlar	-11685
▁biomarker	-11686
▁databaser	-11687
▁förstärka	-11688
▁inträffar	-11689
▁inversion	-11690
▁konceptet	-11691
▁konsument	-11692
▁stjärnhop	-11693
▁terahertz	-11694
ättningarna	-11695
▁excitation	-11696
▁industries	-11697
▁nanocellul	-11698
▁scientists	-11699
▁throughput	-11700
▁blandningar	-11701
▁elektronisk	-11702
▁exceptional	-11703
▁visualisera	-11704
▁alternatives	-11705
▁coefficients	-11706
▁coordination	-11707
▁framgångsrik	-11708
▁kännetecknas	-11709
ya	-11710
▁.	-11711
dra	-11712
▁NH	-11713
▁PA	-11714
▁PL	-11715
aten	-11716
seud	-11717
▁GHG	-11718
▁Mut	-11719
▁Mål	-11720
▁REE	-11721
▁doc	-11722
▁kav	-11723
▁pow	-11724
▁tig	-11725
▁wet	-11726
appar	-11727
armac	-11728
cells	-11729
earth	-11730
natur	-11731
ulärt	-11732
▁arke	-11733
▁grid	-11734
▁hörn	-11735
▁lens	-11736
▁male	-11737
▁oste	-11738
access	-11739
ammare	-11740
lihood	-11741
ylogen	-11742
▁desto	-11743
▁hosts	-11744
▁ideas	-11745
▁liver	-11746
▁tract	-11747
▁trigg	-11748
ignaler	-11749
oglobin	-11750
perovsk	-11751
villkor	-11752
▁ancest	-11753
▁propor	-11754
▁shapes	-11755
▁svavel	-11756
omponent	-11757
partment	-11758
▁Mathema	-11759
▁Towards	-11760
▁farliga	-11761
▁föroren	-11762
▁mammals	-11763
▁minskat	-11764
▁novelty	-11765
▁predikt	-11766
▁trädens	-11767
dynamiken	-11768
▁Hittills	-11769
▁resonans	-11770
▁Currently	-11771
▁Specifikt	-11772
▁bindnings	-11773
▁hantering	-11774
▁mortality	-11775
▁nanoskala	-11776
▁parasiter	-11777
▁sekvenser	-11778
▁Scandinavi	-11779
▁allvarligt	-11780
▁attractive	-11781
▁constitute	-11782
▁dependence	-11783
▁skräddarsy	-11784
▁stjärnorna	-11785
▁materialens	-11786
▁strängteori	-11787
▁underlättar	-11788
▁biomolekyler	-11789
▁formulations	-11790
▁intervention	-11791
▁respectively	-11792
▁utformningen	-11793
▁distribuerade	-11794
▁uppskattningar	-11795
BA	-11796
Mo	-11797
▁q	-11798
Jag	-11799
VOC	-11800
bly	-11801
oes	-11802
▁Pr	-11803
▁SO	-11804
▁ke	-11805
▁Bor	-11806
▁Equ	-11807
▁Kem	-11808
▁fat	-11809
▁him	-11810
havet	-11811
ntida	-11812
olith	-11813
optim	-11814
range	-11815
upled	-11816
▁cath	-11817
avsett	-11818
orerna	-11819
osquit	-11820
period	-11821
träder	-11822
values	-11823
väggen	-11824
▁Immun	-11825
▁andas	-11826
▁cyber	-11827
▁depon	-11828
▁djurs	-11829
▁infin	-11830
▁plöts	-11831
▁polyc	-11832
▁thous	-11833
förlust	-11834
surface	-11835
▁choice	-11836
▁emphas	-11837
▁exists	-11838
▁femtos	-11839
▁fibres	-11840
▁gjorda	-11841
▁skriva	-11842
▁timesc	-11843
▁tyngre	-11844
▁täcker	-11845
▁verify	-11846
bindning	-11847
brytning	-11848
bränslen	-11849
friendly	-11850
physical	-11851
▁Optical	-11852
▁adaptiv	-11853
▁domäner	-11854
▁enabled	-11855
▁lateral	-11856
▁läkemed	-11857
▁observe	-11858
▁positiv	-11859
mikroskop	-11860
▁Hydrogen	-11861
▁implants	-11862
▁presents	-11863
▁promises	-11864
▁spektral	-11865
▁terapier	-11866
▁conserved	-11867
▁detectors	-11868
▁expanding	-11869
▁realisera	-11870
▁selektivt	-11871
molekylerna	-11872
▁Skandinavi	-11873
▁appliceras	-11874
▁attosecond	-11875
▁conductive	-11876
▁directions	-11877
▁ekonomiskt	-11878
▁guidelines	-11879
▁nationella	-11880
▁navigation	-11881
▁substances	-11882
▁begränsning	-11883
▁constrained	-11884
▁föreslagits	-11885
▁groundwater	-11886
▁outforskade	-11887
▁experimenten	-11888
▁fundamentalt	-11889
▁polarisation	-11890
▁populationen	-11891
▁avloppsvatten	-11892
▁elektrokemisk	-11893
▁characterizing	-11894
▁kunskapsluckor	-11895
▁sammankopplade	-11896
▁spatiotemporal	-11897
FP	-11898
PF	-11899
▁$	-11900
meå	-11901
abla	-11902
elet	-11903
olid	-11904
stöd	-11905
▁300	-11906
▁EEG	-11907
▁Enh	-11908
▁Fot	-11909
▁cul	-11910
▁jet	-11911
▁nit	-11912
▁bero	-11913
▁flug	-11914
▁hole	-11915
▁mera	-11916
▁qual	-11917
▁rock	-11918
otonic	-11919
skifte	-11920
terozo	-11921
tidens	-11922
▁Appro	-11923
▁coron	-11924
▁dense	-11925
▁gives	-11926
▁lider	-11927
▁pilot	-11928
▁rocks	-11929
▁salth	-11930
▁tidss	-11931
arching	-11932
estinal	-11933
positer	-11934
trolled	-11935
urfaces	-11936
▁bounds	-11937
▁compil	-11938
▁enormt	-11939
▁konsum	-11940
▁sparse	-11941
▁tailor	-11942
▁tuning	-11943
enskaper	-11944
sområden	-11945
▁Perovsk	-11946
▁kroppar	-11947
▁lithium	-11948
▁members	-11949
iltration	-11950
uppgifter	-11951
▁Higgsbos	-11952
▁dödsfall	-11953
▁jordarts	-11954
▁prepared	-11955
▁rörelsen	-11956
▁scanning	-11957
▁spänning	-11958
generative	-11959
inducerade	-11960
omsättning	-11961
skapacitet	-11962
temperatur	-11963
▁billigare	-11964
▁forskarna	-11965
▁Resultatet	-11966
▁analyserar	-11967
▁attosekund	-11968
▁inblandade	-11969
▁manipulate	-11970
▁operatorer	-11971
▁patientens	-11972
▁regression	-11973
▁resistenta	-11974
▁smörjmedel	-11975
▁competition	-11976
▁ekosystemet	-11977
▁kristallina	-11978
▁nedbrytbara	-11979
▁supersymmet	-11980
▁klassificera	-11981
▁organisation	-11982
▁bränsleceller	-11983
▁beslutsfattare	-11984
01	-11985
SF	-11986
öt	-11987
▁+	-11988
imp	-11989
zer	-11990
▁Sy	-11991
empt	-11992
ests	-11993
orec	-11994
ssam	-11995
▁dog	-11996
▁sun	-11997
▁söm	-11998
▁try	-11999
▁våt	-12000
▁war	-12001
ativt	-12002
bilar	-12003
frika	-12004
ktiga	-12005
tiker	-12006
waves	-12007
▁Addi	-12008
▁krom	-12009
aneous	-12010
apping	-12011
aserat	-12012
infrar	-12013
▁Grund	-12014
▁Matem	-12015
▁beakt	-12016
▁fault	-12017
▁indep	-12018
▁matro	-12019
▁pulse	-12020
▁train	-12021
▁visst	-12022
▁wider	-12023
▁Metall	-12024
▁biopro	-12025
▁börjat	-12026
▁halide	-12027
▁mating	-12028
▁mining	-12029
▁värmeb	-12030
▁yields	-12031
uktighet	-12032
▁Neutrin	-12033
▁altered	-12034
▁attempt	-12035
▁compute	-12036
▁generna	-12037
▁hydroph	-12038
▁kontext	-12039
▁popular	-12040
▁shaping	-12041
▁ubiquit	-12042
lektronik	-12043
▁isotoper	-12044
▁praktisk	-12045
▁visuella	-12046
ectiveness	-12047
metabolism	-12048
▁akustiska	-12049
▁astronomy	-12050
▁condensed	-12051
▁innehålla	-12052
▁motivated	-12053
▁studerade	-12054
▁antaganden	-12055
▁beneficial	-12056
▁eukaryotic	-12057
▁fenotypisk	-12058
▁hydrodynam	-12059
▁potentials	-12060
▁sjukvården	-12061
▁återanvänd	-12062
förändringen	-12063
▁constructed	-12064
▁derivatives	-12065
▁frequencies	-12066
▁komplicerat	-12067
▁systematisk	-12068
seffektivitet	-12069
▁tillgängligt	-12070
▁bakomliggande	-12071
▁intermediates	-12072
▁substantially	-12073
▁termoelektriska	-12074
CE	-12075
RE	-12076
SE	-12077
hä	-12078
”)	-12079
hög	-12080
log	-12081
nål	-12082
▁Är	-12083
auna	-12084
borg	-12085
chen	-12086
esid	-12087
ilic	-12088
karb	-12089
Dessa	-12090
barri	-12091
block	-12092
borne	-12093
class	-12094
itiva	-12095
lines	-12096
▁Diff	-12097
▁Flow	-12098
▁Know	-12099
▁Post	-12100
▁Umeå	-12101
▁doft	-12102
▁game	-12103
▁kast	-12104
▁poli	-12105
▁spac	-12106
▁vägg	-12107
▁webs	-12108
msesid	-12109
pected	-12110
photon	-12111
verket	-12112
▁Early	-12113
▁avkod	-12114
▁forma	-12115
▁holds	-12116
▁ledde	-12117
▁mimic	-12118
▁paleo	-12119
▁rough	-12120
▁solit	-12121
▁traum	-12122
▁öppen	-12123
factory	-12124
▁Compar	-12125
▁avsikt	-12126
▁dricks	-12127
rörelser	-12128
stjärnor	-12129
▁började	-12130
▁conform	-12131
▁culture	-12132
▁lärande	-12133
▁possess	-12134
▁toxiska	-12135
▁tunable	-12136
▁duration	-12137
▁hundreds	-12138
▁intensiv	-12139
steknologi	-12140
▁Linköping	-12141
▁bedömning	-12142
▁ingenjörs	-12143
▁integrity	-12144
▁intensity	-12145
▁livscykel	-12146
▁manifolds	-12147
▁otillräck	-12148
▁skogsbruk	-12149
▁Lagrangian	-12150
▁bindningar	-12151
▁definition	-12152
▁fungerande	-12153
▁historical	-12154
▁initiation	-12155
▁kvaliteten	-12156
▁kvantdator	-12157
▁topologisk	-12158
▁Distributed	-12159
▁overarching	-12160
▁vegetations	-12161
nanopartiklar	-12162
▁ekosystemens	-12163
▁nanoparticle	-12164
▁identifierats	-12165
▁kontinuerliga	-12166
▁transcriptional	-12167
40	-12168
alc	-12169
när	-12170
▁PP	-12171
▁Pl	-12172
flor	-12173
ivån	-12174
lets	-12175
linj	-12176
vand	-12177
▁Sec	-12178
▁cat	-12179
▁cri	-12180
assic	-12181
eling	-12182
esium	-12183
flows	-12184
järna	-12185
ohydr	-12186
oster	-12187
poses	-12188
skydd	-12189
▁gent	-12190
▁laws	-12191
▁nett	-12192
▁thic	-12193
▁tiot	-12194
maskin	-12195
rystal	-12196
static	-12197
▁Brain	-12198
▁exped	-12199
▁flood	-12200
▁melan	-12201
▁serie	-12202
▁tight	-12203
▁varma	-12204
förstär	-12205
gruppen	-12206
studied	-12207
uppvärm	-12208
▁blodet	-12209
▁fångar	-12210
▁impair	-12211
▁självk	-12212
▁steget	-12213
▁tensor	-12214
▁toxins	-12215
emporary	-12216
▁Membran	-12217
▁fördjup	-12218
▁hårdvar	-12219
▁kvinnor	-12220
▁markens	-12221
▁obesvar	-12222
▁teknisk	-12223
▁virvlar	-12224
erability	-12225
▁biofilms	-12226
▁coloring	-12227
▁hållfast	-12228
▁kognitiv	-12229
▁reported	-12230
▁selektiv	-12231
▁separate	-12232
▁vesiklar	-12233
mechanical	-12234
▁exponenti	-12235
▁fenomenet	-12236
▁kondensat	-12237
▁morfologi	-12238
▁utvecklad	-12239
▁återskapa	-12240
▁Multiscale	-12241
▁bildanalys	-12242
▁difference	-12243
▁sufficient	-12244
▁supernovor	-12245
▁vertebrate	-12246
▁Interaction	-12247
▁Universitet	-12248
▁accelerator	-12249
▁association	-12250
▁respiration	-12251
▁Skandinavien	-12252
▁associations	-12253
▁reaktionerna	-12254
Re	-12255
AXS	-12256
bef	-12257
rog	-12258
▁El	-12259
▁NP	-12260
▁SP	-12261
estr	-12262
gade	-12263
ropi	-12264
skin	-12265
sors	-12266
strå	-12267
▁haz	-12268
▁spr	-12269
▁ång	-12270
forms	-12271
hydri	-12272
målet	-12273
oting	-12274
ulomb	-12275
▁Vari	-12276
▁acet	-12277
▁sats	-12278
▁sjun	-12279
▁stic	-12280
▁stäm	-12281
arrang	-12282
fåglar	-12283
graphs	-12284
isture	-12285
krafts	-12286
oxygen	-12287
utside	-12288
vinkel	-12289
▁Beräk	-12290
▁repar	-12291
▁sperm	-12292
▁vapor	-12293
ekniker	-12294
ptation	-12295
röntgen	-12296
▁Observ	-12297
▁flight	-12298
▁hamper	-12299
▁korros	-12300
kationer	-12301
ponering	-12302
▁becomes	-12303
▁defense	-12304
▁gränser	-12305
▁highest	-12306
▁intense	-12307
elektrisk	-12308
frequency	-12309
▁Särskilt	-12310
▁difficul	-12311
▁energies	-12312
▁evolving	-12313
▁forntida	-12314
▁friction	-12315
▁misslyck	-12316
▁områdena	-12317
▁realized	-12318
▁sciences	-12319
▁välbefin	-12320
▁Efficient	-12321
▁Fundament	-12322
▁Nobelpris	-12323
▁designade	-12324
▁drastiskt	-12325
▁empiriska	-12326
▁fotoniska	-12327
▁phenotype	-12328
▁sötvatten	-12329
gravitation	-12330
▁absorberar	-12331
▁chemically	-12332
▁egentligen	-12333
▁exploiting	-12334
▁förklaring	-12335
▁metalliska	-12336
tillgängliga	-12337
▁algorithmic	-12338
▁outstanding	-12339
▁realization	-12340
▁transporten	-12341
▁compositions	-12342
▁microfluidic	-12343
▁successfully	-12344
▁teknologiska	-12345
▁methodological	-12346
▁multifunctional	-12347
LT	-12348
nu	-12349
ECT	-12350
adi	-12351
eat	-12352
gal	-12353
oba	-12354
▁(”	-12355
▁Fu	-12356
cirk	-12357
rask	-12358
ägna	-12359
▁cha	-12360
ights	-12361
nivån	-12362
▁2019	-12363
▁dots	-12364
▁geom	-12365
▁gren	-12366
▁pose	-12367
▁seed	-12368
▁skor	-12369
generg	-12370
icture	-12371
profil	-12372
▁Polar	-12373
▁align	-12374
▁fågel	-12375
▁kemin	-12376
▁metas	-12377
▁right	-12378
▁telom	-12379
▁vuxna	-12380
enderar	-12381
ittaker	-12382
okument	-12383
världen	-12384
▁Varför	-12385
▁extern	-12386
▁färdas	-12387
▁havsis	-12388
▁invent	-12389
▁potent	-12390
▁switch	-12391
▁timely	-12392
▁unlock	-12393
tisering	-12394
ysiology	-12395
▁Algebra	-12396
▁Polymer	-12397
▁attacks	-12398
▁finally	-12399
▁forcing	-12400
▁glasses	-12401
▁precisa	-12402
▁slitage	-12403
▁vägleda	-12404
▁övervak	-12405
ometriska	-12406
resistens	-12407
▁cirkulär	-12408
▁explores	-12409
▁feasible	-12410
▁flexibel	-12411
▁lämpligt	-12412
figuration	-12413
utvecklade	-12414
▁Telescope	-12415
▁biofilmer	-12416
▁formulera	-12417
▁kostnaden	-12418
▁localized	-12419
▁mekaniskt	-12420
▁modulirum	-12421
▁rekommend	-12422
▁skapandet	-12423
▁skyddande	-12424
▁skillnaden	-12425
▁verklighet	-12426
▁confinement	-12427
▁irradiation	-12428
▁preparation	-12429
▁stimulation	-12430
▁partiklarnas	-12431
▁representing	-12432
▁antibacterial	-12433
▁vindkraftverk	-12434
▁konstruktioner	-12435
▁Maskininlärning	-12436
▁antibakteriella	-12437
På	-12438
RF	-12439
SiC	-12440
dda	-12441
pen	-12442
sea	-12443
yta	-12444
▁0,	-12445
▁FN	-12446
▁Hi	-12447
▁RL	-12448
anol	-12449
iver	-12450
omon	-12451
röna	-12452
▁197	-12453
▁500	-12454
▁mas	-12455
▁osv	-12456
chang	-12457
domän	-12458
jorda	-12459
marks	-12460
plets	-12461
vices	-12462
▁alls	-12463
▁bent	-12464
▁föra	-12465
▁leta	-12466
▁rand	-12467
▁snow	-12468
▁övre	-12469
aliana	-12470
aliskt	-12471
bliote	-12472
differ	-12473
ieties	-12474
ogenom	-12475
▁Dirac	-12476
▁Given	-12477
▁bröst	-12478
▁deriv	-12479
▁hydra	-12480
▁möter	-12481
▁wound	-12482
emitter	-12483
fronten	-12484
ftersom	-12485
mångfal	-12486
prickar	-12487
▁kirurg	-12488
▁shared	-12489
▁utöver	-12490
mekanism	-12491
orescent	-12492
▁Coulomb	-12493
▁insekts	-12494
▁motiver	-12495
▁ordnade	-12496
▁picture	-12497
▁skapade	-12498
▁toolbox	-12499
▁typical	-12500
disciplin	-12501
seffekter	-12502
▁compound	-12503
▁decrease	-12504
▁friktion	-12505
▁ligander	-12506
▁påverkat	-12507
▁thaliana	-12508
utbredning	-12509
utmaningar	-12510
▁Proteiner	-12511
▁arvsmassa	-12512
▁byggnader	-12513
▁chromatin	-12514
▁equipment	-12515
▁feedbacks	-12516
▁flertalet	-12517
▁mikrobiom	-12518
▁perovskit	-12519
forskningen	-12520
hastigheter	-12521
▁Ultimately	-12522
▁försvinner	-12523
▁geometrier	-12524
▁kiselalger	-12525
▁landscapes	-12526
▁omfattning	-12527
▁persistent	-12528
▁ultrasound	-12529
anläggningar	-12530
▁demonstrera	-12531
▁instability	-12532
▁specialized	-12533
▁transparent	-12534
▁angreppssätt	-12535
▁characterise	-12536
▁contemporary	-12537
▁slumpmässigt	-12538
▁beräkningarna	-12539
▁sofistikerade	-12540
▁grundforskning	-12541
AF	-12542
Om	-12543
fo	-12544
Par	-12545
höj	-12546
juv	-12547
jör	-12548
pla	-12549
öms	-12550
▁Dr	-12551
ardi	-12552
rins	-12553
rukt	-12554
▁Dat	-12555
▁Inf	-12556
▁ink	-12557
▁läm	-12558
▁sor	-12559
▁säm	-12560
agent	-12561
grees	-12562
ional	-12563
oskel	-12564
ultur	-12565
▁2050	-12566
▁Spin	-12567
▁Tänk	-12568
▁intu	-12569
▁thre	-12570
▁visc	-12571
▁året	-12572
instru	-12573
itance	-12574
▁Covid	-12575
▁Nästa	-12576
▁Small	-12577
▁child	-12578
▁hypox	-12579
▁livss	-12580
▁quark	-12581
▁åtgär	-12582
bilitet	-12583
climate	-12584
kanaler	-12585
project	-12586
▁MXenes	-12587
▁custom	-12588
▁deepen	-12589
▁kärnor	-12590
▁months	-12591
▁numera	-12592
▁scheme	-12593
▁silico	-12594
▁smooth	-12595
▁tandem	-12596
athering	-12597
ografisk	-12598
▁Människ	-12599
▁antimat	-12600
▁believe	-12601
▁fysiskt	-12602
▁healing	-12603
▁inblick	-12604
▁kemikal	-12605
▁skadade	-12606
▁släpper	-12607
▁trophic	-12608
ledningar	-12609
precision	-12610
sekvenser	-12611
▁aggregat	-12612
▁emergent	-12613
▁friendly	-12614
▁förbered	-12615
▁kvantifi	-12616
▁kvarstår	-12617
▁majority	-12618
▁millions	-12619
▁separera	-12620
resultaten	-12621
ssjukdomar	-12622
störningar	-12623
upplösning	-12624
▁Kunskapen	-12625
▁holograph	-12626
▁peatlands	-12627
▁påverkade	-12628
▁väldefini	-12629
fysikaliska	-12630
▁europeiska	-12631
▁evaluating	-12632
▁inlärnings	-12633
▁komplement	-12634
▁litteratur	-12635
▁simplified	-12636
▁våglängder	-12637
▁wavelength	-12638
▁biogeokemiska	-12639
▁collaborative	-12640
▁domestication	-12641
▁fundamentally	-12642
▁noggrannheten	-12643
RP	-12644
MOF	-12645
cus	-12646
wit	-12647
▁Po	-12648
assa	-12649
cape	-12650
view	-12651
▁Bar	-12652
▁DNN	-12653
▁VOC	-12654
▁aud	-12655
▁eye	-12656
▁fås	-12657
▁gal	-12658
▁mir	-12659
▁mys	-12660
burna	-12661
inery	-12662
infra	-12663
kness	-12664
parts	-12665
ämnda	-12666
▁2022	-12667
▁2030	-12668
▁AMOC	-12669
▁Dark	-12670
▁Svar	-12671
▁drar	-12672
▁immo	-12673
▁löst	-12674
▁sked	-12675
▁viru	-12676
effekt	-12677
fordon	-12678
lecule	-12679
linjär	-12680
ontinu	-12681
osynte	-12682
▁Solid	-12683
▁cores	-12684
▁fulla	-12685
▁games	-12686
▁noder	-12687
▁telek	-12688
compass	-12689
ensorer	-12690
pecific	-12691
station	-12692
vätskor	-12693
▁Random	-12694
▁antrop	-12695
▁brytas	-12696
▁cyclic	-12697
▁datorn	-12698
▁exfoli	-12699
▁lagrar	-12700
▁närmar	-12701
▁provet	-12702
▁variet	-12703
assisted	-12704
hydrater	-12705
laddning	-12706
vävnaden	-12707
▁Alterna	-12708
▁Autonom	-12709
▁accompl	-12710
▁folkhäl	-12711
▁glacial	-12712
▁library	-12713
▁partner	-12714
▁riktigt	-12715
▁rörande	-12716
▁stammar	-12717
▁Language	-12718
▁covering	-12719
▁densitet	-12720
▁designen	-12721
▁modulate	-12722
▁studerat	-12723
▁särskild	-12724
▁särskilj	-12725
▁uppkomst	-12726
belastning	-12727
capacitors	-12728
▁Antarktis	-12729
▁Character	-12730
▁Framework	-12731
▁dominerar	-12732
▁highlight	-12733
▁intricate	-12734
▁prototype	-12735
▁standards	-12736
▁överföras	-12737
förbrukning	-12738
rophication	-12739
▁concerning	-12740
▁nyckelroll	-12741
▁samarbetar	-12742
▁matematiker	-12743
▁signifikant	-12744
▁utforskning	-12745
▁överensstäm	-12746
förhållandena	-12747
▁Interactions	-12748
▁välbefinnande	-12749
▁transportation	-12750
CA	-12751
asp	-12752
ius	-12753
rie	-12754
cens	-12755
ubst	-12756
vise	-12757
▁20%	-12758
▁80%	-12759
▁imm	-12760
fluor	-12761
klust	-12762
rande	-12763
▁Dire	-12764
▁anta	-12765
▁late	-12766
▁move	-12767
▁onto	-12768
▁otro	-12769
▁stel	-12770
▁sten	-12771
▁susp	-12772
▁tune	-12773
▁unve	-12774
▁äter	-12775
inrikt	-12776
iserad	-12777
lusten	-12778
ruktur	-12779
ängden	-12780
▁Cloud	-12781
▁acade	-12782
▁bedöm	-12783
▁meter	-12784
▁poses	-12785
▁råder	-12786
▁scope	-12787
▁sämre	-12788
▁taken	-12789
▁upptä	-12790
▁utgår	-12791
rålning	-12792
sökande	-12793
▁Magnet	-12794
▁Mycket	-12795
▁frigör	-12796
▁härrör	-12797
▁microm	-12798
endently	-12799
usentals	-12800
▁degrees	-12801
▁drabbas	-12802
▁genomgå	-12803
▁gradvis	-12804
▁minimer	-12805
▁orsaker	-12806
▁service	-12807
▁smälter	-12808
▁aerosols	-12809
▁alloster	-12810
▁asteroid	-12811
▁enormous	-12812
▁peatland	-12813
▁programm	-12814
▁uniquely	-12815
optimering	-12816
separation	-12817
▁Ecosystem	-12818
▁Whittaker	-12819
▁encompass	-12820
▁insamlade	-12821
▁instabila	-12822
▁intermitt	-12823
▁molekylen	-12824
▁resilient	-12825
▁stimulera	-12826
▁stressors	-12827
▁virtuella	-12828
▁disordered	-12829
▁downstream	-12830
▁högupplöst	-12831
▁industrier	-12832
▁infektions	-12833
▁integrerar	-12834
▁kombinerat	-12835
▁nanocompos	-12836
▁polynomial	-12837
▁prevention	-12838
▁proteiners	-12839
simuleringar	-12840
▁foundations	-12841
▁hydrologiska	-12842
▁uppskattning	-12843
▁elektronernas	-12844
▁metamaterials	-12845
▁övergångsmetall	-12846
Ar	-12847
IL	-12848
bs	-12849
fu	-12850
100	-12851
low	-12852
sän	-12853
öns	-12854
▁Ag	-12855
idan	-12856
kaps	-12857
nega	-12858
ront	-12859
rupt	-12860
side	-12861
ucli	-12862
▁196	-12863
▁Van	-12864
▁aug	-12865
▁fli	-12866
▁kil	-12867
▁vän	-12868
alägg	-12869
laser	-12870
plast	-12871
öljor	-12872
▁eDNA	-12873
▁elas	-12874
▁fire	-12875
▁fukt	-12876
▁odla	-12877
▁ster	-12878
▁syns	-12879
amling	-12880
econom	-12881
icking	-12882
kedjor	-12883
syntes	-12884
ttning	-12885
worthy	-12886
▁admin	-12887
▁beams	-12888
▁drabb	-12889
▁route	-12890
▁until	-12891
develop	-12892
element	-12893
neutral	-12894
odeller	-12895
orphous	-12896
▁adjust	-12897
▁använt	-12898
▁contro	-12899
▁kommit	-12900
▁linjär	-12901
▁notion	-12902
▁räcker	-12903
▁skicka	-12904
▁tecken	-12905
▁topics	-12906
junction	-12907
▁century	-12908
▁förstås	-12909
▁försvag	-12910
▁isolera	-12911
▁motsvar	-12912
▁profess	-12913
inducerad	-12914
ristaller	-12915
▁fixation	-12916
▁harmonic	-12917
▁katastro	-12918
▁minerals	-12919
▁wearable	-12920
gränssnitt	-12921
sättningen	-12922
▁aerosoler	-12923
▁hypotesen	-12924
▁immunitet	-12925
▁inbäddade	-12926
▁mediciner	-12927
▁neutriner	-12928
▁planering	-12929
▁requiring	-12930
▁sambanden	-12931
▁thousands	-12932
▁tillämpad	-12933
ställningar	-12934
▁attraktiva	-12935
▁homeostasis	-12936
▁homological	-12937
▁lösningarna	-12938
▁synergistic	-12939
▁biomaterials	-12940
▁disturbances	-12941
▁fullständigt	-12942
▁supraledning	-12943
▁Traditionella	-12944
▁astrophysical	-12945
▁implementeras	-12946
▁approximations	-12947
▁configurations	-12948
▁rumstemperatur	-12949
▁crystallography	-12950
Li	-12951
MM	-12952
NL	-12953
OL	-12954
III	-12955
eed	-12956
ryo	-12957
zes	-12958
▁(~	-12959
▁CP	-12960
▁Er	-12961
▁Ly	-12962
▁Zn	-12963
,000	-12964
aden	-12965
hals	-12966
mält	-12967
omin	-12968
svar	-12969
tila	-12970
vind	-12971
ömda	-12972
▁DOC	-12973
▁Tar	-12974
▁Val	-12975
▁myc	-12976
▁oce	-12977
▁see	-12978
atmos	-12979
aware	-12980
eless	-12981
fiska	-12982
rowth	-12983
väder	-12984
▁2000	-12985
▁Allt	-12986
▁Some	-12987
▁eget	-12988
▁exer	-12989
▁fair	-12990
▁höge	-12991
▁zeta	-12992
everal	-12993
source	-12994
stable	-12995
▁Field	-12996
▁Fluid	-12997
▁crops	-12998
▁snart	-12999
▁sväng	-13000
▁telec	-13001
algebra	-13002
bliotek	-13003
estning	-13004
▁Marine	-13005
▁actual	-13006
▁arrays	-13007
▁escape	-13008
▁female	-13009
▁förbin	-13010
▁hamnar	-13011
▁heltal	-13012
▁lämnar	-13013
▁massor	-13014
▁vakuum	-13015
▁vinden	-13016
▁ålders	-13017
ullständ	-13018
▁Dynamic	-13019
▁Elektro	-13020
▁cancers	-13021
▁charged	-13022
▁glaciär	-13023
▁gränsen	-13024
▁kollaps	-13025
▁natrium	-13026
▁nervous	-13027
▁outside	-13028
▁thought	-13029
▁trained	-13030
▁trådlös	-13031
▁contains	-13032
▁diameter	-13033
▁distingu	-13034
▁forestry	-13035
▁huvudmål	-13036
▁lineages	-13037
▁medfödda	-13038
▁robotics	-13039
▁students	-13040
▁ansvariga	-13041
▁människok	-13042
▁radiative	-13043
▁ramverket	-13044
▁vanligare	-13045
▁användbart	-13046
▁bottleneck	-13047
▁diversitet	-13048
▁djupgående	-13049
▁förenklade	-13050
▁inhibitors	-13051
▁riktlinjer	-13052
▁transports	-13053
▁Artificiell	-13054
▁förknippade	-13055
▁individuell	-13056
▁kvantitativ	-13057
▁signalering	-13058
▁spintronics	-13059
▁toppmoderna	-13060
▁vetenskapen	-13061
▁byggstenarna	-13062
▁intersection	-13063
▁pollinatörer	-13064
▁konventionell	-13065
▁kvantmekaniken	-13066
HD	-13067
PA	-13068
TE	-13069
az	-13070
lys	-13071
war	-13072
▁--	-13073
ermi	-13074
figu	-13075
ichi	-13076
such	-13077
ulus	-13078
uted	-13079
▁Cor	-13080
▁Jäm	-13081
▁fan	-13082
▁had	-13083
▁nov	-13084
▁son	-13085
▁övr	-13086
bygga	-13087
elska	-13088
innet	-13089
ocity	-13090
rarna	-13091
rings	-13092
▁Atom	-13093
▁Både	-13094
▁Poly	-13095
▁Self	-13096
▁gate	-13097
▁hold	-13098
▁spik	-13099
ensity	-13100
matter	-13101
studie	-13102
terapi	-13103
▁Ultra	-13104
▁annot	-13105
▁bonds	-13106
▁givna	-13107
▁kolet	-13108
▁misst	-13109
▁proli	-13110
▁ratio	-13111
▁rules	-13112
▁spher	-13113
istiskt	-13114
polymer	-13115
▁behåll	-13116
▁budget	-13117
▁kontra	-13118
▁lungor	-13119
▁tydlig	-13120
▁viable	-13121
geometri	-13122
hydrogen	-13123
umptions	-13124
▁Framför	-13125
▁Hilbert	-13126
▁cascade	-13127
▁djurens	-13128
▁elusive	-13129
▁fysiker	-13130
▁försvår	-13131
▁generic	-13132
▁möjligg	-13133
▁threats	-13134
▁variant	-13135
▁ömsesid	-13136
beteenden	-13137
laborator	-13138
patienter	-13139
▁acquired	-13140
▁adhesion	-13141
▁aromatic	-13142
▁attribut	-13143
▁elevated	-13144
▁extremal	-13145
▁koncentr	-13146
▁kraftiga	-13147
▁patogena	-13148
▁released	-13149
▁störning	-13150
▁utformas	-13151
absorption	-13152
▁Knowledge	-13153
▁decenniet	-13154
▁published	-13155
▁syntetisk	-13156
▁fördelarna	-13157
▁ineffektiv	-13158
▁likelihood	-13159
▁mikrofluid	-13160
▁stamceller	-13161
▁surprising	-13162
▁Modellering	-13163
▁Vintergatan	-13164
▁contaminants	-13165
▁continuously	-13166
▁implementing	-13167
▁neuroscience	-13168
▁automatically	-13169
▁independently	-13170
▁nedbrytningen	-13171
▁tillförlitligt	-13172
▁översvämningar	-13173
▁antimikrobiella	-13174
▁mikrostrukturen	-13175
▁physicochemical	-13176
):	-13177
gs	-13178
po	-13179
▁β	-13180
MAA	-13181
▁CD	-13182
▁LC	-13183
▁Lu	-13184
▁SW	-13185
abas	-13186
entr	-13187
ffin	-13188
nets	-13189
sken	-13190
▁Aim	-13191
▁Lor	-13192
▁Vät	-13193
▁dup	-13194
▁fyt	-13195
▁hop	-13196
▁pek	-13197
▁pin	-13198
▁sil	-13199
betet	-13200
källa	-13201
terat	-13202
vious	-13203
▁2017	-13204
▁Path	-13205
▁Phyt	-13206
▁damm	-13207
▁easy	-13208
▁frag	-13209
▁mätt	-13210
▁phen	-13211
▁sand	-13212
▁util	-13213
klimat	-13214
▁Galax	-13215
▁Reson	-13216
▁amylo	-13217
▁bitar	-13218
▁broms	-13219
▁filtr	-13220
▁huden	-13221
▁mouse	-13222
▁Health	-13223
▁Precis	-13224
▁förest	-13225
▁invest	-13226
▁nickel	-13227
▁riktad	-13228
▁underp	-13229
▁uppdat	-13230
flätning	-13231
magneter	-13232
ronology	-13233
▁Science	-13234
▁bärbara	-13235
▁decline	-13236
▁earlier	-13237
▁ingrepp	-13238
▁kraften	-13239
▁mosquit	-13240
▁potatis	-13241
▁removal	-13242
▁scaling	-13243
▁synligt	-13244
▁typiska	-13245
▁voltage	-13246
▁välkänt	-13247
accharide	-13248
bakterier	-13249
ilization	-13250
ndigheter	-13251
sequently	-13252
▁adoption	-13253
▁algebror	-13254
▁analysed	-13255
▁efterlik	-13256
▁emitters	-13257
▁fortsatt	-13258
▁magneter	-13259
▁närheten	-13260
▁purposes	-13261
▁stresses	-13262
▁tolkning	-13263
Projektets	-13264
▁Microbial	-13265
▁aerodynam	-13266
▁chromosom	-13267
▁dissolved	-13268
▁exponeras	-13269
▁photonics	-13270
▁samverkan	-13271
▁särskilda	-13272
▁behaviours	-13273
▁comparison	-13274
▁långvariga	-13275
▁precursors	-13276
▁regularity	-13277
▁ubiquitous	-13278
▁geochemical	-13279
▁infekterade	-13280
▁Quantitative	-13281
▁biomolecular	-13282
▁instabilitet	-13283
▁morfologiska	-13284
▁optimisation	-13285
▁therapeutics	-13286
▁breakthroughs	-13287
▁effectiveness	-13288
▁piezoelectric	-13289
▁automatiserade	-13290
▁predictability	-13291
Ch	-13292
PO	-13293
avs	-13294
enh	-13295
fos	-13296
▁nä	-13297
▁pi	-13298
mask	-13299
ophy	-13300
pare	-13301
unst	-13302
▁GPC	-13303
ander	-13304
ember	-13305
fasen	-13306
ferro	-13307
foton	-13308
iness	-13309
komst	-13310
kvant	-13311
ophag	-13312
yloid	-13313
ålder	-13314
▁2018	-13315
▁Brow	-13316
▁Följ	-13317
▁kern	-13318
▁skiv	-13319
▁skäl	-13320
▁surg	-13321
▁tall	-13322
▁visk	-13323
▁zone	-13324
filmer	-13325
fortun	-13326
halter	-13327
kärnan	-13328
onsist	-13329
orrhiz	-13330
upling	-13331
▁Lipid	-13332
▁Still	-13333
▁banar	-13334
▁bifur	-13335
▁crust	-13336
▁elnät	-13337
▁knapp	-13338
▁krypt	-13339
▁kräva	-13340
▁relax	-13341
▁sizes	-13342
▁trösk	-13343
▁white	-13344
imaging	-13345
▁Nature	-13346
▁giving	-13347
▁hittat	-13348
▁hörsel	-13349
▁immedi	-13350
▁konfli	-13351
▁lägger	-13352
▁priori	-13353
▁radion	-13354
▁tyvärr	-13355
▁utröna	-13356
▁wavegu	-13357
algebror	-13358
aliseras	-13359
▁Another	-13360
▁adverse	-13361
▁agenter	-13362
▁barriär	-13363
▁funding	-13364
▁kompati	-13365
▁serious	-13366
▁spektra	-13367
▁spridas	-13368
▁strävan	-13369
▁sökande	-13370
ompositer	-13371
ravelling	-13372
▁Einstein	-13373
▁Galactic	-13374
▁engineer	-13375
▁förmågor	-13376
▁oordnade	-13377
▁oväntade	-13378
▁oönskade	-13379
▁salinity	-13380
▁vanligen	-13381
mekanismen	-13382
skostnader	-13383
▁Nonlinear	-13384
▁activated	-13385
▁spacetime	-13386
bearbetning	-13387
fortunately	-13388
▁efterlikna	-13389
▁eukaryotes	-13390
▁genomsnitt	-13391
▁interstell	-13392
▁optimerade	-13393
▁periodiska	-13394
▁quantities	-13395
▁remarkable	-13396
▁signaturer	-13397
▁teknikerna	-13398
elektroniska	-13399
▁producerade	-13400
▁restoration	-13401
▁transistors	-13402
▁acceleration	-13403
▁beläggningar	-13404
▁constructing	-13405
▁förklaringar	-13406
▁kommunicerar	-13407
▁metabolomics	-13408
▁perspectives	-13409
▁fasövergångar	-13410
▁perturbations	-13411
▁kvanttillstånd	-13412
-/	-13413
ads	-13414
dge	-13415
pat	-13416
wid	-13417
adap	-13418
imil	-13419
kler	-13420
ruce	-13421
▁Jan	-13422
▁Mes	-13423
▁PSC	-13424
▁löv	-13425
aktiv	-13426
delse	-13427
emitt	-13428
erika	-13429
metal	-13430
spinn	-13431
tigen	-13432
ödsel	-13433
▁Also	-13434
▁Kärn	-13435
▁Prob	-13436
▁Sout	-13437
▁crit	-13438
▁lukt	-13439
▁olja	-13440
▁sfär	-13441
▁styv	-13442
▁sänd	-13443
flutna	-13444
ositet	-13445
utrust	-13446
▁After	-13447
▁Innov	-13448
▁Local	-13449
▁Photo	-13450
▁datan	-13451
▁front	-13452
▁inser	-13453
▁kanal	-13454
▁never	-13455
▁nisch	-13456
▁roots	-13457
▁sheet	-13458
askhals	-13459
fattiga	-13460
materia	-13461
okemisk	-13462
▁Kombin	-13463
▁bottom	-13464
▁chains	-13465
▁errors	-13466
▁funnit	-13467
▁kompet	-13468
▁kraven	-13469
▁mathem	-13470
▁spinnt	-13471
▁utfall	-13472
▁vinkel	-13473
onerande	-13474
property	-13475
raskande	-13476
änningen	-13477
▁freedom	-13478
▁ingredi	-13479
▁minimum	-13480
▁ultravi	-13481
beräkning	-13482
smaterial	-13483
▁Funktion	-13484
▁cytoplas	-13485
▁directed	-13486
▁faktiska	-13487
▁fylogene	-13488
▁inbyggda	-13489
▁ingående	-13490
▁lifetime	-13491
▁moisture	-13492
▁testning	-13493
▁återstår	-13494
materialen	-13495
omponenter	-13496
spotential	-13497
stabilitet	-13498
▁Einsteins	-13499
▁Synthesis	-13500
▁eliminera	-13501
▁locations	-13502
▁multiplex	-13503
▁pathology	-13504
▁upptäckts	-13505
Forskningen	-13506
tillståndet	-13507
▁Department	-13508
▁Scattering	-13509
▁bakteriell	-13510
▁bakteriers	-13511
▁deployment	-13512
▁kompletter	-13513
▁parallella	-13514
▁performing	-13515
▁prediktion	-13516
▁sputtering	-13517
▁forecasting	-13518
▁geometrical	-13519
▁kolhydrater	-13520
▁mätningarna	-13521
▁osäkerheten	-13522
▁värmeböljor	-13523
sspektroskopi	-13524
▁combinations	-13525
▁datorprogram	-13526
▁självkörande	-13527
▁trajectories	-13528
▁transporterar	-13529
▁kvantfältteori	-13530
▁naturvetenskap	-13531
▁representative	-13532
▁functionalities	-13533
3).	-13534
ash	-13535
can	-13536
col	-13537
err	-13538
flo	-13539
lok	-13540
▁PG	-13541
ayer	-13542
ckta	-13543
dets	-13544
dubb	-13545
ened	-13546
ofys	-13547
thin	-13548
ttor	-13549
urse	-13550
ädda	-13551
▁Art	-13552
▁Del	-13553
▁Dju	-13554
▁coc	-13555
▁fal	-13556
▁gla	-13557
▁nul	-13558
▁opp	-13559
bredd	-13560
cerol	-13561
ineut	-13562
riven	-13563
▁ALMA	-13564
▁CMOS	-13565
▁Dise	-13566
▁Pale	-13567
▁Pers	-13568
▁marg	-13569
▁psyk	-13570
ektivt	-13571
liquid	-13572
ologer	-13573
pollin	-13574
ödande	-13575
▁arsen	-13576
▁boson	-13577
▁carbi	-13578
▁föräl	-13579
ångning	-13580
▁Determ	-13581
▁Växter	-13582
▁betong	-13583
▁coming	-13584
▁deltag	-13585
▁hänger	-13586
▁kirala	-13587
▁samlar	-13588
▁transf	-13589
▁väljer	-13590
▁ytorna	-13591
activity	-13592
informed	-13593
olceller	-13594
piration	-13595
▁Baserat	-13596
▁diagram	-13597
▁exciton	-13598
▁fibrill	-13599
▁hearing	-13600
▁hjärtat	-13601
▁motsats	-13602
▁pappers	-13603
▁stödjer	-13604
ackarider	-13605
förluster	-13606
potential	-13607
ssystemet	-13608
▁Computer	-13609
▁aktivera	-13610
▁blandade	-13611
▁concentr	-13612
▁droplets	-13613
▁flyktiga	-13614
▁formella	-13615
▁hårdvara	-13616
▁intended	-13617
▁kompakta	-13618
▁machines	-13619
▁närmaste	-13620
▁positivt	-13621
▁upplever	-13622
▁Bacterial	-13623
▁Föreställ	-13624
▁absorbera	-13625
▁automatic	-13626
▁felaktiga	-13627
▁förebygga	-13628
▁förflutna	-13629
▁kontakter	-13630
▁reduktion	-13631
▁thickness	-13632
▁verktygen	-13633
▁Forsknings	-13634
▁dispersion	-13635
▁egenvärden	-13636
▁introduces	-13637
▁kolliderar	-13638
▁korrosions	-13639
▁precisions	-13640
▁samarbeten	-13641
arkitekturer	-13642
▁advancement	-13643
▁assumptions	-13644
▁continental	-13645
▁eigenvalues	-13646
▁explainable	-13647
▁generalized	-13648
▁hastigheter	-13649
▁immunsystem	-13650
▁pollination	-13651
▁Optimization	-13652
▁considerable	-13653
▁dramatically	-13654
▁hydrological	-13655
▁industriellt	-13656
▁innovationer	-13657
▁intermediate	-13658
▁laboratorium	-13659
▁förhållandena	-13660
▁noncommutative	-13661
▁thermodynamics	-13662
▁strålbehandling	-13663
▁ämnesomsättning	-13664
CM	-13665
DI	-13666
HA	-13667
Met	-13668
ben	-13669
ino	-13670
sav	-13671
uly	-13672
▁("	-13673
▁14	-13674
▁ru	-13675
dire	-13676
hort	-13677
ifer	-13678
imal	-13679
loss	-13680
obot	-13681
oflu	-13682
opor	-13683
uper	-13684
with	-13685
▁Lin	-13686
▁avd	-13687
▁dim	-13688
▁sli	-13689
▁tin	-13690
▁töj	-13691
▁upd	-13692
asons	-13693
behov	-13694
elves	-13695
etary	-13696
fälts	-13697
itian	-13698
kropp	-13699
stein	-13700
stora	-13701
väten	-13702
åriga	-13703
▁Tack	-13704
▁Test	-13705
▁heli	-13706
▁kvad	-13707
▁lept	-13708
▁linj	-13709
▁loop	-13710
▁merg	-13711
▁natt	-13712
▁njur	-13713
▁räck	-13714
▁unga	-13715
balans	-13716
floran	-13717
histor	-13718
oriska	-13719
ustral	-13720
▁antas	-13721
▁arkiv	-13722
▁concl	-13723
▁odlas	-13724
▁plack	-13725
▁river	-13726
ainable	-13727
ilitets	-13728
polynom	-13729
variant	-13730
▁Matter	-13731
▁Signal	-13732
▁chaper	-13733
▁disent	-13734
▁försum	-13735
▁oxider	-13736
▁passar	-13737
▁rivers	-13738
▁spruce	-13739
ermitian	-13740
iserings	-13741
▁abiotic	-13742
▁angripa	-13743
▁clarify	-13744
▁folding	-13745
▁jonerna	-13746
▁kraftig	-13747
▁mission	-13748
▁nuläget	-13749
▁pharmac	-13750
▁protect	-13751
▁solvers	-13752
▁tillväx	-13753
▁årligen	-13754
sökningar	-13755
▁Particle	-13756
▁Struktur	-13757
▁indirect	-13758
▁mediated	-13759
▁planeten	-13760
▁relativa	-13761
▁resonant	-13762
▁slutliga	-13763
▁spanning	-13764
▁synchron	-13765
▁troligen	-13766
▁århundra	-13767
abrication	-13768
atalytiska	-13769
▁avkänning	-13770
▁invertebr	-13771
▁isolering	-13772
▁optimeras	-13773
efficienter	-13774
▁definieras	-13775
▁ingenjörer	-13776
▁långsiktig	-13777
▁observerar	-13778
▁orthogonal	-13779
▁schemalägg	-13780
▁säkerheten	-13781
▁tidpunkten	-13782
▁timescales	-13783
▁väsentliga	-13784
▁inspiration	-13785
▁integrative	-13786
▁kostnaderna	-13787
▁mikrobiomet	-13788
▁ultrasnabba	-13789
▁förutsättning	-13790
▁kombinationen	-13791
▁singularities	-13792
▁bioinformatics	-13793
▁interconnected	-13794
▁klassificering	-13795
▁kombinatoriska	-13796
▁implementations	-13797
▁reconstructions	-13798
15	-13799
Ni	-13800
DES	-13801
dop	-13802
dro	-13803
ley	-13804
uch	-13805
▁16	-13806
▁AB	-13807
▁AG	-13808
▁GO	-13809
▁HE	-13810
▁MP	-13811
cted	-13812
erav	-13813
ocen	-13814
omen	-13815
orta	-13816
oung	-13817
plex	-13818
ulfi	-13819
▁EVs	-13820
▁Mit	-13821
▁Sex	-13822
▁TEM	-13823
▁mil	-13824
▁old	-13825
Based	-13826
iders	-13827
model	-13828
▁Bose	-13829
▁Håll	-13830
▁ITER	-13831
▁Land	-13832
▁Long	-13833
▁MOFs	-13834
▁dvär	-13835
▁farm	-13836
▁förö	-13837
▁iden	-13838
▁lågt	-13839
▁mina	-13840
▁quic	-13841
▁room	-13842
▁uran	-13843
▁vore	-13844
dedjur	-13845
ending	-13846
iguing	-13847
insyra	-13848
ningom	-13849
stråle	-13850
target	-13851
▁Några	-13852
▁Stora	-13853
▁banan	-13854
▁lamin	-13855
▁logik	-13856
▁optik	-13857
▁polyp	-13858
▁share	-13859
continu	-13860
enarier	-13861
enzymer	-13862
rystals	-13863
trivial	-13864
viktiga	-13865
ylering	-13866
▁Afrika	-13867
▁Faktum	-13868
▁Formal	-13869
▁Lignin	-13870
▁afford	-13871
▁avslut	-13872
▁deltar	-13873
▁hjärts	-13874
▁hydrox	-13875
▁korrig	-13876
▁källan	-13877
▁summer	-13878
▁tränas	-13879
▁vindar	-13880
industri	-13881
spectral	-13882
▁Biology	-13883
▁Nuclear	-13884
▁diamond	-13885
▁drabbar	-13886
▁hälften	-13887
▁kompens	-13888
▁livstid	-13889
▁reactor	-13890
▁segment	-13891
▁skogens	-13892
▁säsongs	-13893
figurable	-13894
prestanda	-13895
problemet	-13896
reaktorer	-13897
▁Gaussian	-13898
▁informed	-13899
▁placeras	-13900
▁repeated	-13901
▁rumtiden	-13902
▁underlag	-13903
blomningar	-13904
diagnostik	-13905
kristaller	-13906
läggningen	-13907
▁Represent	-13908
▁expressed	-13909
▁fibriller	-13910
▁formalism	-13911
▁machinery	-13912
▁nanofibri	-13913
▁otherwise	-13914
▁principal	-13915
▁procedure	-13916
▁revealing	-13917
▁småningom	-13918
▁upptäckte	-13919
▁Developing	-13920
▁Stochastic	-13921
▁förutsäger	-13922
▁indicators	-13923
▁modifieras	-13924
▁nervsystem	-13925
▁Theoretical	-13926
▁detektering	-13927
▁energikälla	-13928
▁förverkliga	-13929
kondensatorer	-13930
▁elektroderna	-13931
▁foundational	-13932
▁förbrännings	-13933
▁generalisera	-13934
▁immunsystemet	-13935
▁intracellular	-13936
▁transkription	-13937
▁conformational	-13938
/2	-13939
tr	-13940
LHC	-13941
▁EM	-13942
▁Sn	-13943
▁pu	-13944
Stud	-13945
fici	-13946
fråg	-13947
jöar	-13948
kört	-13949
moln	-13950
puls	-13951
▁Def	-13952
▁ISM	-13953
▁Ini	-13954
▁She	-13955
▁Sur	-13956
▁che	-13957
▁fab	-13958
▁fet	-13959
▁kub	-13960
▁neg	-13961
▁pla	-13962
erare	-13963
quate	-13964
▁Emer	-13965
▁Wave	-13966
▁Webb	-13967
▁aden	-13968
▁cris	-13969
▁gett	-13970
▁jobb	-13971
▁kvas	-13972
▁likt	-13973
▁prey	-13974
▁rött	-13975
▁täta	-13976
crimin	-13977
lanten	-13978
ringen	-13979
sspråk	-13980
syftet	-13981
trådar	-13982
▁Smart	-13983
▁avsak	-13984
▁berör	-13985
▁crypt	-13986
▁fixed	-13987
▁kärna	-13988
▁lives	-13989
▁logic	-13990
▁niche	-13991
▁recom	-13992
▁stake	-13993
▁stead	-13994
▁steel	-13995
▁walls	-13996
avtryck	-13997
förslag	-13998
implant	-13999
kluster	-14000
önstret	-14001
▁Hubble	-14002
▁Within	-14003
▁alkali	-14004
▁biotic	-14005
▁cavity	-14006
▁costly	-14007
▁inputs	-14008
▁mobila	-14009
▁orders	-14010
▁proteo	-14011
▁triang	-14012
▁Komplex	-14013
▁Natural	-14014
▁Several	-14015
▁Strateg	-14016
▁andning	-14017
▁justera	-14018
▁klarlag	-14019
▁malaria	-14020
▁skickas	-14021
▁speglar	-14022
▁utvidga	-14023
▁vehicle	-14024
▁Grönland	-14025
▁decipher	-14026
▁dominant	-14027
▁indirekt	-14028
▁kontrast	-14029
▁omöjliga	-14030
▁oändligt	-14031
▁tekniskt	-14032
▁Ultrafast	-14033
▁actuators	-14034
▁carbohydr	-14035
▁correlate	-14036
▁distinkta	-14037
▁fettsyror	-14038
▁mikrovågs	-14039
▁splitting	-14040
artläggning	-14041
▁avvikelser	-14042
▁clinically	-14043
▁detekteras	-14044
▁detektorer	-14045
▁occurrence	-14046
▁ofullständ	-14047
▁oxidations	-14048
▁signalerna	-14049
egenskaperna	-14050
▁fluorescent	-14051
▁svårigheter	-14052
▁dricksvatten	-14053
▁beskrivningen	-14054
▁karaktärisera	-14055
▁vattenlevande	-14056
▁kompletterande	-14057
▁paradigmskifte	-14058
▁simuleringarna	-14059
▁människokroppen	-14060
AO	-14061
exp	-14062
fli	-14063
hor	-14064
rax	-14065
röd	-14066
▁GW	-14067
fyll	-14068
olip	-14069
oxyl	-14070
▁Bet	-14071
▁CNS	-14072
▁DBS	-14073
▁böj	-14074
▁frö	-14075
▁rut	-14076
anded	-14077
ennos	-14078
flies	-14079
inner	-14080
rumet	-14081
umann	-14082
uting	-14083
vable	-14084
▁Even	-14085
▁Prof	-14086
▁barr	-14087
▁disl	-14088
▁dose	-14089
▁förf	-14090
▁kaus	-14091
▁röda	-14092
▁vänt	-14093
herens	-14094
pheral	-14095
urpose	-14096
ynamik	-14097
▁Avanc	-14098
▁Nanom	-14099
▁avväg	-14100
▁samti	-14101
▁simpl	-14102
▁titan	-14103
▁utrot	-14104
ectious	-14105
skedjan	-14106
▁Ultras	-14107
▁butter	-14108
▁dissip	-14109
▁drives	-14110
▁export	-14111
▁nutida	-14112
▁tumors	-14113
▁vården	-14114
▁weight	-14115
fragment	-14116
matriser	-14117
orrhizal	-14118
relevant	-14119
tekniken	-14120
▁Diagnos	-14121
▁Problem	-14122
▁angular	-14123
▁antenna	-14124
▁celldöd	-14125
▁convert	-14126
▁förutom	-14127
▁homotop	-14128
▁incompl	-14129
▁miljard	-14130
▁plasmat	-14131
▁reasons	-14132
▁smartph	-14133
▁solvent	-14134
▁symbion	-14135
▁utsatta	-14136
ilitation	-14137
▁argument	-14138
▁composed	-14139
▁constant	-14140
▁develops	-14141
▁filament	-14142
▁isotopic	-14143
▁jordskor	-14144
▁manifold	-14145
▁regionen	-14146
▁velocity	-14147
magnetiska	-14148
▁abilities	-14149
▁allvarlig	-14150
▁biosphere	-14151
▁förklaras	-14152
▁impacting	-14153
▁skadedjur	-14154
▁supermass	-14155
▁supernova	-14156
▁uppbyggda	-14157
diffraktion	-14158
ningsområde	-14159
▁Riemannian	-14160
▁consistent	-14161
▁extensions	-14162
▁positioner	-14163
▁sequential	-14164
▁antimateria	-14165
▁frisättning	-14166
▁produktions	-14167
▁Applications	-14168
▁Evolutionary	-14169
▁functionally	-14170
▁modifieringar	-14171
vägagångssättet	-14172
▁markanvändning	-14173
▁koncentrationen	-14174
My	-14175
Or	-14176
RD	-14177
js	-14178
mö	-14179
TEM	-14180
ami	-14181
ava	-14182
dde	-14183
hot	-14184
kir	-14185
unn	-14186
▁ER	-14187
▁FD	-14188
▁LU	-14189
ells	-14190
fark	-14191
file	-14192
isol	-14193
loop	-14194
stod	-14195
tifi	-14196
▁1-2	-14197
▁30%	-14198
▁Eur	-14199
▁Its	-14200
▁Mac	-14201
▁ROS	-14202
▁abs	-14203
▁bok	-14204
▁kao	-14205
▁rim	-14206
fiken	-14207
holds	-14208
oides	-14209
onden	-14210
teras	-14211
▁Fler	-14212
▁bark	-14213
▁heur	-14214
▁rhiz	-14215
▁viol	-14216
▁vita	-14217
amming	-14218
avirus	-14219
cellen	-14220
fluktu	-14221
förval	-14222
iltiga	-14223
upplös	-14224
▁Organ	-14225
▁Power	-14226
▁State	-14227
▁alone	-14228
▁frisk	-14229
▁grain	-14230
▁inequ	-14231
▁recyc	-14232
▁zones	-14233
▁öppet	-14234
energin	-14235
linical	-14236
lytande	-14237
orecept	-14238
phering	-14239
plaster	-14240
valence	-14241
▁Behavi	-14242
▁Dirich	-14243
▁Indust	-14244
▁biokol	-14245
▁bodies	-14246
▁comple	-14247
▁helhet	-14248
▁härled	-14249
▁nearly	-14250
▁papper	-14251
▁refine	-14252
▁styras	-14253
▁störst	-14254
▁svensk	-14255
▁testar	-14256
▁vikten	-14257
rability	-14258
senheter	-14259
▁centers	-14260
▁harmful	-14261
▁menings	-14262
▁opening	-14263
▁skelett	-14264
▁toxiner	-14265
▁uppvisa	-14266
▁utvinna	-14267
▁zeolite	-14268
insamling	-14269
intervall	-14270
resistant	-14271
sensitive	-14272
▁Tekniken	-14273
▁avslöjar	-14274
▁erhållna	-14275
▁exemplet	-14276
▁holistic	-14277
▁händelse	-14278
▁organell	-14279
▁ovanligt	-14280
▁reactors	-14281
▁utmärkta	-14282
anpassning	-14283
▁additives	-14284
▁amorphous	-14285
▁collision	-14286
▁intensiva	-14287
▁långsamma	-14288
▁långvarig	-14289
▁näringsvä	-14290
▁polymorph	-14291
▁predation	-14292
▁protokoll	-14293
▁sekundära	-14294
▁solsystem	-14295
aliseringen	-14296
sproduktion	-14297
▁Population	-14298
▁assemblies	-14299
▁guarantees	-14300
▁modalities	-14301
▁samhällets	-14302
▁simulating	-14303
▁unexpected	-14304
▁Preliminary	-14305
▁extensively	-14306
▁konstgjorda	-14307
▁miljövänlig	-14308
▁identifierar	-14309
▁photoelectron	-14310
▁databehandling	-14311
▁spektroskopiska	-14312
")	-14313
-3	-14314
AIR	-14315
ING	-14316
New	-14317
ffa	-14318
ssc	-14319
sym	-14320
▁GR	-14321
▁PM	-14322
▁RN	-14323
aily	-14324
aker	-14325
arse	-14326
arth	-14327
incl	-14328
▁Fer	-14329
▁Vol	-14330
▁erk	-14331
▁grä	-14332
▁his	-14333
▁lät	-14334
ddjur	-14335
gency	-14336
idity	-14337
inska	-14338
toler	-14339
▁Båda	-14340
▁Diss	-14341
▁Fast	-14342
▁Life	-14343
▁cham	-14344
▁erup	-14345
▁glut	-14346
▁kyla	-14347
▁smär	-14348
action	-14349
iktiga	-14350
onical	-14351
ptions	-14352
växten	-14353
▁algal	-14354
▁avrin	-14355
▁brand	-14356
▁codes	-14357
▁daily	-14358
▁detri	-14359
▁föred	-14360
▁shows	-14361
▁storm	-14362
▁tider	-14363
▁trend	-14364
concept	-14365
haltiga	-14366
punkten	-14367
skedjor	-14368
▁Visual	-14369
▁acting	-14370
▁emerge	-14371
▁latent	-14372
▁läkare	-14373
▁mangan	-14374
▁nämnda	-14375
▁oceans	-14376
▁timmar	-14377
allation	-14378
balansen	-14379
printing	-14380
▁Studien	-14381
▁filters	-14382
▁maximal	-14383
▁melting	-14384
▁ordered	-14385
▁treated	-14386
▁urskilj	-14387
reduktion	-14388
▁Collabor	-14389
▁antenner	-14390
▁bilderna	-14391
▁confined	-14392
▁deposits	-14393
▁förlorar	-14394
[...]
